/**
  ******************************************************************************
  * @file    forecast_temp_ml_model_data_params.c
  * @author  AST Embedded Analytics Research Platform
  * @date    2026-03-12T10:47:50-0400
  * @brief   AI Tool Automatic Code Generator for Embedded NN computing
  ******************************************************************************
  * Copyright (c) 2026 STMicroelectronics.
  * All rights reserved.
  *
  * This software is licensed under terms that can be found in the LICENSE file
  * in the root directory of this software component.
  * If no LICENSE file comes with this software, it is provided AS-IS.
  ******************************************************************************
  */

#include "forecast_temp_ml_model_data_params.h"


/**  Activations Section  ****************************************************/
ai_handle g_forecast_temp_ml_model_activations_table[1 + 2] = {
  AI_HANDLE_PTR(AI_MAGIC_MARKER),
  AI_HANDLE_PTR(NULL),
  AI_HANDLE_PTR(AI_MAGIC_MARKER),
};




/**  Weights Section  ********************************************************/
AI_ALIGNED(32)
const ai_u64 s_forecast_temp_ml_model_weights_array_u64[1417] = {
  0x7f0000007fU, 0xf5ece3dad1c8bfb6U, 0x3b332a21191007feU, 0x7f776e665e554d44U,
  0x100000000U, 0x300000002U, 0x500000004U, 0x700000006U,
  0x900000008U, 0xb0000000aU, 0xd0000000cU, 0xf0000000eU,
  0x1100000010U, 0x1300000012U, 0x1500000014U, 0x1700000016U,
  0x434b545c656e767fU, 0x91119212a323aU, 0xc0c8d0d8e0e8f0f8U, 0x2f00000000U,
  0x4b3f3c19ec00383bU, 0x2327610ffce2e81bU, 0xb24212e8f618d0baU, 0x2b2a815d07b037d7U,
  0xc1262211f31c9509U, 0xbbe19bed0aeae7f8U, 0xf200091cdc180307U, 0x7ffb36b6dcee8139U,
  0x896f79f4eb4ac2edU, 0xf8434ea90f263636U, 0x1ac7becea66930d5U, 0xf8c06920b4080becU,
  0xd6c9b9812af511c5U, 0xee17f005042f3af2U, 0xe62e0c1a25ffe318U, 0x220426f9310ee72dU,
  0x3ef5f5f5fbb41401U, 0x9f6440234f3e414U, 0xf2183ff17f2f6ccdU, 0xc511d5ed00e68121U,
  0xead9ec090e110019U, 0xdadf2418be09b510U, 0x2633b329bed68bf6U, 0xf37f18f7c5ecf638U,
  0xb510390adb0dba13U, 0xf35b44e61638fad2U, 0xcec2ace0fcd87343U, 0xeae9e20eb3f630d9U,
  0xf4d6aa22d87fb208U, 0x4939fd4e142c2d24U, 0x1afced0f4506e8d8U, 0x4307002ef033460cU,
  0xc73640fe1e061315U, 0xd31413282f0c7fbdU, 0x57e315ee33816c1aU, 0xf6ec03ff3a14bdbeU,
  0x24e94bea02fbc90eU, 0xf8f8f01a2019f903U, 0xb2fbe20efff7811cU, 0xe8e6d6f3ebf1dfffU,
  0xd9f905b504fdcc07U, 0xfffffccd000008ebU, 0x3e8fffffe7eU, 0x605fffffabfU,
  0x1b00000008bU, 0x73200000232U, 0x3cb000002cfU, 0x2439e65227f5deefU,
  0x5116f7cf2519153cU, 0xf67f171f60fbfff5U, 0x27f440c89ddfdd14U, 0xbbd7dc42eb0f0e4cU,
  0xe8fff615100ed108U, 0x9fd07ecfb143605U, 0xe7d9e5270fe18116U, 0xfef9203318fb1c1aU,
  0x2103b74cefaaedf4U, 0x30b2e01bdc4bc5ccU, 0xfb402fc678e2e381U, 0xf4e9e0392c04c120U,
  0x3f173efc811dbe3fU, 0x19f1798f10a0bcfU, 0xbf191b07c121f20eU, 0xe05a011c42efc026U,
  0xafd203126d0c2e81U, 0x4640204fabca8f0U, 0x46de9ec2630f40a6U, 0xdeed41ff43301ae7U,
  0xef69feed2866071cU, 0x52337eeb70e26b7U, 0x8a6fa50810026b4U, 0x71ef007d1bed73eU,
  0x3f09fc1c1531fed3U, 0xf0d222060d2529acU, 0xf6f6e84681400ee9U, 0x1ecd023c0504dbe0U,
  0x243517ebffd21916U, 0xe21917f22391ed7fU, 0x1af9e32dd9fdff05U, 0x2e7eee5d1cb47f0U,
  0xfa4fee419291c4eU, 0xe73ecbe2f8f34e21U, 0x43085144bc2a81e2U, 0xe153ed043a695c36U,
  0xbdc6900205cfe865U, 0xf2280df1e12381edU, 0x490b30ea2f4e30d8U, 0xb182d3fb6c4b802U,
  0x8780000ecd9U, 0xfffffbb70000005aU, 0x53d0000015dU, 0xfffffbf6000004ecU,
  0x5700000854U, 0x81817f28000006c4U, 0xc2788727b27fd234U, 0x812bb9e381ee98edU,
  0x7fe1ae7f5b199881U, 0x5981U, 0x0U, 0x0U,
  0x0U, 0x0U, 0xc111d9a600000000U, 0xe50de07fef182ebeU,
  0x6ea5b82bd87f004dU, 0x41acf62230820eb9U, 0x487f3ea2dd987f29U, 0xedde519b571f15feU,
  0x7fcb947fab49e00cU, 0x45d1be0ad9c632b9U, 0xe6aad0077faa69edU, 0x6e79f221fec4e20fU,
  0x97a87f4b453f81c9U, 0x3300dda109f7ff0cU, 0x2dd7dd3bfdc77f01U, 0x9ad0c7816e9311c1U,
  0x21d27fe525e03839U, 0x145b8192942e3039U, 0x81c88639786ef155U, 0xedbabed19190d5aU,
  0x7da1e3be1078134U, 0x684aeb81d7c08ab6U, 0xef7feed86f82172bU, 0x7fa4ba82142f4e05U,
  0xf8be409ab222690fU, 0x3b81c8670c343bffU, 0xfded369e3881a6cbU, 0xa49881a50cf035b6U,
  0x646417353e8a5562U, 0xe1a475b7597fb8b4U, 0xa1242dd7b3c1607fU, 0xd32f63223a7fa6a9U,
  0xeda9f31ea68cb0e0U, 0x8124f16bb381fac6U, 0x30030b0736510b19U, 0xffffff43fffffbdfU,
  0x4a0fffffea6U, 0x186ffffffb6U, 0x5d200000367U, 0x12fffffe9cU,
  0x8ed0000034bU, 0xfffffda900000698U, 0x2e80000002fU, 0x56dfffff914U,
  0x390000011bU, 0x765fffffce7U, 0x16500000659U, 0x10d000005cdU,
  0x7fb70cda811b7f54U, 0x816c818174816c93U, 0x1735c98156a97f23U, 0x6c8001efd8140bbU,
  0xc0059ef6fa72afdeU, 0x5bd7812e867f01d8U, 0x3d7f40dd7fd687a6U, 0x81548181e07f8181U,
  0x1781210bc681264aU, 0x817f7f7f7fa2U, 0x0U, 0x0U,
  0x0U, 0x0U, 0x0U, 0x0U,
  0x0U, 0x0U, 0x0U, 0x0U,
  0x0U, 0x0U, 0x0U, 0x81fbcd140d4de2a6U,
  0xb3119e44b566ff27U, 0x240a3ac422ef14d6U, 0x2d19a71d423bd529U, 0x858f7f5339080f27U,
  0x431140e4e713b0f6U, 0x201f0ffd5d78c9ebU, 0x815b09a73176fff8U, 0x96b1e8913fc20ef6U,
  0x28379919282b144eU, 0xaf7d8f1eef4f148U, 0x69251eb87f08f6c5U, 0xc2e21e17b604e6e4U,
  0x81e715b72f2dbdffU, 0x180257fbd9dfe75bU, 0xe2001d1dc31ed5faU, 0xe029cbcf0b18b2ceU,
  0x2631c40d9e8abe47U, 0x7fc9d183b34fddecU, 0xd17f18662359e86dU, 0xfcdbe84228aae536U,
  0x3b6cf81e04972106U, 0x3e12f107ce08ef5cU, 0x317416cdc7dfe47fU, 0xc1e9e8d939ca35aaU,
  0xefd4c619a9421c33U, 0xacc341ce217e1525U, 0x47ac770239c10279U, 0xc8c0810cf911b6bbU,
  0x57de0f55ceefccb8U, 0x25273ae36b7f00a7U, 0xa7db0850d6b11c1cU, 0x157fde2cecbfefc0U,
  0xf520d312e9270c29U, 0x22e4faf2f8dd1eddU, 0x1b44211409cbfc1eU, 0x13424021c17e97fU,
  0xd0df3cc446f708f1U, 0xedddcce6c44ff23eU, 0xef5d067ff0dc1a56U, 0xe4e610163230c1ecU,
  0xd3b71c3d300d2a09U, 0x5976039c4c2833edU, 0x2557a402f8f91a38U, 0x35d1fe810d0632c5U,
  0x6c8a503d1e7e321U, 0xdc2a1859f3f0df76U, 0x157f1b921b16674dU, 0x162fb82bf72e2c04U,
  0x5de53bddfde9e56aU, 0xc9ad508128d5f1f7U, 0xe0f638151de117c6U, 0x3346e0fad21812f5U,
  0xce5d1e1ffb36b4d9U, 0x1d27fe81461d5a02U, 0xfff8d159c5f25016U, 0x6ece10f064fdf981U,
  0xc9201b3e2fd02e3fU, 0xb7028147a4b3f9f9U, 0xfd06f64335112953U, 0x661605d4cc2237faU,
  0xc01e071ac9a6fbc1U, 0xd9fadf07ab123ae1U, 0xfcd9237c5349b77fU, 0xd25110b4c1ad522U,
  0xfa5f817dbeee22dcU, 0x3026aa5171dd9be3U, 0x83079e363d61e81eU, 0xe8430cc4040b59d7U,
  0x4b02f222c90ded40U, 0xb27317f04f30b5cU, 0x85cd4012224U, 0xfffff871fffffdbaU,
  0x7c90000004fU, 0xffffff6300000430U, 0x2820000042bU, 0x55000000bb0U,
  0x5ec000005a2U, 0x5a9fffff7c9U, 0xffffff53000003e7U, 0x11f00000f78U,
  0xfffff6c500000a21U, 0x81f6f4df000000d3U, 0xf2e738afccf6c2c4U, 0xc4563c34bee8dc1dU,
  0x81f913fc17d4dbedU, 0xb32e3c3f171e181aU, 0xbddf022e02f9dce8U, 0xf810e50b1b08d134U,
  0x812bde0205e01c3bU, 0xabb2ddd82df51f19U, 0x480f4c67eb342350U, 0x36f35217ab096910U,
  0xa2a68541c613819fU, 0xf7bb9507812e8c40U, 0x758d883b12b0fb8U, 0xf6311e51a5814300U,
  0xfcd61de044282219U, 0x9dc7dfbb30c92c1dU, 0xced28ff881c18801U, 0xf62b01edefa71ab5U,
  0x929c228f5092d45U, 0x2fd6cfbfa426c6e6U, 0x10fde6b3f3fcbda0U, 0x81ce3d0381d9951aU,
  0xf905edd8250003c1U, 0x141127e1dd08f029U, 0xbcf81c70718910fU, 0xcc020b20d4d1d722U,
  0x9e43050f010c0cd7U, 0xe6e1254ad11bd229U, 0xfb11f0bef912dceaU, 0xcbc60ed039f2cd81U,
  0xfb50a8e4110adbc0U, 0xd9efd96b44dd0a33U, 0x6ca3381573cU, 0xa75000003a3U,
  0xfffff46500000fd0U, 0x851000002a9U, 0x41000000523U, 0x7d10000038aU,
  0x7ff7bd1f000009a1U, 0x328fa26f9f461fcU, 0xea03f8e8eef7be11U, 0xfff8d51b0e1d00e9U,
  0xfbf9d1f50112020cU, 0xc723059fc5bbf0ddU, 0x881ca181908722c5U, 0x18e9e1b7949a3bb5U,
  0x4329a0a13f0fd2b0U, 0xc2e40d81ed445e8bU, 0xbdeea23cd6dd2620U, 0xe170ca54c54af5e4U,
  0x8a0fd391d5d321b5U, 0xc0bbcaade9a30acfU, 0xfe1e7f0570f6e105U, 0x7deba07232107fcU,
  0x1c1cf1e7f9221b0bU, 0xd714fc0cd900cf15U, 0xdbdfbed2e7fbf2edU, 0xb5e5d6d2d7812b01U,
  0xe0be5cce13d4cf25U, 0xe4ddb6f6f361f3bcU, 0x1152d44f9c0d003U, 0xbe1a330489a7df1fU,
  0xac1e30c2552205e5U, 0x189d81a789440155U, 0x195f9a19494b0fcdU, 0x9bd30581f6c704U,
  0x25a381a6b283e7d9U, 0xf4e9022d852dc3a5U, 0x18085dc1eb340fa8U, 0x16481aea109c8537U,
  0xfe21cdc4e72eb808U, 0xfe5ed0f379cdd6a2U, 0x1aac0a2fd636bc02U, 0xf36a2ee00b6c1ed0U,
  0xcfd8e1fd1604a781U, 0x1fee0309c9fe95fdU, 0xf6ad301612edf1f8U, 0x35140de40ef0cce5U,
  0x22810403bbe909feU, 0xf7b568db7f25d9faU, 0xec140613d44c2a0cU, 0x293bf7d6edfddbf4U,
  0xdefdccf8efd3ec26U, 0x3c1ac60930e2f3feU, 0x9f1eefd2a88b7faeU, 0xdac7b40beb381935U,
  0x4c3d3130c6c04fdU, 0x10b5dc57d6debb06U, 0xc2abb6ef14f1e8fdU, 0xe00e1bda2f51b8daU,
  0x5ecffb8969454f8U, 0x81ead51505271ff9U, 0xf8f3f8efd9ccfaa8U, 0x12a8f79b4fc5e4c2U,
  0xb822d318e8c0d496U, 0xcf3bbe1e8e2cc4a0U, 0x303a12c78131de37U, 0x4379b5b0f8bae88eU,
  0xf78af9fe9538ab9eU, 0xeb128b1ead50f87fU, 0x8576c6838b3207fcU, 0xc9e3aefa45043b82U,
  0x9dd531be3841ab3cU, 0x824e82f981ea0706U, 0x88df5bd2b2f3e18cU, 0x28eb8f1d02a2d034U,
  0xb6bdcad74860e2bfU, 0x5fa485ede918989eU, 0xc4eca3a8b5beab3eU, 0x7f46433b2a44191cU,
  0xcf0a0ae39b5540b8U, 0xceafb6b512e4c1e0U, 0x14dac027f92f1d2eU, 0x182a2e16819142e1U,
  0xa202d44c030dc300U, 0x17bc94e5b117f51bU, 0xe8310e03cc8136e1U, 0xf286f43468f9ffdbU,
  0x34b2c02012002d00U, 0x7f00fbfbe437eefdU, 0xf1e02feeee57821U, 0xecf3fd1ddc1eeaf1U,
  0xc9cdda070f3d05fbU, 0x613362500e40905U, 0x1ad7cdb935fca341U, 0xcfbe30fcc7b829aaU,
  0xf181f7a3ed34e937U, 0x11460b24a3aa33dfU, 0x1cfccd17a7af0bfeU, 0x811f463ec33d30f9U,
  0xae30551a3bdeeaa5U, 0xdefbbecabd09d8e7U, 0xa0efab23ec391e20U, 0xf3ec541c7f35d51aU,
  0x1238ffd9db215507U, 0xfb4bebdcf8ccb1bfU, 0x402ce23b7d0f430U, 0x8104d55709e6ed47U,
  0x6d25f6684248f5fcU, 0xcadfa2a49a1d88b7U, 0xd2574bd1c58bb202U, 0xd849489a2941504fU,
  0x10bdd4d9f0cc95b7U, 0x16e105c0b5019da4U, 0xed021aabe6dbadb6U, 0x4581169f2635ecU,
  0x5d4d3fe1330d3e7U, 0x2370cd038171d3fU, 0x3a1d81d78ff606ceU, 0xe5d215bf27f9b601U,
  0xbcccd3dc11ffa20eU, 0xdaf9e43dae4ac320U, 0x80ac80003510fd1U, 0x2407d70c06fcc921U,
  0xf61bf5041a3e1c36U, 0x939772cc1a7fccb6U, 0xb4f838de09787bc8U, 0xb5cd9e81379d50f8U,
  0x4cba90cbec6d6f2U, 0x9b6b2ae8bcef4b56U, 0x24e14dee2cf0e500U, 0x632cad282dbfb16U,
  0x86e502f816e91003U, 0x23e7ee1bf556c3e4U, 0xf1a827f900fcc381U, 0x2de6c58feeb8e4b5U,
  0x25d5161ef5f5bd92U, 0x9f2c13cfa0c581a6U, 0x8e953b618071411U, 0xab18d84252f7e39cU,
  0xbd811e2215b6d8ceU, 0xc1fce91853eb8ed5U, 0x9ff29a0d968db31eU, 0x621cdbf5946515b2U,
  0x133af316e2097fe6U, 0xff02fde5edf6c716U, 0xf3e5d81122290ae2U, 0xb08f304f002f90cU,
  0xe9dd9711e704f3fcU, 0xf0dae621dedaf7cfU, 0x81c13513ecd6c7e2U, 0xe1a7e2f7f60515U,
  0x7038d88114de3c1fU, 0xd49d87f1d5a72742U, 0xaa3aa10bf928c699U, 0xe462c921b9be9242U,
  0xabc5eff59aecb13dU, 0x4097f0a641c0414U, 0xde0d02f8fa33fc1fU, 0xe4207ece41ebff2U,
  0x171de004d9dfec38U, 0xb22584ab38df011fU, 0x90f8e7b7d8093cfdU, 0xcabfe6b5e181c923U,
  0xbedc05e9b6620cc6U, 0x1d2075aabeb0028U, 0xe059d91781ced9a6U, 0xf413cd1d2c371fdbU,
  0xfce7edf69f4cd23eU, 0xb700e5e5fe1aa0fcU, 0x47b0994215474fccU, 0x47db2c480eec4af9U,
  0xa65490b31086b28bU, 0x845bd781cd98aa09U, 0x6cfcfac958515cbcU, 0x4b17fdd7a0cd2ddU,
  0xcf09ec35376bfdfdU, 0x2069f5ddd2a7d40eU, 0xffc302e1ced5f72aU, 0x1b0ae61814fed533U,
  0x44d481afe847a51eU, 0xeb2020e6a3f0fbecU, 0x3b5f19d5e2d73d28U, 0x1021e5a2e1f4ded2U,
  0x76fa6fa15ec1805U, 0x2a100819fdfc0d0cU, 0xf5b5e5291e35d002U, 0xdc3321311c36131eU,
  0xf2e4d6f1ca35bd81U, 0x11bff6c64d35d2f1U, 0x57604d4e01619f4U, 0x215f1cf707cadf1fU,
  0x398981fb3adcdfU, 0xc90803e122f21aefU, 0x1d151e0fd8bb8abeU, 0xfbafd411f20d160aU,
  0x81bdd43e32f81ef6U, 0x6711f7fde9ded8d4U, 0xd53fce09cef87fdcU, 0xed0db9dbd830eafdU,
  0x4bbf5411e4301feU, 0x15d3db291ceedc16U, 0xea7fcf11efeae71cU, 0x16da001c442ede00U,
  0x27eb03cee6521018U, 0x106204f3ff4103f3U, 0x7f25d50505e6ccb4U, 0xf20bd7f7eeec76deU,
  0xe0e3eef6d813f802U, 0xcdeacf3ffa470609U, 0xdef1222009db1afcU, 0x287f470358030336U,
  0xf7c3dffe3033cdefU, 0xf70009eb2072f4feU, 0x6741104070c9a13U, 0xd8f9f422eb0db30bU,
  0xa30d12cfeb30aa34U, 0xe70b81e1a5ad012cU, 0xf6252834ab02d7a5U, 0xbbc0e1e41332cf09U,
  0x873e810b308cbb46U, 0x89c67ed5cb9084b9U, 0x94d98d89652d9ffcU, 0x8bd1f8510645888dU,
  0x4d089a0a7adcc338U, 0x9cf11601c4d47f1aU, 0xbdc332e409dee8fdU, 0xe0f6aa1be458f1c2U,
  0x1edee30c10a17faU, 0xbfd4b1e7f381aeeU, 0x4031b0d0e2cf302U, 0x144c07f1f4cb8e08U,
  0x15cef9e6e9b2f42bU, 0x7cf8b9c90fe8f202U, 0xb844e836cdcf7ff0U, 0x1bc8cdf0b3bdd40U,
  0xd9d20eefe46df2f5U, 0x5ca9e256adc1ce00U, 0x587894f9816323e2U, 0xec15ef12040616d9U,
  0xe1c50b185215a21fU, 0x777425254e2e1f0aU, 0xde081ac9d5249fa2U, 0x48b5e7814058b422U,
  0xd0dd3d3bf7fb2b2cU, 0x470803d1cfe24ab0U, 0xe9f211b5d30ca900U, 0x35819ddc031c3639U,
  0x22a9aab2f00b0a1bU, 0x8d8aa68b0b1001d9U, 0x35f84759c2fdfcdbU, 0xa8d51c05e10011afU,
  0x2af2a13d2019dfdU, 0xb7b70000ffdefa03U, 0x1ef1fde923811707U, 0x10edf9f6d2bff1edU,
  0x32a1d304a0d9ccdbU, 0x2d1ef8dadc09c2deU, 0xf7ec4bbd52fb9ce3U, 0x1e0907c8541918b2U,
  0xc9ecdd370b1a8881U, 0x2e659e1b36091f4dU, 0x16bf031ebcd2d810U, 0x9431e581ede0dbcbU,
  0xabb6ffdd1ecab6f0U, 0xdacd7f037d20f2f2U, 0xd129ebf82536fa29U, 0x52804100f06f800U,
  0xfecf06fac4b9e516U, 0xb8cdf4e2edfc2b13U, 0x81decdf1cf9aa2c6U, 0x59e8ad2a0a16dfd5U,
  0x581926a48acc2b58U, 0xba39e70d3d92d608U, 0xe1e07f0c52f8051aU, 0xf818d9e9274304dfU,
  0x1f57eb08f1d6bad5U, 0x1a15d81bdac31435U, 0x7d3ad73b1cc11802U, 0xf828e41fe48860d0U,
  0xfa89881ff335de04U, 0xc4c4df295742ca1cU, 0xaeb9487febea5500U, 0x3f6810cbffcf90cU,
  0xfef05fc00f4ea05U, 0xeb19efef01f2fbf5U, 0xecf607140dfe0de2U, 0x241b37051a0717f2U,
  0x3d208192e7370602U, 0xf1ee1cedd31211aaU, 0x81d31b6fed838edU, 0x232cbb9a30dddb32U,
  0x9f9a60e3003f2e3U, 0xffe7a98d166581e0U, 0x9bef47ced2f4f1fcU, 0x9ad5b0b6333eb938U,
  0x422ed7c9a83fcfb2U, 0x8adc460ed6e17fb8U, 0xc7c5c9ba1ae50dccU, 0x915ec16f76dc9beU,
  0xe32d2458070790d6U, 0xfff681fbb4010decU, 0xf9e70eea08fd1817U, 0x912fb030a01f3f4U,
  0xebec0f081303ffecU, 0xf81d0beffc08f30eU, 0x50e1c2befe6a9945U, 0xc50b1320d403daebU,
  0x18201fdbf7b07fdfU, 0x342a0aae09c30202U, 0xde59ca3081a3efb5U, 0xdd8416c054aabe3bU,
  0x9456b9b94a05f642U, 0x44b30517382fcca1U, 0x38f23be3944a30b0U, 0x4ae5440e2aef011aU,
  0x21cfc2d2f336c3c1U, 0x2e36ea151debe9ebU, 0x1c7fbaf0c2f5133fU, 0xcac4dc66b5a540e0U,
  0x8933b81ac8e226e5U, 0x3fa7cf2a8a58ae30U, 0xdfe7bdf081002fb6U, 0xc4da50143eec0ebbU,
  0xc6bc8fdc5eace54dU, 0xc4152daa852f8f4fU, 0x43abf711e0128781U, 0x60f91ccec5f2d8afU,
  0xcd61f30debabac3U, 0x81cd98d0d1254449U, 0x4eac8e32fec26efU, 0x16f8bdb2b8d1c60cU,
  0xdefee723aefc8ec3U, 0x1ddbd8b4f1f0c4edU, 0x21fd4f6ed2cc20cU, 0x454c2bd5f9cf3e17U,
  0x427af81d103e3e0U, 0xedae96288920bbd4U, 0xba1920159110d406U, 0xccd30f2e60058b1cU,
  0x4ff7ccd8607fd700U, 0x7f10ca19ceece2cfU, 0xd9f819edefe27ff1U, 0x1cae6dfde180cfeU,
  0xe8d2e7f80739e711U, 0xfdeaec16fbe4e6e4U, 0x54298f08deffcbbeU, 0x195c0089331e9ec7U,
  0x11db00e828babab2U, 0x4f41a5d35f5f1a81U, 0xa415f8151342cfb2U, 0xfffbb8e3de34960cU,
  0xcc3e3a310a111613U, 0x2d27f6cee4f2d70cU, 0x1681edc193f8cee4U, 0x331367ce2652c714U,
  0x9510fa34ce474714U, 0xcb2d1a1f1ff4813bU, 0xefb69a350cee3416U, 0x16eb0dfa5189ff56U,
  0x7f51d3d81d10baffU, 0x2df5be0bf62fdfe5U, 0x31715e73fd22a14U, 0xfc3be7a800e625e4U,
  0x8bdf23f481cfaea1U, 0x8bd8c1fbb9ade116U, 0x1f5a299dd1afabdU, 0xe8c22c21deeac0fdU,
  0xafe655eeaee14ed8U, 0x1ca59fbcfd5c18feU, 0xfe0519dcdd8a81e5U, 0xf311e10ebdf7860dU,
  0xaaf5e6a1aad70912U, 0xc9aa05eed6f3c300U, 0xfcf6f82bd1ed3dffU, 0xd81f2ef9c2a40cdcU,
  0xc781f7ededf8e5ffU, 0xd6cac6b50d07ff2cU, 0x92a2952cce37edf1U, 0x32e8150a69bdb84U,
  0xfecaca3dbc8fc1bU, 0x90a1527f69b1c50U, 0x292ac119b3001bd9U, 0x1723fec871fb8199U,
  0x2ad52a1bb329121aU, 0xef1deafcd34e1ea1U, 0xf10bebf711cede9fU, 0x1017ecf502d0fafbU,
  0xbdee13f807221be4U, 0xfd36ecdd190110daU, 0x15e7edc081cbf114U, 0x6c27f0a600cfbecU,
  0xfb061d280a2e0906U, 0x1339eb05f5dcd9ebU, 0xe2d4ec0af7c1cdfdU, 0xca1ccfe529fa3506U,
  0xb01711eb13c581fbU, 0x4ad5f20fdace15f8U, 0x131305d59cfd3134U, 0x414f7f123b5e505U,
  0xeae87ffd671c1200U, 0xeef1dc24ea3e070aU, 0x712e7031fe1fc23U, 0xfa0126e103fde22aU,
  0xd4dae0fc02df2239U, 0xdf506c410ee87daU, 0xd7e6d90bfad31cceU, 0xfa0612c7f681ef13U,
  0xe6e9f71d08fd01e6U, 0x6c94e047ff8eb13U, 0xc3390ffe1a230330U, 0x2526f203c6e3bd06U,
  0xf0f1d92506c4f013U, 0x2ed195b70df70540U, 0x43bc4045042f204cU, 0x11f4bc4fdea6a00aU,
  0x22e998811640a5eeU, 0x8dec061829b0cec6U, 0x3e27edb7df6a6f5U, 0xe4e081171e03e30dU,
  0xbe12000f05f128ebU, 0x4211e0dfb30bc0bU, 0x7e0a307c4f8d1d1U, 0x17de812cebb6e855U,
  0xcca71cb4c48630f9U, 0xc71ae205c80aa5eeU, 0x34a5d1d5bbe6d1e3U, 0xeecd43e37f16de20U,
  0xf133e1f4e82924f0U, 0x1e3a12d502cfe606U, 0xe7ffebfdd9b7f026U, 0x6befb7381fe0e53fU,
  0x4726e2ff14467fe9U, 0xf33615fdf4c1c6f7U, 0xc8fdaa1e3b1f1ef8U, 0xd3e0a4bee93ce20bU,
  0xc91b4ea1edcee438U, 0xca9f034d2b3e2bc4U, 0xa04bd8c5cc212b3cU, 0x7fc4e1f2bec91394U,
  0x3b2168a95c2U, 0xfffffa1cfffff4ffU, 0xfffff7a8ffffff6cU, 0xfffff37bfffffd4fU,
  0xfffffb220000103dU, 0x3b0000082fU, 0xfffff6700000007fU, 0xfffff6de00000000U,
  0x411fffffd6dU, 0x1e9000008a1U, 0xfffff93dfffff6beU, 0xbbbU,
  0xfffff868fffff87dU, 0x321U, 0xfffff4bffffffb39U, 0x338fffffab2U,
  0xfffffda000000a25U, 0xffffedd200000816U, 0xfffff972fffff91aU, 0xa1300000964U,
  0x7cb00000941U, 0x8200000057dU, 0x1a6fffff9fdU, 0xfffff83cfffffdfeU,
  0xfffffdde00000000U, 0x80100000989U, 0xd0f000003baU, 0x479fffff66dU,
  0xfffffa3200000714U, 0xda000000497U, 0x777000007c5U, 0x979fffff745U,
  0x1bcfffffc54U, 0x11aafffffb6aU, 0x91bfffff91dU, 0xfffffcc1fffffa7fU,
  0xb31fffffbd4U, 0x785000000bdU, 0xffffffb8000003d3U, 0x837000002c6U,
  0xfffffa17fffff371U, 0xfffff6430000073fU, 0xffffff8d000008e1U, 0x885000004e1U,
  0xfffffed400000183U, 0xfffff9070000091eU, 0xfffff839fffffe2aU, 0xfffffdb6000006fdU,
  0xf9e008e1fffffa5bU, 0xe00f05ecfaf70e2aU, 0xd50f0e1c34fada3eU, 0x6f9ec0f23f114fdU,
  0xed210332f8ee04d6U, 0x306f400f8e30c02U, 0x40a140ed1080600U, 0x70d1a04f7f303eaU,
  0x19e5501418ef7f13U, 0x91402000238db17U, 0xf2ef23c4f00219e4U, 0xb0823ed121213edU,
  0xf7c310d3eaf910e1U, 0xbf1a10ddef18e55dU, 0x1e2b1c293ed008deU, 0xff7ddecf6d120f3U,
  0x332d0508edede3ecU, 0xe60cf0faf3d522e7U, 0xff19213b36fae30dU, 0xb1a21faf2e40be2U,
  0x3ac65a222cdd7f30U, 0xf280ef2f145f4f7U, 0xe419451504f318d3U, 0xfdf036f71b0c2ee1U,
  0x4320bdee9e122eaU, 0xb0251cd9e730267fU, 0x7423133e534c213U, 0x1ef6dde52fde2cf9U,
  0x1b2d0cc4e7023e0cU, 0xce14eef0efd2310aU, 0xf625275e1631c41fU, 0x15252b16eed8e8e6U,
  0xefbd572fb1d57034U, 0xd3b10e5ed291e01U, 0xe1004e0fe7e018d1U, 0xfa0c3cfa1b103edfU,
  0x2033c4f9e0db341dU, 0xaf2f2edee335e57fU, 0xf44c413cec1c17e2U, 0x1e3ccf2d23ef3313U,
  0xf91e16f3eb1d3a08U, 0xbf1cede4e8da3e00U, 0xe82b2c6f0a0fae2dU, 0x20312cbae6d4ffe4U,
  0xf4c04d382dd2522bU, 0xe43fdd7c62afae7U, 0xe4f93fe116df1dd4U, 0xf82b3bf8191649dfU,
  0x4a47b719dae83fedU, 0xb03c46e7dcf3ed7cU, 0xf659524cb713242dU, 0x1bfece2539d43f2fU,
  0x1f122626ec3ed21eU, 0xb82de5d6dfdc4a13U, 0xd837357f1327a141U, 0x30373b1eddcf1be3U,
  0x1c8403fedce3823U, 0x54ee8c8d8063df9U, 0xe7d031ddf9d62bdaU, 0xf92341e3192150e3U,
  0x7b132c3f33104f31U, 0xb44a61f5d7473974U, 0x1c60675333583203U, 0x2e2d526d0405059U,
  0xf0064007f069df29U, 0xc440e2c9dcd554feU, 0xc145447f49019b5aU, 0x483a4c3bc6d116dbU,
  0xbed13b4adbc40717U, 0xef58c4b20411fcd1U, 0xe0301fd5d0d245e8U, 0xf7cd49c51d3c55e5U,
  0x7fd2f64be04d5f2eU, 0xd03e5405dccf164aU, 0x1a474b3911481a3bU, 0xddf3fdf93d20425fU,
  0xce0045f1fb67142eU, 0xe442edcee4de3f03U, 0xc140395ae11fcf4fU, 0x44224324c8f51fe5U,
  0xeeec2f37f1cfe513U, 0xde47b8b6f508e2eaU, 0xe32a1014efd24cf9U, 0xf9c343ce1c3c42efU,
  0x7dede650216f4f38U, 0xe632450de0e9fe2eU, 0xff332c1dcf10ed1aU, 0xcbe80132df063a55U,
  0x7034cd40166041aU, 0xb41f0d9edde2dfbU, 0xc93c3a3add1c0943U, 0x420437d0cf0302f0U,
  0x12fc1826e0dce213U, 0xce3ab7c10b310dc4U, 0xe20207dac7d54d01U, 0x6d139cf1c372cf2U,
  0x7d2904550b7f3ffaU, 0xf32f4116e60f0d17U, 0x1628100410232e2eU, 0xbcf0e013e5fc3d54U,
  0x7064e04065ff61fU, 0x1e42f8e3f2de28edU, 0xd0403d272624343dU, 0x42e6380ccc19f7eaU,
  0xe4f70b16f9d4d11eU, 0xc535bac605f60dedU, 0xe7290422f7d4510fU, 0x122c45d31f1a24fdU,
  0x7f2032601a7f3909U, 0xf627341de8f5220cU, 0x1b25f0e3ffe6fe3dU, 0xbf2ce719fce34356U,
  0x8f25516f960f200U, 0x2b43f5e6fbda2307U, 0xd5424c200d224e3bU, 0x4bc73712d325feeaU,
  0xf9f51c121cc8d02cU, 0xbd3ec7c512182ad1U, 0xea0708d7b7cd4c18U, 0x283b48df22001c0bU,
  0x7fd0ef6d167336f3U, 0xfb293321e8c8feeaU, 0x272dd3cd1e02d504U, 0xd907f92612ed4e54U,
  0x27eb67d7fb641013U, 0x364800f201d7241eU, 0xdb496014df476f3bU, 0x51b33d2de241c8eaU,
  0x28e32a05e3bfed51U, 0xbf46c6c503f70ba8U, 0xea2411cdf8c24c23U, 0x3e205eed27d01b0bU,
  0x7420de7e04753930U, 0xf72c2a26edc6e7d0U, 0x4238b9ac0be8da21U, 0x1c00b821392a4150U,
  0x28e578c9f65ad9ecU, 0x3253f0f6f7cf20ccU, 0xed4e78fb25317f45U, 0x5a9e4cd2e73ef1e2U,
  0xad13dfd30b6ed71U, 0xca51ddce2227decfU, 0xf2fc20e808c64226U, 0x63e369eb34a52214U,
  0x41d00b72e463410cU, 0xf51f1c1be803e1bbU, 0xd03dbfaa31da20e7U, 0x4dfdd4f73432373cU,
  0x3ae065fff052fe0dU, 0x1158edf7f2dd23c2U, 0xf4367cef26364a49U, 0x51b953d1fd35c7ebU,
  0xebce67fac7c80f7fU, 0xf046f4d64637e4a0U, 0xf91a24e9ccd3241eU, 0x54145afd3fa81f08U,
  0x1a13f263c15c41d4U, 0x8121b2ded0cd6c4U, 0xed41d7af16dffbf6U, 0x79d2da120816363cU,
  0xe0de57f2b63603e9U, 0xc4dfe07fee02c04U, 0x43275f1e5353645U, 0x40c05ce9fe3105e1U,
  0xf3c177f409dc307fU, 0x734f5d93fecd5b3U, 0xfff506e2cce20c33U, 0x74de3c014e9a2307U,
  0xf6f31346002842d9U, 0x50d131fea00dccdU, 0xf39e5bd1df40531U, 0x5be1f8faf70c1b25U,
  0xe5ec42ddb33107f9U, 0xff38f501f1ed2908U, 0xfb2755fa230d0c48U, 0x37d74e0af006d0eaU,
  0x29ce66f50df7347fU, 0x22ff8e4f021ebefU, 0xff0c01f4e8ecf521U, 0x5e1330fd37cd1500U,
  0xdedf1e38d8153721U, 0xc161220f01707ceU, 0x1a4702b8ef0de5e9U, 0x6df9e629f8130f1cU,
  0x10ec39239519fb22U, 0xfa32fc04fdef2bf6U, 0x12a4ff6d913fe4cU, 0x2de74d07e9e7ede8U,
  0x16d769f71e0b357fU, 0x22de1ef07220feaU, 0x3d2e627edf8ed26U, 0x652d23fd3ddc1f01U,
  0xc905e42b07083fdcU, 0x315051cf21803d9U, 0x1e4af7caeae61920U, 0x4bfffffaff09171aU,
  0xfcfe2d1d931500e4U, 0xe0240e0501f82a22U, 0xc234df71525ef4dU, 0x25f45728eef10ad9U,
  0xd97fff22063860U, 0x328dffc1feafac6U, 0xfcfcdd070409f11fU, 0x51ee23003cf02bf8U,
  0xafdcf436fce34112U, 0xfd15150fee0be5e2U, 0x213c01d6f213d405U, 0x27d6d73f2a151613U,
  0x1b052b23892e1dceU, 0xd61bf20009f42eedU, 0x172953f12b130350U, 0x20fe59e4e4cfe7edU,
  0xe3db7ff42818476dU, 0x132cb052bf2dad4U, 0xfb0fc4eefd1ae90fU, 0x4edd1ae847131be9U,
  0xbf1a285123fc39d9U, 0xfb0223190f2d10daU, 0x1b48ccdff0f4e508U, 0xedf21648e4e40138U,
  0xf2ec0e0481451bf0U, 0xd127f80207ee2bddU, 0x20205712ed4c083cU, 0x24083df5e0f2d9d7U,
  0xe0de7106ef095968U, 0xf12bfc12ee36f603U, 0xf4dcb7db002bc610U, 0x3b0724bb32e638fcU,
  0xd5cffa5612f62e03U, 0xe70220fe0c3b0de8U, 0xd747b9bada35ea07U, 0x97ce1ff80ed2ec58U,
  0xd5f812e88136d8d7U, 0xd305f0eafaf61b32U, 0x500e5f031e3e1a2bU, 0x25f4313ade0119c8U,
  0xd2015405eeee4b3bU, 0xd022081830edf8d7U, 0xd9f29c2bff42c5e8U, 0x33cdfcd92aea3004U,
  0xfe1214cdabf25fbU, 0xebea051c1405e9d0U, 0xe50fa8c9dbffdb24U, 0x8105042af9e0fc62U,
  0x24f9f626dd38fad5U, 0xcee6d3dc1bfe05f7U, 0x1df52309e4060712U, 0xce30223e917f6b8U,
  0xf064a0f0cd644f5U, 0xdffc1cef1a201e1bU, 0xcf2ec003cb2cd2dbU, 0xed0af0a822dc2320U,
  0xfd12e822ff07efeeU, 0x9d30a211b1bf0deU, 0x9eeb0e2f801f7f3U, 0x81fe0dfdf0e7f152U,
  0x1ae0e4f10df3130cU, 0xfcdaf0f825ecfc0bU, 0x2dde06fc070afb08U, 0xfaee04eaef0ee5c7U,
  0x15033afc17c63901U, 0xe0f32b0509fc0e12U, 0xdc08ece70115dedfU, 0xd3e8f8e41ccc032cU,
  0xfa02120b00f8f30fU, 0x1dd6f84d150cf1b8U, 0xe8fb8dd2fef40c11U, 0x8101fc0ae80fe273U,
  0x9e9ee010eecfdfaU, 0x4dad8ff2df7f603U, 0xcd601ecfd1809f8U, 0x9f2e90b082409d2U,
  0xe1b4ce1f6ba29eeU, 0xfae43dfb180e0e1bU, 0xdffef80efb14e8f5U, 0xbbf1f4dbfacbf61fU,
  0x604ea0eU, 0x0U, 0x0U, 0x0U,
  0x0U, 0x0U, 0x0U, 0x0U,
  0x0U, 0x0U, 0x0U, 0x0U,
  0xffffefbb00000000U, 0xfffff75affffebcdU, 0xffffff1efffffd14U, 0x745000008c5U,
  0x6c00000242U, 0x679000007e6U, 0x94affffffcfU, 0xfffff8d8fffff657U,
  0xfffff884fffff3ebU, 0xfffffb9cfffff4aaU, 0xfffffe02fffff902U, 0x2e900000672U,
  0xf0659e700000000U, 0x3e26d9e50d7f0e2aU, 0xd1f60dd5d22a673aU, 0x8ec354c93f15f9f7U,
  0xc1c2ac98e2a3b6c3U, 0x1c813ab1bb36efb7U, 0xadea86814eb3a4d3U, 0x2b01bdde2e30f54U,
  0x9e02e3ed2c186c3U, 0xa3f5ea9fada0ffaeU, 0xe7c697bc31e5d516U, 0xdc9881f2a328fccbU,
  0x1116f35beb39b2ddU, 0x9cc5bfefcc6b0293U, 0x15ebf9b411fd2e64U, 0xc0b375e93a7f2ef3U,
  0x98ca1ebdcd1881ddU, 0xa9c090e9bb03ff3bU, 0xc2e8ed0c56e782fcU, 0xdeeb068195c5890fU,
  0x822a0d5cd1141df2U, 0x6127c3072022d197U, 0x43480fb12e77b0c9U, 0x2c47191c9bcdf38cU,
  0xcafd81bb81ef8663U, 0xac8ba9a84d31caeU, 0x38e9d838b89e9f1dU, 0x9ec210c0aba428dcU,
  0xa7ed819ce545cef5U, 0x19e5a0f7e726ffa4U, 0x20082e1e5db538a6U, 0xe389d0810956bfefU,
  0x5343291e2f32054eU, 0xd02224c3334e2211U, 0x25c4a8d1e4398112U, 0xbef21de43a924ef5U,
  0x285de8261fed591eU, 0x283c0b34405013ecU, 0x4f2781f19d15b305U, 0xf37720ef2a350bebU,
  0x1f1c1045223e831eU, 0x4171810adb2aeeedU, 0xc04e0310c6d5282fU, 0x42fe90f4a1e9971bU,
  0x59d4dbd3d688029eU, 0xf80cedb881f61f8eU, 0x481bbc343693ae4U, 0xb0eb698b962d5b26U,
  0x81cb009a6e464c90U, 0xb6879d2aa1f18e1fU, 0xae862cb6d2e19540U, 0x7ffbe918229abfb6U,
  0x1344ecdef7327512U, 0x3637d7ebce36e842U, 0x1dad12c6113306ebU, 0x5fd020f1f63cc957U,
  0x385b234f14d3cd84U, 0x6439cc2c81cd93d5U, 0xa1c1c6c0cf47ff0U, 0x3be7bfec080eda46U,
  0xdd12e630fb48fc1bU, 0xeb92e891bf1b3f23U, 0x4134c9ca24cb9881U, 0x4c4ec2b2a69ce6dbU,
  0xc858b53495e4b36fU, 0xf641da61815649b3U, 0xa0337ff2aa1b85a0U, 0x8a0ea8f1b4edab0U,
  0x9f5305cf51f271e8U, 0xee48f744d6360c01U, 0xc852783fdd0a0d3U, 0xbc0d89df0f9fe7daU,
  0xeae3fd0e81f4fedaU, 0xfab78191cddec7d4U, 0xdb4430c106df2f53U, 0x6249870d266e3705U,
  0x34420c1c373b6b0cU, 0x6808d5fec1128125U, 0x30edb8bcf5f01339U, 0xe3d6b4dd081b39b2U,
  0x9c313419cfba812cU, 0x6a2bb732db9a00c8U, 0x3664c4f13c4a7ff8U, 0x49269c1fd606ab48U,
  0x7f2be6fa365710faU, 0x45433d1311dc47f8U, 0x1c23c801fef9b2ebU, 0xbcf54097f7e00e24U,
  0xbeff9f2b06e9efcU, 0x987f1afe2bd44ac4U, 0xc019f12615d11815U, 0xece347f0e60de6dbU,
  0xc6aa2947811cc63cU, 0xd51240f1eec0a29fU, 0xfabda99ee1ef81caU, 0xc5e02ee12af42dfeU,
  0x25a5f80bede62b2dU, 0xbbe781f1a286ed26U, 0x10c4471a8d952a25U, 0x89d8a6f2a64197bbU,
  0x5afeee0af1e5112dU, 0xd81c04b201c781d9U, 0x7fc60c141e230ec1U, 0xd4a5e73a7b8b6562U,
  0xce7841579c8c8585U, 0x9eef5104fe8eceeaU, 0x19d3a59c1b3581d3U, 0xd7f000e41cfa6719U,
  0x6f4aacfbccf059f6U, 0x537f764f46e16b27U, 0x63d401fc27fbb847U, 0xa5d2bd041c2ed913U,
  0xb69f9721dd40d8f9U, 0xcfedb6e3ebcd19e4U, 0x7f4ed9450a1c81cdU, 0x404dc21ffc057830U,
  0x3622ad05bf40bd3aU, 0xf4ddf5ff3f310b26U, 0x1e040be5d6c3fd0aU, 0x81d138091def1ec6U,
  0x7ff5f41d1dec040bU, 0xf94c324df92a5111U, 0xfc06d9f5f6ebe50eU, 0x7f34be4b2d180609U,
  0x1f65c2ce26326d1fU, 0x54cc5269d4ad458U, 0xdf0c0ce10a62fc1dU, 0x32f09a984e0f2U,
  0x86812be140df4eafU, 0x9e32d29a2d0ce600U, 0xbe55ce2b81cca2abU, 0xcac6f8c0a7c6ab8dU,
  0x2afe0e2854271888U, 0xf5f616527f2671f4U, 0x764c411a6c0f10e3U, 0x763881e1a4900acdU,
  0xe9e8263dd9be5dedU, 0xcb00102d9eabae3U, 0xdff05e9fe8cc1828U, 0x5a25cde305e2f404U,
  0xdcd200e523c66c81U, 0xae1211f04e1b16c7U, 0xebdfccc3ea5581fcU, 0x170f3b181ddc482fU,
  0xffffff6804fa25eeU, 0xfffff3e5fffff545U, 0xffffff08fffff67fU, 0xfffffb4500000000U,
  0xfffff74600000000U, 0xfffffabefffff8c7U, 0x9fc0000098fU, 0xfffff84800001077U,
  0xfffffbabfffffd76U, 0xfffffe3affffff73U, 0xfffffa290000059cU, 0x975fffffa12U,
  0xfffffb63fffffc1aU, 0xfffff95f00001172U, 0xe8900000805U, 0xfffff73e0000089aU,
  0xfffffcd400000564U, 0xfffffb63U, 0x4a5000006c3U, 0x820fffff82eU,
  0x60f00000557U, 0xfffff761000003d3U, 0xfffff6e2fffffb8aU, 0xfffff531000013b7U,
  0xffffff4fU, 0x0U, 0x0U, 0x0U,
  0x0U, 0x0U, 0x405d72100000000U, 0xe3252209ef02231bU,
  0x3f0d5cf5fce3ec81U, 0xa4111c02ef3207e5U, 0xefafb1cb321e13aU, 0xdcd21615cac71833U,
  0x24dd0b3112e377a4U, 0xf30b10d8e5e6ec1aU, 0x490253f602121981U, 0xa816ca2d19fef408U,
  0xc618f4e3b9ede10fU, 0x15bb1b22d7d1e607U, 0x2ed420f8d0ed1095U, 0xc008ee18e1ebf536U,
  0x6e0844e71dee2b9aU, 0xc9fb9126f3f311efU, 0xfddf04d8b0edace4U, 0xfcbd2d10eeee2c1eU,
  0x2af5010fb1d62181U, 0xc50606dde706f017U, 0x5eff3f1a172422c3U, 0xf6078f1d06081526U,
  0xd10415e6c005dabcU, 0xe8b25329e2d71c32U, 0x16150508c7ca1d81U, 0xe522e9f60d0ae71eU,
  0x27e45b1109ed0ed4U, 0xee1f8c2610f717e3U, 0xbf240510bb03a7b0U, 0x2097635ff80ff618U,
  0xedd6fb16ccc80981U, 0xc60dea0b22e5d82bU, 0x4a1561022ff7fcd2U, 0x3621a42f01e1ff03U,
  0xbdda092fd5e0b389U, 0x1f815462eb1bfd1dU, 0xf0fdfe1ed09feb9eU, 0xc7f614270fdfec1cU,
  0x5a0362152ff9efe4U, 0x26fac70d0ed8e91aU, 0xcee006f8f9f8d581U, 0x14a15d33f23fde46U,
  0x14fa11f4c596d0b6U, 0xd222f82ad5e8f40dU, 0x5a2a5f1e0cf1dd04U, 0x6315c91118e2320dU,
  0xd70e12eabf03c29aU, 0x1e816356f13f1a3dU, 0xe4ee0507f39d9acaU, 0xcefef611df191a03U,
  0x322760fa0fe7da10U, 0x4a03e02a0feaf40fU, 0xd603ee1ed705fbd4U, 0x22a15954c746ea2dU,
  0xfbd6dde5f29381ffU, 0xe021d91cfdfff7f7U, 0x39f53d0f0c19d80dU, 0x5423fa0903ce0cecU,
  0xebe4e411c2ecf3dcU, 0x23bd6f2be1291433U, 0xe6f6e7e6f5ba8105U, 0xbfe8fdffde060321U,
  0x25f07520e022d623U, 0x5104fb0c00fd00fdU, 0xc4e418fce5fbefe6U, 0xfebd5334e249df37U,
  0xcd105ed05c78127U, 0xc402dbff1eebdff9U, 0x3b137000e70dbf3fU, 0x43221f05eef90dedU,
  0xb11a1bf8ca13eef0U, 0x17dd6b23e3430610U, 0xe6df14d8fbc38142U, 0xdb1723fbf013eb0aU,
  0x4b244af2fde5aa6dU, 0x4e001c02ecd1ebe0U, 0xbafcd319c8d6fb0dU, 0x12ed7610c17ed023U,
  0xf50befe6c0cc8155U, 0xab292416dad4e5deU, 0x51e864f8cbfaaf7fU, 0x6fdb3dd0d5ddf532U,
  0xbeecfadef40ec8feU, 0x109731cca5e2537U, 0xf4f216ddcdf8b04cU, 0xd0051ef210fa20f4U,
  0x49fa51edd721bc7fU, 0x6c0337de1adad921U, 0xb413e407ec1fda22U, 0x211535fce06d0230U,
  0xfded8dddc0ae333U, 0xd205fb1a1203ff03U, 0x15050fe5ec13c67fU, 0x60df55d9eedbf924U,
  0xb91eecf8eee4e21eU, 0xf81b501edb4a172fU, 0xe0808f4ea1a062aU, 0xc3faf0e9e90b14fdU,
  0x28ee1ef8dbe9da7fU, 0x5f1d4ce3ffd20203U, 0xbef01512fd02ec28U, 0x19283315fc381a1fU,
  0x111faf2d71f2b1eU, 0xe8e6fa121418ebeeU, 0x2ef705f3f1f4e77fU, 0x42124fe9eccb1105U,
  0xbe1ee911e906f62dU, 0x1f293908fb3ff01eU, 0xf50cddf5f2243b0cU, 0xc3e7ee00181cf2deU,
  0x251dff14dd19fd7fU, 0x511a44e2f8e3dff0U, 0xcdf901eae5090047U, 0xe93d391c064df825U,
  0x9fffd0ced0e5bf3U, 0xebdd21060603f0e4U, 0x1204fee8f20d217fU, 0x390e3dd51aec1e00U,
  0xcb0a20e9f8eee760U, 0x6494427f74b232eU, 0x1618fc02bd0556f4U, 0xc9d52bd92df2e116U,
  0x240f12e9ccff5c79U, 0x65f353cf15d6ff14U, 0xb9e201e3de0b0a65U, 0xf64a255e35350ae8U,
  0x1ad44bd8b7fd7fe1U, 0xe8b3f8352aff09f2U, 0x24c6142e19287f5bU, 0x41273ea5d919ef24U,
  0x9cee0218fce8296cU, 0xfa3328442844fb23U, 0x18230101dfff59b1U, 0x7dcf6e40011e2d9U,
  0x1eef0324f2167f2eU, 0x2b221af10cfd111fU, 0xb5e11321dceb0551U, 0xa2a01443c36e5e7U,
  0xcbfe31e4U, 0xfffffdfdfffffb4fU, 0xffffffcdffffff40U, 0x21c000001e2U,
  0x29000000b4U, 0x1970000026dU, 0x26dfffffff4U, 0xfffffca6fffffcb6U,
  0xfffffd5afffffaf4U, 0xfffffec6fffffc69U, 0xffffff19fffffe01U, 0x354000005abU,
  0x6a8U,
};


ai_handle g_forecast_temp_ml_model_weights_table[1 + 2] = {
  AI_HANDLE_PTR(AI_MAGIC_MARKER),
  AI_HANDLE_PTR(s_forecast_temp_ml_model_weights_array_u64),
  AI_HANDLE_PTR(AI_MAGIC_MARKER),
};

