/**
  ******************************************************************************
  * @file    forecast_temp_ml_model_data_params.c
  * @author  AST Embedded Analytics Research Platform
  * @date    2025-12-03T07:44:26-0400
  * @brief   AI Tool Automatic Code Generator for Embedded NN computing
  ******************************************************************************
  * Copyright (c) 2025 STMicroelectronics.
  * All rights reserved.
  *
  * This software is licensed under terms that can be found in the LICENSE file
  * in the root directory of this software component.
  * If no LICENSE file comes with this software, it is provided AS-IS.
  ******************************************************************************
  */

#include "forecast_temp_ml_model_data_params.h"


/**  Activations Section  ****************************************************/
ai_handle g_forecast_temp_ml_model_activations_table[1 + 2] = {
  AI_HANDLE_PTR(AI_MAGIC_MARKER),
  AI_HANDLE_PTR(NULL),
  AI_HANDLE_PTR(AI_MAGIC_MARKER),
};




/**  Weights Section  ********************************************************/
AI_ALIGNED(32)
const ai_u64 s_forecast_temp_ml_model_weights_array_u64[523] = {
  0x0U, 0x0U, 0x0U, 0x0U,
  0xf41c0dedfdf3e1faU, 0xd8e8dc4dfcfaf8c0U, 0xfa6c4d8f6e920d5U, 0xe437c71661237fe3U,
  0xcfd2d2cdf2145e6U, 0x5ae9ecb0c4d0d603U, 0xbce708193534db1aU, 0xfbd181560e358f00U,
  0x81aa31cf49eb3a09U, 0xc0261f15e3ebeaa4U, 0x31d27de578cdc6e6U, 0x40aeaacc4c013340U,
  0xf5d02628a2bfe1e2U, 0x2616553818e36b96U, 0xabdac1a906fbc5f3U, 0xc6200281bfb92b02U,
  0x9d913f217b12f7cU, 0x230d639d7f18ff01U, 0x36de8fef16489de2U, 0x97fdd8b33c31dec4U,
  0x81dcfdf2f37163f2U, 0x5fdea928f61013fcU, 0xfbf41edf3ae1f454U, 0xf901ff00d91437f6U,
  0x68b423b814e850e1U, 0xf613f039d1d0c121U, 0x7ff3d160c7ff1002U, 0xc4353b23faddde3dU,
  0x1d9ce4eee1c611a1U, 0x1e1a7c1928f82b26U, 0x7e51d84bbed8f243U, 0xe72f186775b3de7fU,
  0x10ea2a067d1c1126U, 0xd48edbf1dafae131U, 0x21c44f021328110U, 0xfbd45df32137039bU,
  0x8ceb4461a6670b28U, 0xbd1ccb05c251173cU, 0x15223bf51f26cf81U, 0xb2317d0d3eb568fdU,
  0x96f1f4fcebd3d518U, 0xbdc7681b81c04560U, 0x3ae0a7aaa3d3e3e3U, 0x2309237747f2fcd8U,
  0x2029c4302ef7efeeU, 0x153358c24e16db07U, 0xe6161d0bf12bda33U, 0x41fc5810710dd28U,
  0xa9d614154c3bf9f0U, 0xe5ecbd84810833ffU, 0xc8352b00fe0323daU, 0xda0917acd0e34bbdU,
  0x2149c9e300dbeb2fU, 0xd27027ebe6d91cd7U, 0x1fbfbd18811efdf4U, 0xbd062714102ffdfcU,
  0x184481164887bb19U, 0xf7354aea231bfbb5U, 0x1d3bc320f2fc1bd3U, 0xc1ebfa09c12eef06U,
  0x10101de7a8003339U, 0x15c33ad8080481e1U, 0xc0e1e61eccf40427U, 0xfad2f106010bd32aU,
  0xd3bedb103125113bU, 0xbd32db267ff605f7U, 0xa4a405d9f4d5d153U, 0x104ec0ba23e0fce1U,
  0x171feae8f0f01890U, 0xc6caeae0fc1ecf35U, 0x4d4011baf0218147U, 0xee3926f9eddfef18U,
  0xcaf27fdc3e21ecc9U, 0x9d10d4d2f54e1f0eU, 0xdb16e3654ecc0211U, 0x1e9d450ea53f0be7U,
  0xbd10eb0a0e3e3a38U, 0x56170acc1dc7d2dcU, 0xdab13608f030ba7fU, 0xe6d0963b34075eb8U,
  0x51b04f86033e31aU, 0x1d0d03013d310522U, 0x25b3def50bf5150fU, 0xc1f5118118fbbb2aU,
  0xcd127f5f56cc1861U, 0x6f28f159c94d23edU, 0xf21a00914f4bb0dfU, 0x2f3ec9fc0ee01f01U,
  0xe906d8de5df8f2d7U, 0xed6e4d8ef2b273bU, 0xe6201cb9215b03b8U, 0xff0d2d6381deef2fU,
  0xb1edcce328d4f0f0U, 0xeeefbf7fc1d7c92fU, 0xd13b39f642512338U, 0xff022bf510030214U,
  0x52d89624a581e9a6U, 0xb90acae7ce3eeffaU, 0x3eb30acbe81c4745U, 0x584ff3ffe1dab9eeU,
  0xff3dc7f40e51a2aU, 0xe317490243c0d8e0U, 0xfaea9e25c7dbc5f8U, 0x20441fae10e378cfU,
  0x3f49e3daddf92e06U, 0x221f1249d0f6e2f4U, 0xb519bb10d2b2f9dcU, 0x2ce4b8fffd85f781U,
  0x281de2f0251642b2U, 0xf46672fc38e7e6c7U, 0xd781fd6042e0c964U, 0xf2f90de545e31aeeU,
  0xa2e511d4a31bcb25U, 0xed819a6fe09752baU, 0x1be00e4ceef302fbU, 0x191d0f2fffebcbe9U,
  0x7dd1ce5f3e0fde5U, 0x2cc4d903d954f32fU, 0xf31e4231e129c281U, 0x6dbe90dab3703dfU,
  0xd645ca290c15f800U, 0xd6e4d6452a13fc41U, 0x2fd49148a1edb1eeU, 0x25a2f1a3e6dc7f4eU,
  0xee334138e4dedaf0U, 0xdf19043206f514f8U, 0x39e2e53123012b04U, 0x8133e51c020a1dd0U,
  0x0U, 0x0U, 0x0U, 0x0U,
  0x0U, 0x0U, 0x0U, 0x0U,
  0x0U, 0x0U, 0x0U, 0x0U,
  0x0U, 0x0U, 0x0U, 0x0U,
  0x0U, 0x0U, 0x0U, 0xc2b9afa800000000U,
  0x38cbb132c6c4f0d2U, 0xe69a27f048cc2239U, 0xdaf6a4815a0e43bdU, 0xb695d390a8135963U,
  0xfcb6342d587f9ad1U, 0x3202f09d4d31522U, 0xfddcded9f5f52ec9U, 0xee3bfd2afb0f1a09U,
  0xf7f6041efe81e415U, 0x1df497f000f7e001U, 0xe1f63ab4f4b90be4U, 0xc80b1e812d481fd6U,
  0x32245fa350aeb05U, 0x27f4f6350305a2f6U, 0x21bcf4f51ce307fcU, 0xee5632e206da1a30U,
  0xec20bde1e9117f44U, 0x1d0065e3e21f7f3fU, 0xf1e026103a05c599U, 0xf41b3faee1f9fdb1U,
  0x811418291b2ddd48U, 0x8ee715fc0d28f22fU, 0xe51b64e8b308c4e2U, 0x7f32eef5119f151bU,
  0xfa1811e74ce7f6edU, 0xbf02bcbf6bcf6f3U, 0xccbac50adf19141dU, 0x13a90292e6c78123U,
  0xf23cbe02b41673bbU, 0x271e17e061945302U, 0xf39bbdfc12dbe37fU, 0x441ddabd080006b9U,
  0xb988fff541bfd261U, 0xbfdbea49bb75719U, 0xbeb9e5c72b28e904U, 0x577f057e05c96313U,
  0x63ffe1843467f25U, 0xc8d2e732fceae481U, 0x871cb846c97f9cdU, 0xa91e05cc0fdce131U,
  0x3831e95df53fe8a6U, 0xdc7fce2a1120ec0cU, 0xe3520bede632ce1eU, 0xab14054350e060f8U,
  0x8130f9541e9707dbU, 0xd10be3181bb9e000U, 0xf803d616e3253e4aU, 0xf106f0f681e01a4eU,
  0xeada1a0deefc0612U, 0xeb13e0fdfd05e20bU, 0xde7f2f55ee9c05b3U, 0xbc94eb52debe01f7U,
  0xcff0609621a0d6f9U, 0x21130ff829c313f3U, 0x25e5f32e1b552107U, 0x4204342f06eff9eaU,
  0xe427d40c7f05d6baU, 0xa501e15f6f3e2308U, 0xfcafdba82e08103bU, 0x1e082adf1c7fbe41U,
  0xf015f542042214faU, 0xc1f8de4339c51c92U, 0xb5d94d8103224a46U, 0xf4305ae103881904U,
  0xdd14f23deffa6890U, 0xd57f4fff27a33038U, 0xffc9b413df6070ceU, 0x62025f62ff2660dU,
  0x7e94f00489b1fbbcU, 0xe4ea1fef8117aafbU, 0x3ce8def44817f607U, 0xc70f9f3213d04398U,
  0x2f0a0a24391c1034U, 0xcd2915c4c706f081U, 0x9b341422e8f55fb5U, 0x1626e30b201e1a04U,
  0x28f505eb30e97fcaU, 0xf0ac1251ec1fd7feU, 0x80346edcc2f18cbU, 0x17cd2aec03f6f442U,
  0xaf4086fae67fda37U, 0xb8c0cb4fa5bdf1edU, 0x231e81e43ed1a5c4U, 0xc2349cac1acbd20U,
  0xd933320406711781U, 0xaf2265d2a08bcaadU, 0x11a777fc16e3cae0U, 0x67f4fcee062934a5U,
  0x810d03e9d7ed3727U, 0xfec736da080ceaeeU, 0xdbfdf230f8U, 0x0U,
  0x0U, 0x0U, 0x0U, 0x0U,
  0x0U, 0x0U, 0x0U, 0x0U,
  0x0U, 0x0U, 0x0U, 0x0U,
  0x88aad23a00000000U, 0x81b470cc8a298156U, 0xd7444253504d2d4eU, 0x1ad1d53e7381cb00U,
  0xa2020cb0c37307fU, 0x60e5814901d3effbU, 0xf17fccf4e5d61addU, 0xd4fffb010ee09cfbU,
  0x47152781e638077fU, 0x7fe4e4f255e9e9d7U, 0x2c4c6b25fe04fc5fU, 0x5cf807b4bce87fe7U,
  0xd18b7a07115e427fU, 0xf4522d090b4eec7fU, 0x8a8481639efcedd0U, 0xebe57fbbe5cefbbdU,
  0x81130c62472905fcU, 0xa82b1cdd221b263aU, 0x27c2b914e5f8df7fU, 0x3db6ecf54d813b90U,
  0x45fe0e816fbdee8bU, 0x452cd91be27f5deaU, 0x3ae1e80d8108de32U, 0x1407497fc6b5baebU,
  0xf03381120a180af5U, 0xbe0a7ff80d071cebU, 0x7ff91708d9df0841U, 0x6cba21b940d9d4f2U,
  0xdbadf5617fcef6c9U, 0xf9eae1ecfb811cbcU, 0x4c11060d35017f02U, 0xf558817923c12a29U,
  0x818e27f6b51b9501U, 0x1c7f65ea3eff24f6U, 0x812feef31ee3bcd7U, 0x8156cbe0f6df24f0U,
  0x8bc8fdcdf41U, 0x39a00000b77U, 0xffffffc4fffffedeU, 0xfffffd9c00000130U,
  0xfffffb3dfffffc16U, 0xfffffe1400000026U, 0xfffff9450000003bU, 0x299ffffff6fU,
  0x2eefffffeefU, 0xfffffecc0000019aU, 0xfffffbf100000686U, 0xfffffe0e00000419U,
  0xfffffdd4fffffc0aU, 0xfffffeaafffff655U, 0x5e300000301U, 0xfffffaeafffffb40U,
  0x4802f11000000704U, 0x77f3818f3e9f8fcU, 0xe7621e9ba81834deU, 0x57d2fbd01fbf996cU,
  0xa3b97f4044f61944U, 0xdc6d961c66ea411eU, 0xd5eb23552d9834c2U, 0x512e6d42e9b3204U,
  0x18d647b434dd420eU, 0x3a65c85d4a56de1fU, 0xff34bda5791235cdU, 0xd67fe825d12f008eU,
  0xe0971f4e44c83159U, 0xbef3319622ebd4bU, 0xb9d3bd1f160d00fdU, 0xe5c4611f6017b97fU,
  0x2ef9bdeecc4d1011U, 0x2809815e2e0608f4U, 0xe39acfe40d043ceeU, 0x93328dca1bcc4f2U,
  0x261511d03d4a92ceU, 0xb61431c93d14cd09U, 0xc7f64bcddc1a2c1aU, 0x812ebd30dc620fb9U,
  0x36d23ceacd43ba07U, 0x81491d31352b2414U, 0xdb33d8a3c1e245fbU, 0xe5260f1203508315U,
  0x1389b65207110914U, 0x813251fd0e2be61cU, 0xdf0e2ddce8de5530U, 0xb2f508c0fd2d26d6U,
  0x15f082480e07f134U, 0xa3d251d14d34222U, 0x81ffbf00e4ed1215U, 0x2cde4206d6fab04bU,
  0x25363848144b25dbU, 0x7ff30eb9c200ac1bU, 0x67c7d23d5d1a0416U, 0xa2b14eac8f844b8U,
  0x7f12e9cffa51e7adU, 0x111df05dcf343deaU, 0xed11fbfcce170acfU, 0xbaf5fe10a8410bb7U,
  0xc95622030f11f90dU, 0xc40851ca0e1633c8U, 0x717c56d7160c1222U, 0xffe808d45dccff21U,
  0x4ce21a40e0a97f07U, 0x1014091eececfc7fU, 0xddd5d8ddd4fa211aU, 0xf4d70a06d12aeec1U,
  0xad131f77f02df60dU, 0x371a260645f6e71cU, 0x872abbf7bec2440dU, 0x6d072db86481ce4dU,
  0x8501e921ee537c05U, 0x31d9c023c8cd58f5U, 0x1e2c377ff51207e6U, 0x1712abf7bfd7f7d7U,
  0xe949e5c838a77a76U, 0xe5baf4b38629f7f2U, 0x3bdd3ef8d424c67fU, 0xb0cbd6c2aff506a3U,
  0xeebddd7e5e8cb22U, 0x13c0f43b4368942aU, 0xe7f329faaa394d11U, 0x4741691ff011c0d6U,
  0x7febcd34fc7f2c05U, 0x710ac459712d1de9U, 0x40bfe28f4392327U, 0x8c32aa5c0540d5b1U,
  0xe519faa7e20e06f0U, 0x2c18d92df6bcf2a8U, 0x4a1430fa2ff18bfcU, 0x25a2b2fcb717fa4U,
  0x2e68232365d11e41U, 0x37ed188b05221ecfU, 0x1d155ff007293726U, 0x4ff7df9b0ba1813bU,
  0xe7f97fddc8ec44f5U, 0x189d02eb15d7eee8U, 0x21db0a2828150fdeU, 0x6f1c11fedd4edcaU,
  0x2c331c91ccd98ef1U, 0x4b53107fe60b163aU, 0xff5fd9c85c3ae5ccU, 0x4211d63e09f2b3fcU,
  0xf6bdda5027dbedceU, 0x1ee14be42516bc7fU, 0xb0f11a9fa00b56feU, 0xd0d13b9500ce8e2aU,
  0x18f01f54d62dfdd2U, 0xef9df6b87109e319U, 0x91d61d4daf12f168U, 0xa1137dfad9f1813cU,
  0x811eab0ee35d5e28U, 0xefd7c997f00d18b1U, 0xbd051459cbdb2a47U, 0x2bfced60dc60821U,
  0xe8af2dcadddcf969U, 0x6c01db1120310208U, 0x7f37f94b601311c9U, 0xe6e254d7159bf921U,
  0xdecad90e93d2c8aaU, 0x816c502a1f338bcbU, 0x71e21d0bfb4289eU, 0x2e46c312cce9effU,
  0x3614a73cfcd1U, 0x28e5fffffa53U, 0xffffa485ffffb1ccU, 0x1189fffffce2U,
  0xffffe7f9fffffcadU, 0xfffff9dc00000cb0U, 0xa0600001a28U, 0x3474ffffbff5U,
  0xffffc4c000003f8fU, 0x395ffffb63aU, 0x30b8ffffc5a5U, 0xffffef0b00000475U,
  0xfffff86fffffdb13U, 0xffffa865ffffabcbU, 0x25061f0cee4dd405U, 0xc4f20df0bb4c32feU,
  0xe6bb7f10bc5d1d1fU, 0x19d34fde2a0302b3U, 0xf9b77f3df2171d1cU, 0xf5ce6e3229caea03U,
  0xed11f60492ccc05dU, 0x1be407150f29c642U, 0x4317ebf7fb05c67fU, 0xf4a6dee537e0f53aU,
  0x350723c834ff2101U, 0xcc16c17f15f7f8U, 0xfc25e1163a641903U, 0xd816011df1fcb7dfU,
  0xbf700afbeb52f724U, 0x1f257ffb1b08b02aU, 0x31fef0dfed0c28ecU, 0xffe64bee2cf117efU,
  0x36068127c557f7U, 0xe8ecf818fc1fe36bU, 0xf94a051edd2afbeeU, 0x8126c341eff3e845U,
  0x1ffc1bc254ed46f9U, 0x1dc83c0dec0207e9U, 0x31e304db54025d12U, 0xd946f155ea8121b6U,
  0x1f0212f9ec100a05U, 0xe63f27632b22ac42U, 0x61da81119f25d5ffU, 0xeff41e0cf3d51a13U,
  0x631d1a88171efd24U, 0xf18126aa14de2555U, 0xce0dbca2060a687U, 0x9e193ee612ec1825U,
  0xbc1ee9157c3b1ff6U, 0x81524883a6eb922cU, 0xe9f3e9ff10fdcaeaU, 0x226eff12cdb9fd25U,
  0x81fffdbe36d910efU, 0xf515e9b424906422U, 0x13d7c9fa43ddf411U, 0xdf2ae10e0f0f44c8U,
  0xbe2bb87f0fb21002U, 0xfa41dcf033ed0ce7U, 0xfa1bf841aa1deac8U, 0x7ff1c21516f724d7U,
  0xf074f50ad7af32bfU, 0x3ca34502df1e58c9U, 0x1b391b29e9fe20efU, 0xe5c7a744c771e3dcU,
  0x5ed2457dadf7ff7U, 0x1beee837ec2ab45eU, 0x44d539cff4184932U, 0x3cf4e87f17eba7b2U,
  0x5fee08c17f1bd519U, 0xdd2a1b3c341fedf6U, 0x5f56df9fb921db11U, 0xd26e26d12044fadeU,
  0x111b1afa036014faU, 0xaad4fce0d9da35fdU, 0xd41216fee23b7fe7U, 0xf6095a26f7e9452cU,
  0xe7a7d825fffe091fU, 0xeeeb287ffab1debfU, 0x54eeee322dd444fdU, 0x10edfa0433e13352U,
  0x7de2a4d481e286c5U, 0x110cdf45cafed6f7U, 0x12dbf38355aedebU, 0xdb81fc8ed0fb110cU,
  0x74bcf004de580cadU, 0x72156beff2e413e2U, 0x9fd6ee411bff3581U, 0x1ac2380cb1ea9808U,
  0x302ce0eee6da8f7U, 0x6028061a81630040U, 0x1ed5ffe710ccf2fbU, 0x8f44cc1ee27e60cU,
  0xff813df6140008c8U, 0x616eb0cfd65240fU, 0xd1ee1afff41ee304U, 0xb4c0000054bU,
  0x100a00001289U, 0x28b00000d0fU, 0xb65000006f2U, 0x162100000999U,
  0x29b200001c74U, 0x350200002936U, 0x3f3600003952U, 0x30420000427dU,
  0x2549000025d9U, 0x1ace00001b77U, 0x68500000dd7U,
};


ai_handle g_forecast_temp_ml_model_weights_table[1 + 2] = {
  AI_HANDLE_PTR(AI_MAGIC_MARKER),
  AI_HANDLE_PTR(s_forecast_temp_ml_model_weights_array_u64),
  AI_HANDLE_PTR(AI_MAGIC_MARKER),
};

