/**
  ******************************************************************************
  * @file    forecast_temp_ml_model_data_params.c
  * @author  AST Embedded Analytics Research Platform
  * @date    2025-11-19T19:59:38-0400
  * @brief   AI Tool Automatic Code Generator for Embedded NN computing
  ******************************************************************************
  * Copyright (c) 2025 STMicroelectronics.
  * All rights reserved.
  *
  * This software is licensed under terms that can be found in the LICENSE file
  * in the root directory of this software component.
  * If no LICENSE file comes with this software, it is provided AS-IS.
  ******************************************************************************
  */

#include "forecast_temp_ml_model_data_params.h"


/**  Activations Section  ****************************************************/
ai_handle g_forecast_temp_ml_model_activations_table[1 + 2] = {
  AI_HANDLE_PTR(AI_MAGIC_MARKER),
  AI_HANDLE_PTR(NULL),
  AI_HANDLE_PTR(AI_MAGIC_MARKER),
};




/**  Weights Section  ********************************************************/
AI_ALIGNED(32)
const ai_u64 s_forecast_temp_ml_model_weights_array_u64[360] = {
  0xeb405052027d718U, 0xcc0be2eae9f41fabU, 0xd3b3da3a0ef603e7U, 0x61dcf8fa7f222bfbU,
  0xe095fa621080606U, 0xca18d97cabb1982bU, 0xf5172d8730accf8cU, 0x414d3294b081ad62U,
  0x812462e19e0cb0bdU, 0xfd8cfe6d0137f7b1U, 0x232534b471ec216fU, 0x200421d9307f070fU,
  0xf4175e4a484112ceU, 0x8f0b12392be53bcaU, 0xf4b2e1385d072b25U, 0xe733ca1c28390a18U,
  0xefe90293240f62f5U, 0xaf716e081f0392cU, 0x4ff22beaa2d091bU, 0xef1b081fb9cb14f7U,
  0x42ef0fd7fc81f507U, 0x93d15e404ca840cU, 0xc526e2d80e51e1ecU, 0xe9f42be6d50a451cU,
  0x46da94481efc1c28U, 0x336b0481fa29d921U, 0x3e1e41acfdff1f0U, 0x3d0c11f823efcd3eU,
  0x1353f8351800e2a9U, 0xe4e99cf000d300a8U, 0x1ae4ff810f2a0bf3U, 0x35fe10f9f6f2814eU,
  0xb76d03fc0ceefbc4U, 0xe6d560d00b24bffdU, 0xcbe92e70e7d409c9U, 0xf8772cf901ed32e9U,
  0x67aa7ff80336003bU, 0x11d44369f94239edU, 0xd5d9e0689ecc1d24U, 0xd928140b130e4052U,
  0x11ef4ee9f22bcbdbU, 0xcbfd0257fdf722c2U, 0x24db14f17f1fe311U, 0xbf25d0d9107e24acU,
  0x3c810fd11a2a3e45U, 0x5d1eb90212e31619U, 0x2e39d9dbea26f813U, 0x1ddd77b6c941390dU,
  0xe3f906f4ecda2c5cU, 0x2db60af7d6ea3e2cU, 0x10cfd02305ea0f14U, 0x2f80d8df5fd1814U,
  0xf9030df581000efdU, 0xae10100103305f8U, 0x5f8280e0ed14b15U, 0x1702fcfc04f21648U,
  0x5a9eebf223f6097fU, 0x4d45119a013d1229U, 0xc768f869b8c928faU, 0xd92c1a6054f41d1eU,
  0xd8d82016f9a77f21U, 0xfffffec10000a84bU, 0x642fffffe08U, 0xffffff4f00000324U,
  0xffffffa600000137U, 0x2a4ffffffebU, 0xfffffeceU, 0xf7fffffea7U,
  0xd020ec30000011aU, 0x21d6e8d5ddfbfd9dU, 0x1801eba109aee8cfU, 0x48f60a1307ca09daU,
  0xeffd277fe1a82134U, 0xc4a5fab60b3c13caU, 0x132d1d2524f61c37U, 0x45f407d518d624ccU,
  0x1a13de34420c05ceU, 0xfc092900c295f943U, 0x4d31ccea117f414eU, 0xffffffff0dc41422U,
  0x285412811a1d03b9U, 0x4bff305f80ceaffU, 0xec2af3fe13cf1606U, 0xb04ea0aeb15f7d1U,
  0xcad8f7bd08a9ff37U, 0xb1cb19bc07ed1dcbU, 0x37c5f13cd2d01ceaU, 0xb7f21c6eff5ea16U,
  0x15e3f02d0e21920cU, 0x2be02c1a2c56ea0fU, 0x1e2b348103fc10c5U, 0x402208f5282212b7U,
  0x4da92e2ee694244bU, 0xee22054805aa1745U, 0xd125f3ac04572dbbU, 0xfe9ed022f1cd719U,
  0xa2af5d7e227810dU, 0xa603c00eec14cfe5U, 0xf0f52ad5f602041dU, 0x10ea44ecf4e0faf8U,
  0xd523ef30e55ae614U, 0xb70af36d074f0cfcU, 0xb7d3ba05980f3106U, 0xc854e8145c53c352U,
  0x1e72db75da7f0c47U, 0x9eb8c705ecd6c162U, 0xeef39ba1859904d8U, 0xfad8bffec2e6bc81U,
  0xa0e48909b6abadafU, 0xafb4eacf96e082a5U, 0xddf53c0ea395bab3U, 0xde06e731eef8e24eU,
  0x1620eddb3e1eee11U, 0xd781c1fdfae9edebU, 0x303d1415fa0d7049U, 0xe8fea14dbc26f8d3U,
  0x30f11d2803d62aebU, 0x23ccecae0cb8348fU, 0xaac04200b0c02e6U, 0x2710f7f40ec7133bU,
  0x64224b9ed770a7fU, 0xd1b0031911e6bf40U, 0xb219d3b6d27f1a3bU, 0x433ce0e9342b042aU,
  0x54499bd30ff6df79U, 0x25da333dcbd138cfU, 0xd7e42cf345f0fe2dU, 0x3331a36d9afc5f9U,
  0xe9980126e0cb1cc3U, 0x572a15e21dc2cfebU, 0xe0f3d5ba117f12f0U, 0x3b504bd04e5U,
  0x2ba000007bfU, 0x41300000503U, 0xfffffe8f00000587U, 0x7eafffffb55U,
  0x48200000359U, 0x643a359500000312U, 0xe6aada81332e087fU, 0x3b8156d3817f817fU,
  0xe4bb66a17f7f0e32U, 0x174c812a7f12810eU, 0x0U, 0x0U,
  0x0U, 0x0U, 0x0U, 0x0U,
  0xec208122da0018f6U, 0x81db1874ccfce55fU, 0xfafc652af3e8fe9cU, 0x89b132b56417c61cU,
  0xf82d06d8827f9c0eU, 0x81d45dc6077f1bf0U, 0xda067bf57f1711d6U, 0x1f66c9acf6e809bcU,
  0xdc4a750e81a0df3bU, 0xf1f44efe070481f0U, 0x7f221fdf0f1af5f8U, 0xc9eaffc9090928ebU,
  0x150000c6d0c5197fU, 0x1fe7ff7f09017447U, 0xd3d740daff272cb0U, 0x140c78e208dc8113U,
  0xef8681f5fd051bf2U, 0xe2edf71d025a0ac7U, 0xa12a94f6f5ef3c0eU, 0xf910daeff602097fU,
  0xe712f2f5ddff7f06U, 0x481560f4e8cf810fU, 0x7ffc01fbccdc060fU, 0xe822ffafca021237U,
  0xfad7cc9b58f27f6bU, 0x5ae766ccc24cce2dU, 0xaa45237fcd21ce4dU, 0xaceafa107fd602d8U,
  0x7f036145d51111abU, 0x9c36e4fe265fb70cU, 0x811094164dbc5a0cU, 0x4f9d015bf47e109U,
  0xff0c05eeeff27ffdU, 0x8eea33597fdafd66U, 0xfbe5b911ea40d659U, 0xf80309ed04ec7f08U,
  0xdcf568eff9e38112U, 0x132841eff9f00ae8U, 0x1355224a81e3f702U, 0x50e7f0266fdfff4U,
  0xecdc362ae8fa03edU, 0x4aeb4ee62781cdU, 0xca45810f110d4016U, 0xe1b981ee0111db69U,
  0xe0f80bfc3d77e5d3U, 0x7024f16ebf581f7U, 0x2e032716fb1622e7U, 0xe50de97ae9f481e6U,
  0x91c60d154aad0ccaU, 0x7f1603f88132bfa1U, 0xe2f8f5dfd3186519U, 0xaa2d81e422162af0U,
  0x12ed0f22021a185cU, 0xb1b036de4f381f4U, 0x71533f33e0612fcU, 0x2bc103e81d955e6U,
  0xea121f76acfc81d8U, 0xf9fa7f38182ff8d1U, 0x481ee2eff57cfe6U, 0xfff95f71fc31edc7U,
  0x3e000001daU, 0xffffffa600000670U, 0x6b20000020dU, 0x2b400000139U,
  0xffffffe2000000b3U, 0xffffffb2000001abU, 0x19400000333U, 0x385ffffffefU,
  0x5f4000004b8U, 0x4eb00000386U, 0xec00000461U, 0x123000008b1U,
  0x34d00000164U, 0x303000000fdU, 0xffffffcf000001efU, 0x1a400000177U,
  0x28d00000422U, 0x1fd00000253U, 0x2c6ffffff1dU, 0x50000046aU,
  0xf1a140bd915f107U, 0x142710095c2085f0U, 0x1212100f0f120e0fU, 0x71c7f090c000d22U,
  0x190f06b808080c12U, 0x101e160ecb16ee0aU, 0x1430140c61299beeU, 0x1a13161110131011U,
  0xb207f0b0e040e2bU, 0x25110aae0b0c0e13U, 0x12231812b519ec0eU, 0x163c19106634b9eaU,
  0x24151f1313141213U, 0xf257f0f110a1035U, 0x2e1311a50f101115U, 0x152a1c17991ceb13U,
  0x194920156b41e3e6U, 0x3018291616171516U, 0x152c7f1415121340U, 0x34161a9f14171518U,
  0x162d1d1a811dee17U, 0x194f241964491ae5U, 0x391a301818181718U, 0x1a307418181a1446U,
  0x2d1721aa181c1819U, 0x152a1c1a811af417U, 0x174923194f454be9U, 0x3818301717161617U,
  0x1c2e5a19181d1442U, 0x1a1623c8191e1818U, 0x16291c1b811afa1aU, 0x1847241b434576ecU,
  0x3b18321718161717U, 0x1f2e491b1a221442U, 0x41727e81b221a17U, 0x12211718a0150017U,
  0x14381e172e397ff3U, 0x31142b1414131314U, 0x1b252f1716201136U, 0xed13220b181e1714U,
  0x111c1517be130615U, 0x122d1b1620307ff8U, 0x2b12271212111112U, 0x19201f16141f102eU,
  0xdc112027171c1612U, 0x11181316dd110b15U, 0x11251915172b7ffbU, 0x2710241112101011U,
  0x181c151414200e28U, 0xcd101f3f161b1510U, 0x1316141800111116U, 0x1220191511287ffeU,
  0x2511231112111111U, 0x181b0e1514230f25U, 0xc2102057171c1610U, 0x1415151a29111716U,
  0x121c19160c267f03U, 0x2410231113111212U, 0x18190a1615270f22U, 0xb910216d181c1710U,
  0x1514161c56121f18U, 0x12181a1708237b0aU, 0x2211221214131312U, 0x19180716162a0f20U,
  0xb911227f1a1d1911U, 0x1511151b77112517U, 0x12131715051d6a13U, 0x1d101e1112121210U,
  0x1814051515280f1bU, 0xc610217f191b1911U, 0x130e12177f0f2713U, 0xf0d131202144f1aU,
  0x160e170e1010100eU, 0x1410031211210c14U, 0xdf0e1c6b1517160fU, 0x110b0f147f0d2911U,
  0xd0a0f10000f3c20U, 0x100c120c0d0e0e0cU, 0x110c030f0f1c0b0fU, 0xf40c185b1213130dU,
  0x10090d137f0d2d0fU, 0xd070e0e000b2f29U, 0xd0c0f0b0d0d0d0bU, 0x100a030e0e190a0bU,
  0xb0b17501111120cU, 0x11080d127f0d330fU, 0xd050d0eff082433U, 0xb0c0d0b0d0d0d0bU,
  0x1009020e0e170a09U, 0x230b17481111120cU, 0x12080d137f0e390fU, 0xf030d0fff061b3fU,
  0x90c0c0c0e0e0d0cU, 0x1107020e0f160b07U, 0x3e0b18411111130dU, 0x14070e147f0f4010U,
  0x10000d10ff03104dU, 0x80e0a0d10100e0eU, 0x1207010f10150c04U, 0x600c1a3b1111130fU,
  0x15060e15750f4210U, 0x12fd0c10fe000356U, 0x60f090e11110f0fU, 0x1206fe1011130c01U,
  0x7f0d1a2e12111310U, 0x11040c11550d350dU, 0xffb0a0efdfdf74bU, 0x30d050d0f0f0d0dU,
  0xf04fb0e0f0e0afeU, 0x7f0b161a0e0e100eU, 0x10030b0e3f0c2b0bU, 0xef9080cfcfbed42U,
  0x10c030c0e0e0c0dU, 0xd03f80c0d0b0afcU, 0x7f0a140b0d0d0d0dU, 0xf020b0d2c0c230aU,
  0xdf6070bfaf8e43bU, 0xc020c0e0d0b0dU, 0xc02f30b0d0809faU, 0x7f0a13000c0c0c0dU,
  0x1eb330001bdf3U, 0x2808c00022ad4U, 0x27ec60002ada9U, 0x2199d00027fe7U,
  0x1ba830001d6b1U, 0x1c4790001b708U, 0x1b7520001d1dbU, 0x1421200016f13U,
  0x12dd100012e57U, 0x157e300013bcfU, 0x13074000165dbU, 0x101fc000110a0U,
};


ai_handle g_forecast_temp_ml_model_weights_table[1 + 2] = {
  AI_HANDLE_PTR(AI_MAGIC_MARKER),
  AI_HANDLE_PTR(s_forecast_temp_ml_model_weights_array_u64),
  AI_HANDLE_PTR(AI_MAGIC_MARKER),
};

