/**
  ******************************************************************************
  * @file    forecast_temp_ml_model_data_params.c
  * @author  AST Embedded Analytics Research Platform
  * @date    2025-11-14T15:07:25-0400
  * @brief   AI Tool Automatic Code Generator for Embedded NN computing
  ******************************************************************************
  * Copyright (c) 2025 STMicroelectronics.
  * All rights reserved.
  *
  * This software is licensed under terms that can be found in the LICENSE file
  * in the root directory of this software component.
  * If no LICENSE file comes with this software, it is provided AS-IS.
  ******************************************************************************
  */

#include "forecast_temp_ml_model_data_params.h"


/**  Activations Section  ****************************************************/
ai_handle g_forecast_temp_ml_model_activations_table[1 + 2] = {
  AI_HANDLE_PTR(AI_MAGIC_MARKER),
  AI_HANDLE_PTR(NULL),
  AI_HANDLE_PTR(AI_MAGIC_MARKER),
};




/**  Weights Section  ********************************************************/
AI_ALIGNED(32)
const ai_u64 s_forecast_temp_ml_model_weights_array_u64[312] = {
  0xdb45161292f201d9U, 0xfccf4be321a9facdU, 0xe8d1d85120f381edU, 0xe42d22b632f11cadU,
  0xbdd080502310c09U, 0xf51a0af91c0d810dU, 0xcb2b2af60d09efa9U, 0xd9ac310e1b08fc10U,
  0x2d96a9100ae21025U, 0xdc42de86aa0aa2faU, 0xd80ce7d6d0f2f6b6U, 0x1715e633f6f0e508U,
  0xa211b5c6f1b99cefU, 0xfccbed94eb2fcb81U, 0x20e626338a06cba2U, 0x1403de281dcdf8f3U,
  0xc11dce48c70196bfU, 0x2fa1290235f981b8U, 0xe6181bc4278f92e2U, 0xe4f1c0b817158b99U,
  0xe3c4d5c2bac931dbU, 0xc181e8b4cdebc543U, 0x11e2a2dcc4c5fbddU, 0x33fb25a70adcb600U,
  0x15c10d50812ced55U, 0x2923cde6259c0dddU, 0xbdc5b7071407a620U, 0x811cd222d5fb3188U,
  0x349efb0306eee34bU, 0x2052b421002c2614U, 0x44f51b9fd50c2c37U, 0xfb2dcd178134130bU,
  0xef2d22e536983215U, 0x110f02241a02b027U, 0xd4fcf71419e42799U, 0x3ac7f1af0b07ce17U,
  0xde3f8115e2dd0509U, 0x46d0e4d03eef0e55U, 0xfff7d13794083709U, 0xde0126fb19c31128U,
  0xebffd3d1fa2681d4U, 0xca3b194024e520acU, 0xfaa8eb2823d21526U, 0x5301c8070b200f17U,
  0xe425162bfc5810cdU, 0x68260d147f5b27e2U, 0x445aecf065551f23U, 0xfe0f5fc656684c0eU,
  0x39a000000e0U, 0x235000002c0U, 0x47100000191U, 0x45b0000050dU,
  0x334000001a1U, 0x3410000036fU, 0x11f0ea6308467e5aU, 0x64e60337b7f3072fU,
  0x14dfca7642673048U, 0x7f566262115d4936U, 0xc922036100e26afaU, 0x20ce3b4dc1d90ee5U,
  0x337f1b20f3263ce7U, 0xf10d80ee7fcccefU, 0x2c68d9eb75ca751cU, 0xec0001c3774a664cU,
  0xf67f643754085354U, 0x66d9e762ba350ecaU, 0xe82f18fe40544640U, 0x67f02f8d919f3e5U,
  0xf9d721d7fbc84715U, 0xd0eb4013e168f1U, 0xc4fe7fe441e8db14U, 0x21f5f2254c74342dU,
  0x4b25fc626926514cU, 0x710397242b0e24bU, 0xdec52cdbe90f4663U, 0x7facabe507c7affeU,
  0x1ddadce1f2f5154fU, 0x188fd91f1c54fee3U, 0x845a5018fbdffcc5U, 0x8fac1db5819f1ddaU,
  0x1eeb833411daf5c1U, 0xfaefac2caaaeb726U, 0x1d9913d7db1099a6U, 0xaf0385cf37f564cU,
  0x10570e2d7d3ceb0fU, 0x61775bd2f61bd658U, 0x51efdfb3e583420U, 0x27385c56dc367b13U,
  0x162e647fe31f5848U, 0x3af30c461def6354U, 0xe601fdfa4f4e020fU, 0x34f5eb71322defcaU,
  0x6d7f145619d8e167U, 0x7a4168eb5968f838U, 0x5bd548ca4705ed7bU, 0x61700005c4fU,
  0x5b8000005ecU, 0x55b000004a9U, 0x6e0000042eU, 0x46f0000058bU,
  0x7f3fee8600000765U, 0x816cc68181f6d17fU, 0x7fdbf9f3390be07fU, 0x237f8150bebe7581U,
  0x5da3U, 0x0U, 0x0U, 0x0U,
  0x0U, 0x99475bb700000000U, 0x722f02c52646837fU, 0x90a54047df281feU,
  0x2bc7268110510351U, 0x2bc47fcf91780d4fU, 0x234ceb82ef2ff2efU, 0xab81ed9981ee7bf1U,
  0x3681ff75ee46977bU, 0x6cd1512ef062838bU, 0xcff5fd7f73a16381U, 0x81407e24d39b82f3U,
  0xdd61f8185e1a65fcU, 0xdf34e27f3debf685U, 0xe4372dd2462f812aU, 0x7f2ce3e990cd282fU,
  0x81dc400fd9ebc414U, 0xba812045571bcae1U, 0x56d317f2ce4b8a72U, 0xff2dc4017f19d828U,
  0x1171c02803cce313U, 0xeb35512137c981c0U, 0xae997fb48fe738d1U, 0x4c1ad1376a7fd726U,
  0x81cfe738f4b1d790U, 0x1d41c44af03635daU, 0xe3dcd4f55bba8150U, 0xd1416281a4714a46U,
  0x7fb243d14a3bb037U, 0x354b0e7a811e352eU, 0x467f85aedae44210U, 0xc2f197fb56170f27U,
  0x3bb5f4db8151ee00U, 0x7c06caf5fb22a97fU, 0xf7815a2e1a2028a8U, 0xdfdd811dea0f20afU,
  0xe0634ce76eaca276U, 0x997f398123a3e552U, 0xde38eed95bee25e0U, 0x121f77f930ca0b5U,
  0xb2ff127046f764a3U, 0x289a1081398161b4U, 0xc2da5793b2136a44U, 0x1da8156fe4ffe5cU,
  0xfd6cc2e1eb793ab9U, 0xfb178a22232e6181U, 0xd0cd6a0e7b8155d8U, 0x8a259a4df68104ebU,
  0x668116c9cae7f4b6U, 0xa22368558162eda1U, 0x1c7601e814a68d0U, 0x2823d09da10U,
  0xffffff0400000007U, 0x2bf000000afU, 0x21600000260U, 0xffffffbf000002a3U,
  0x17cfffffeb7U, 0x28400000044U, 0x1b70000029fU, 0x346000002b6U,
  0x34d0000041cU, 0x1f0000002d7U, 0x5750000033dU, 0x31a00000564U,
  0x126000002e3U, 0x1f600000296U, 0x22700000022U, 0x28b0000022dU,
  0x35f00000378U, 0xfffffde700000355U, 0x20400000492U, 0x190dba0b00000096U,
  0xf1b0081120b0a0eU, 0xf0c0f0e0f150cb8U, 0xd0d0e1012100f0aU, 0xe10100c0c0cba0bU,
  0x1a06b30c150b0effU, 0xf1c0481120b0a0dU, 0xf0c0f0e0f140cbfU, 0xd0d0e1012100f0bU,
  0xd10100c0d0cde0bU, 0x1a0ab10b150b0e0cU, 0xf1cf781110b0b0dU, 0xf0c0f0d0d110cd0U,
  0xc0d0f0f11100f0aU, 0xc0e0f0d0c0b000cU, 0x1b00ad0b14090e04U, 0x101bf981100b0a0eU,
  0xf0c100d0d110cdfU, 0xc0e0e0f11100f0bU, 0xd0f0e0c0c0c230bU, 0x1d12ac0b150a0e14U,
  0x111b0e81100b0a0dU, 0xf0c100d0e100defU, 0xc0e0e0f1010100bU, 0xc0f0e0d0c0b440cU,
  0x2009a70d150a0e03U, 0x121d0581120c0b0eU, 0x100d110d10100ef8U, 0xe0f0f111210100bU,
  0xe0f0f0c0c0d6c0cU, 0x1c13b60b170b0f12U, 0x111a0197100b0b0dU, 0xe0b0f0c0e0f0d03U,
  0xd0d0d0f100f0e0aU, 0xc0d0e0b0d0b7f0bU, 0x19ffc70b150a0e0bU, 0xe1608b30d0b090bU,
  0xc0a0d0a0c0d0b0eU, 0xa0b0a0d0e0c0d08U, 0xa0c0b0a0b097f0aU, 0x16fad708110a0c03U,
  0xc1305cc0c08090aU, 0xb090b080a0c0a10U, 0xa0a090c0c0b0a08U, 0x90b0a0909087f08U,
  0x1501e5060e070af0U, 0xc11fbde0b07070aU, 0xa080a08090a0916U, 0x9090a0b0b0a0908U,
  0x80a090909077f08U, 0x1303f1070d080af8U, 0xb0ffbf10a070808U, 0x90709070a0b0815U,
  0x909080a0b0a0806U, 0x909080707077f07U, 0x140df9080b070902U, 0xa0f0bfe0a080708U,
  0x90709070a0c0825U, 0x909070a0a0a0907U, 0x70a090809077f07U, 0x15fa03090b0809f6U,
  0xb0f090c0a060808U, 0x9080908090d0830U, 0xa090a0a0b0a0a07U, 0x809090808087f08U,
  0x18f80d090b0809fdU, 0xc10fe220c080909U, 0xa080a080c0e093aU, 0xa0a080b0c0b0b08U,
  0xa0b0a0907097f07U, 0x1b0d1b0a0c070af9U, 0xe120a360d090a0aU, 0xb090c090c100a4dU,
  0xb0b0a0d0e0d0b08U, 0xc0b0c0a0a0a7f09U, 0x20042e0c0e080c0aU, 0xf160e4e0f0b0b0cU,
  0xd0b0e0b0d140c6bU, 0xd0d0c0f100f0d0aU, 0xd0d0e0c0d0c7f0cU, 0x210c3d0d110b0e16U,
  0x10190c62100d0d0dU, 0xf0c100c10150d7fU, 0xd0e0d10110f0e0bU, 0xe0d0f0c0f0c650bU,
  0x1dfb450b140c0f16U, 0xe18fc660f0a0b0cU, 0xe0c0f0b0d140c7fU, 0xd0d0d0f100f0f0bU,
  0xc0d0e0c0d0b3f0cU, 0x1af8480b130a0e0aU, 0xd18f9690e0a0b0bU, 0xd0b0e0b0e140c7fU,
  0xc0c0a0e0f0e0d0aU, 0xc0c0d0b0a0a1d0aU, 0x17fc550b130a0e15U, 0xc18f66c0e0a0a0bU,
  0xc0c0e0b0d140b7fU, 0xc0c0c0e0f0e0c09U, 0xc0e0d0b0b0a020bU, 0x1800650c140a0e11U,
  0xd1af8790e0b0b0cU, 0xd0c0f0c0e160c7fU, 0xc0d0d10100f0d0aU, 0xd0d0d0b0d0ae80aU,
  0x18ff700c150a0f12U, 0xd1c137f0e0c0b0cU, 0xe0d100c0e190c7dU, 0xd0d0e1012110f0aU,
  0xe100e0c0c0bcc0bU, 0x17fd780c160a1017U, 0xc1d117f0e0d0b0dU, 0xe0d100c0d1b0c6aU,
  0xd0d0d101212100aU, 0xd0e0e0b0f0bb60bU, 0x1600720c160b1102U, 0xc1d027f0e0b0b0cU,
  0xd0d100c101c0d5fU, 0xd0d0f1012120e0aU, 0xc0f0e0d0e0b9d0bU, 0x57b160a110cU,
  0x58c0000059aU, 0x58000000577U, 0x539000005d3U, 0x3bf0000047fU,
  0x3330000037bU, 0x38d00000372U, 0x434000003e1U, 0x5bb00000549U,
  0x51500000545U, 0x5af00000531U, 0x606000005f2U, 0x611U,
};


ai_handle g_forecast_temp_ml_model_weights_table[1 + 2] = {
  AI_HANDLE_PTR(AI_MAGIC_MARKER),
  AI_HANDLE_PTR(s_forecast_temp_ml_model_weights_array_u64),
  AI_HANDLE_PTR(AI_MAGIC_MARKER),
};

