/**
  ******************************************************************************
  * @file    forecast_temp_ml_model_data_params.c
  * @author  AST Embedded Analytics Research Platform
  * @date    2025-12-07T15:48:36-0400
  * @brief   AI Tool Automatic Code Generator for Embedded NN computing
  ******************************************************************************
  * Copyright (c) 2025 STMicroelectronics.
  * All rights reserved.
  *
  * This software is licensed under terms that can be found in the LICENSE file
  * in the root directory of this software component.
  * If no LICENSE file comes with this software, it is provided AS-IS.
  ******************************************************************************
  */

#include "forecast_temp_ml_model_data_params.h"


/**  Activations Section  ****************************************************/
ai_handle g_forecast_temp_ml_model_activations_table[1 + 2] = {
  AI_HANDLE_PTR(AI_MAGIC_MARKER),
  AI_HANDLE_PTR(NULL),
  AI_HANDLE_PTR(AI_MAGIC_MARKER),
};




/**  Weights Section  ********************************************************/
AI_ALIGNED(32)
const ai_u64 s_forecast_temp_ml_model_weights_array_u64[523] = {
  0x0U, 0x0U, 0x0U, 0x0U,
  0x811d0bac1954dfe7U, 0x31e7554f044e2f55U, 0x34563e360477d742U, 0x23fb0be5c6023916U,
  0xf33715c2f5361919U, 0x1ee02f273df0f47fU, 0x14f49073d96fe45U, 0xd864cf4150c969e5U,
  0x2f3d0feb422caf4bU, 0xc08ae32bffd118f3U, 0xc5f10ed42b0a141aU, 0x7fb2d41bebd5c9cbU,
  0x5d1092fcf45dffc9U, 0xd9ede337fcdfe1ecU, 0xf6d43773c1d6c6f4U, 0xfdb7f40037535d1U,
  0x12d74dfcb0017fb9U, 0xb7d839b668f8f6aeU, 0xce73e02d2ced4eb6U, 0x479549b1d71a0209U,
  0x2ad3b26271a3101U, 0xd518f77f42c14036U, 0x10de3e072328f1edU, 0xc0f9f0ff01fee903U,
  0x3d1454f7e619ea20U, 0x11053f39f43539c2U, 0x2f3b44020b0fb6e4U, 0xf4fe2fd7f0111f3U,
  0x1615e12205230adcU, 0x81f34efbd713fcdcU, 0x2dd5d68b33031627U, 0xca0728ccdd0a3ce4U,
  0x20f2ef152814e8ceU, 0x48f2baf606d018bbU, 0x81415acf8f17fd9U, 0xc1e3bd3db36f415U,
  0x22a39cb1f9d114d2U, 0x37ba405dd7e219e1U, 0x36f2815e56f929f0U, 0x204ee5ed00d3d0b7U,
  0xd5a68b4928445c66U, 0xdb54b132116eec0U, 0xf22deeb9b3feecf2U, 0x17103d6316aee17fU,
  0x8fa47a87f1316beU, 0x47a52bf92e253c12U, 0x35acc7f19dd2eadcU, 0xe489ac1671ed7f06U,
  0xf0ea7f4b0f3f108bU, 0x22c3d4108fdabcc0U, 0xf11f42714bac363U, 0xf4fc070ad8c5dc36U,
  0x161f2281e763021dU, 0xb33bfdfb5d1655eaU, 0x6c0dea41ccc8206bU, 0xee35a244edfbc13dU,
  0xe3af4fc04881e43eU, 0xadf4dbfe1bd2b4b8U, 0x6d131e13e6f9edfdU, 0x6e3b4831cbdc70ebU,
  0xfa132fc3b01df6e5U, 0x452453351963ed01U, 0x45877fda10ba14c5U, 0x2a06f858b6aceaf7U,
  0xe913247fbccfdbd2U, 0xee8c17e236f62012U, 0x411da0bb2271cdcU, 0xd42afa54c613e9a4U,
  0xa5b9050415572817U, 0xf706d8d4fb3b0731U, 0x571eface07acb1e8U, 0x4917dbfb1259bd81U,
  0x2e3ef7687af3f112U, 0xfb004a1338358111U, 0x4b090e54faed38f6U, 0x1115c6c4f132d520U,
  0x815e3ae0fb681757U, 0x12ebeb220bed09daU, 0x1cb6e444220711c6U, 0xeb5001002bf63e00U,
  0x2ae40f51337dc7fU, 0x490b3203f35821f2U, 0xedfd163f5ae22138U, 0xcde9d754ec3756dcU,
  0xcfdde81a81ccec13U, 0x5d7fc3617bba7edU, 0x2de0f9d004ee1c29U, 0x19a8decf315ff233U,
  0x2ce7112ac5eebd13U, 0xc203b55fc542d737U, 0xec3481e7acc647b2U, 0xecc067b6e9e2df16U,
  0x303bcd18d0c23828U, 0x19e0dbfcbfbbebc1U, 0x626508ddd1221eefU, 0xd0812de4bdf9d3ceU,
  0x3bbdc22ecf42c0f9U, 0xdfe9d094f6cdcc25U, 0x612e08183021f181U, 0xf9c6e2c6ddb00820U,
  0x2211e5d1fadf33f2U, 0x2a381314b76ccd3U, 0xe00affd72f17b3eeU, 0xc824cfedbd1a1517U,
  0x4de12bebe9246609U, 0xfaeddbe0c312a23bU, 0xae1f8f0d97f5517U, 0x140e09142408e7e5U,
  0xe4121dd22c510f7U, 0xe8df16e4cbf2084dU, 0x3218ceed7ffbe9a9U, 0xeae251750860ab6cU,
  0x81f5eaa344f8f8cbU, 0xa4f31819be25c6b3U, 0x9f207d1ef3e44dc6U, 0x9af3c92350edc5c8U,
  0xf2fab07bd5ac40dbU, 0xa3d28af78d507f0dU, 0x52143d3a12f06d00U, 0x47e3cc1112014a56U,
  0xce0c09041c24dce6U, 0x2337e415755204f5U, 0x3feb031d611c0151U, 0xf5f12e517fb205c6U,
  0xee0527c718e91061U, 0x1a841eba2d46571fU, 0xe881775110b5dd65U, 0xa12f758d40ccbaf0U,
  0x0U, 0x0U, 0x0U, 0x0U,
  0x0U, 0x0U, 0x0U, 0x0U,
  0x0U, 0x0U, 0x0U, 0x0U,
  0x0U, 0x0U, 0x0U, 0x0U,
  0x0U, 0x0U, 0x0U, 0x6bc3fd1800000000U,
  0x650a49f00a45e64fU, 0xf72e7dd67f9fc478U, 0xcb03b722386b4ebeU, 0x7d7f11013fdff316U,
  0x7c4f41314cb3298U, 0xf01502b0b0f71febU, 0xf529a8d07f1f0e48U, 0xe8ea4a37d80bedf6U,
  0xa712f805cc69ed04U, 0xe7fc00fd1bc6821fU, 0xe807ccf616bce8e2U, 0xe30c163eedaf7fdeU,
  0x20196a391a1f2602U, 0xd805abdc44fe506bU, 0xe2311afccd44fbc5U, 0x7f332cf3b608effdU,
  0xcd2eef3109afdf3dU, 0xc814b98149390d19U, 0xfa670bf53bf90d05U, 0xee2ce6f60ecec21dU,
  0xf1f3b6dcde2f4101U, 0x6cf37fd6122faee8U, 0x1f41fcdc51dcfcdU, 0xcb03e6ba1b36ddfaU,
  0x33aa0132a12f17fU, 0xe002db0103200e2dU, 0xcd18d731fe362fabU, 0x1013bddefc41591cU,
  0x504da5ff414afe9cU, 0x24cf5922aef6b081U, 0xdcd003e0fcdd9888U, 0xb248106f5b259e5U,
  0x124c513a2c2be01eU, 0x7ffead26272133a7U, 0x5ad76e06f121ff03U, 0xc1e419d1fa16c2faU,
  0xcfef6fc0c2c4db9U, 0x220afcf0f52cb8ebU, 0x2eff258cf44838d4U, 0xd5c62781bbbd991cU,
  0x131da24c50cbd633U, 0x2b81d92c12081eb6U, 0x18962159c9fcabbcU, 0xd313b40bac0ed034U,
  0x8acb157f2b3661f6U, 0x315b48011fb41211U, 0xd7b4a31ed82cca84U, 0xf0ee4aa909bd15d6U,
  0xa15803212bf44adfU, 0x35db1ef681980f11U, 0xe3ac322a1e19fbf8U, 0x81e100c5bd5a4699U,
  0x50fe1238dfdcde20U, 0x2ed10d15f8005c32U, 0x3f67f1424ccd7f90U, 0x39a2dec0f926def1U,
  0x5d07cf8890fbefeU, 0x2bd46da9e53b2da8U, 0x71ae6e8ef030412U, 0x4ef62d031081ba14U,
  0xafbec6c8218951d3U, 0xf69e7f369706e1fbU, 0xa1ad53d12fcbf54dU, 0x7669b3d7f5e7d7b2U,
  0x7fc9db2b0579b726U, 0x2cda5ff8f0cebf0fU, 0x372dbef2bdb5d64aU, 0xc7fbb11552d9df59U,
  0xb1ce0cfc00c718b6U, 0x162a171b082159f0U, 0x3a3ced0c4e7f461fU, 0x30b9d851d7071cbbU,
  0xe71781ebfd1c031cU, 0x12175498f2222c2dU, 0x12d7c011efe81accU, 0x9f20c81d7f7c9acU,
  0xf1f52e2d53db8ed2U, 0x7fdec40000140ff9U, 0xb87851f8c002c9f3U, 0x49f955e7f9fbc547U,
  0x1057d24211fdde0bU, 0xe3aaeb902ff2cf21U, 0xe2d93bccc5b1b709U, 0x42ce81192c7bc341U,
  0x5c49f8158e84290eU, 0x80419b6ce360b17U, 0x81c291c99d4332f3U, 0xce02891063ff739U,
  0xbb04d3b93c2bf1e1U, 0xd961c1531e0a7f0eU, 0x6a84603e41U, 0x0U,
  0x0U, 0x0U, 0x0U, 0x0U,
  0x0U, 0x0U, 0x0U, 0x0U,
  0x0U, 0x0U, 0x0U, 0x0U,
  0x9438f68500000000U, 0x499da467fe285a7U, 0x15518db0ebb381efU, 0x47374fc37d098112U,
  0xc5fe240f7f84ce66U, 0x4dd5eaa44b333ae4U, 0x273181a36433137fU, 0x7f6be1fd2fd1673aU,
  0xe0528ceb26c75922U, 0xe0866a347ffc3f94U, 0xe5dffa6c7fb33088U, 0xfdbce06b73e33681U,
  0x396926fa2ad181a1U, 0x4cbdcf717f9c2adbU, 0xb2bf7a79ae7f7038U, 0x8b29ffa3667fcf5aU,
  0x3977b8439ea84797U, 0xc3c3ad4a2a7f697cU, 0x8c82b0ba447fb643U, 0x8b18fac24c81fc89U,
  0x81d4a32b20de797fU, 0x3b615505c88d7d27U, 0xf061ea374eaa7fecU, 0xac74667fa42a90a1U,
  0xa3bf4281d7c6576eU, 0x12510b22da2fc61cU, 0x3a2181f8e6acb97fU, 0x2b03ad9f51d31436U,
  0x5821bb9bb3b27f92U, 0x5118708121983485U, 0xce331b8681bb5640U, 0xe722d2093f819ff8U,
  0x817756a997c1eb36U, 0xbded4640f9e5816bU, 0x7f20c66d3ccd2cd9U, 0xdbe9de7ffeb4e429U,
  0xffffff47cb1514efU, 0xffffff5bU, 0x6bffffffffU, 0xffffff55fffffff3U,
  0x5500000020U, 0x0U, 0x8ffffffb0U, 0xffffffd1ffffff62U,
  0xfffffffaffffffc4U, 0x3100000000U, 0xffffff31ffffff8dU, 0x82fffffffeU,
  0x2c000000c3U, 0x13fffffffcU, 0xffffffab00000000U, 0xffffff6400000055U,
  0x585b2a6effffff7bU, 0x211efb0bd9fdba91U, 0xb63f921300694521U, 0x65f3adea0a9767adU,
  0x25dbdea37fd9d107U, 0xd8ec55524d2d957U, 0xaad23addf1589f15U, 0xe075254bd8788d81U,
  0xda9cf1db99abfba5U, 0x12efdf374ce30714U, 0x17c95fc4b7fd1981U, 0xdc6581554c448f25U,
  0xc7b8799ec6da1207U, 0x30b67b91156733e5U, 0x2ead1e1457e810f0U, 0x3dca2909ebab7f75U,
  0x7f385e080150c87cU, 0xc863c8d6ac2f78ddU, 0x4f94cb32322f74d9U, 0x6f2e2492b40c28f0U,
  0x16e5c042cd6f3bf8U, 0xa8aa8bd742f288beU, 0xe33c83c90250581U, 0xd211db7ef106a989U,
  0x225a347fb1da3885U, 0xed5f1e132070dfa8U, 0xdda3ce14d9d92171U, 0x1706ca848f11446cU,
  0x11dfc8c5a9e8ce65U, 0x90b8edf14a8a9bf8U, 0xae446fb4bc1813feU, 0xc54ee6269c5b81e2U,
  0xb4139e8f57bbd71dU, 0x88d8004a02273541U, 0x903756ea91a2062bU, 0x36f681e9e4e0f6a3U,
  0x74ffe362ccab50a1U, 0x482159148b71c781U, 0xd210fb330b615337U, 0xbdd7609ce1f7579U,
  0xadb191fc2472b343U, 0xfe1902b8fabe867bU, 0xa9720c41c82b81cbU, 0xffe3f14c4b200cd3U,
  0x28c1b1d7e7f62bccU, 0xb9384f6e35aa9d3fU, 0xee700b1e130f1e1fU, 0xa90acb6d7f7ffda2U,
  0x38337f47c6ae02f2U, 0xe878c84a141efc2aU, 0x5fd3e92f226c1272U, 0xf002282a37d3f727U,
  0x86ef9aec0b7a0847U, 0x98c681c93eabcf4cU, 0xbccee7a9ac95a5feU, 0x860b9a10403025ffU,
  0x9f1ad381dbf1d9faU, 0x3cd41d060fbab5c1U, 0x8dd4edd515f999f0U, 0xae5c0a1c0afccab4U,
  0x8ed27d3ecc810ccU, 0x7f65feeba3292af3U, 0x13d3f9201a553e2dU, 0xe09de1c7cdf8fd13U,
  0xfa1aeba0b6531a6eU, 0x9b8c3794d8c03b2eU, 0x39d6e8bacaa6b33bU, 0xc11a81dd2c4110c3U,
  0x17df5c74cdd0443cU, 0x12f079f235ecd0f8U, 0x7f93fcedd622f97dU, 0x5bd04590a02911bcU,
  0x8f9ae2a6c267c82bU, 0x9181260c30d8fc65U, 0xf13fee9d14bf2e3aU, 0x9e2b2cf67ffd20cdU,
  0xecd128b6e7c076beU, 0xbf03f310d5a6180cU, 0x8756dd0e17e11714U, 0xec19ef75edf9b3f2U,
  0x29575610ced47fd3U, 0x42f02060811b4190U, 0x3be8203b39d90f20U, 0xfedef336d129187cU,
  0xeec6147fc40b8f0eU, 0x561c10e4907f0cd5U, 0xd0438e6247cc4b6cU, 0xd0fd490231c64f23U,
  0xfc30fc71e62d3a60U, 0xe9cac0df067f64deU, 0x6ebf314dc631634aU, 0x629f4df040e9d206U,
  0xf26f7f4696b9cbbdU, 0xf8cc062105f36ab3U, 0x41b99231ecde7046U, 0x23e6d02fa9a4f3dU,
  0xe7c45035be02b67bU, 0x4c66eddc87137fbfU, 0xfa96080a0c59fbf0U, 0xdfa0032baf0d523bU,
  0xdf98f6e70b203b43U, 0xefa34be6fd690d7U, 0xeb02f800ff3da981U, 0xd566d1582ae09526U,
  0xd641044f402ba1fU, 0xd5c7e316b138578dU, 0x1b2dc8e766c112f5U, 0xbecd303475c56f68U,
  0xfffff322c656813bU, 0xfe500000b4dU, 0xffffef7efffff996U, 0xfffff1e000000d27U,
  0x148500001084U, 0x102effffef06U, 0xffffee6e00000963U, 0xe5800001292U,
  0x10fcffffed0cU, 0xc6efffff0c4U, 0xffffeeca000011c9U, 0xfffff3c2ffffefc8U,
  0xfffff062ffffed8fU, 0xffffee5e00000ec5U, 0x44b77781ac464a89U, 0xaa5276ae575c9b48U,
  0xb9a685a17f5eb072U, 0x9d9d6d5b8d9257bfU, 0x9e7f4d9c663eb875U, 0x915c77895fac515eU,
  0x4c979544a09fada1U, 0x9c627e9d54a0a15bU, 0x8362c37f7e976b54U, 0x7a90b8859ea86d54U,
  0xbd678a8d5546b38cU, 0x727cb16363b47342U, 0xbe98814b7ab661a2U, 0xb06c6daca16e95baU,
  0x7f74b5725d8a4d88U, 0x4f7d896eb4424f8eU, 0x8baa518f86be9bacU, 0x57529646b88d5871U,
  0x53a2746686477693U, 0xc19f85aaa17f42c0U, 0x7dab88776388b955U, 0x45967a7c865279a8U,
  0xa1945570b54b9b7fU, 0x664eabc173a4acb7U, 0x6fa570709d6c95b1U, 0x7683659a7e4aa348U,
  0xa96c83819399ab46U, 0x4885618d87495ba1U, 0x885f4c907f44b377U, 0x91aba3ab4a7dc03fU,
  0xa7af785eb4914392U, 0x91534fb65179b66aU, 0xa752549e5ac1467fU, 0x3fb98c44ac8e9c87U,
  0x86575d976bb79760U, 0x916c8c6065a0457fU, 0x5a90b18792ac5751U, 0xa67f87947c43a59eU,
  0x4d46895b458a775dU, 0xa29ab66060b356abU, 0xa16a69bca25893a3U, 0x527d8f4647a172a6U,
  0x5c55963ab54863b1U, 0xaf9d769c81beb28eU, 0x51538b489ea74e71U, 0x6a815662a9795ea0U,
  0xabb1929a9d6a729eU, 0x4f939f5860999057U, 0x6cb95874af737f89U, 0xae91455cb9419a78U,
  0x5d4dbba94f9eb7a4U, 0x42997e47904c90aeU, 0x44844298563fc15cU, 0x997e8585a789815eU,
  0x5d8171a7b07c79b4U, 0xb44a72a95d7fb95bU, 0xaa85a3b756669c71U, 0x82ac49659c874ea6U,
  0x8d6775836575a350U, 0xa7715ec1549b716eU, 0x66828f769f81b2adU, 0x9b6c47ac7286b556U,
  0xa36a8a5268ac484cU, 0x5e98a08198987359U, 0x83429b906067b9b4U, 0x7f47af697ba05273U,
  0x9db18a56498f4cb4U, 0xc07241828a7ab299U, 0x4e469e5f63bd569cU, 0x7f5b86528b7c4296U,
  0x88ac468dbb9bbaafU, 0x607bad7c83a65b5dU, 0x72bd7f6b837966aeU, 0xa9a18db5b6735e85U,
  0x529fa35964b39246U, 0x739a73508e4e76bbU, 0xae81567da25bab4dU, 0x6b43b4b55f94b683U,
  0x60bd6c7282538386U, 0x55b975866c419d56U, 0xae5ea59590868c7fU, 0x2e7000002f1fU,
  0x2f3300002f6eU, 0x2e9300002ed2U, 0x321400002f25U, 0x30b200002de4U,
  0x2ff700002dd8U, 0x31be00002f54U, 0x2f00000030b0U, 0x2e440000324aU,
  0x2ecc0000304bU, 0x322500002f84U, 0x2e1000003092U,
};


ai_handle g_forecast_temp_ml_model_weights_table[1 + 2] = {
  AI_HANDLE_PTR(AI_MAGIC_MARKER),
  AI_HANDLE_PTR(s_forecast_temp_ml_model_weights_array_u64),
  AI_HANDLE_PTR(AI_MAGIC_MARKER),
};

