/**
  ******************************************************************************
  * @file    forecast_temp_ml_model_data_params.c
  * @author  AST Embedded Analytics Research Platform
  * @date    2025-11-25T11:28:22-0400
  * @brief   AI Tool Automatic Code Generator for Embedded NN computing
  ******************************************************************************
  * Copyright (c) 2025 STMicroelectronics.
  * All rights reserved.
  *
  * This software is licensed under terms that can be found in the LICENSE file
  * in the root directory of this software component.
  * If no LICENSE file comes with this software, it is provided AS-IS.
  ******************************************************************************
  */

#include "forecast_temp_ml_model_data_params.h"


/**  Activations Section  ****************************************************/
ai_handle g_forecast_temp_ml_model_activations_table[1 + 2] = {
  AI_HANDLE_PTR(AI_MAGIC_MARKER),
  AI_HANDLE_PTR(NULL),
  AI_HANDLE_PTR(AI_MAGIC_MARKER),
};




/**  Weights Section  ********************************************************/
AI_ALIGNED(32)
const ai_u64 s_forecast_temp_ml_model_weights_array_u64[3601] = {
  0x36efc54cf8d1bbffU, 0xda28efddb62a1bU, 0xe612f5f5d6fe1827U, 0xcc3d0d4d80343baU,
  0xda21e6aee37fdfc5U, 0xe5051cb075f5bcfaU, 0x122f292ded04e913U, 0x21ea2ce906e91df3U,
  0xe260fa06160e0e19U, 0x7ff1ff1111f2ea1bU, 0x21062302481ff5d9U, 0x201be0f8115eee79U,
  0x39fe01116255ed27U, 0x22f4eb7f35e52419U, 0xf30f5b30fe15116cU, 0x20491dcc1b2f2fecU,
  0x6b12d9302b2ce9e5U, 0xe409753bedefd747U, 0x297f2301083f3134U, 0x2a2bee2f48183e30U,
  0x3dfd3004f046070cU, 0xe3fe6a36cbfb0610U, 0xf3383b0af9d145c0U, 0x3b0923f390580af9U,
  0x520eb814333310aU, 0x45fc901e31691335U, 0x3295300d501f3022U, 0xaf10ff78ee0d0c44U,
  0xf9271b1fea4cb836U, 0x35b9feca66d006d3U, 0xe4241972d80be0caU, 0x5496eebde0303edU,
  0xd0e5440712202084U, 0xf1f8b27ffe1da0ceU, 0x2263032d521c11dU, 0xc00f3edfbe222cdU,
  0xdff235c21cb0f7U, 0xe2160eafe709de09U, 0x140bd31808e3178bU, 0x4238f2f9351781d0U,
  0x3a040d2318b8203dU, 0xff2419f2d8461938U, 0xcb5efcf63bfbeb1eU, 0x570e1f3312173e21U,
  0xe7432009ff7f3be0U, 0xbbfc43222b190e22U, 0xfc315cf8ff0f29fbU, 0x2df8e601031a24feU,
  0x7f02efe53b08d206U, 0xdbe5051838eafa28U, 0xfb0b633cdc17144dU, 0x7f4502292b632100U,
  0x3ff756723311f6ffU, 0xda2428599e1c3259U, 0x512765fd19e61a54U, 0x3c6f0710e33051f6U,
  0xed811ce6f1f6e02eU, 0x4ee1f500d10eb5c7U, 0xe5f510f63629a0f4U, 0xe63234e60ccbfffbU,
  0xf519035a1d2927e0U, 0x5ad56619ea30c42bU, 0x325ce90d32deece1U, 0x4eec0315d50de04dU,
  0xf52415a51cef3038U, 0xd64bed1ca1e7a36U, 0xf81da3ced6d5ff9U, 0x306d5476f5af800U,
  0x93407fae9002481U, 0xc242e013717b0d6U, 0x331105102197dcf6U, 0x26071f29241b0930U,
  0x26103d3120e5253aU, 0x32c8114314df01fU, 0x17a9222359be25e5U, 0xc0d304bc91dca23U,
  0xf41f2a1a5610130eU, 0xda23f31df7ee4be7U, 0x42f74842f8fd16d1U, 0xdf732e7563a4192U,
  0xdb01201c333fc22bU, 0x273911f92cfd65d9U, 0xd804b7fd070f1402U, 0xf7332f15df15f952U,
  0xfe2c0217d9f07fe7U, 0x19fe09d6ac8808ffU, 0x42ba5de81e8fef8U, 0x56b91af3e8f1e9faU,
  0x443a1afdeddae6f0U, 0x2c55f40de4fe2af9U, 0x33fd0b04e9f2e652U, 0x516facc0de52333U,
  0x2406f11bfd367f5dU, 0x24f711ee416a50ebU, 0xe5e1e8175244d614U, 0x397f0b461dba3ef7U,
  0x4d26222a193cdecbU, 0x3efb1a1e43fbd61bU, 0xec142735eaf5fd2dU, 0x2a170a14dac5f553U,
  0x2ff02d2a2d11ff7U, 0x81c41920d0a8d91eU, 0xee2e09cac5d8d70fU, 0x2b15dbc3d2bf0cb5U,
  0xf3b7e5cdb704c5b9U, 0xedbba910e9c0e418U, 0x1dd508edb090e7e2U, 0x2e5d4bc41ad5f7ecU,
  0x3252df49fd02c430U, 0x1294bddf4a74309U, 0xf0d1bbf901cf1e09U, 0x810b1a05ef380c23U,
  0x50328524bfd6ee22U, 0x3eb514ff627f085dU, 0xec216c521119bc28U, 0xe614927f5c2e04dU,
  0x5743f0f1c4dffef1U, 0x5c05ceb18ccf15b3U, 0x2a07f1cda9e4736dU, 0xfe03e4efda4107edU,
  0x3e9d05f91f05c835U, 0xe136e3d57fe24deaU, 0x32c9ff68d541cf44U, 0xdd5b3fa132e518e0U,
  0x590f472df8251331U, 0x13280018e6242fecU, 0x551b15480d2af848U, 0xfe1b21d3d52d0a2cU,
  0x4fcd31f7feb30e5U, 0x36053c05301eef1dU, 0xb537ebbbe7dafc1eU, 0x2ac2193e5b86cb12U,
  0xde5a051b8122e2c2U, 0x6e05a982a07eaf4U, 0x3747e22124ae562cU, 0xfac101f8f711efeeU,
  0xcfef20ef0bf60d55U, 0x10fbbfc70ef366faU, 0xe4f1eb00fe3448aeU, 0xbb00d22f1a65cb08U,
  0x20365eef7ff5eb58U, 0x2a30e9e0262e075bU, 0x4822061330f80021U, 0xf6ed1d1dda94e12aU,
  0xea0244b9adf1074aU, 0xf92a7ff5eb143106U, 0xdceb0af0de3040faU, 0x630ee9ec29013b12U,
  0x10d4d02a1e1b0d08U, 0xd8eee4330af10242U, 0xdfe27ffee2ff01c5U, 0x1153c2cff0cdd8f3U,
  0xa8d418180fe7aac1U, 0xe8d5fdf8f2cfdee8U, 0x1f79bc613d10b28U, 0xfe78d91fd02552caU,
  0x2ff9ccb7497f3bf8U, 0xfffffdb12877f3f8U, 0xfffffdbdffffff4fU, 0xfffffbedfffffe33U,
  0x215fffff80bU, 0xfffffd0ffffffdedU, 0xfffffb6500000115U, 0xfffffc5effffffc5U,
  0xfffffe7dfffffc91U, 0xffffff88fffffec1U, 0xfffffd98fffffa37U, 0xfffffdeffffffd69U,
  0xfffffcdbffffff55U, 0xfffffd16fffff9fdU, 0xfffffc8cfffff8a5U, 0x50a460cfffffbecU,
  0x2332323d16f0fe1fU, 0xc2400ef2d9fef7fdU, 0xeded18cb4212eeecU, 0xee06080ed6352a37U,
  0xaf1fdcf407fed4fdU, 0xc636a90130c4dfd8U, 0x1dfacff40028ffd2U, 0xd7f0e0d4c4c72cfdU,
  0xd9810a12a2f0e2cdU, 0xbce1e802e7e501dbU, 0xe2e5dc0e81e8bcdfU, 0x10bd1787fa00c729U,
  0xf9952f0ee6d9d808U, 0x90e5d6fc0f0bf9f4U, 0x27e8d5f5e301cacaU, 0xf329fbfff5ca2ab9U,
  0xf912fbf40cb32d08U, 0xed0407bd90ccb308U, 0x19c511f01902f401U, 0xc8a7102c0341f511U,
  0xbd3bbce5e9101910U, 0xe2cfd606c9c16417U, 0xf2fbffc204e90e12U, 0xdce107b5de03039fU,
  0xd5ba7f11c92cc0c1U, 0xffe83828e0bcfde0U, 0xd1dfebb2cdd11fd9U, 0xf815c5e3cad9ebaeU,
  0xb03e3cedf980de1U, 0xc5b250e7eee42f20U, 0xda03fa9ce1fadecbU, 0xd72cbc0c1f51e2f8U,
  0xfee2ebf9330eea04U, 0xadd931ecf381f925U, 0xa4c04e7151b2400U, 0x20f0ede8e22ae319U,
  0xbb2ca37b4f1f0d0U, 0xc0f9eb24fda624e3U, 0xe4c0b5eaf6d1e1c9U, 0x9fe0e0d0cbe0dcddU,
  0xe8e7b8b7cce2e0d4U, 0x1ff8d9e6d9bdd5d4U, 0xb71ee111bae2e817U, 0xeb04d3f7e0f1d0cdU,
  0xf9fbd1f0db09b4beU, 0xd5e1f0f919cbbe0cU, 0x42f010e240dbc80eU, 0x81123d272c17dcecU,
  0xc6f3eb00254420e3U, 0x3a0bf22cc9f6dfcbU, 0xea220d3c2de70f37U, 0x2c180ffd310b123dU,
  0xdbd894ef03dfdeddU, 0xf4d3f8fc131ffde4U, 0xdef6bd1ed5ccdf0cU, 0x4e2f5e4fdfaed04U,
  0xffefe5eadf1d8100U, 0x6e4f00ad3eac6f0U, 0xe7d90105d9cbe0faU, 0xd31dab0104dbf5f0U,
  0xdcdccf09e8e3dcf1U, 0xe3ded0e9ddfdeff6U, 0x81aafd2ec3d7eaecU, 0xe818e5dacc382afbU,
  0x4c2b8729fac8ff03U, 0xd6d5faffc8c9123aU, 0xad551ced9ce7ef36U, 0xb3e640bef8d5bcf0U,
  0x9cd4ef171843a01dU, 0xb6e5062dc7d2f4ffU, 0xbd00ddc4a9c73b06U, 0xdc19b5f4b6300f1eU,
  0xcd9604feeddcdf16U, 0xf2e411244c1dfcd5U, 0xd8f7c490d60839U, 0x1218cbdfaecfe501U,
  0x1524300e0d08e602U, 0xc1feea183000b900U, 0xfdbbce33fb1fde05U, 0x28200a340722b1ebU,
  0x35d28131551d2addU, 0xf00fd427f745fd1bU, 0x21b3d8ecd7f4af41U, 0x392200ebfc04ef52U,
  0x1010050703dd4313U, 0xe996280c24ed15e6U, 0xf21ee4110700f31aU, 0xce02d1bed1d0dcfU,
  0xef181c0f07e707f9U, 0xee02ffda812b1bU, 0x251c13da15f515f8U, 0x34090a1ff5f2e2f3U,
  0xe0b7331d07eef613U, 0x1d160df91b19f2fcU, 0x295b0e7c73117U, 0x6b1a11091710c84dU,
  0xee1d02fee6f895e6U, 0xf2c31d32ef090d25U, 0x34221c021fa24cf4U, 0x1ff5050959ef2304U,
  0x43c8cb311007c41aU, 0xe81ff0819f9656dU, 0xd34808d646221dbcU, 0xf6d4911cff30241dU,
  0xcaafdbc6df1b0a3dU, 0xceddae10dcdbc01U, 0xbe0885b4cea4f30aU, 0xcb0aead886d8dfd0U,
  0xd70cae2db19a9badU, 0xb381c009ec430802U, 0xa3d5e5c0b6f1b0b6U, 0xab01b7f0cdc4f209U,
  0xf3bff90e090e8ce3U, 0xb595cbcfea9b04f5U, 0xcfb4fcd58ac2f3fbU, 0x2fdebc2c107cec05U,
  0xa7cae2bb5a312e2dU, 0x492dfc306ec72732U, 0xbf3812372f7f1507U, 0x2c040c29efc5ca20U,
  0xf9da5b3c84ebffffU, 0xfa4f1ff7e2fbc6ffU, 0x268182e8ba5915eeU, 0xfa1804463cf030e3U,
  0xe71aedfe81c13749U, 0xebeebcc108ff3007U, 0xdfc998f5cfd41f11U, 0xc6abf2d0faaed3dfU,
  0xbaff16d69beedac7U, 0x97cb100cb8d41822U, 0x51f402d5122bc80aU, 0xa136a6dfc9a5cad9U,
  0xe4a93210d296c12aU, 0x2d2f1702d4b5ba27U, 0xd89b1cf58120c91dU, 0x6c3e92208f7c1bcU,
  0xd917ea3035af1021U, 0x1ffe16d81eef84c8U, 0x81ea2a28150ee8feU, 0xa2b9f403e60ecbe9U,
  0x280101d1fdd9092cU, 0x41afa1f33ef0800U, 0x310ebf73a2dec3fU, 0xf0e201ea1ed2fd19U,
  0xa606efdc32222abdU, 0xa60fe9192526461eU, 0xe681f2bbfa02d62cU, 0xcbe5fdcde907c2e6U,
  0xc410e7f4e6dbce02U, 0xf3dd020ef805a3f8U, 0xd9dce502e5c0ecb9U, 0xe3cce4e2aff6d2d3U,
  0xd8009cede7e50ae0U, 0xec9fe7dd2b05fbf5U, 0xd0e3dbedeaf5ebf2U, 0xddd3e6e4d705ebe1U,
  0xd2f00813f6daf2fdU, 0xdb0d41e020c4dee9U, 0x700b0fa9d716b2e3U, 0xdefed0ff20ddc1eU,
  0xa94eedde816bc61U, 0xc91e2a273ccb15c4U, 0xe25d141d0e212df2U, 0x30cee20edfb481ffU,
  0xf4a1f81ce0c6e1c8U, 0x99faf9aae3c3f6c1U, 0xcde58cedd9be0ee2U, 0xfbe20005cad7aaddU,
  0xded14c1d8eff4e4U, 0xf81b0d03e706c721U, 0xe023d607f8d807f9U, 0xa9c00afe23d3eaefU,
  0x16e5d6c5fdd2dbeeU, 0x3e61609f905e000U, 0x35eedef8f608f304U, 0x1fb8137c6e21b07U,
  0xf8e8de0311ccf2daU, 0x1ebc2ef1ed0cf400U, 0xce10f2cfe8fbe7U, 0x31fff1eae108bef1U,
  0x1ffaa1b4a2469108U, 0xe8ecefeafa190c16U, 0xbb5702f405a460f3U, 0x154c132662ecc12aU,
  0x6bedea011cd0e281U, 0x1caaf5ddc80b3307U, 0xbb42f5e107b433d5U, 0x24d205a32a293cdfU,
  0xe006f9eeb9faebeaU, 0x2df408e113f81eecU, 0x12840a13f8120603U, 0xf4e6f60bec1507fcU,
  0x242314f0f0fc1d05U, 0xd1af8f026e5fce8U, 0xf53b18db108a0009U, 0xffe50bef092eea1bU,
  0x27fd23e61821d40aU, 0xef81f115121f0117U, 0x11fb0302020d26f2U, 0xaf51a0213c93938U,
  0x4c2e06d51febb9d4U, 0xbc133608e70e81d6U, 0xf8e21ee930020f0fU, 0xfb1cee1b0506090eU,
  0x8099df644f3e930U, 0xa08e9e96afff8c9U, 0x1223dd03150707eeU, 0xaa04fea7001ddf0eU,
  0xc410f918fef220dbU, 0x14e11d3703f6f5fcU, 0x49101bee00d9d2fbU, 0xfbf50638b502d6e0U,
  0x2110b51100efbe2eU, 0xe74ff4f2101dec01U, 0xccb8e4e433e3d5ceU, 0x238031938f3c922U,
  0x81c0b2d3b32404c0U, 0xd30c90f9d55cd9d3U, 0xddedd1f409d83cffU, 0x181e02e523dbfb11U,
  0xebf0f6d8f9fc052eU, 0xa7cdcce4e3fad5e2U, 0xe2eadfa462d682ceU, 0xdffc10330607ce06U,
  0xe0fad40c13bd66ffU, 0x5ed2bdfac8320201U, 0x1ede6d2eef0c5dfU, 0x3be97f04cb18023cU,
  0xf76feb2d07c9110fU, 0xf0ddf0fafce0bbd9U, 0xdcf4d8f843f6fec9U, 0x1e1f3f1eaf2d0fbU,
  0xedffe6009cfb06f1U, 0xfedeeff2e4ea1ae9U, 0xdbe1ceecd9ecd6f0U, 0xafe7f8f9f904db00U,
  0xd2e42ffcf1f0f4faU, 0xf706f4e2dde8dff6U, 0xdce1cef1a4ba8105U, 0x115e10ed5ddd8f7U,
  0xd613ebe7b2041be8U, 0x5f20f151f1ef3c2U, 0xabe2812ffe8fd0fU, 0x13ff0ee6d0a7371bU,
  0xe716dbd40bfa07e6U, 0x7f9270303e91620U, 0xdba67f18eac1fd26U, 0xfb10e8f5fb0506f2U,
  0xe7bb20e80915d3e8U, 0xecc2291507e00aecU, 0x1dfede1ccc450fdU, 0xfae328fb0901dee9U,
  0x33fe30f700c5a4d9U, 0xb2934d1e8122fd4cU, 0xe7ab0707ecc5cdecU, 0x52beef944d6dc1aU,
  0xf711d8e65bdd3bf2U, 0xde18482824f4342cU, 0x1d38e4eef627e4aaU, 0x1ef1f0ad002ddacbU,
  0xf0f0a729d6ff03e7U, 0xf91103effa22002aU, 0x7e00000118U, 0x6bffffff31U,
  0xffffff4400000144U, 0x66fffffe6bU, 0x42700000070U, 0x1ecffffff2fU,
  0x3900000087U, 0x1a8fffffee1U, 0x10600000018U, 0x1cd00000071U,
  0xffffffbc00000158U, 0x1fffffff24U, 0x118160de00000173U, 0x3984907ce819c877U,
  0x817ff90514817f7fU, 0xf2d37ff0037f819aU, 0x3b7f81817f30817fU, 0xf9812981459911fbU,
  0x81d57f46e50b7f7fU, 0x2fbad2ec8132eee8U, 0xb8119ff76b88181U, 0xd881cc0fcd8713U,
  0x0U, 0x0U, 0x0U, 0x0U,
  0x0U, 0x0U, 0x0U, 0x0U,
  0x0U, 0x0U, 0x0U, 0x0U,
  0xa34850f100000000U, 0x1b0ce82dfbe10919U, 0x2381dd4ce500ea28U, 0x9b60e0d302dafab0U,
  0xf1e621f905281945U, 0x2d67058f0d81eae9U, 0xdb1af3d5a51ee12bU, 0x172d2233daf8e20aU,
  0xf2db30fc17d26622U, 0xedba01d2f5d4f481U, 0x1adbc31d05122448U, 0x140f19b0f33a1d45U,
  0x81505ef1cc2bb8beU, 0x1db8ce10a8f01510U, 0x35219281e71cdaeeU, 0xd4f026a9b7bdbfc9U,
  0xbbd1e7c20723d0b8U, 0xfbca190d15d41d35U, 0xe560f93a814b3966U, 0xf481f82fe7f5edddU,
  0xf0f4fd2611ff39deU, 0xdcf92ae547e63517U, 0xe4f3f141951bf3edU, 0xc008f18d1f2b0f43U,
  0xe09e9a781f5e0e3U, 0xc7dc2e9dd5db8bf0U, 0x5409d145c9dcc823U, 0x70c26c36e3152225U,
  0x1435e781ecaa2c9eU, 0xecc3f5f6090eb7dfU, 0x4122a2feb8148faU, 0x32fad1fe1ee6f40eU,
  0xe30e7fb3091eaff0U, 0x48c5efface303efeU, 0xe69f18ea040a2585U, 0x27529d021349152bU,
  0xbf14f38104f409ddU, 0xb6e00304e142cb01U, 0x4a81490af1333accU, 0x55eec9de06039d2dU,
  0xbacf04f05fc4139aU, 0xe52be9bd0014c5c3U, 0xf581f73d13e564f9U, 0x390bfdf5bc3b1908U,
  0xfbdf830b017fe9faU, 0xaaad7dfaefa81cedU, 0xeb8858f7d71ee804U, 0xac7df28bcbf3b19U,
  0x3c4538ed0b1dbde2U, 0xe51fae15f81a1bd9U, 0xc7ef4ac39662e97fU, 0x191f811e5f23f510U,
  0x440c6b64ab2121edU, 0x853eedd31eb4fe3U, 0x1eacd5dbc714d2fcU, 0x2ce120cffdab7f1dU,
  0x1bce1f4ed21db8fcU, 0xf5467fe817e9be4eU, 0x5e303beee8fd3819U, 0x81b7ff4de90b0eb5U,
  0x8021e1b2905206bU, 0xa6d916e2fe13eed2U, 0x3f1dd2ce623c03eU, 0xf2e20404d1924407U,
  0xe6138114d006d7d2U, 0xd4d004c70fee3112U, 0x1cd01d812526cecdU, 0xebb0c70d24e717d7U,
  0x140f2f0c17011a08U, 0xb6ebca6bee58e3e8U, 0xfb2b7f53f72a22dfU, 0x55b0419039c51e23U,
  0xe4ba3539cb9d17f3U, 0xdb3f40db1c43ef32U, 0xd6199e7f172614f3U, 0x3c383de58d0804e1U,
  0xf327a50743f8fbdfU, 0x6bc915bb0ddd81dcU, 0xfc38ffdab65ccd26U, 0xcc58e613c314f082U,
  0xc3d406c6fa81041bU, 0x1381cc290e44fa62U, 0xe4b5f4d1e5ab8527U, 0xd2fc73e7a606ff27U,
  0xbd0d13e0016743edU, 0x3f13e8f95b92ad00U, 0xf4cc39b16e1d3d8U, 0x217f556ef543f52aU,
  0x1ae4fb16ec20cd15U, 0xbe103100f02d8125U, 0x230ef016310e2a2cU, 0x336016e60f0efecbU,
  0x30d4f547e0041249U, 0x14f10a2681543d72U, 0xe0bcbcac1d13fde0U, 0x81dfd622d2a5d7f2U,
  0x3c934f4473d0fe7U, 0xd7b6f33a36cfa7d5U, 0xf9feddd61a030681U, 0xe209c2f639c204c5U,
  0x891a12f2f52720f6U, 0xf3f7df2e19108144U, 0xfc61f04e1f6aaf4U, 0x384b05ead0febc38U,
  0xdc8cd61ff0d9b9a7U, 0xc551bff1199fd77fU, 0x57d6be1e40e09732U, 0xe9d511213bff7ff9U,
  0x4d33ebe400e526faU, 0xb8b3db2f241324e6U, 0x222dfb983213022aU, 0x2d43eb81c734efe2U,
  0xd2020f3919240702U, 0x67b3eb12ad7f4199U, 0x3cfacb012a1cf41eU, 0x2df852ed2fbe6e29U,
  0xc7c5596217af72bdU, 0x31dd900bc4cdad73U, 0xb41ca74f207f066eU, 0xfcd09d117fd9a0eaU,
  0xcd1958e3e726d6e0U, 0xed70fd2141d37f2U, 0xffa1067ffef617fdU, 0xfcffdae32e0cf1adU,
  0xc70e9e25c50a3cc4U, 0xb9baf208ed27e340U, 0x1c1fd2fe2ef5ad2bU, 0x18293ed8fffd81ddU,
  0xf21fd02639360af9U, 0xdc23500324fc3eb5U, 0xdfbbd2d51181112fU, 0x2ecd0d3be30fd846U,
  0xb7650c814aebf43aU, 0xb6d25cca3fae45aU, 0xba51193bffeeabfU, 0x4902f2d23381151eU,
  0x252f13efe4143ad7U, 0xff25fe16b330fa0eU, 0x2f26811fb4be5bebU, 0x28d6fef2ff15e825U,
  0xf4d2f5ef1cf6eb57U, 0x2af10e27c359aab7U, 0x10088b46fbe22a46U, 0xa4171629017f2c87U,
  0xb7f7e0172acedb10U, 0xd4312d35d90574e9U, 0x6eb30814bf5280cU, 0xf1ff3a3ad88e6a2eU,
  0xe8e3e9811d28de9dU, 0x9ff6d8fed0dff127U, 0xbafa6899bff3c6f1U, 0x4d0df12d03e451cdU,
  0x7f8f2e0814161333U, 0x49d8f09c39962ad7U, 0x29ec4dffddc5099bU, 0x8fb2b4555fea8e6U,
  0x1faf810ffc13045eU, 0xa074bf5eb110055U, 0x44f02908c8301933U, 0xe78ed8320b063081U,
  0x392ff20714462740U, 0x2781319f86d9dcd8U, 0xcb28b12cd4bf0030U, 0xb97e57794bc1a45U,
  0xca5e81acdac3e210U, 0xd7a72f9612bf393dU, 0xf3bd7bc951574827U, 0xf681041c280618e1U,
  0x3633165ce6c53211U, 0x816d0a0c2929bc2aU, 0xabfedb11e42f0111U, 0x13041ad143473a1aU,
  0xaf110a2ff7de103dU, 0x224a70d8167ff7b2U, 0xee35ad79e33804d8U, 0xe006f281b4019919U,
  0xe93583bf1c9cedf3U, 0xd4d88677fa17830dU, 0x2b7f9f00b29a1c9bU, 0x14c2715ca6f09283U,
  0xfec52bf5c9ceace5U, 0x17c4b10ed1cfd6e9U, 0xea193f9618f52239U, 0x33272f10ee2b27d2U,
  0xd2b5a6d3fde81c81U, 0x1d64feae1d8e2516U, 0x2633f5ed3322f3fbU, 0x8105c5541a03a567U,
  0xeb681f3c7fe07bfU, 0x36f5a6f3f02fe011U, 0x205f571318d84e16U, 0x9de4eddcd067fe5U,
  0x20a32ddfe5c7abf7U, 0xa7b5b7f2ebf45b1fU, 0x84e6b799f57ffc0fU, 0xc0d42fc5fee50496U,
  0x5cd4ed8c165c9be4U, 0xfaec2e31fbbd709dU, 0xf3ee42d538270cf1U, 0x81f4e1330e46f4beU,
  0xf83f22d6fb27eadaU, 0x29f5f3597fedb85aU, 0x53a13e053efbba4aU, 0x20f7d69751abf13bU,
  0xaf0fc08eeefe91dU, 0xb1305fc0ddd7f12U, 0x330ffc02e01cefe0U, 0xeefd100ce5bffafaU,
  0x1a2c0709d5100f07U, 0xb3c01e1a21b5f081U, 0x1620f481dbdd12f6U, 0x2eeef8abff28ede4U,
  0xe41f242caaf8a627U, 0x72ba0a81e2e9b2c8U, 0x8716f3af45de9c16U, 0x218e5bdf2aa1e818U,
  0x81e50fd66735dcdeU, 0x9cc3b3624e50d33U, 0xb9600007b50e0301U, 0x3fe1045d51d1c1f0U,
  0xad2be3dee1d62cdbU, 0x1bf8c5f5af81601fU, 0xf2814206a9bee081U, 0x241fd1dac442dac9U,
  0xfc1f0af908113403U, 0x32380ce9bfe4b42dU, 0xfa09d215d3d7cdddU, 0xd10fc6cd3ecfbd50U,
  0xeede3b31f4811ec4U, 0xb2df328f4e5114dU, 0x113e107ff4eed8ecU, 0xe17f1afdd9d4a51cU,
  0xe945ee1f9ed29a50U, 0x33d0b01a71ff416U, 0x5bfce2db749290dU, 0x2504d51fc57f13e3U,
  0x2c3ef1ed1619f0fdU, 0xe50c0335e135ef2cU, 0x28240de532f4f72aU, 0x101c138147f9ca39U,
  0x24e7096a1a0a4e26U, 0xc902f4bf1812df34U, 0xf8e1fe340ae6183cU, 0x71ffafc81480c10U,
  0x61cc3a926eca747U, 0x81f9eaddd1cd14e8U, 0x11c44c1bf9fad1dfU, 0xac86d9db4ac5d6c6U,
  0xcfeacca63326e20fU, 0xf91be2e98157e711U, 0x8101dc48f2dae3faU, 0xee11f72527d9951dU,
  0x70e47ac4df8eebdU, 0xe8029ce43be8e3f8U, 0x16cf554aca17ad4fU, 0x1739eec034914befU,
  0x7f0123edcc75812aU, 0xfb3b1c34a541e735U, 0x74e6a920c7e50903U, 0xc2dbdaf11d0218c4U,
  0x5c14f8d7ef7fdb08U, 0x4525f0be9814f9e8U, 0xee143a3bf62b0a1cU, 0x17c93508d21307eeU,
  0x8103b82c35eee71fU, 0xff1434ab1bdcb901U, 0xed9801e33710f0e0U, 0xf60e1b1806f02ff0U,
  0xf521f600bd2e8135U, 0xb504e7f72603ed09U, 0x3f50c33ec2721cdU, 0x1ef631de7f1c23e0U,
  0x679cc4e9ecd4312fU, 0xdbf8f2f0043cebe5U, 0x811102492af31fd6U, 0xfdafe9c7f621f31cU,
  0xcf02dbe7c72ef302U, 0x2dfc381e51fd51fU, 0x502f7d6fcdaced0U, 0xbf5cd492cda3dc8U,
  0xf95376812942a733U, 0x33e5acfef4559910U, 0xc2fbd3f3e635d203U, 0x3b314ee5d79e3219U,
  0xda94ecb1c08106fdU, 0x737fc61d41cc4af6U, 0xb53a1db3f04d1ddcU, 0xc3eaf236fcedadcfU,
  0xd1cfd4ed4ea6efcU, 0xbdee2fb1007013eU, 0x5bcd04db7fc064f8U, 0xf2fd14d9da27d6d9U,
  0x8ee04056ff52d26U, 0xf43ef912977f0e15U, 0x81f2314b47001717U, 0xb3f71f0dc5305eddU,
  0x3db2f5b4ed9033f9U, 0xb22f0587f8b003cU, 0xca5eeefe3609dc15U, 0xdb0bdd426c43fac5U,
  0xfffffc01b7153211U, 0xffffff6bffffffc0U, 0x57fffffd88U, 0xffffffb5fffffaf4U,
  0xfffffe2000000082U, 0xfffffab30000001eU, 0xfffffe9bffffff85U, 0xffffff81ffffff2eU,
  0x42fffffb3aU, 0xfffffdac0000001dU, 0xffffff84ffffff79U, 0xfffffdbb00000017U,
  0xfffffef4fffffd61U, 0xffffffc200000139U, 0x4fffffeaeU, 0xffffff06fffffc4cU,
  0xffffff8c0000002dU, 0xfffffedfffffff59U, 0xfffffe020000006eU, 0xfffffe9affffff1aU,
  0xfffffff7fffffeefU, 0xfffffe9d00000028U, 0xfffffe5bffffff98U, 0xfffffdbfffffff38U,
  0xfffffed8ffffff75U, 0xfffffecffffffc78U, 0xc500000013U, 0xffffffa8ffffff15U,
  0x8ffffffdabU, 0xfffffd5afffffcc6U, 0xfffffdbffffffc24U, 0xfffffed90000003aU,
  0xfffffdaafffffdddU, 0xfffffeacffffff89U, 0xfffffef500000079U, 0x3dfffffdcbU,
  0x36ffffff3aU, 0xffffffadffffffb6U, 0xfffffffffffffd82U, 0xffffff72fffffca6U,
  0xffffff8b00000041U, 0xffffff09ffffffaaU, 0xffffff82fffffeb6U, 0xfffffd57ffffffa4U,
  0xffffffc3ffffff5bU, 0xffffff1300000048U, 0xfffffebcffffffc5U, 0x9ffffffdb0U,
  0x1deeb97ffffff51U, 0x7f81c5817ff73671U, 0x1f81eebd6f627f81U, 0x81f6a07feb248181U,
  0x8149957f7f187f1cU, 0x7f817b009081c3faU, 0xef16f9d37f4939c7U, 0xac15960e7f2b8134U,
  0x7f99ec8c2d2e267fU, 0x10e0fb637fab817dU, 0x12f2aaf6cd81dab1U, 0x7ffe7435ef35cdf2U,
  0x4faf33813acf58ebU, 0xfa027f7bbfb8e865U, 0xff5e7f7f7f7f8516U, 0xeca47fe5d97f52c1U,
  0x19817fa2a04a0681U, 0x283c1d7f7fa4cfb0U, 0xd37fdc7f13814581U, 0x8181813e15986481U,
  0xa87f40810938ac26U, 0x3a818e1403fe6ccaU, 0xeffeb07f7fa47fccU, 0xa024370e7f7f3981U,
  0x81817fae817f8159U, 0x9307b35dbe7f7f7fU, 0x7f01ead403d17d28U, 0x567f75d87f3633e9U,
  0xff38ebe8547f0be9U, 0x3fce7fcd95ae7f81U, 0x81f57f97057881f7U, 0x32face81197fdf51U,
  0x4d3a7f0b7f817fd5U, 0x81fe7f81d47f267fU, 0x7f7f81503f0e9d7fU, 0xa281818186377fdbU,
  0xad73a77fU, 0x0U, 0x0U, 0x0U,
  0x0U, 0x0U, 0x0U, 0x0U,
  0x0U, 0x0U, 0x0U, 0x0U,
  0x0U, 0x0U, 0x0U, 0x0U,
  0x0U, 0x0U, 0x0U, 0x0U,
  0x0U, 0x0U, 0x0U, 0x0U,
  0x0U, 0x0U, 0x0U, 0x0U,
  0x0U, 0x0U, 0x0U, 0x0U,
  0x0U, 0x0U, 0x0U, 0x0U,
  0x0U, 0x0U, 0x0U, 0x0U,
  0x0U, 0x0U, 0x0U, 0x0U,
  0x0U, 0x0U, 0x0U, 0x0U,
  0xd151bfbe00000000U, 0xeee21ef9e7d42c04U, 0x160efee2e0d9d0ccU, 0xdadea913f0863836U,
  0xe9113f1701d8b5e0U, 0xd736f930182f02eeU, 0x391326fcd8ba20c9U, 0xbcdb0c12d2f3f027U,
  0xdf9b1a09b40f1505U, 0xf4c41ebdf2f97fd8U, 0x3a2310e43bfae926U, 0xe91bea16f405f115U,
  0x4a00ce0a2012f9dfU, 0xdf06033be10dffafU, 0xf1f92e7f0cf7efe3U, 0xbfd44fb06fa5027U,
  0x6f70ddce0fd1ddaU, 0x21de444e2fa1d07U, 0x3805e548240121f5U, 0x3041c1fefe9d115U,
  0xe5feebf9f60df2efU, 0xf3f9e2e6f911f0a6U, 0xfe231f8fb2f15e2U, 0xefde00efcaf1d047U,
  0xde3aec8140be05f4U, 0x1a3ce4e610fbe00cU, 0xe6f3e8fb170e4205U, 0x83c82ffbf42f6e9U,
  0xd02e8f3fbfce71eU, 0x2419271d0eed01e3U, 0x212b0ac4bed1ef12U, 0x41ea231202fbf8fcU,
  0x1ccf1083f5ecffd5U, 0xee180e0c1ffc53e4U, 0x1af8ee00f7dd6472U, 0x20aff0005e3e3baU,
  0xf6fcdde829043bf2U, 0x350c8f3e62a07d7U, 0xace21e81d021ef8U, 0xfffdfbff0181f12eU,
  0x10fd05ec31f7ecefU, 0xd9ffca041c0f1c00U, 0xf46003f5f9fe1de6U, 0xd10be81ed316f3fbU,
  0x2df17ef15fde7eaU, 0x12f1fa08020dc3d7U, 0x53136120801b019U, 0x12e80004effa1119U,
  0xd617e7811e0aecd3U, 0xb1ffb83415ff0bb2U, 0xc1f50901fbd3df1cU, 0x2606e90506f07227U,
  0x33fdf2ef31dee82cU, 0xbcfcbf218ef140aU, 0x1f7edd2020e2be1U, 0xf9ffc60c2b3ddc36U,
  0xd753f31d4b010413U, 0x3032d03e5cc11faU, 0xef75be8f1181609U, 0xb2e1e20ba11ce3e7U,
  0x41ebbdb00407ecd6U, 0x1b0dd539fa2ffea6U, 0x45f83fbc0332c8dbU, 0x421af121100a3636U,
  0xfe77cddb2ab0a8ecU, 0xe625af5b43e14c09U, 0x793a45b6e421eae2U, 0xf0fdd07f021419f0U,
  0xd80eb511a224ece0U, 0xf538f7abb3f1f922U, 0xc6d768ec22af8faU, 0xfef0accfd5fae8e8U,
  0xe3b00c3e550bf738U, 0xe07f9e80a7f3ae2U, 0xe6e908050bf0ee00U, 0x3190012bfa0fc19U,
  0x9430348efecf323U, 0xe403ec1615080df1U, 0xde1050092fd2b04U, 0x14fd0609d9f6ea15U,
  0x4bf05ef0c1bee01U, 0xd73a4705ebdcced4U, 0x302008f0e415dff9U, 0x6fd0614fe02f434U,
  0x812bfaf2ffff4df8U, 0x4a0228b7422ced0dU, 0xe2023539f9f6f3d8U, 0x2d552821dbe8f305U,
  0xf315d11aeac1020fU, 0x1a1937e707ee4211U, 0xf904e5b51b17f4fcU, 0x209df3008c6e4f4U,
  0xc1f1eedec6f1dfefU, 0xda1f1025c4bd38f3U, 0xea2b0fb288250efeU, 0x3d25b156e7ffb8f2U,
  0x1058dfe614d8edf8U, 0xed05afdd3d1f0ce6U, 0xd10625f00b0a1f27U, 0x57ffdfbfcef2b0cU,
  0x1401f8000705ed1eU, 0xe1efd926e2011902U, 0x22230cfceb122cf3U, 0xf7fddfe627fe0304U,
  0x80ce6050519d60aU, 0xca1400c8e607f3ebU, 0xb2f33d6f62103fbU, 0xe3cdde3cd012f11eU,
  0xdbaebf3180b09f5U, 0xf80313faf47f3ffbU, 0xe80917e7f91806e5U, 0xf8121d0cf474fd24U,
  0x150f011222dbfa2dU, 0xde00d6011f2dd3e1U, 0x21920a11a2f33610U, 0x10d00e0911ebf4ebU,
  0xe0b4ebe407f9faf4U, 0x9000cedf8f8dbc2U, 0xee002400f613adf6U, 0xe0f0c06ff12f74aU,
  0x53de8ed0df413f9U, 0x288deefc2508b5ecU, 0x1ae0e1e5fa237f0cU, 0x110c8c10232cfdb4U,
  0xf318b3e5cc4cf912U, 0xf81b3d1ad9ee0413U, 0xb04f405d2f7eef1U, 0x2925f704b7aa3ccdU,
  0xf64fbfbfc101808U, 0xd210ef5fce824f3U, 0xeadfef01140a2837U, 0xf035fb033533e439U,
  0xf302fdf73ec1aef2U, 0xe92afcf5effce2f3U, 0xbf20f0e070b2904U, 0xfc08e101e881f607U,
  0xf6fcfef509fb0af4U, 0xfc09f608fa0ef902U, 0x105f7e2050203faU, 0x7f6030dece8fe06U,
  0xfe0df70df703f500U, 0xe7fe08f0ecfaf7feU, 0xfc10fef8f2f80e2cU, 0xd120206fcfa1d18U,
  0xf739bd2902fde1daU, 0x5f00e8197f3b0700U, 0xb214062a1d042ba6U, 0x4507fe6c10061809U,
  0x5920ca2d5329d613U, 0xe41cafe68a3129ffU, 0x910e5e561e2302aU, 0xfbd70130e312f00dU,
  0x358ad2f8670c0206U, 0xfcfe63feceac30eaU, 0xcf003bb889221e08U, 0x4fea8e03cc0bbb0eU,
  0x101913ef418cc3e7U, 0xffe102fb2af7d8f0U, 0x2c0a2af3d50a7ffdU, 0x3258fe0f1fddbeeU,
  0x1dfe190ff1d8f91bU, 0xfbf343e706ec09faU, 0xeb300db0c5d5090cU, 0x3e42f0e72e9d0ad6U,
  0x4cf0fee3db23dce9U, 0xe8f70a160926dcfdU, 0xe5fadfe8f401484bU, 0xa27ff3602321117U,
  0xfc02f40902e4db54U, 0xf7e5e505eaf8def4U, 0x4ee12030407c10eU, 0x70ac0f509a30e0eU,
  0xf10e0802df0429f0U, 0xde0b0502ef1b03bdU, 0xef9f424010902efU, 0x1ef819f7dfddfb11U,
  0xb2fe3fff81cf3f3U, 0xe2f412e6f70c1002U, 0xe21300e0fe1a157fU, 0xc020710f5020d4cU,
  0xe13aebec2df1ed15U, 0xefdd13f3ec10d21cU, 0xafe210e3112a6dbU, 0x3ae3b0f052e6fd16U,
  0x2d15fc0ae7dfbd1aU, 0xdeff00d008e733d0U, 0x403ee234c90c1f43U, 0xaf491ee4c810ca17U,
  0xb78527bd223db2deU, 0xb9e40eed01f905d9U, 0xdee527e5de2c1f7fU, 0xe92206f4e4c2e03cU,
  0xf82c25c80817fdcbU, 0x1bef30fef90afff1U, 0xe6fb21f90117b6ebU, 0x21d591182481132bU,
  0x60b21f7c80cbc08U, 0x3b282613de26f111U, 0x24fd2422d2edee14U, 0xf4ee16f1ce4ab3f2U,
  0x9ed01465ec4002feU, 0xe51103f41fdcf1eeU, 0x15c1f8c8cde9433bU, 0xed1afe1ee8fa0971U,
  0x702f3ff111af89cU, 0x1021edf3fffff9feU, 0xebf004fb0c002e0aU, 0xf0eccf70d81f5f2U,
  0x604f1f8e507fff9U, 0xef081711ecf4f8fdU, 0xfd06f0dcf20107eeU, 0xef24f80105d71600U,
  0xe03f6d6fd1af0f5U, 0x10fe0706f80df9f4U, 0xe01f9030700ee25U, 0x140aff0d04090907U,
  0xf13610e7f8fd1c29U, 0x2d917f4fe0aff0dU, 0x419f3040c8113U, 0xe2019a16ec11fee5U,
  0x140239390d1af818U, 0x311130e607ec04edU, 0x9230239ecfdf7fbU, 0x3ea0207e43ad20dU,
  0xc60318fff2e40beeU, 0x100c03fb04d6fcU, 0xfcfdeefe00e01c52U, 0x370efff508f512f9U,
  0x26421ddded0ee705U, 0x1bdf67fb04071dfeU, 0x3ce5671ae8b7dbd8U, 0xc6eea4250cf12310U,
  0xd61a67f11cc49e12U, 0xdee8b700b41fc7e2U, 0xc7071c3bdc1430feU, 0x333f10fc9f067f0cU,
  0xe3ab0de713f521d7U, 0x62b14252de08dd3U, 0xf401433ce4c94663U, 0x2b24fe151d075050U,
  0xc84c05d6c4f55b08U, 0x34113047ea4104b0U, 0xde054c55502c63b4U, 0x33362c6d12a04249U,
  0x4a060f10d7ad2709U, 0xd30d0142c72c2712U, 0xaf6c167f80437a9U, 0x2a06ec08f713fce5U,
  0xcb14dfb2153bbae4U, 0xe93b5c2fe79d3c8cU, 0xe6d1fad7bbf2ce07U, 0x7ccd07660c1cd181U,
  0x7564dced4281f9d8U, 0x8138ffd551ef5d1U, 0xfbec19692300f0d1U, 0x367ff82117e32652U,
  0x4a4cf203cad20d5dU, 0xd61a9501ec281cf0U, 0xf400f10fee1e07fdU, 0xf6faed233d244038U,
  0xc4edea300810d523U, 0xc03a5c09d938f3c6U, 0x4cd80fe9aa250ae9U, 0x10ebf206c0eb1159U,
  0x26baefa2ccd15beU, 0xf705d4fae90efbf7U, 0x18125536e5f13403U, 0x6519e7f2f99d1c52U,
  0xffeb27eaaca6bb42U, 0xd70281f8040033fdU, 0x5ef91d00ec0418f2U, 0xa1097461a0d3206U,
  0xfff0bf15de6b9a01U, 0xdeff0da2c90ff1d3U, 0xdb0772c0b90a04feU, 0xeee1ee0cbd17182dU,
  0x154a94f63317fed7U, 0x2207f5101a3d1300U, 0x1cc2c461edface8U, 0x6f530c513c155f42U,
  0x6350baec45b91077U, 0xff1d9323f4324e34U, 0x64fe5612f705233eU, 0xe91db256fb49a147U,
  0x8116b4f40255e246U, 0xcafde89a8cf01a0aU, 0x2a237495c955f906U, 0x8b2c53c9fe5d8f6U,
  0x163527b152fc0797U, 0x17d8d5f036090717U, 0xbfa0a08dce22006U, 0xed41c2fc14810621U,
  0xd706ec0be4e00f14U, 0xf0ee1b16e51f37d8U, 0x26431cb7ba150128U, 0xf2f0190d7de530e7U,
  0x48dafea9fd03ef05U, 0xd40ff0f22007ddcdU, 0x4002f8f20119152cU, 0xde24021907c2ef0dU,
  0xb56aed705172604U, 0xf7f6fa1d301afceaU, 0xbc0848dcf7c945dbU, 0xc21f01c03c97831U,
  0x22f0c52842dcfa28U, 0xddeea526c73ee0fdU, 0x73113ddbe6fef923U, 0xf81bb52bf9eee42eU,
  0x38e897ffec5f9218U, 0xec5a4a9dbce5f636U, 0x11fe7fd8be4eff09U, 0x16fee60d7914f72eU,
  0x2323fee478e5f9dcU, 0x2756fafe3909eb05U, 0xfdeb1b00fad837efU, 0x1d0bb4e609f6f521U,
  0xdff2e329d409f703U, 0x7eceaf2051619edU, 0xe5fee4f5e9f32cf9U, 0x17db1af2ded7e3faU,
  0x16240ee0121cffecU, 0xe90319090aec34e7U, 0x19f0e9fe0c147f12U, 0x2c1aff11130edf13U,
  0x81d11eafeeafd32U, 0x13db27040910f415U, 0x22f513ed1428c001U, 0xd3a2fdeccd1ad0U,
  0xf908360b0c2ee216U, 0x251b05e600fcf7f2U, 0xf7f20b2df6daf7e2U, 0x1c1d030cee15b41eU,
  0x813aef36fc000c15U, 0xf31e0601fafdd5f2U, 0x11e80a0710e15060U, 0x1f0cfff601101621U,
  0xff01f926f60e36c0U, 0x4f22d0fe507f01eU, 0x11f809d8e5ca60ffU, 0xe1f1ab0cef1a278aU,
  0x27ba63cffb3e09ecU, 0x1c2d30d32521f9dcU, 0xef2fb8cdbd0308f5U, 0xf6183703330a5a05U,
  0xcef39e18036bfb14U, 0x1f17de01179ab37fU, 0xe5044003fcee3ef8U, 0x30fd2532c7be681eU,
  0xf34f2c40251fc43aU, 0x3d1e35ed181d3defU, 0x2d3004effa2fa0e3U, 0xe6e781ddcbfacbb7U,
  0xbfc643bcb5aef38U, 0x731a51f3cbb3e91eU, 0x401f13fae15f509U, 0x90bf1e611128224U,
  0x97dbea61db0d06d6U, 0xfd4005170ce740f0U, 0xd0a11dbeae7604cU, 0x15f9fed4e704c7e8U,
  0xf433ee01d41e13ceU, 0x20254206fcc52611U, 0xf9ed18eceff2eb01U, 0x17f2adf23281000eU,
  0x16111bf4cffeccf7U, 0xf2f11006f7fc1126U, 0xf35ff6e604f5f3f5U, 0xca0dfcede0fafd15U,
  0xc5cbe540d917e4feU, 0x8eb370416f5efbfU, 0x2107fe161d2ace01U, 0x1f9e5e4d7f2ce29U,
  0x418cf070e0e242bU, 0xf4fcc6e5290f01efU, 0x16052ef6fdf4f9ecU, 0x408f4fbeeea4710U,
  0x1714d40904b5fb4bU, 0xed32f5fd0412f6efU, 0xfef0c02ddf4f0edU, 0x31828ffe6f527U,
  0xd06ee0ce60d81f1U, 0xfb19f41702d70efeU, 0xf9d41ad5ac161303U, 0x2309de3801082c1eU,
  0x204bd62558fdf904U, 0x1afeb8d50f1f12b0U, 0xc50420282ec508ffU, 0x385aef240aa81b23U,
  0x1d092e1515cfb435U, 0xdf18cf324828511bU, 0x5ef72332e0194ce4U, 0xf411e233063cf035U,
  0xd1e7c50a2c55ef0fU, 0xc10e44bfc8eee8efU, 0x200c5ac1db2ff8fcU, 0xf7f7fd1fd1c0e27fU,
  0xe846aaeb30b70dc6U, 0xdfcc11d3b38f9bdU, 0x28fa2013fdf72ef8U, 0x1f39e72df80b3355U,
  0x3e21a00d29b51471U, 0xa019c375203fb05U, 0x6e0038f8e1111938U, 0xfe11b13a051fc70cU,
  0xd0cdc4f4a4f8c834U, 0xcf392bbfa0f5fca8U, 0xe145ace813e12ecU, 0x1cc3df03a8181f16U,
  0xc5e4f4f4241404c9U, 0xfcfbf1e7482410cdU, 0xc3f0fb31f5fe37c4U, 0x3e69f23f142c465bU,
  0xe0ee51e3e30f323U, 0xd947bce1091dff18U, 0x59cff5283d103054U, 0x2f8ea0618e5c126U,
  0xb22deee00e38106U, 0xbf391801a9b718d6U, 0x1b0f1bb5c245f50bU, 0x4c3e9d1ee8f0d4dfU,
  0x92eefed5fbee8d8U, 0x150703fd0301e5f8U, 0x17e802ff08fd21ffU, 0x1df8efeb08811cf6U,
  0xfafde8dd13f2f1f1U, 0xf8faf4fbe5eb1108U, 0x9fffc0ff30309eeU, 0x1ae81a131514cff4U,
  0xf1290fdde90f1403U, 0xff0305f5fcf275f0U, 0xedfbf4fcebfa3618U, 0xfe0601ff0af0fa17U,
  0x155beca11f826bdU, 0xbfcdf251e17fcdfU, 0x81b2c19f5d800deU, 0x316ff43003812e63U,
  0x217df1d2ad9ec3fU, 0xf7f4921143115002U, 0x43f20366defa00e8U, 0x5f7df5cfd26f542U,
  0xc608a80c0bd2c516U, 0xc91c1abab5f515f5U, 0x11fb57a9ba6cf904U, 0x9b3d60dc911ee23U,
  0xf12ceccd34fcfc97U, 0xc09e6fd241f1104U, 0xdf15612e5d5f208U, 0x3b21044c10f2297fU,
  0x1c2ef0de06c8fa5aU, 0xd0febc57df033105U, 0x3e103c08e917f70eU, 0xfa03df2ff85d0d42U,
  0x18ecdaf92503b83cU, 0xf802fbd4a51cfb2eU, 0xf7f93ea5a11cf706U, 0x911d81de2110a21U,
  0x115081292fe413e1U, 0x708c2f20823f7cbU, 0xf0fa3829f6dd5eeaU, 0x1324f70e0fb91b6fU,
  0xae14f4c9fba3e92dU, 0xfd54e216fb014bfcU, 0x69fa1cfb17f71331U, 0xfad10a2d12fede40U,
  0xa7a58d06e1c4020aU, 0xeb1ebef11e0427U, 0x3c759fbbf50f70fU, 0x4eda5062e0c0650U,
  0xe47b01d92e01fbd7U, 0x4be053d11a5b0c00U, 0x320312eef3f0f3e9U, 0x571d0f3a8fee371cU,
  0x112a99cd46a7fe29U, 0xe22b1f22b0fe3e10U, 0xd8a6f8e90d0ee3eeU, 0x31a2b2bce12e249U,
  0x32d5eacc3b14ddfaU, 0xe60de7b7dd191bc3U, 0xf4492c31d138e3fbU, 0x15c2810c9dfb17c0U,
  0xdb529c2100ebc1fbU, 0xfc14d9bc0e3811deU, 0x5ece615d404ccf6U, 0x1258ff2604a14e49U,
  0xf930dff0388a0c37U, 0xecfe8125fae9d813U, 0x58131412e2032710U, 0xee03bd4d33e4142dU,
  0xc50881fb05f2be57U, 0xed0c08dfe1e5fafdU, 0x463d7201b22f15ebU, 0xd6e4ee37a8112962U,
  0xc734a9f948fa18d9U, 0x1808e5fa47160ef1U, 0x9e05431110ed45bbU, 0x3078e83003de465cU,
  0x211f17cff6c4ea3bU, 0xc5ed8151da094d15U, 0x73fcebd1ed14153fU, 0xfa19dd37ebdb1f29U,
  0x2f0bbafb2920c9feU, 0xdf2c3882ea2bef0aU, 0x201235cdd76cf40dU, 0xf698f348c8d7bc69U,
  0x90db30c39d7fbcdU, 0x1100fa0310fd09ecU, 0xf3f52516eddddce6U, 0x4320ec3d04ef2c44U,
  0x261d05000ed6e40dU, 0xde03a41c131c3dfeU, 0x5116fbe6f90e080bU, 0xff04e141e60efffdU,
  0xdbd2a806ea07d51dU, 0xcd0721d3c40ef8e6U, 0xf4027fe6df310711U, 0xffd1d0fde900dc40U,
  0xeb3d16133be705cdU, 0x1c2b2e04ff16fa0dU, 0x30f5f0f80310930aU, 0x1aeb9b12c57febe6U,
  0x27064f0c201c103bU, 0x211e4013010c07feU, 0x143eee53c80dfdecU, 0x62305f6142cb5ebU,
  0xa0a80107e6f62406U, 0xdd27011709fc8af5U, 0xd8edf9deffe06638U, 0x1c020020f2210ff4U,
  0x150c1732d8fc2acbU, 0x6e9c9fb07edaf17U, 0xf6e933f7d0091f39U, 0x191fb9c801992404U,
  0x141b03cb24f3d51aU, 0x261109fae7fdfafbU, 0x2e4fe62fcb23eceaU, 0x50e51e3bfefab6fcU,
  0xd2bcdd0cd0360a0dU, 0x12d919f4d5dafd05U, 0xa2204e31d127f0bU, 0xff0a0317cdc70443U,
  0xb7f1a0037c2f1d4U, 0xe707ede01d0d3400U, 0xc0d60afe06f51918U, 0x105f9e7f1941a24U,
  0x2503d8dc14141308U, 0xf7fef3edcd014c0aU, 0xfe5ef8f3ccfa16f0U, 0xccf6e4e3be37fdfdU,
  0xbe93d6ec04ddd9ddU, 0x2f504dae920e6bcU, 0xefe904060323ba15U, 0x1703f826faf1ce06U,
  0xef7fe4590def3607U, 0xf1f017f42f080dccU, 0x30a5df011fb18feU, 0x1d16f741c1f16a47U,
  0xd6e1b507059f0415U, 0xc429ae24f40a1bf7U, 0x24f70cf6eb090628U, 0xb08fa3ef4d8ee14U,
  0xef1dee0b19349354U, 0xde17f796d2c21401U, 0xf6f3249ca71019ecU, 0xf1f3f004c7fe241eU,
  0xf7090a1d522013caU, 0xfe5d000100071c06U, 0xf3e61ee2fd0bfdf1U, 0xe27e1ed2aa805feU,
  0x112eaecf3e61b37U, 0xb19f309e31df0e0U, 0x234d11eac112fdf6U, 0xd80426190efdf20eU,
  0xe381e5f9efdbedddU, 0xec4510d6fedd3904U, 0x29fe1ff8eefbd0cfU, 0xa0fef011bf0f52aU,
  0xe24407ea1ee86bf3U, 0x6fdd7fb36f51cf2U, 0xdae1fdfe12f27f23U, 0x71686f59cfedec5U,
  0xda19bce8e3161117U, 0xdc055213f12dfbecU, 0x2f3f11d3aaeae7fcU, 0x7441531e3a12dd3U,
  0x36d2f3dfef4af90bU, 0xd02c06fff9fcd4d9U, 0xff1803f32aef505cU, 0xfc05002d2529fe54U,
  0x1302e0f516e900efU, 0x1925f0e51b0af900U, 0xedf2f500f5f907f7U, 0x141ce31b097fe60bU,
  0xf809d331f10de03dU, 0xd813d50b1f111af0U, 0x60316e88b141ce6U, 0xfbb9ededcaf8f3f5U,
  0xf1e0ee0cfc07e908U, 0xf8c4f413eb072ce8U, 0xf1e503f7061c0b12U, 0x1cf8f615ebe4fe08U,
  0x2fed114f1d51503U, 0x7f021d4b630401ebU, 0x141f1a1ee2bc1ebaU, 0xcfdc83cf504291aU,
  0x2cf60af602a0da1eU, 0xbf14ebe612f1f4eaU, 0x1a0c010321fce2f4U, 0x10eeeb3700ec170dU,
  0xe908e8d7063298e9U, 0xd48fb0cf6b5f834U, 0xe7931501ac330d00U, 0x772ee845ebfde671U,
  0x1979a7ed1ddcdb10U, 0xf11203fb3720129eU, 0x3be34bf505ac45e6U, 0x1d72f5d7f7ad6565U,
  0x262fdc2f15810c0cU, 0x1116ae5c3c05ea07U, 0x600fee63ea10ff2aU, 0x8fef43e251df01cU,
  0xceed930bb9e6aef5U, 0xda272a9fe1f40ee0U, 0xec2e7f09d433fb17U, 0xc7fbff40c1fd0e4eU,
  0xbd4b0af41bf31900U, 0x813e3e009d4acccU, 0xe6ca20122bf51108U, 0x1e048109e7b51e04U,
  0xf40c0504f511f821U, 0xdfecfce3eb3ffd05U, 0x16fe0ed5bcdc2fdcU, 0xdbe1f01937e306f4U,
  0xcfd09aeca23ecefU, 0xfc1bf119e51389f1U, 0xd5dd022203db457cU, 0x1534012514571cd7U,
  0xa2701e915fca01bU, 0xe203cdf910ffa70fU, 0xeffff0eb11fa6ef5U, 0x1517acd90c8a09ceU,
  0xea0fdbf7c121de1eU, 0xe61f19e7d4dcfeedU, 0x1defdaeba9d2eaecU, 0xdfff9f9b40c0dU,
  0x15f8deb7032a01e9U, 0xcf712e1ef0504daU, 0xcf5eed8261e437fU, 0xf259ff27ff09052fU,
  0x84f9cf639c9180cU, 0xfc10bee6441612c8U, 0x10ff2edb04d039ceU, 0x377f010cfbc03c28U,
  0xa12f8fb13e7d827U, 0xf9ecc31cdfe74612U, 0x4ffb15f8edf135f8U, 0x20be81c0508fa23U,
  0xf906b8fce511dc13U, 0xdfeb16cefec406f0U, 0xf32562ebe14b0b07U, 0xc0c3f005f2f202feU,
  0xd534f80505da04e4U, 0x19e020f9fed3ec0bU, 0xfa15e5f61c0b81f7U, 0xe0d7b419022efbe2U,
  0x16ff3c18e4370713U, 0x171e17e4e8dbedf4U, 0x100c1f53e8d7ff04U, 0xc107e1f8e610b6e7U,
  0x9ff01222e2f2f1eeU, 0xe123fe1400fd0b00U, 0xe00bfae5dc040e48U, 0x20f6fdd8ed1e04e8U,
  0xc2bf8e6dbf405f7U, 0x1f20bfb03180debU, 0x6ed09f7ea0e08e2U, 0xe6f5fbfb6201eb1dU,
  0xbea10e1f106e715U, 0xdc0ee7eb0cf1011bU, 0xe66cf5c2e60d1ff0U, 0x9f00a220ee30018U,
  0x7f6f913e5f8e8e9U, 0xeb4bf403f1ff1de0U, 0x1b090c0cf9fc15fdU, 0x1a1bf6010fd4061fU,
  0xd141406e9f47fd9U, 0xdffaede2093d23e5U, 0x8e011f5eee1f6edU, 0x15ec13fbff66fd24U,
  0x31e1dfe20e6db33U, 0xcff2e7070c1ffb18U, 0xf7f6f312c9f6101bU, 0xec0c04200af80cf9U,
  0xfbdb01dc06d60cf8U, 0xeb0c7fffdeece5e2U, 0xfaea0cedef0dfafeU, 0x31c0112f8001f44U,
  0xb29f5f7190b3cd7U, 0x8cfe3f42403ca0fU, 0xddfaf4db25e77ffeU, 0xf31cadfb1df40eecU,
  0x15f7eaf7dd0303eaU, 0xe825282307f4fef2U, 0x1f2614bfac0d0f07U, 0xfa61ff07f6b9fbdcU,
  0x40b4f7e6f21b09efU, 0xf80007e91918fcdfU, 0x12cb3110100c2b57U, 0xfb29fe3016380628U,
  0xe0249507f0effd0dU, 0x572213f7320bf0b7U, 0x40d1b1df8fc1ab7U, 0x5e0e08200fc5fe1bU,
  0x195106d4dbbee5e2U, 0xea54b556e00dfbe6U, 0x52d630b73afdcd24U, 0x1ff03537ddce4209U,
  0xd405d815022cc5ffU, 0xaf96fc2df2b62646U, 0x55e27837095aeed9U, 0x7f17d84b2e00d554U,
  0xff1f2e0e0baef8efU, 0x2504ffa7f88eeaddU, 0x240115f3f2f8cbd6U, 0x11ff1738fd2858ebU,
  0x3c570fd3fade3517U, 0xf52612622f17e1fdU, 0xd5e928e6e4f086feU, 0x8fc30f833e6fbe3U,
  0xefee10f6d6209f13U, 0xfd0ff4fcbb0c1c84U, 0x477fe91cc6edf903U, 0x1422bb143a1525e4U,
  0xddefe3176bcdfa0fU, 0xbf20f8d3f357230dU, 0xeb0204f42616c912U, 0x111cf1f50170e821U,
  0x29d3162bffc8c519U, 0xb9dab8041b65ceedU, 0x301ef9fa810549efU, 0x40460e21a3042608U,
  0xe6b9fcbdc203eec8U, 0xfde9e4e6ea1faebcU, 0xdfe849f0fb1a9b1eU, 0xad3cac0be5140c40U,
  0x61f121840105e09U, 0x117f08f7271509dbU, 0xebd21608f0cd07feU, 0x1d0df722efb1271aU,
  0x2220fff907d6f52aU, 0xf52efeefdb07280aU, 0x14d0610a84d1d10U, 0xa2f352c2c03d9ffU,
  0xf36f42afe15e211U, 0xf05660f9f0f2f1d5U, 0x2929120506faf300U, 0xd90d1703011af917U,
  0x202bfaf8fc2824e9U, 0xf1f9edf4def4f4f7U, 0xfceb25ee1007d3e3U, 0xe412a3fd21b92af4U,
  0x1a0150e117d0c9d4U, 0xfb1e3d05f5ea04d4U, 0x1be20628d8f9151aU, 0xd031f7000b44b3e7U,
  0xc93de9301124c7e0U, 0x5070ddfe0fbe7e2U, 0x26b5f8040aea527fU, 0x18fb0028144c0e3dU,
  0xfefefcc5fb1c03adU, 0xf30fae90909f00cU, 0xe0cbf816e7f2150fU, 0xf30a810bd0c42e0cU,
  0xf40bea1ce0f5e820U, 0x521ccf8d72afad7U, 0xff3fedffd9101400U, 0xe3b9260116dac511U,
  0xcbd306191500f230U, 0xec2512e3ebf81cf8U, 0x30a38f9d514f2faU, 0x22ea071a16f1e030U,
  0x297fc0ee25ef0eafU, 0x10ed9fc2f0b03b6U, 0x3a072de226db33e7U, 0x1037e62e0cc2395bU,
  0x30189a141fc7f729U, 0x159b2a1a084113U, 0x3902edf0db0a3f45U, 0xf20fb55a22eef729U,
  0xf100b804d00fa219U, 0xe50c408fac1d0cbbU, 0x1b1648e3c745f601U, 0xcaec051dd50e0433U,
  0x401001150fb12b7U, 0xed18fafafd13f302U, 0x2f905e8fc060211U, 0xff05fef9fbe30608U,
  0xf70c0425eef3f41aU, 0xf4fbfeff05f708fdU, 0xf800fef4fef00c07U, 0xfa010c0a0501ff00U,
  0xd67ffef5010cfcf3U, 0xfe2214f90412ebe4U, 0x203faf506f3f2U, 0xdcfd0b02fff70004U,
  0x1c6ccdec071f4ef1U, 0xc0a01043213f8dfU, 0x3d4537ee1a0409d5U, 0x5216fa1510ab282cU,
  0x447dcfb38eef21bU, 0xdc26b421251211e8U, 0x250a6c19eee44ccdU, 0xafe81320705d411U,
  0xce008d818cd76U, 0xf02001a8cc04f2d0U, 0x2d0435e4cb10fbf7U, 0xdff9e4feea09d038U,
  0xde2cfc182ae7fbcaU, 0x9def2f11a0701f9U, 0xd7060c11e3deb40eU, 0xf4e7c20bef4dfbf8U,
  0x210ffffc14fc0e1fU, 0xfff8dfecf9070be3U, 0xf415f81cd0f1fb00U, 0xf2f0162e0409d7edU,
  0xd1bcdf08fffd0c02U, 0xf00a08fa1bf3daf1U, 0x2203230e0707283cU, 0xf931ff1cede2fe36U,
  0xf61df31902fa1081U, 0x949fafe0614f4fcU, 0xf31409ec0dea08f6U, 0x1106f9fbfbe20405U,
  0xfe0a0f3c09e80512U, 0x108fb070202f3f7U, 0x11c0fbdaedf80302U, 0x25d41901f80d0414U,
  0xe57ff0f71415f1f3U, 0xe953e5fcf40cdcf2U, 0xf9fa0af5ef16f5d9U, 0xf40cf3101ae9010aU,
  0xd4f0e0100909220dU, 0xb1fd5f0160e3a05U, 0x10182ce71cfef3bdU, 0x8341607f746fa23U,
  0xf04603f024e0f460U, 0xdb35c0161d231315U, 0xf9cd09fdbbfe350aU, 0x3d81052b0f1d0704U,
  0x2cc06d5ebdefec7U, 0xe04949e315d666dcU, 0x40e820def3e930e4U, 0x50967fee1f30c49U,
  0x142108e62814efd0U, 0xec07ecfbf901eb08U, 0xcc1107f403ffbffbU, 0xf60dcffae2aef41eU,
  0xfefafefaed0ae6faU, 0xe31e1410040d14f3U, 0xf6f6e90ce2131106U, 0x19f91b00e5e3f911U,
  0xd77f120af80eeff1U, 0xfd0007130b15e9f8U, 0x3e71f0ef5f43c63U, 0x434fd230df2e2c1U,
  0xfbf2f703ec26f40bU, 0x170d06f2074222f1U, 0xeaf90bea071203ecU, 0x120111077ff71cU,
  0xf3fdfa46e0e30738U, 0xec05e306050f0204U, 0xecff8eee1e51d07U, 0xecf4fe0b19021607U,
  0xeb71f7fef916fc01U, 0xcfbd6faffed2dd1U, 0xe0008fae607e1f5U, 0x1c1120fbfffa0417U,
  0xeae6f9f30704U, 0xf70df306f206cffeU, 0xf30f16031ce2fa1fU, 0x50f010f04811528U,
  0xfcfa04ff1506e0feU, 0xe3fd0815eeef13e1U, 0x15b9e1fceeda17f8U, 0xbf6f121fc01fcf0U,
  0xffebe903011a01e2U, 0xd5f21d0819fde308U, 0xfb1411ece71d3b42U, 0x10e090103f7ec32U,
  0x18ea3b09eaff18U, 0x2f504e7072c0904U, 0xef13fffd0f2f01e3U, 0xf211f8f5ea54072aU,
  0xdae7f04ddfd5dd33U, 0xccfdcc18fc0be2e8U, 0xf3e6f1e581db1fe1U, 0xee9d08f7c9011917U,
  0xd753e9dbe3fced0aU, 0xf5bbc5f2f0fec9c8U, 0x7f6fef4f61ceeffU, 0xed0bf30a1bf7173bU,
  0xc81ed131faea3816U, 0x111c11002210d013U, 0xfdd3fd1926d2b0e5U, 0x61bd612fd064205U,
  0x39fc2c2002c4c507U, 0x603b12f0dffff08U, 0xb26271ff0220f32U, 0xd02d08e3a3280304U,
  0xf09dcafaf615df01U, 0xbafef3f607dc4adbU, 0x1f2114e6f2f03a47U, 0x31faf2f50807d865U,
  0xf2f30316f63a1181U, 0x3fdf9f9073f25efU, 0xf9f708e70716f8f1U, 0xfc0d060d067ff413U,
  0x12f70824fae0ec0aU, 0xe605def9001d0006U, 0xfedbfffedd052500U, 0x7fe0306fb0400f9U,
  0xfddcf3f2f907f1fdU, 0x7e1ec050aec0be0U, 0x5fa0df7f1000601U, 0x1ffbfaf9f00b012dU,
  0xe83ae2d611f422e4U, 0x2d0c35ca1cde1a05U, 0xc5031b3af3f4c1c6U, 0x1bccd227f9e5f0deU,
  0xf332182e44fddc0eU, 0xfa22e315f05c551fU, 0x32f2592625def411U, 0x12f5d439fb35c0e6U,
  0x8f0119fbddb819b7U, 0xa7ff5d15bfc41cc5U, 0x48f62c202efa0e15U, 0x3e26813b01e2c820U,
  0xeb29f813e1b1d9c1U, 0x24039f3040d0809U, 0x5210a09140594f1U, 0x5f6a4fb227f0ff0U,
  0x1b025020f420fd34U, 0x21f625101d10f811U, 0xee1201fae6fbfbf2U, 0x2be8fd0f132ad325U,
  0xd6dfed3e13e3ddd6U, 0xf02103ec28f0b3f2U, 0xd7e3e3defef5712cU, 0xbf8fff3ea1afd27U,
  0xff15bdf20c0c0e95U, 0xe809c8e1213606b7U, 0xeff46dd03fe14e7U, 0x3233e31c25df1e36U,
  0x3c2eb51117ad0059U, 0x181d811bcb19300aU, 0x4df416b900030216U, 0xf6f5ec43f757e838U,
  0xfbf7b6000cfeb630U, 0xe60e029bb5f0fe36U, 0xff1547bda93f1010U, 0xfac2c036d4d2001bU,
  0x166bfd0a42080abcU, 0x2853c0f2492b010dU, 0xd8f5fefe0ded7f0bU, 0x1129e4eb050603bbU,
  0xec00af1fb730de2dU, 0x1d1d2010e5fb090cU, 0xea21f8bda9da04f4U, 0x11c1adfb1b3efffU,
  0x211714d6f126f7f1U, 0x112d07f3ff3812c1U, 0x1aed1ae5f80b24ffU, 0x421fbf915261205U,
  0xe1f01edfccc41efU, 0xafcba01dd0fdefbU, 0x2eede8b9f4fbea18U, 0xfe1cb2d908e107e8U,
  0xf746dff9f4fef72eU, 0xec00eaf523f3eadbU, 0xf5ee08eb8a29c2f7U, 0xf602f2e112fb7501U,
  0xf804d4ddf417fe2fU, 0x30edc01fbd18103U, 0x124e18e3020ef828U, 0x406e424d6c705dcU,
  0x923c4c514f3e821U, 0x3418f3ff3d1e0fd2U, 0xf2ff201fece539caU, 0x1d0e0346ebdb2144U,
  0x29ecde43f29ce42eU, 0xe2e8c2f0f31e1cfbU, 0x2ff904f6fef735fdU, 0xf4e6d770070d2249U,
  0xc5d4041a49268138U, 0xf2eb03e0e8da21e8U, 0x91b07b4a630e8fcU, 0x48d9d13cfcf9e3c4U,
  0xe205cb1b46d0fbcbU, 0xe8fce9ed631905cfU, 0xf0e35b040811fbd1U, 0x244d03de2f281a69U,
  0xf0d40c2916c4055dU, 0xed08da1cec2c1503U, 0x3116e125cee02f09U, 0x3f1074832d61346U,
  0xe008810dffe9a301U, 0x2e28e3d8e0f9e825U, 0xfb073b95f95fe609U, 0x33420f30c405de28U,
  0xf47ff1f156d400aeU, 0xbf213f62afdfcfdU, 0x4f73016fae0e3ddU, 0x17170416ed011919U,
  0xd0fc12dd06f1e0ffU, 0xc32bc9f9fa0c150cU, 0x3118e5db1cff0903U, 0xfbc80114ebe40407U,
  0xcfcbe1fcdcdcdd1fU, 0xe8fefdc9faf2fddfU, 0xedff26d1c910f908U, 0xbf9f00c0707f253U,
  0x17220d9b1bfbed04U, 0xf63ac9f44b20f2edU, 0xe12aed332b03e4baU, 0xfa14cc134971e439U,
  0xefe8e86af7dfa13eU, 0xaaddeb250f4021efU, 0xced17c7a5e82433U, 0xd1512236c73a54e4U,
  0x2cd2fedef7f9c2f0U, 0xc894a31ad5f07fcbU, 0xeccf2231d5204016U, 0x1653d11de4ecb85eU,
  0xffe6a82ce2f5100aU, 0xd03a4e02f1805ecU, 0xf2f7081cfa26ec2dU, 0x281f00dc094becefU,
  0x515f813e7c0f77fU, 0xba31df070c03f8f7U, 0x36080120d6e3fae8U, 0xfbedfc390fe938f4U,
  0x605da1fce47a8faU, 0xf903cd11d4ceecfeU, 0xf2d250ece9130607U, 0x3ef5f759f400f908U,
  0xf7221207ccf5f3e0U, 0xf3df0ff0de02afecU, 0xe5ff08100111a906U, 0x21eba41844002033U,
  0x462c0de81c0ec813U, 0xba0bdbdb011d222aU, 0x181cecebc6bc09e8U, 0xda7f25dcc6cce71aU,
  0xc017005df9f7bae7U, 0xc8f40b0af0ea17f5U, 0x26f604e10e2ad35cU, 0x9d2d02fcd4f5d7b0U,
  0x3150bc28222d2bb5U, 0x1f16b2dc3d30ffcaU, 0xf7ed2402e7faebfbU, 0x24d1eaf6f3e13836U,
  0x182d00062ec51438U, 0x834b811b061c2100U, 0x42f91830d8fa114cU, 0x1fdf63efb06f81fU,
  0xd6ecac07320ebbbcU, 0xe93807ba0aece812U, 0x262b60ec962d0deaU, 0xe4d7e913c90fddcaU,
  0xe079aae834070999U, 0xecf6c8b43b06fbb7U, 0x20f62d15dfda051dU, 0x311cf90efdff2368U,
  0x311f0524fb8f56dU, 0xaf22b64206f30512U, 0x7ff92ae1dc1d13fdU, 0xcfe0b502207d534U,
  0xec06a707e02fcf68U, 0x203dfc08b00e0df4U, 0x230876c3933cf8efU, 0xc27eb47b719c72eU,
  0xdd34f99e472406afU, 0xd091ff4260afff0U, 0xccdb1beaf7127e05U, 0xf6fe81f6e34d0ed1U,
  0xd718ef19f232f02bU, 0xedf74b130305f8d0U, 0xdb2319cabc07dbfeU, 0xf5ba1c0f0bda13e1U,
  0x55f50b97dcdc1404U, 0xdd1f0ef6f7f0f5faU, 0xf6eff3f51ceb2473U, 0x190dfdef2b3e03f0U,
  0xf91c101ed7e2f105U, 0x102d05ff04e7f815U, 0x8d902f30ce2dd15U, 0x16f1bc040f811c1eU,
  0xfe0b1513ea0202f1U, 0x100ff7f3e80ff92aU, 0x13011708ddcf0b0aU, 0xf40106f61c15ee17U,
  0xdcf10c06120b0309U, 0xecfbfbf112fff4edU, 0x15f30506030dcc13U, 0xfdf4fd0602e40d12U,
  0xa382f310226deefU, 0x8e33ceeb90327f4U, 0xe7f61efbf7ed891cU, 0x44e18b38c07f554eU,
  0x2c020edd2a0fc3eaU, 0x2bd73fece8201abeU, 0x42e7075de3cf10d5U, 0x6600354d1739a7d9U,
  0x9ba529e32e1aadc9U, 0xfa010cdc24ef60eeU, 0xfac81f0cf4e9aa5fU, 0x1ada04fa17d9224fU,
  0x4171dd80414fa92U, 0x10e3c80600f7f6f4U, 0xd9ecf503f2155e1fU, 0xee37a60929e80edfU,
  0x1000becae61b0be3U, 0xf5292d1ae60c03f0U, 0x23ede8bbbeeb03f3U, 0xe2816e9f4ce1fd6U,
  0x381609dd0c39ddd7U, 0x80315de0c03f6f9U, 0x1b08070f0800297fU, 0x73c000af12d0cf8U,
  0xef16fae612e72e00U, 0xeee2905fa0ee3f9U, 0xfc1dfb020619ce03U, 0xf9e0db14fe7ffc13U,
  0xfb1525f70610e205U, 0x19f608ea01e5040fU, 0x100cf933eefcfc0cU, 0xafb04fa0023dc15U,
  0xc2fcfe0600fdfe01U, 0xf81c0208fcf50cfaU, 0x8edf704f4f40316U, 0x30300edf7121815U,
  0x1f1bcb2f09eb1bc4U, 0xe8eebc01f617c603U, 0xed6020d35c1fdc5U, 0x1c21e6e2eb812f0eU,
  0x342cf7dc40ea0b0fU, 0xeb16da0a0f4c5a0bU, 0x240ff6d2f5e3181cU, 0xa0526230e053801U,
  0xa37fffa0410f8b3U, 0x90f0c012a0fd1U, 0x2dfc58dd16103f4bU, 0x4c150028d7021605U,
  0xd05023fde2U, 0x139ffffff14U, 0xfffffd40ffffffacU, 0xffffffddfffffbc7U,
  0xfffffd06fffffebfU, 0x57000000b2U, 0xfffffe5cffffffefU, 0xffffffa4ffffffecU,
  0x4bffffffa7U, 0xe7fffffff5U, 0xfffffea4000000efU, 0xfffffab5fffffacbU,
  0xbfffff931U, 0xffffffb9fffffb2dU, 0xfffff8f200000026U, 0xffffffb70000011bU,
  0xfffffc1cfffffde6U, 0xfffffb29fffffc40U, 0xfffffd1800000004U, 0xfffffba9fffffc53U,
  0xfffffe2bfffffbc8U, 0xfffffcbdfffffb20U, 0xffffffe6000000f0U, 0xfffffc38ffffffccU,
  0xffffffffb3U, 0xffffff29ffffffc3U, 0x15afffffb1dU, 0xfffffcb8fffffff5U,
  0x1e000000d4U, 0x100000091U, 0xfffffee8ffffff00U, 0xfffffe5a0000010cU,
  0xffffff55ffffffeeU, 0xffffff7bfffffbf0U, 0xadfffffd5aU, 0x4bffffff72U,
  0x6b00000009U, 0xc8ffffffa2U, 0x84000000abU, 0x92fffffdf1U,
  0xffffffe9fffffb6bU, 0xfffffdbefffffad9U, 0xfffffc91fffffbe1U, 0xfffffe37000000a6U,
  0xfffff9d60000000cU, 0x13cfffffcafU, 0xffffffd400000000U, 0x41fffffff3U,
  0xb096ffdffffffbcU, 0x306f3deca0646fdU, 0xf2f914fc041b0c81U, 0x120003f6e5e41a32U,
  0xcadb391cf80f15U, 0x310012e2e351dfbU, 0xeefa08030603ef0eU, 0xd504e8f50a000603U,
  0x16e9ee11090505b7U, 0xf8f713d609fefbfbU, 0xdddf030d10fdacecU, 0xf505e1ea04ddf6f1U,
  0xc1c34140401f8f5U, 0xf907e1e213f9152eU, 0xfc1b09140127061cU, 0x1305ba03d2f125f6U,
  0xf2c25f2ff0d19f4U, 0x12ea16ee7f0918eaU, 0xeacdfa0e15f910f5U, 0x2401ecf01f1e0812U,
  0xfefb0b061d140ab4U, 0x15f112ea1705f211U, 0xd1e905f9f60bf5e8U, 0xf710442201d6f2f7U,
  0xc5abd0a6010e09f7U, 0x9fb3c1f9e4ad1322U, 0x83a7d2b8d6ddb0e9U, 0xb9b514d3242ae1a7U,
  0x83dd09eed581a022U, 0x8d2bdbd60ffcee0dU, 0xf48aa4ca8ed2bdc2U, 0xd1bf8abdb2d98fa0U,
  0xd5a9169aa9abbb9dU, 0xb5949f918cd787b4U, 0x2b1db9b01db801a4U, 0x8f9eff2ccb08c404U,
  0xf30a31f6afa091ddU, 0xe17d6dae0da912cU, 0xfc0eff12100600faU, 0x4f91defbad9eae7U,
  0xf86218d8ee021f81U, 0x1f1fddd287e306d3U, 0xe405ef22fbcbf6faU, 0xb71df9110ce60914U,
  0x11f235101a17f802U, 0xf80b1eea0af30f19U, 0x291b0e12be0bfee9U, 0x91efecf12eff4e2U,
  0xf4047f14140e0900U, 0x221fd7ef21d04311U, 0x13040316122b1022U, 0x160a1e13eeeffe0eU,
  0xb38c83cf610f901U, 0xd4d45eec3da0dd5U, 0xf703f707fc15f212U, 0xa313e1f223091619U,
  0xf9f201232004f1d6U, 0xbee0af122011d0aU, 0x3db152014fb05e5U, 0xf8fee61a13fae747U,
  0x5ae7d5a1f7131c13U, 0xc6d19f00e334e31bU, 0xbee9a5989dccb7d6U, 0xaaacd79ade1914a7U,
  0x9f001113cbb394bbU, 0xacff2a1713e8ebedU, 0x1998bfbfe80599b2U, 0x7fb6d6c9b7d89ca9U,
  0xfae32799cfa998e8U, 0x9ad2caaac1979fc1U, 0xc13add000b9d79bU, 0xd4961404bd17ea00U,
  0x7bfaeb5c8d9c6c3U, 0xf1dd85f8e3b9f706U, 0xdfdce6f9f4d4f603U, 0xfddcfdd8e0eee78dU,
  0x2ee0a2014b7dbc1U, 0xde0fee50e8e31d05U, 0xfcd7bfcfbcf6ebdfU, 0x1ffcc0c0d003e4e9U,
  0xa81feb6d491ca86U, 0xcec7f9cfd38c96d9U, 0xe71c88ce02c4f3d6U, 0xcbc80712f4cef411U,
  0x898db6d7c1bd04c5U, 0xd6a0941aaed9240aU, 0xd28aaf05d6cf88a8U, 0xc7d4d9defb181fb1U,
  0xb5c1f1e6b39c8f0fU, 0x97dae2fc2823eaf8U, 0x2ddc0dc6042ae69cU, 0x98dc85a382dfcc86U,
  0x7d213d381d293a1U, 0xb6a4aa819d9f8ca5U, 0xf4bd17d40ba3a9ccU, 0x95a9d7e6a4b5a8daU,
  0x16c0bcb384a4a88aU, 0xdd97d5d8a4bf1e21U, 0xc2aadebdb51dcd01U, 0x99ddf2c813fb0ba1U,
  0xd5ee0efbe6aea8f4U, 0xc3f6f121f60e1c2cU, 0xfc281893dbd9d0ebU, 0x9190d9a59a01cd8aU,
  0xded0fdfa92fca3bbU, 0xa99127b294d0209fU, 0xffad4d82693cd81U, 0xc78c29d9bbf6b30bU,
  0x42ce43d5b089c3ceU, 0x17c6b8fd37fdf5f9U, 0xb2a8aba48851cb1fU, 0x81c1e3bf09df2514U,
  0xdc09eeee10dccea8U, 0xb4f5170532d9d918U, 0xe2c10787b1ff829eU, 0xd3bcf7b4900ba6b0U,
  0xf7c5ed9982a8cecdU, 0xdc9c6cd8b0e292c0U, 0xe70268b1f8bac7b8U, 0x8fc82bf293e1c308U,
  0x8807f73524909c8aU, 0xfdf7a830ca0f0f1fU, 0xe7ca05b581a6ca1eU, 0x9fcafd988fb4c6cbU,
  0x9921cb9c12cc93c5U, 0xbf0194f229cb33f1U, 0xc2f32d6f6a13c02U, 0x3ac7edf7cd3d89c5U,
  0x2e7220e2dacf90aU, 0x21ebe8ff2ae9ebc8U, 0xb50c12d12ae1d1b3U, 0xca93c2fc122eae20U,
  0x6fdd105ac93ed31U, 0x5f61405101b1ed5U, 0xfef7fcf2020f0213U, 0x8020d01ecf6fae3U,
  0xf84d10effbfe06e3U, 0x12101827e70b04U, 0xb8d0704fff5efffU, 0x4402070b060a030cU,
  0xf91308f202f90981U, 0x10080c18f5fbf60dU, 0xe119ecf9fc05dd11U, 0x70fcaebfc18f9f2U,
  0x3188ef81fc070307U, 0x3fbee0fad0ee08c4U, 0x89299eb4e0d0fc04U, 0xff3e3f37aede05e4U,
  0xe626b30fbaa01ab1U, 0xe68b1e13f1033a0cU, 0xf627e6a73e0ce1a3U, 0x890f25ac2b251190U,
  0xab23f8faaed2b52aU, 0xb2d9a82dff9d33ceU, 0x3c0d953fc602d7a0U, 0xbba308d58b0a8f07U,
  0xcfcb92b1823afc99U, 0xc59ec7eed3c61581U, 0x8d939fa6ba90b7c1U, 0xcbbce5b90eeaf1caU,
  0x94951315a7a8a005U, 0xb4ebebd08dd0e0bdU, 0xfadca3c72bf7989cU, 0xd1cfa7c7c9fccf84U,
  0xd6ae1c9784cc97b9U, 0xb2b6cec1c4b82d93U, 0xd1abfba0959bd3d0U, 0x9ba103eac6bb91beU,
  0xe90994019ab79d82U, 0xfa0ff6ffc5ce8121U, 0x13040e100a26160fU, 0x291e8e1800e1e58cU,
  0x42c14eaeaf915beU, 0x16b41827b243bfc1U, 0xe3132026ee0e0bf5U, 0xfe05fcfb0cdc2521U,
  0xbfcff010df8fb1eU, 0xfa110c020601ee21U, 0xc0fb60e990ee40eU, 0xfb05c12a0d561544U,
  0xeeb615ddf40f070fU, 0xfcdfd221d0f3efc5U, 0x93a5f4d69b908110U, 0xcda3f1e61d223713U,
  0x820c11cc3bb0a2f9U, 0xc3ea313ecacbda22U, 0xf8dbf09b19e5e3U, 0x38bf7afb01ed1eeU,
  0xce23dbfc7a4810fU, 0xceebee9aeb87e0bbU, 0xda011691f9f5f29dU, 0xe28fdfd8aa07a9c2U,
  0x90ca616d5b6b99eU, 0xfe070e15ad0543d5U, 0x1107fe0606060f97U, 0x17ffe114f5e4e481U,
  0x8dd03d5d9190f31U, 0xf012706f002fff0U, 0xeb99111005120416U, 0x4d05071608e50c13U,
  0x5f1040c0bf8fcdfU, 0x50f050515150517U, 0xccfae006e713580aU, 0x61afbfd15b20c2eU,
  0xf1ffb3fb0bff0c07U, 0xf10104f1fdf6f1c6U, 0xfefff1f900f4fc1aU, 0xf50203f6eeeb00f7U,
  0xf727f9f5f6ed00f1U, 0xf4f9ebe6f60306U, 0x25be06f6f9f7f602U, 0x13fe02ff02ecf8f8U,
  0x61413fdf8040381U, 0x20bf210fa051004U, 0x606fcf9fb020805U, 0xf5fdf6defc3afff6U,
  0x1a1a2d19f303f2f7U, 0xfd15f9ec0201e509U, 0xf10f0afa201e03f0U, 0xf913df13bbd306d4U,
  0xfa05dbfaf81602a8U, 0x5000fd8087f14f0U, 0xf8e2f312fe280817U, 0x1afe0d110cb02201U,
  0x7e015f901f20abcU, 0xfb0b01fa29f1e60bU, 0x12d8e711e10a07fbU, 0xfc120d0309cf0619U,
  0xf07000205101e01U, 0xfcdccffc29920db4U, 0x1e93c49c2706a9dfU, 0x3bb82dbfdfdcb9d5U,
  0x83c6a2e0edaac03bU, 0xe887b9bc8ef003d9U, 0x84ffe608e8a10de3U, 0xd1921eec16be1116U,
  0x90eb943da80a25e4U, 0x2b093cbd171fd8c1U, 0x19728922889fc81U, 0xf28f432340eebb90U,
  0xf80d58fcf9291f96U, 0x1506ead381ca1dc5U, 0xd1e1d00f81e18b5U, 0x18f4ceff0ce60809U,
  0x61df7e50ff401afU, 0xcce1dfdaa10e5ccU, 0x26ec0d1008f90604U, 0xb4fbeff418201e04U,
  0xf2f60321fcfaf812U, 0xf5ff0dfcfaf70510U, 0xfabbfb11e708b5e9U, 0x30401210a2bef08U,
  0x6f6810300011e0bU, 0xf601f20436f4ca0aU, 0xf9f6fbf6fbfaf2a5U, 0xf9f326ff000bf6c3U,
  0xfea20eed380305fbU, 0xef13002bfaec06U, 0x17c1f505fa1006f7U, 0x10ffeefc0507ff05U,
  0x1bf403ddfde8eb33U, 0xf6f709e900fafcf7U, 0xf6d3c9041af660ebU, 0xfff709f6f1cbf6e4U,
  0xc8c3c61bfaf8fbfdU, 0x181319ece8d5ffe6U, 0xeb931987d39f3301U, 0x86a52cdc1bb6cc41U,
  0xc2c315ac311c11bdU, 0xaa8132e7b9b6b4a9U, 0x3416bb2152e8888aU, 0xadd0382505ce0dbaU,
  0x353ea2d831d997ebU, 0xa52dd3c80ced0492U, 0x97d5a3e4d3cb9eeeU, 0x13a5c43beb8eddU,
  0xd40f0902ea3405e7U, 0xf1981c2802afeeb6U, 0x398be1a88d8383d4U, 0xf6b88b3ac630412fU,
  0xb781251487ef2ff1U, 0xef9dffd128d1972aU, 0x414d9dd0041a08c3U, 0x2db163328e40d93bU,
  0x2bf1e4dbd61d97c5U, 0xaf83ced12c323d82U, 0xe7d93bd1e7eb33cbU, 0x16ad33e212f4a013U,
  0xeffb6fdd7e2e2acU, 0x1309e2e904c3c719U, 0x162306fe0a05fa16U, 0x1909d80bbaf1e681U,
  0x70eda05310522f8U, 0x1ec90dfcc8feee03U, 0x24dd140ffa020813U, 0xea1c00f112f51c13U,
  0x5fafcf309f70708U, 0x100f0efefe04e01dU, 0x1111f01d04183b0eU, 0xe1f1ce00a3dfa18U,
  0x1b9694e0040ffd0dU, 0x8b9b8a0f2020d0d1U, 0x9bfa09ca929c98e4U, 0xb681c51b29b99c97U,
  0x3ccd333e0e38343bU, 0xf0159c1ba9d6b1e2U, 0x8cb99101bcdd9294U, 0xcb16adab133d3101U,
  0x8ebc3514acc107f8U, 0x134010e9bdbe471aU, 0xf4bbe8068984c8d1U, 0x31dbe98e14ca9f3dU,
  0xdeb58b130e37853cU, 0xb297190994049281U, 0xa1fa39c8df878b81U, 0xe2f6fdb687f79af4U,
  0xff3195d035ac40f5U, 0x400db1e33e0f6ceU, 0x8e00b422c443deaeU, 0xaaac2f133c9cb8f5U,
  0xacde43d9deb3e12U, 0xb0e2d0fd42edd05U, 0x19cac495a31c8994U, 0xc4f2d085a18fadecU,
  0xb1d74ebf602fca4U, 0xfa12ea28efcc5026U, 0xfb0f1d0c17100776U, 0x22ffe3030de2f029U,
  0x4709d3baf61de4U, 0xf203f9f803210be5U, 0x8c1500070ac700fcU, 0xe319f8fa04fe1918U,
  0x12f61617f90aead6U, 0xf9f606eb12f80c02U, 0x18f1f404cffe81e2U, 0xeffedf170b1b02dcU,
  0xa9a7e4dc0dfe2411U, 0xdbd3caf5fa84e7a3U, 0xb4d8f8f7b0c7c6cfU, 0xcdeeedcdd61cef81U,
  0xc522e2db33cbd6feU, 0xc6e5e1f0c61aefdaU, 0xe9a2b8b7930ae3d9U, 0x38d79eb4c10ecbdfU,
  0x1bb60dc0d8d9a4f8U, 0xb3afb2bfd1b1ceebU, 0xfcdad3c4e4ab1ddcU, 0xb89cf2dde211c72aU,
  0x8ab6e7b1c9e5cb04U, 0x89d6def5e8d1e5ffU, 0xcd8ec8b8b5c9afd8U, 0xcc8511bd130bd918U,
  0x81acf3fdbbadb1baU, 0xde06190e04d1ed1aU, 0x1b5c6d49a9abe9aU, 0x68b959295e4b3c1U,
  0xc0c8f8bab092acd5U, 0x8d8c9bbc86ae93a8U, 0xdcf49d8e09d9aaadU, 0xd58313dca597b815U,
  0xf4f55cf2878d8baaU, 0x7fef9fe81fc41e6U, 0xff0b0c0300fb07a1U, 0x7f907f502ed0212U,
  0x4df072618ef0be4U, 0xf7fc2308e1200b1cU, 0xe534fb08f402ff03U, 0x9e02fa00fc0e0405U,
  0x6fefa0100fef12eU, 0xf2f801e9f5f8fdf1U, 0xebf6f30d0804c5e7U, 0xec07001ff41f02fbU,
  0x808e613f80309f0U, 0xd03eff8e7f1050cU, 0xfb0c0c170f05000eU, 0x10f8811503efeaaeU,
  0xb2ae60c1d1314aaU, 0x1dbb290df508fed0U, 0xdcd7101af21813feU, 0x380fe90425220a07U,
  0x6dceeef0cf70bd6U, 0xf209f7f1140cdb15U, 0xeebba02d402fd0bU, 0xfe091afef60af83aU,
  0x2388fc090918210aU, 0x40218497b8a2696eU, 0xd0a2aeb7cc1b1b2dU, 0x9309a9949321cfa2U,
  0xb399bd9a7d5a0b8U, 0x4a206066e776aeacU, 0x90d45d97b8e71f40U, 0xdf92e3ddb63dbda7U,
  0x9c56b79793965a27U, 0x958179dbd85b0bdeU, 0x5becdc0667ced66cU, 0x1c4f65fe56bd3689U,
  0xdfb08e98a0066f5eU, 0xf8e1a0dcd8b6ddf2U, 0xe6a3e710190901c2U, 0xe8f6eeefd41bce9dU,
  0xe4f8d80bf8d4d11aU, 0x9eec0b15bbd10febU, 0xe28af0e99b16011cU, 0xcddbc9f781da178bU,
  0x5c8f209fdd4c4cdU, 0xccd5e18bd5b708acU, 0x9fefc0f00d3b59dU, 0xa1a819d0c6f606edU,
  0x84aceba9e3e1cbd2U, 0xc9c89c182ba9c72aU, 0xb4b4c5bd9bc38b2dU, 0xa1ce1695f7fc153bU,
  0xab61e7213da0b5b8U, 0xd32113e454f70b03U, 0xeb089dc1cdf595adU, 0x478dbfa08f21b7cdU,
  0xd8f41cd281da95d7U, 0xced0e9c699e9e387U, 0xf41d8f8822c31395U, 0xdc90d50ccb5fa1feU,
  0x1dc633f1b3c392aeU, 0x1fde8a0a2513a836U, 0xaef23e162ae4ccd6U, 0xbb90bcd4dcbb8b33U,
  0xd1826c12b22f5a0U, 0x13a322add523391bU, 0xb48c8390c7930708U, 0xd222efd307d0d006U,
  0x1d139ccc25a390d6U, 0x81a63ac19de1118bU, 0xe5c2a6e4a0afdcfcU, 0xcd8d11104dd4bccdU,
  0xc3b9400005f8b4a5U, 0x27a08b8aa1b1a5c8U, 0x2937140ddc8d84b0U, 0xf0ce1d3783e48d17U,
  0x8a3b98f5ebfef8caU, 0xb2ab01d88b3c8beU, 0x14bb8a9ba00af3feU, 0x2bced6081281efbbU,
  0xddd22023349b3ca7U, 0x32839304b64240edU, 0xd6eb980af4b2b5b0U, 0x1c493132ccfab1aU,
  0xff1566eed72bea08U, 0x211c636e0cc1069U, 0x91b1509f81e0e3aU, 0x180a2108eded0cf3U,
  0x17dfbfe1ee810cdU, 0x4f5150a0431f9deU, 0xf05bea0b0cf6fc08U, 0x8116fa01063b16ebU,
  0x14ff06020ce4fb3aU, 0x3e9f7cb16f1edf5U, 0x3f0e410df12d9f7U, 0x71ce0ebff29e42cU,
  0x928bb390e8f7fc0dU, 0x81aeaf2dc3f9d7dcU, 0x8b9fd79eb9d9a7c8U, 0xa592e79de7f512e7U,
  0xc3dcd2eabda9a8aeU, 0xa50ddbf2d90fd7dcU, 0xea9dd9acb6deb0c0U, 0xd190dab98a09a4d5U,
  0xd5cb2b9c870c9fa2U, 0xd48dcc9ea4c28a9aU, 0xa2b5bbb125a78685U, 0xa0a0e9f2c9abc3b3U,
  0x9fdd18d1aeddc79eU, 0x988d9b1e12c410d5U, 0x84d1d0b3a283b1ecU, 0x8a86d2a606210526U,
  0xd8d71c1490b1bed3U, 0xcc1addd22103e4faU, 0x2a81a1b293958dadU, 0x1ad5d8cbbf2589c3U,
  0xadd4258ea7a8d8cfU, 0x939d8fab86c8ca9bU, 0xdee4949df1adcca7U, 0xb4ad0ff3bdcb9113U,
  0xfe073e02a0868485U, 0x7000100be052befU, 0xfe040affff030281U, 0x308f1fe03f0fc13U,
  0x4c5f008ed080414U, 0x215080526df0105U, 0x16d8ff02050afb08U, 0x1107fffafdf801ffU,
  0xfcfdf9150204f6cbU, 0xfbf304effbfdf7feU, 0xd5e8ff03f5fec9faU, 0x605fe14fcd5fcf5U,
  0x13c089d5fefc0804U, 0xc81e0ad590fbd9f0U, 0x825be05faeb1bb9U, 0xf0e1e9d0f5cde5d5U,
  0xf3d031f7e71de418U, 0xa26e3d7ea35e6dcU, 0xdc81eac523e3e109U, 0xc3c5c8deeedebeeaU,
  0xde140fe1cad2edadU, 0x13fe200bc4ca07fcU, 0x12d9ea09e8eba7c7U, 0xf0eae5f0c2d104cdU,
  0x38d0c31d03fb1ac0U, 0xa2003ff65bb8f036U, 0xed84ee0bb4dfe682U, 0xc3fb899eb1ebf0f8U,
  0x15fe8bfdb1e5fc82U, 0xfad4313f09869f1cU, 0x2cbde43d3b88812dU, 0xa391f93ef7ddb3bcU,
  0xa1f9cc052f3b108fU, 0xbdd7eab4c718dae4U, 0x82c5ea9314dff832U, 0xc2dab1eff6f582bdU,
  0xf60901ed95fc23a8U, 0xb14f201c7fa0cccU, 0xed00050af9fd128bU, 0x60a1e010ee107beU,
  0x110ff0e21ea15b9U, 0x11f3fc212f30f6e9U, 0x1e3a00f9030af700U, 0x810efd0510150ef2U,
  0x8fff8110af0e56eU, 0xf7e1fbfa0af6f600U, 0xcaf4ca1c1305c1f2U, 0x1070a2f0636f0e3U,
  0x19beac93fe0d0300U, 0xdd98c01419be0f13U, 0xc3dac2d4a3cbbeedU, 0xd2b010b7ebffedbeU,
  0x8ad4d724ea95980aU, 0x980df104def8e3dbU, 0x6d9cb9ae6098c9cU, 0x89afd9a7a9e7dc89U,
  0xe9d316fc8705c1a0U, 0xa9d8d8d6b284d881U, 0xed19ddcf2ca6f6cbU, 0x8d8b1b2ea814c60eU,
  0xf685ca9b97c78e8bU, 0x17d9f1c1e8268dd7U, 0xbd112b13f7812086U, 0xcd293efd1a4dfcaU,
  0x3903ae9e2e9ffcefU, 0xec22ff2fe6372ddbU, 0x5b61f3f183e1b06U, 0xc8aa33d927b12dU,
  0xb4f71b8303ece12aU, 0x8baf3eeb29d5978cU, 0xfedea487299cf2caU, 0xbf3c185dc229288U,
  0xf50a0c03dea901c0U, 0xfd14dc15d1c61bf6U, 0xf313fef0edf717fcU, 0x1514ff08101be2cfU,
  0xf83824fa1d0e179fU, 0x122811f916101af8U, 0xfa2cf8f8ee1f09faU, 0x81fff2f415c707ffU,
  0x11f503fef409dc60U, 0xf1f00ce1feece90eU, 0xfaecda0324fc15f1U, 0x6120217052101f6U,
  0x8dc3c0cd060dff0fU, 0xe08d8b19e598d2dcU, 0x8fb5a2c4c9c29e22U, 0xd4cbd8811d1ddbc9U,
  0xbde1e7f6a3e0882dU, 0xb2fadd2cfe2dd00eU, 0x269a84b2ace2bec4U, 0x92b19cdad5f28e97U,
  0x22cc11cc9a9bb2d4U, 0x9dba87a5c3dcd597U, 0xeb2ca185cfaec8b3U, 0xcab5effda9e196f2U,
  0xf58236bf9dbbda93U, 0xf7c0dad08a900f13U, 0xb1bcbee5edd3b6f5U, 0xdae2e78fe01500caU,
  0xdac52cf3fd378f0cU, 0xa6d8fee3c5f02506U, 0x153fed972920aef4U, 0x22de81059001cd8eU,
  0xf8f215de87279199U, 0xbbc5cda596cb5e9fU, 0x26dfcfcd2acb939eU, 0xb5c2e7e78b2096d4U,
  0x11dee18c8adc7d8U, 0x25eb0aca09fa9434U, 0x1b19fef71626f4a0U, 0x9f9f7eed20807dfU,
  0xc30082bfcf815c4U, 0xfa9cff1f4a0f030fU, 0x1681f50dfbfe07f2U, 0x59f2eb04ff6d0b11U,
  0xf60966ef191d0286U, 0x120206fe10f3fbf2U, 0xf05cda19a809cf04U, 0x1b2afacffc281204U,
  0xa7b8961214fb0dU, 0xd587d7e1ce99f02cU, 0x8a8bad96b0d2c1f2U, 0x97bd0f86e5f111d0U,
  0xd82adbfcd6a1a1e3U, 0x901cdae3260ad2ebU, 0x2094b998fdeba2d1U, 0xc39bdbc6c7e8abd8U,
  0x1adfe10a22c8e88U, 0xbbb0e78194ccd2c8U, 0x1bfb1eac09b0b19dU, 0xcd9122f7d2dfc5dfU,
  0x1bda8ee90a1cf8eU, 0xf4ba1c2aa81c22faU, 0xfae42bdcf9b72991U, 0xf6c023ee032c1dbbU,
  0xead6c0c2c4c0b23eU, 0xf6191ac3ae19ce1cU, 0xf497cabc07fd1202U, 0xee1316f7c935fa29U,
  0xe2e5dee2e01c2581U, 0xee27e7f6181bd2bfU, 0xecbdf11e38b81eccU, 0x1d2734dee1e5c5caU,
  0xc9bdb3a50cf2c2acU, 0x8ab9b8d2cfc8180fU, 0xc4bea3a7a8efaffcU, 0xd00dfce5d2e9f1cfU,
  0xf40ccbe703b384e7U, 0xd3e6fc18c8ded4ceU, 0xe492f982901917ebU, 0x9dba8fd88e02efd1U,
  0x89dd7c2c1d38ccbU, 0xabb60981b18cd695U, 0xdd41516f8c0a58aU, 0xabbd02f7a1eca0d5U,
  0xffafeb2ff9a5ddcaU, 0x8fddd21e10fa8526U, 0xb124b4bdadff0934U, 0xd8b2e1d4e013de33U,
  0xfd3fa32de6eab1b0U, 0x883deb283c0fa0b5U, 0x3f8ac35e33cd681U, 0x99248d9a9fbe1713U,
  0xe0f2dc2519f6c9baU, 0x3dc9fcb8e95007e7U, 0xede6b41a97c5caa1U, 0xd690bed7a73337bcU,
  0xfe09c104bf93a3e2U, 0xfd11e820c2e5e7f8U, 0x9140609fffe0ff8U, 0x11fa47fcf3e5dca7U,
  0xff2ce6e93d0010cdU, 0x14ee110fc215e105U, 0x2020050e08fc0002U, 0xce0302fd03ef020cU,
  0x12f9031901f8f23aU, 0xfcf4faff0602f900U, 0x1d04e10cfa1411feU, 0x519f4fdfb7f0c04U,
  0x95bacd91ff0f0710U, 0xd09f3b014a7fdc2aU, 0xa6c9babea9b2b837U, 0xc6b2dfa5ff0b0c6fU,
  0xa60e21fdc3b5a1e1U, 0x972eebf43918e217U, 0x1a1496a982079fa4U, 0xb8a9d799a919bdb7U,
  0x222be8bbcae4c930U, 0xafc8c016cd0eb8a5U, 0xfe4ba1c2fdb9accbU, 0x9598ef0dc3e8910dU,
  0xe6e0c7ecbcbbd0afU, 0xc1d6a8fbe7b7bb6aU, 0xf1d5d9c4d9d2debeU, 0xebd9f8c917140ad9U,
  0xda81e90ef3ced4cbU, 0xf10de8e2dc0ee2f0U, 0xdfb8ded3fa1a01d4U, 0xe9d8d9fce4ecc4dfU,
  0xfdd5eec8d21fdfb7U, 0xf8ece7d4edbe18d0U, 0xe9dfc1fdedf7e9adU, 0xc3f8e90afae71d93U,
  0xf50241f0ccfed5c4U, 0x40cf00a960111efU, 0xf8fefff8fcfe0581U, 0xe0727f4faef04ecU,
  0x3d4f20ffe000befU, 0x50f0dfce80a01f7U, 0xe228fb08ff0c04ffU, 0xb805eefe06ed0902U,
  0xcffe20a0606f929U, 0xf2f105eef9f3feffU, 0xf2d2f201ec02b4f1U, 0xf2fff2e8f5dbf5eaU,
  0xd9c7b2ba02fa0cfdU, 0x8dd9e80f3bd8a4ecU, 0xa0db9fa59a929ee1U, 0xd9aef0b8fcedf321U,
  0xa8d5ec13e7a5e08cU, 0xcef9d40629f8f0fbU, 0x12c1b3ba8107d69dU, 0xcec3b3b6e9e3ddb2U,
  0xd928fab1b0abbbd6U, 0x9dcd9fd3aef613bdU, 0x40a982db04b6d9e9U, 0xb2d714ea8ed19df6U,
  0xc8aaa1d294ec9ac8U, 0x8ea3bdd8cac0efeaU, 0xe9ccc9bed4e9a707U, 0xb507cbd01be9fd81U,
  0xf4fff4f7fbe687f8U, 0x8ed6d9deac1400cbU, 0xd5c8d2d4b0e8f49bU, 0xc9b0a6c08101f5c8U,
  0xd396f5bae0d0a6caU, 0xa69c0acbb7aef1b4U, 0xded5ced1f0a384c3U, 0xa2cce5fdbaefd201U,
  0xb30ff3aa0f9fe6fcU, 0x2f22baca3606ccffU, 0xadffb14003aa489U, 0x11fd27b3a423c5acU,
  0xbe2b1d06a012e109U, 0x3691e32a19e5ff95U, 0xd212adeef20eec94U, 0x949e1306df36f6a4U,
  0x21d8ea3bba81260cU, 0x8609de94a2c7f720U, 0x30fdfc8ccca638acU, 0xb1863adbb6851b24U,
  0x1520c512c684beaaU, 0x1205fb1be7f90c22U, 0x1d060eff2604e2U, 0x1901d805eef2dcb1U,
  0x3422806ca160511U, 0x14ea27f41112e844U, 0xf581f8ff00020807U, 0x2d0d050205dc0e17U,
  0xff03db110ffd09caU, 0x1af506f616f80216U, 0xcee3ecf7fd162108U, 0x101bf0c016ba1731U,
  0xfd15f8fb00f91d14U, 0x4fc231adb1fea0bU, 0xfd0cf808fbfe10c4U, 0x14f7f5fddcebf503U,
  0xdff315efeafdc5U, 0x2fd04d212f917f7U, 0xf9b8fc12f8e0fef1U, 0x390dfb030a04fa12U,
  0xf5f9f8fb10130b81U, 0xd0afd12140ceb01U, 0xc32bff09d7f2b118U, 0x602fed6f82b0fe7U,
  0xdab4c3b50cf8fb02U, 0xebb9e78128f7c5cdU, 0x1390fbaafad1df29U, 0x8933164098d4d2aaU,
  0x9c92352ad00af602U, 0xee1afe05988dcafaU, 0x34d1c29f9bdc12fdU, 0xea931b142025b3fcU,
  0xd991aabfea1100a3U, 0x1efcf02ec712a49dU, 0x3201b1ef011cf600U, 0x881bc30a3abdc93cU,
  0x4264020400acef3U, 0x271de2fefbe7437fU, 0x813231f191006a7U, 0x30134e921dfe0deU,
  0x56609d0c1f0048aU, 0xf4ed4dba7742ffecU, 0xd4a1e322f6fd1001U, 0x3200eff804541729U,
  0xead771fd14ef129dU, 0x18d52de52aeef901U, 0x15f93ece707b404U, 0x272db9270ce710a2U,
  0x61a8318fb0121f3U, 0x30dfde0d8f108f8U, 0x51907151a0316bcU, 0x305eb17f3d0cf9bU,
  0x22b03e6081b0442U, 0x18d803ebe9f0ff0bU, 0xfb9efb180ff5f401U, 0x5318090a19dc0019U,
  0xdcf2160219f20ae5U, 0x13fe02ff0713f7ffU, 0xfbfeddff0e097ffaU, 0xa1b01dc0cd70a0bU,
  0x1428e9f80d130b15U, 0xfd1515c6e829c13dU, 0x17070a1d171efbceU, 0x61bc8161ddcd9e6U,
  0xff33fb0b000d1a9fU, 0x20ed242d73f9e3f9U, 0xf6a1f11507befcfdU, 0x7f1704fbfbf40b24U,
  0xe7f102ff1a000f98U, 0x21ee0e0609f4dffeU, 0xb32eceebb40ec2f6U, 0x41b2ed320b90e12U,
  0xd7cfce9b20131020U, 0x2489bb2d9c87fcdbU, 0x819ad8dac0e6c9e4U, 0xb0f4f5d3d5e0d783U,
  0xdcddfb231ed0ade1U, 0x9ff52a250f20d8feU, 0x5afab992003f0ebU, 0x9b84b9d98d1f8c98U,
  0xecc50fe7c62b85d6U, 0xcba4d1d1dac8e286U, 0xd5f4d89ff1cf0eccU, 0xd1a704f0d929a6ffU,
  0x2f35bfb19788b197U, 0xa125c4ba5e98181aU, 0x17e18d01168cf01dU, 0xb32cea81d31f93fcU,
  0xa0dbe7efd7e5f38dU, 0x2bacf23e34be0223U, 0x9f16cbd9e1112909U, 0x9b49026c5390890U,
  0xc6322c01b79efccaU, 0xe437caac03ccb405U, 0xbf959ee12ee5c6f4U, 0x8298ac1fc6ad8de3U,
  0xa5a29aac04c5f0eaU, 0xc8d2b5f3f990dd25U, 0xb9819599909ea6d2U, 0xc0e20a8be815dca9U,
  0xc426f30494afa330U, 0x86e7d721e018d601U, 0xffbddddb8f1c82d9U, 0x9ebccb848400d789U,
  0x27bcf699893facd6U, 0xb7cbc28ca8c2a3a1U, 0x270064d225bea0dfU, 0x85d0d71da89e892aU,
  0x161135f3dcc78687U, 0x151904ffb8e7cf1bU, 0x1c2921fb083016f0U, 0xcfbc4f61af31307U,
  0xf5ebfc0216fbff9fU, 0xfb7f2b1b212f2c0eU, 0xd7cd12f720020c0fU, 0x1114160908142827U,
  0x102f7062f1aefa5U, 0xf8ea04eb24e61bf3U, 0x1c04ed16ef02de0dU, 0x2326060b169ee713U,
  0x2f37d4c41a0d28fbU, 0x27c7902dcb09ab10U, 0x52a1318b8e1c8e5U, 0xabf9d92316abfd03U,
  0xa7811ec7d0d79a1eU, 0xf62af7d9be2f33eeU, 0x8794bb86cc3e84b5U, 0xbd3ec9f0358b8ed5U,
  0xb9c741870f34f412U, 0xe69985c3dc3f5684U, 0x1adcfd31e1adb0caU, 0x1fe6e1f6f7cff6f8U,
  0x81e79cab8a30e906U, 0x1695e5c9ae1626baU, 0xb330b70c02282ce0U, 0x381e3acb309f39b5U,
  0xce222e25c526f9e1U, 0x86db85f8bdc92645U, 0x1d8bcaac40b71ae5U, 0xc3a93ac1edd0248eU,
  0x21bbec363d3dc81eU, 0x100210a1f82eaa1cU, 0xa0ad9694b0d5c4aeU, 0xb9e3f83bca19c9f1U,
  0xadb5da81b58d9dc1U, 0x8ca9c62b21ac1fd2U, 0xb9a8b0c1839db103U, 0xa793119e07f5a5b8U,
  0x87d8d3f9a5b2940fU, 0x9fefd8132b15f5daU, 0x24bc9e9b9b01aecfU, 0xd2b1b3ccbd0e8dbfU,
  0xf8ddfadccbb9b9d9U, 0xc8aca0bbcca3a891U, 0x1adfae8bea8596abU, 0xa9b3d11ea8f38320U,
  0xac85d2bac59998a4U, 0xebcda31dfdcf17e8U, 0xd6ca9d9d86c0d028U, 0x99a7fa911f32d6aaU,
  0x8be7d91a39c7bddeU, 0x9d2028a6fce21bffU, 0xe6e0a7a88b1dba81U, 0xdf88adc7c9e29487U,
  0xcfa0d6859da9ae93U, 0xcc90cf88ca8bdec6U, 0xcf7fc5ca349a97c7U, 0x87e7cc10e3039d16U,
  0x3cdbd2ad88eb18aU, 0xfaeaf73dc8c2e886U, 0xec23920693c8ca9cU, 0x3cd6848bfcea81a6U,
  0xa0dfcdf8009cefd4U, 0xe41aca90e582e9eeU, 0xa48ef8d0c6ad18f7U, 0xc8af03c8eb19a59cU,
  0xb0f1ce0feda1cea9U, 0x17a1f93ad49cd4f1U, 0x8393cb058e3b9e2fU, 0x3620a3a7aad0f0e6U,
  0xd0ce0f02e25c022U, 0x9063523341dabc7U, 0x1f22ef0000271003U, 0x15eeff09040a4604U,
  0xfc442048c3088bU, 0x1b100ae443cf05f0U, 0x12bd1cfc813df8e2U, 0x290412f809010a08U,
  0x2c212fbf1ba41481U, 0xd37111f17f3b801U, 0xecc001f141fce318U, 0xf6132700072912cbU,
  0xfc1aa2fd020d00ffU, 0xfc0611d3bf1203d3U, 0x1617f8fe020712f0U, 0x608d803e9f0e9c3U,
  0xfff534e70f0417f5U, 0x10db0bde2610e4f6U, 0x36baf813f907fdfdU, 0x7f1a071317c90209U,
  0xf4fb140c1d130ea0U, 0x19050903fb1a0518U, 0x2c0de908ee155212U, 0x1b00d1c81aa005e1U,
  0xf90407f410120a00U, 0x4fef8f8c103e2f5U, 0x50503f70604beU, 0x806f700e9f0f4d8U,
  0x6e0e9f61efd03c8U, 0xffedf5fe0912faf2U, 0x91cfbfaff01f8f9U, 0x81fdf302fcea01feU,
  0xb00f5fd06f4f73bU, 0xf5f505fb07f902feU, 0xed0ae80dfe05f2f1U, 0xfe080804f901fae6U,
  0xfe104d14f8fd09ffU, 0x190cdaf9ca9ae0f5U, 0xe90c10fcfb2020e5U, 0x8ee3911e2e5fedbU,
  0xf827b00a451b13e0U, 0x1a7f2925f54e4ee7U, 0x1e08fc271f070c13U, 0x8f20fd0125ef18f5U,
  0xd5cb180e0316f125U, 0xf2fa1de315d80b09U, 0x2baad020f82335f8U, 0x81309110e17f437U,
  0xf91dc921050bfdfaU, 0x20e6213f01253516U, 0x1e300403fc0410d1U, 0x10129111d7e4e981U,
  0x1dd21227def6f7aaU, 0xddc5f09c29d2308U, 0x16891c0312181d04U, 0x3df60e1e1bfa241aU,
  0xf1d3f2ee27e7f59eU, 0x29012b0a2bf5cd2aU, 0xb3ed94def6113718U, 0xfa2214ed1d981222U,
  0x4fb5ef51fef2213U, 0x106d92acdc55006U, 0xd1318040c040151U, 0x1e093afaf5d70b0eU,
  0xfa7f14ec510211fdU, 0xf6ea1f2e16030c1eU, 0xb3209060913080aU, 0xd700fbf7190015f7U,
  0xf9fbe81616ee0101U, 0x9fffbed0beaf101U, 0x2fdaf30e1209d0e1U, 0xe0dd6fe0b0fec2cU,
  0xf9d417cd05f218f9U, 0xf1c6000722def224U, 0xc7cde7a3f2cbd1e0U, 0xc8c913a4df1ee217U,
  0xb2331bd4c59e9ad1U, 0xbcebee1f0d0202dbU, 0xffe5cccaf401d0b4U, 0xdad3c3a49927d0acU,
  0xd9e6f4daf0dccec8U, 0xa9d3deaedac1b4d3U, 0x271712c59fab81dfU, 0xd1ba1df1dd27c8bfU,
  0xb8e7bb79b7cca2d5U, 0x66f9a8a40b07ee2cU, 0x947e192da764f6a0U, 0xab4277377bb2559fU,
  0xbbdb4f9a03dcaa00U, 0xa817cf480769f50cU, 0xaf11edf427c933bfU, 0xeb34adc2f39feae7U,
  0xa4cb6c7990bb81a8U, 0x1de671f0bb69361bU, 0xc76d2cd557db1e0fU, 0xc6a03741059a168cU,
  0xe0251ccc51d7efb9U, 0xd2e3cd0fc8811b3fU, 0xa4d033e09e168439U, 0xbb98f58222c5c187U,
  0x3edd1dded0f9e12cU, 0xac222137c41fde10U, 0x1bc3a4bea23ea0e7U, 0x3b0691b7023b0729U,
  0x8fb5b7f1f9f9992dU, 0x220b92b089c1b8cfU, 0xe48c99e4c3c0023aU, 0x98e5fbe3ce21ed29U,
  0x9007ff0decd83ebU, 0x1108d90611c50009U, 0x3141304f319f61cU, 0xfc08ff073ce3eae7U,
  0x453001323001482U, 0x1060324b943fe0dU, 0xec72f009f103f5f7U, 0xa4ff010612d90707U,
  0xf3ff02f7fb0cfa27U, 0x4f0f7f1fee809ffU, 0x1a02f605eb01d4e7U, 0x90b14f0eb3bff20U,
  0x9e96eec5fcfb0cfdU, 0xa09184f9ecb1d321U, 0xd19aab8ea086af23U, 0xc7b5008ee421a6e9U,
  0xd3e1a6f6c792d4beU, 0xbe90f728d805e42bU, 0x12b193d7b8fecd8eU, 0xffadddbb892a81bdU,
  0xd9c1d6d0dad1a1c3U, 0x869c8794b4ce8fcfU, 0xaf695bed2adcdc1U, 0x939c10eed69e8612U,
  0x21ab6fddaaed3acU, 0x619ed00b6d83cd2U, 0xf615070a1513fdd6U, 0xcfc04f508e00ec3U,
  0xff10ead6610c17b3U, 0x1ccbfbf8ff0001e6U, 0xc40ff13101802faU, 0x8303e5f60a1f06f1U,
  0xe000072100ffe665U, 0x8ecfbea0af10005U, 0x2d00bd1d050038e9U, 0x5171bc9117f0f4cU,
  0xb2283cb70d051b02U, 0xbe0cab02bb031c8bU, 0x8119d7ed180cc0caU, 0xcb1b0c8bbcc5c5f4U,
  0x3aced7149ea09b15U, 0xc788d8fdaace8b38U, 0xcfa6898ec22f0be9U, 0x3cf1cc0b1db4c7c8U,
  0xb5bde50ce3afedddU, 0xfa3d012018f148afU, 0x623c69dd9398d98U, 0x31efb22ecf96a3c4U,
  0xa0f21a81eacfd1a5U, 0x34d19138e0c9dd2dU, 0x852017b1b13ae439U, 0x3d05a8b6dc1a210eU,
  0xd8722ffbaf3319cU, 0xbdc10089e3ad2f26U, 0xc896eab8d103d6ebU, 0xbaf4959e3728ab00U,
  0xb83ca60d303abce2U, 0xde058acbbaa8c0d4U, 0x9789da87a2ae96e4U, 0xb8f7b313f93a1034U,
  0x93182f2a8bbcfc96U, 0x4271d223f401ee6U, 0x26bffa12d6f999c0U, 0x13d28539202023c7U,
  0xa3d72d81f3c8bf89U, 0x8dcd181f9da106a3U, 0xcc96a936e19c0e90U, 0x8be7c8c8030eb2b6U,
  0xe4c92abdb8ff15f4U, 0x139c3898e909a4f4U, 0xd019fc9e84e4b9b8U, 0x38b999f11cce34c9U,
  0xdafae6c9c520cbc2U, 0xde15d1f71ddef029U, 0xf803d9eed6d5d4f9U, 0x27d4f9ef03030528U,
  0xd5e20801d9ca211fU, 0xffdaf9f4ff1704f4U, 0x809c90905f6ba9dU, 0xaaeced00e9f905e9U,
  0x1d00d81ce11d0e2U, 0xe2ead5dbb3b028f2U, 0xeb1fd959f8fec9dcU, 0xbffbf409b2bbf602U,
  0xdc180c0cd201dbe1U, 0x22dc12c1a8c0a131U, 0xfdafeb1c0aedadcdU, 0xcd9cf9275c415398U,
  0x172fe6c542c42104U, 0xcbd8a8bf2757a75eU, 0x40e400ed40448c90U, 0x20ca13da812c0390U,
  0xb5dcecbbff97cae4U, 0x90e9c1e016eef701U, 0xa432b6410d28331aU, 0xecb5f53a8c1e201dU,
  0xe802dbf58eeebe03U, 0x515fe33a803f61eU, 0xf9010dfcf900048bU, 0x10fd300527d9f5ceU,
  0xeebff0349f406d0U, 0xad117122ce5ebfaU, 0xfa0b070000080306U, 0x81faeb0b07fc0a01U,
  0xedecc4fe01f9fa6dU, 0xfaf7fcfa07fbe3efU, 0xdce1ac170e0446e4U, 0x91500fee844ee16U,
  0xfd11de03f50a0d04U, 0x60df3f3d4e981efU, 0xfa150d050e050804U, 0x40ef905f6e8d6d1U,
  0x51f06ef0dfc13b4U, 0x6f702d8c9ecf819U, 0xebe40cff03e800fcU, 0xe07f80814d90206U,
  0xfff6f10f06fcfc01U, 0xfa0b06f30200ff0cU, 0xd03d201f80a06fdU, 0xff0b08de090407e5U,
  0xe7b58486fa0f070fU, 0x9bcdb71028822a06U, 0x9f8ac08b8da29b10U, 0xa4ad2da72cded3eeU,
  0xa3f32b2c258c9dfcU, 0xc8efeb26e220d40aU, 0xd3c38491bbd7e3b3U, 0xf8c3bfb0bf0aa981U,
  0x5b6dae18de2dcc2U, 0x8d8cd5ce98a2f985U, 0x25e8f5ae06d28abaU, 0xadd90023b7f4a9f4U,
  0xa16c3ae96a5U, 0xffffe5820000182fU, 0x1438000017bfU, 0xffffef89ffffeb12U,
  0xffffe522ffffe54cU, 0xfffff56cffffeb1bU, 0xfffff57f00001268U, 0x1ad7ffffe36aU,
  0x14ebffffead3U, 0x1d0700000a12U, 0x1145fffff4d4U, 0xfffff5570000030eU,
  0x166efffff4d0U, 0xfffff4fbfffff58bU, 0xffffe7690000141eU, 0x5ddffffe5abU,
  0x1b68U, 0xffffeb76fffff671U, 0xfffff522fffff56eU, 0xffffe74d00000eb2U,
  0x4d8ffffe580U, 0xfffff585fffff83dU, 0xffffe50b000006a6U, 0xc1bfffff584U,
  0xffffe30affffe6f7U, 0xffffe53100001fe7U, 0xfffff525fffff4f2U, 0xcf6fffff532U,
  0xfffff0f6ffffee70U, 0xffffef43000003d1U, 0xfffff58cfffff4d5U, 0x133f00001899U,
  0x2264fffff53aU, 0x1f13000014dbU, 0xfffff578ffffe438U, 0x219bffffe63eU,
  0xfffff56afffff585U, 0xffffe866ffffe592U, 0xbd7fffff55bU, 0x2b0000019a2U,
  0x2606000018c3U, 0xffffead200000e7cU, 0xfffff50500000000U, 0xffffe5da00000b4aU,
  0xfffff58100000f73U, 0xfffff586fffff585U, 0xfffff66ffffff693U, 0xd4300000b2cU,
  0x21a09d6ffffe528U, 0x34fbc51d0eff25faU, 0x20c7f181725220cU, 0xfef5ff1b0814f1f8U,
  0x6ecf4061af41bcfU, 0xfd16f6e333e0f4edU, 0x20241af234f9191dU, 0xed05f84cc7131df1U,
  0xb131809ed221808U, 0xfb08cc0afc0b28f4U, 0x3eaf919fcff1c2bU, 0x141a0d0d03eaf31fU,
  0x4260ed9f11cfbfeU, 0x3ff8d32a270e11faU, 0xed137f20202e15f8U, 0xfffdef210ef2f2f9U,
  0x23d5f01c23f00bd0U, 0xfc0009ed02c3f11bU, 0x152428e310f72604U, 0xd100f450ac16f7f2U,
  0x161e1f11173520e7U, 0xcf8f1f22312381eU, 0x1eecf924fdfe253aU, 0x132706f204c9f106U,
  0x83718e2fe24fc00U, 0x4cf023232e3f24fcU, 0xe4207f2c353a15e7U, 0x10e2293827f4faU,
  0x11f2e9d833ea2e83U, 0xf905edfff4aaef16U, 0x9de3ef453f532daU, 0x1afaee5e921b2bf0U,
  0xf42e291ef0522d0dU, 0xe1eca62f061c6f00U, 0xfae5f936fffb3350U, 0x19f01ef205a7f019U,
  0xb1f1bfb0032fbf4U, 0x3df55d321a65e102U, 0x272452290f32440fU, 0x3ed2d250219fcfeU,
  0xff0b0bf532ec1c81U, 0xf7e83616d1ebf4eeU, 0xf5ea40ff57f6ee06U, 0x305ee51a51510f4U,
  0x72e262201522cfdU, 0xf321e8ec271e3ceeU, 0xe4eefd3802f73049U, 0x2e07180503cef533U,
  0x111b24143d2ffb1bU, 0x3b09722b5a79440bU, 0xf02e382d24324803U, 0x920e22713010302U,
  0xe80829f73aedb78eU, 0xf3f90831c9b8f7fcU, 0xedea4aca44f63aefU, 0xe80fed2481121b28U,
  0xdc37292c1f5931deU, 0x380fd91825275f2dU, 0xdadc024107f2354cU, 0x411426fe01e7f8e6U,
  0x1454272a2834fa01U, 0x301e222435692b12U, 0x38311a284828e5f5U, 0x100f2f24ef150a08U,
  0x30091e2136f30581U, 0xf1ea0240d5c3fdf9U, 0x17e4431f10f830fbU, 0xe34f01f900bf81dU,
  0xf935262f0e4b2d10U, 0xe250e63cfd2b2ae4U, 0x27d0083d0bef303fU, 0x4415dde3fec9ff30U,
  0x1aff2d403f2ff90cU, 0x2b192f37207f5e1cU, 0xf43805273a2349f6U, 0x19f31123fa1c0f0fU,
  0xad3160537faf9d4U, 0xef19234d4ad903fdU, 0x2dec41f64df9f21aU, 0x1943f60b9706f0eeU,
  0xdc372536f4432d1bU, 0xfd71bb37233240deU, 0xbe3113d11ec2f39U, 0x4710e5ddfbce05ddU,
  0x191e273e272df609U, 0x1f2d4c384e7f131eU, 0xf02ef81d35170831U, 0x1beb031b2de90d12U,
  0xf5f2ea012a010cf9U, 0xf1e4f84225e1070aU, 0x160c2f071dfce4feU, 0xfa36fe15be01032cU,
  0xbb2a1c2e132e230eU, 0x2852b617ee2b561cU, 0x1efb142d11ee2228U, 0x342b2f05fac40aebU,
  0x20d02b491a21f7f7U, 0x1ef85f4c1a7f5227U, 0xf632ef1d14160911U, 0x250ffb1b121c0d1bU,
  0xaf616162b09e90dU, 0xf0031647e5ee0d1eU, 0xe0092cf011fee624U, 0x233e071affff13f4U,
  0xf3291b3427292522U, 0xf34cae28f53143e7U, 0x8151d2d18ee2127U, 0x3a0f0c23f9dd10e6U,
  0x28d232523721f60cU, 0x1f36440c3e682434U, 0xe438ea1c111535e6U, 0x32061a1e13f70927U,
  0x1edb38252e14e40cU, 0xf1f0ed4de6b7161fU, 0xdae52c372401fb15U, 0xe4a1319fefff307U,
  0xe02b1a3af32728f2U, 0xe77fb92e2e38351fU, 0xd827292e20ee2128U, 0x3be915fcf9de18f6U,
  0x2eda34520922f5f3U, 0x1e0c221d2d7f623bU, 0x3939ea18f4150c06U, 0x3a08121ef9f3ff31U,
  0x22ea0a1b2c1ecb1aU, 0xf62f044bdbf21eefU, 0x1d0229ee48052af6U, 0xd33b1e15f502ddc8U,
  0xdb29173b0523260cU, 0x4ec6e7eb3935ddU, 0xfa43322b27f31f26U, 0x4214272ffce21e04U,
  0x3eb440613521f83bU, 0x24d7003a216c514eU, 0x3e45ea19f61d50f3U, 0x4e27132612f5f047U,
  0xf5ba06013331d803U, 0xff0cf656aeb22f2cU, 0xd82d30ff700e0117U, 0xd32534301b0917ceU,
  0xae2f164606282bf5U, 0x97f8706e34664fbU, 0x94f473037f9222cU, 0x440efdd902e42c0fU,
  0x3fb439559c27fcffU, 0x20e34b10362c4d4bU, 0x323ef7121d2039daU, 0x4c0fda252f15e44bU,
  0xe7fe10102d38d227U, 0xd2ef24ac0af3526U, 0x292a2a104c15dc26U, 0x2fc3c0e021245bdU,
  0xdf29103ed9242322U, 0x465c814045401ae8U, 0xee5f492838061c28U, 0x32d60d480a9b3004U,
  0x43b5364ffc25030eU, 0x1e432c002af67f4cU, 0xe33b060cf5280ff7U, 0x4c3a2d27e432da52U,
  0x26d2e3142a40d226U, 0x1ce5494502d13dd9U, 0xd1fe29e17c1ef64bU, 0xc8e546f7001e05e9U,
  0xc1250b3b37241fd8U, 0x83fe4fcd53d56ecU, 0x3c684f253d171728U, 0x46e8e34514d737e1U,
  0x40d62e4595280c30U, 0x19d902c115e01a44U, 0xd93215075f2d6d46U, 0x43f43827f92cdb50U,
  0xf4b8f5102543c432U, 0x29df4e3ad4e63e0aU, 0xdaf524fb7f26f00dU, 0xf2b6470e1a2816c0U,
  0x1f0632d6211949U, 0xdf0f98dc083440dbU, 0x396a4c1f3c250f25U, 0x462f31131e9739e1U,
  0x3cbe253ded2712fbU, 0x15da64f32fde6d3bU, 0xf29220420337327U, 0x3b3120274308e34bU,
  0xf1c9dc1a21451b67U, 0x3545393017b63ff9U, 0xfc1b1fef622df315U, 0x3a84608fe300bc2U,
  0x919032af81e1527U, 0xdb09e1f70c2d5043U, 0x55c471a3a320924U, 0x49db051c27813b0fU,
  0x36aa1d35de271b08U, 0xf2b15ab00c46a31U, 0x2a2129034d3538ecU, 0x31060f27f8f6f242U,
  0xe4b7ccf81d43ca7fU, 0x3d153727f2c03d0dU, 0x21fc19421c32fb0dU, 0xfca741292f35f7deU,
  0x51404223e1911f9U, 0x534dc2610252020U, 0x20443f15363a051fU, 0x48df33352eec38e7U,
  0x3fcc1f3b452621faU, 0xed43b4243da3035U, 0x3d2137050d457314U, 0x351800330fde064cU,
  0x4dab19d721529138U, 0x564bdf2988dd4b3cU, 0x48f717187f481649U, 0x278e4d4b2b4b4a1cU,
  0x9e130723f81a13daU, 0x4749c8e609264aeaU, 0x134a47154252031fU, 0x6244d50043b04337U,
  0x35db162b2f30341cU, 0x722393e10de2429U, 0xd7182d08ed3e76ddU, 0x27f01530e20d1c3cU,
  0xde9ae0fe1a45e736U, 0x5014f41fccdf4001U, 0x40550d1b2646fe1bU, 0xcf814128e84728dcU,
  0xd20b0b1940100ff4U, 0xd82289f5251c2bf1U, 0xd052380f3b4f0213U, 0x5bedf5fe43e138e6U,
  0x33a51122132a38e6U, 0xff176d16aed72a25U, 0x3c15210def3e701eU, 0x20f61a34e4113637U,
  0x26aff6d819430f7fU, 0x53d6f01bad9e3e06U, 0x2f2505487e4ee100U, 0xe48a3f3aa54de702U,
  0xcd061213eb060d27U, 0xdf2dd722f31766e7U, 0xf156310d3c530206U, 0x4147f0e84b9335d6U,
  0x31d00c18162c4446U, 0xf4ff1c679a813721U, 0x1e120814473d52e7U, 0x1713f237e4e84d30U,
  0xe4da32f1173ff50cU, 0x530ed614d5de3935U, 0xf20efb5c3654461dU, 0x10c93c178f51de48U,
  0xe4001b0c05f80d0fU, 0xe739f62e241226eeU, 0xec51290d3d5205f6U, 0x301f033752b630efU,
  0x240907080b2e4ee5U, 0xeb313020bdcd3417U, 0xf60bea153a2d7f1cU, 0x93b0d2efd194c20U,
  0x2aee001e112bdfcfU, 0x3ef32309d41128f2U, 0xd08f52f2543f807U, 0xd8b92bf0b93f0b09U,
  0xa2fb1c04f2ec0be2U, 0xfef1ebe3e5092212U, 0x2f0e190a303b07ebU, 0xfffaf2e443c420f5U,
  0x29dd05fd2f2543ecU, 0xd8db7f26c389621aU, 0xf60ab91f5d346bf2U, 0xff341e3e032f6b23U,
  0x3585e5ed142c86baU, 0x46df0602dd522a10U, 0xf517ea2d56512630U, 0xccb12ee6a84d2040U,
  0xc4f32bfd42d610f4U, 0xe5208adefe05193fU, 0x3a03160b3c410cd5U, 0xc0e8004456e31fecU,
  0x210f03f0052e5700U, 0xce0e1965f0911f15U, 0xf07921d4d2afb38U, 0xf308393ce044691aU,
  0x8c52d0b0f1ddbaeU, 0x343629f8d4cf1f36U, 0x2fe6114047efdcU, 0x1acb22f78c451ee7U,
  0xccf02cf73fca10dcU, 0xda05d9fc1dff1e2bU, 0x1d070c0a38320dcdU, 0x81302fe74ee314e3U,
  0x116122b29501fU, 0x1dfea00016242U, 0x1fce90001c4d9U, 0x1e7180001d9d7U,
  0x19990000181c2U, 0x1dc7d0001caccU, 0x23b21000255daU, 0x2311300024e55U,
  0x1f79400021be5U, 0x222ea00026a95U, 0x24e11000238bcU, 0x25e310001da55U,
  0x2326cU,
};


ai_handle g_forecast_temp_ml_model_weights_table[1 + 2] = {
  AI_HANDLE_PTR(AI_MAGIC_MARKER),
  AI_HANDLE_PTR(s_forecast_temp_ml_model_weights_array_u64),
  AI_HANDLE_PTR(AI_MAGIC_MARKER),
};

