/**
  ******************************************************************************
  * @file    forecast_temp_ml_model_data_params.c
  * @author  AST Embedded Analytics Research Platform
  * @date    2026-02-26T12:44:41-0400
  * @brief   AI Tool Automatic Code Generator for Embedded NN computing
  ******************************************************************************
  * Copyright (c) 2026 STMicroelectronics.
  * All rights reserved.
  *
  * This software is licensed under terms that can be found in the LICENSE file
  * in the root directory of this software component.
  * If no LICENSE file comes with this software, it is provided AS-IS.
  ******************************************************************************
  */

#include "forecast_temp_ml_model_data_params.h"


/**  Activations Section  ****************************************************/
ai_handle g_forecast_temp_ml_model_activations_table[1 + 2] = {
  AI_HANDLE_PTR(AI_MAGIC_MARKER),
  AI_HANDLE_PTR(NULL),
  AI_HANDLE_PTR(AI_MAGIC_MARKER),
};




/**  Weights Section  ********************************************************/
AI_ALIGNED(32)
const ai_u64 s_forecast_temp_ml_model_weights_array_u64[1583] = {
  0x2614cef80105efeeU, 0xdcf614f3dfe3eeccU, 0xe929eff4b11ee1d5U, 0x9f10e28af9eccfdU,
  0xc7f703aaba81f0edU, 0x1df07f04a8dae32cU, 0x213412f7fb2b501cU, 0x30d42ed50408cdffU,
  0xc453df0818dd0632U, 0xf5eed01fdff458feU, 0xdbf454e2e7152dd1U, 0xff2130e2f30d414U,
  0x1008fe113bf05761U, 0x19d1e439ea4e400bU, 0xd579bcdf2b28250eU, 0x6bd5ee8131f2091aU,
  0x514da3fb25f7e142U, 0xd2390a331610bacaU, 0x4eeb1b2413ede427U, 0xfaff2cd31903fd1dU,
  0xc1fc30ff016485dU, 0x18810401dd4438c0U, 0x101fec1403bbc1fU, 0x17e7d7ef8ae9f1f4U,
  0xdee805bddafde70bU, 0xb8372cd6f3012e06U, 0x3b10e6ecf12af2eeU, 0x291fd98e27b94489U,
  0xf0f21d81f212237fU, 0xde0ea0f82414ec2dU, 0x12b0fdec3dea2c06U, 0xe216dc38b7250214U,
  0x34e817db01d70d08U, 0xfc61e725021827e9U, 0x6a60ce05fb42dfefU, 0x4dce1df8130e0309U,
  0xf0200d7f17080454U, 0xfe1a4824f1f27159U, 0x3a55e2e7124a29bbU, 0x19edf0113579cae1U,
  0xf6121043eacf1d10U, 0xd0e41feb51f2f0dU, 0x820d714141d50b8U, 0xf2b0002f037fac1cU,
  0xe2b0e3ff22a9e213U, 0xda262681093713d2U, 0x2601fc021d36c2fbU, 0x1bbb332d42d0e588U,
  0x9e37ac1d40fcf5ffU, 0x54e92a07b331015eU, 0xf6ea7fc63326199cU, 0xfd0d0ae83834ff21U,
  0x326b5625f70c04f9U, 0x4c4e280342e32427U, 0x6a03ff42c00bb161U, 0x191950a3dff7314fU,
  0x28f5fe7f272b375dU, 0xc218d31122130f4bU, 0xdfe40040db270654U, 0xed07d0db032b5fe1U,
  0xeebbebe00839e3c2U, 0xf4e9bb329cd71aU, 0xfffffcec000000a2U, 0xfffffffcfffffdd7U,
  0xffffff22fffffb4cU, 0xfffffbc4fffffee4U, 0xffffffc2fffffad0U, 0xcdfb8bffffffff4aU,
  0xfbe738e20615810dU, 0xc50b21a126d10ce0U, 0x2c12f6dd0300e1f6U, 0x2cb631f61ba02b3bU,
  0x4b8828e828fbb801U, 0x161305f0ffafcecdU, 0x4917a6e1f42a8135U, 0xbc929d9c7e6d0eeU,
  0x2fda0d0f07d21181U, 0xfa01e6eef20ba9e9U, 0xe6cddb121fe54dc9U, 0xc31b0fce7f6e1e4U,
  0xfbdb20d1e02ef9d4U, 0x8b5ffb7f8e82544U, 0xfce9c8ed48d2f60aU, 0xda34c000db19810eU,
  0xf826d77f26bfe1efU, 0x4e28d71bd0fac8ddU, 0x6f527e122e402c1U, 0x1179d11cf1c2ad3U,
  0x1d1de119e9224905U, 0x581d2f41edd13f3U, 0xeadfd91f28dfcf21U, 0xdbc6a1ca1b0581b8U,
  0x814c05e4e5baf9ecU, 0xd07b8b30e3ffdfb2U, 0xb3621f04caf34846U, 0xf7bb3855fc1606cbU,
  0x2ee4d9b9f745dfe3U, 0xea2f810c99ecca87U, 0xcdd239dcd1accabdU, 0xcb28f1c9a5051595U,
  0xc3cad9b904ecea3bU, 0xfbbeb9f6faefed8aU, 0x81dcfdd7293616f6U, 0xdc313f18e6d91d17U,
  0x3b162de52f04010eU, 0xede112d681d537e0U, 0xaba5f70deb1fb91eU, 0xfa09e78fdccecdffU,
  0x8ce6419c8cf1U, 0xfffffff0ffffff2fU, 0xe1ffffffbfU, 0x12a00000001U,
  0x6a00000224U, 0x4a000001f2U, 0x2c81293e7fce3bb8U, 0x5b017281f8af0508U,
  0x21547f7fe47f7d3bU, 0x81cb81e5817fU, 0x0U, 0x0U,
  0x0U, 0x0U, 0x0U, 0xf5e8222616f212e2U,
  0xecf3b82bd9007181U, 0xc9e5d79e7fa20738U, 0x265da681521fc33dU, 0x7fe80d4547d4c7e0U,
  0x5a5056abbc230c7fU, 0x8101f2222101dc0eU, 0x3b3df98fb3adecfeU, 0x3097f882f09d8fbU,
  0xfe7ff9151ef5001bU, 0xfc2a81fbb4050e5aU, 0xaaecd203447b4eb0U, 0xe3e9b47e7fdedef4U,
  0x1b063881e7281cc1U, 0x69003c187f100778U, 0xfb484e7fb1108866U, 0xcffaeb0bf67ff8b9U,
  0xba285b2d1fa7e90dU, 0x2301f581450a1451U, 0xcab2bb3a7fc826fbU, 0xf8a0f002edee815aU,
  0xf8f16de1853dccd3U, 0x6e9dd17a7f91cd25U, 0x1fb7fa9ae2c832bU, 0xe8810c233625e52dU,
  0xac382879012406bcU, 0x27c7287fb926818aU, 0xcd7cd92f4c367afU, 0xfceaeadcd6ef7f2fU,
  0x920f38e2e3ffb681U, 0xf91b13c5c21b8133U, 0xb70df8f1d37ff5e9U, 0x7450ccca0436f8edU,
  0x565dd98b7fc38cU, 0x2581114afc06e206U, 0xfd01ddfccd278117U, 0xecbdd6c70f7f06e9U,
  0x27fcbd1834d34618U, 0xe36f3bdcc32f7981U, 0xfa857fb368ca673bU, 0x3e06ba4c8212ef40U,
  0x5eb82ffac415e581U, 0xa43b7ff82681e010U, 0xe07fb6f25d34b01cU, 0xb88cfb1420bdfdd9U,
  0xcb1d3a81b527df7cU, 0xcbe20c2b0f4ddbcdU, 0x81678f41e681f8f0U, 0xd85b2e9bde1ae5ebU,
  0x17810732edd7d391U, 0x23678100b5f10e1cU, 0xd9858173015686c6U, 0xa12852ec55ce545bU,
  0xf1097fa5ef33c92cU, 0x3581de1ad4e7c920U, 0x2681a43af93ed6eeU, 0x81a2d389793a6863U,
  0xae45972406a45f00U, 0xe7e12f81a443158bU, 0xe3e96e27816276a5U, 0xdb472403dbf51be4U,
  0xcd64b0f97f670181U, 0xf4f5e2fc17a0e245U, 0x81c17fceec19faf9U, 0x7e650d1709e44d41U,
  0xf00dcae30d0d167fU, 0x2c76aee90fe6ffe7U, 0xd8e9e7427f22db31U, 0x2a2e7fa4f101d9f1U,
  0x13fd1d2e487fe8c4U, 0xf807c92d190581e6U, 0xb581ff54cd6a2ce1U, 0xa71081bb35e67408U,
  0x10e3ffc4e27c29a0U, 0x4c90de7f8e163d13U, 0xee387fe385001d0bU, 0xe13827fda9fc14aeU,
  0x813f9b1612ffdd7fU, 0xb4ecffcfe522c89eU, 0x71b47fe81c0d891dU, 0xfffffbaaffffff49U,
  0xffffffb3ffffffdcU, 0xffffffcd0000021bU, 0xfffffffcfffffa00U, 0xffffff76fffffd06U,
  0xfffffcd5fffffee2U, 0xfffffe45fffff6d3U, 0xfffffc92fffffda3U, 0xfffffc6b000000d2U,
  0x1dfffffcd6U, 0x496fffffc1fU, 0xcb000001b0U, 0xffffff0dfffffe23U,
  0xfffffea6fffffec5U, 0x1eefffffdc9U, 0xffffff7900000241U, 0xfffffc7e0000000fU,
  0xfffffde90000027aU, 0xffffff7dfffffcfeU, 0xfffffc34fffffa10U, 0xfffffc65fffffcd1U,
  0x7affffff12U, 0xfffffd2afffffc54U, 0x496fffff9bdU, 0xffffff04ffffff6dU,
  0x1630000019aU, 0x144fffffd5bU, 0xffffff2afffffd40U, 0xfffffce3fffffe6bU,
  0xfffffc4600000179U, 0xfffffcf9000002a8U, 0xfffffb9afffffb37U, 0xb7f817f007d8132U,
  0x552bd373cad47fU, 0x8c54fb17f18af5aU, 0xd7fffde328181b2U, 0x43ed818181a7817fU,
  0x81c47f7f81047f81U, 0x7fd9dff7b2c640edU, 0x81135b087f98c84fU, 0x7f005a217f81a514U,
  0xe342c81d581f567U, 0xf74817fea66812bU, 0x2ea881a77f370a81U, 0x7f0fd5bdfa19ed97U,
  0x39fd615de328c38bU, 0x720bfbacc2adcfe3U, 0x6a7f7f7f5d3dc581U, 0xf8d44c3795c9d07fU,
  0x81817f0f81cf81efU, 0x7f810302097f9d81U, 0x7f930a7f3544083aU, 0x6c7ffd7abb7f6f28U,
  0x5a7f8a83797f1c8fU, 0x8a7f7f7f7f7f817fU, 0x38673095597f8149U, 0x0U,
  0x0U, 0x0U, 0x0U, 0x0U,
  0x0U, 0x0U, 0x0U, 0x0U,
  0x0U, 0x0U, 0x0U, 0x0U,
  0x0U, 0x0U, 0x0U, 0x0U,
  0x0U, 0x0U, 0x0U, 0x0U,
  0x0U, 0x0U, 0x0U, 0x0U,
  0x0U, 0x0U, 0x0U, 0x0U,
  0x0U, 0x0U, 0x0U, 0xce0ad68eea190fe7U,
  0xe2ef2a247feaebeaU, 0xe21b2538e2070112U, 0xe8273fe1e717350fU, 0xe30044080f280441U,
  0xc2f0afed22f7e307U, 0xdd00232ccc3f9e3U, 0xdff003d1d9ea241fU, 0xefe2afbc34112fdcU,
  0xbe40a131f3938ffU, 0xe644029948cc1ffeU, 0xbe351ccee5202a1dU, 0x370434c512812ce3U,
  0xf80ca412fcd109deU, 0x15f5a908000d0d27U, 0x3e0719c6ab4512e2U, 0xbaccb9a3f8172acbU,
  0x8fe9cf4d05104e03U, 0xc5811bd2d1da0a14U, 0xa468f923ce0c15dfU, 0xcef27cfa4ac1244bU,
  0xe0f308010aee0befU, 0x37c3e403260f3436U, 0x280cb48ff0280104U, 0xfad717f738270adaU,
  0x9c0f4f2fb35f605U, 0xadfd131f14d52b10U, 0x812bf907e022eaffU, 0x2dff460647f602e9U,
  0xfbf9dbdde53d0becU, 0xe524eb1b062a22b2U, 0x29fcace3de0019fbU, 0xf112f1a22425fb95U,
  0xc3cce9ff3464540fU, 0x9c64074d95c66318U, 0xb21d4f2dea3ae410U, 0xd2fbef0807cff6eaU,
  0xffe8cef5e3dafc16U, 0xebed3511fd375fddU, 0xd8efb88199e7f438U, 0xf837f8e11fc9f8d4U,
  0xffead50b2e0ceb1cU, 0xf80b6af501eb11deU, 0x13231bda3edbef0fU, 0xf813f370eb06f311U,
  0xa1a19fefc03f0f2U, 0xfcd5e600db130e11U, 0x9f6eb1fd1810132U, 0x81efdb830896ca1dU,
  0xfcc1f82505056e12U, 0xdb1455e01210f231U, 0x143b138b9c0d43ecU, 0xb1f8a4a31be812c3U,
  0xdf03f0e866ace8eeU, 0xeb401b255d0c0310U, 0x8ee1c0fb1acf7ffbU, 0xd6feda110a0205eeU,
  0xfdee150407171cebU, 0xdc1081fd04ee1717U, 0xe20306f3f7f505ecU, 0x808f309f6e8f301U,
  0x7100ffd0e081914U, 0xe2e7e006ecfdf9faU, 0xf4f7f7f9e00c0d02U, 0xf409072100fe0191U,
  0x1c9ae3d8f43f7f02U, 0xa91aea25f4d40830U, 0xb91dc60d16f4070dU, 0xeed0ffcebb70531U,
  0xf21a13b8d5cc0817U, 0xc5e6da09dac71cf3U, 0xb4f9ac05c4f9081bU, 0xf1f21e1e060fe3fcU,
  0xe10a08d1ab0d1af6U, 0xc1f116e6090925dcU, 0xea0f15907fe41e2eU, 0xd6a02c1632f701efU,
  0xac834df23143736U, 0x170ef1ef3203e9f6U, 0xe6def6dbdc05f8feU, 0x1dd511300b13dbU,
  0x31fd09442f190c6fU, 0x461effce21ff5a8U, 0xb9f4cd67cb15f9c7U, 0x1ffe26134fafff06U,
  0xb2d32e1dbb0a21f4U, 0x4cdd64d3da264dbU, 0xfe823f8201f7fdcU, 0xd509e5060af00685U,
  0xc4a4dc1dff7c5417U, 0xa32b1d4111c1640eU, 0xa0fae2020660bce7U, 0x13f4e821359232faU,
  0xf10ed4fa04d810b6U, 0xf2d2e61000263f03U, 0x9df1da81ac1225ecU, 0xddf3cb201325fceaU,
  0xecc5e8217f39e8ccU, 0xa41e3b020ae92c0dU, 0xddf6f0e8e81cc91aU, 0xd0be915c90de6f0U,
  0xd306fafce206db07U, 0xf3d6f02720eee70cU, 0xf9dce2a0e8e23bd1U, 0xe7320b96e0441e0aU,
  0x9ff9e1353f14f60fU, 0xd7fe27b431c61a24U, 0xce06edb09fe7d5f2U, 0x1145c6bbf3f4ef5dU,
  0xe10dca8f28fcf912U, 0xece2e1274b053824U, 0x1cc411e5d48138f1U, 0xe7ff12fefb27f80aU,
  0xe0ebfa1a7f151b10U, 0xdae927e6daf9fde9U, 0x2a16dffa0329eb22U, 0xedebacd519eb0d02U,
  0xf03f506f3f81107U, 0xe221fd0546dde5f1U, 0x1debfaeded1d1409U, 0xa711d6e52040e4f9U,
  0xdbcae5f04607fbdbU, 0xc9016bdc16f81727U, 0x9d000bb4fe07ea81U, 0xed48bfee02e81007U,
  0x150a04121de90adeU, 0xe512f335590ac7deU, 0x9dd50dfc19e423f7U, 0xecf7b7ed07d906edU,
  0x470af31af0fb150bU, 0xcaff43f51a10ee0bU, 0xb21529e007e71ef9U, 0xf805eb1231ecfce5U,
  0xf61b18131bf30feeU, 0x1ae9efd254190dd4U, 0x81e7121b1cf24bdeU, 0xcd030ecd03010ff8U,
  0xf6fe010eaf100be2U, 0x6e5030d19eb03ffU, 0x905379404fd1213U, 0xef15f9f0f708170bU,
  0xd917f7eef8f0f70bU, 0x19050617fbd90b06U, 0xdef4fcd7f1e90d7fU, 0xe70323ce06fcfff1U,
  0x1f8fcf72a040407U, 0xf10f7f02f9fffe06U, 0xdf03b8e1d91311e7U, 0x2f6fc110209faffU,
  0xec05f309f906f9U, 0xffddfb0115da01f9U, 0xfa07fa0cf7e83d19U, 0xe6110a064861fa8cU,
  0x12dab6f3336c5af3U, 0xea461d1ede966611U, 0xef280806f133e001U, 0xeef0be71ad4031eU,
  0xf705e3d912c401d9U, 0xd417e103001027d9U, 0x81f99fe6b5052bf9U, 0xde96d481fd2c0af5U,
  0xdae21f18151ff618U, 0x91cc4528bdf11b45U, 0xa44e12fd06c0ecfcU, 0xdff51e7ea02f753U,
  0xdff58e1ae2a91d17U, 0x5bf93de18152013U, 0xc504b1c01cb3222bU, 0x9406e8c9fdf5e4e0U,
  0xb4c809ec20c8142cU, 0xd1d931e41033080cU, 0x2ee4e19509233c83U, 0xcd3224994ff6e8d8U,
  0x1d3ae21eb9e4e00aU, 0xd238f7cb7f902a1eU, 0xbada312218042206U, 0x790104e9150706dcU,
  0xfffdd8ff1a0e0ee8U, 0x4017ff2e5e30bf5U, 0xae806ec1c0713d8U, 0xfcfe12d4f91203fcU,
  0xefc000506f630feU, 0xfcff16f2e6af1611U, 0x17feffeff8400807U, 0xecfe32c40dfffe93U,
  0xd4e127362b1d6ce4U, 0xbe51039241e2f64dU, 0x8e7235f60735fdd6U, 0x4bed2fcc25aefc3cU,
  0xe9eb81e9430a066aU, 0x647ef1f330de7ad1U, 0x950dd6c8e805fe44U, 0xe90dffbb0e1d0e1cU,
  0xebfce90b28e8f6e9U, 0xbee14ede2610e4feU, 0x17c726bfd712f6f4U, 0xc508df092101ebc2U,
  0x3a16cb22c81ee709U, 0xf703222e7fb71126U, 0xe7be230c0cd11338U, 0xe3c8be182efedc0eU,
  0x2be1f0f70c18f0ffU, 0xb80403fd24d8010eU, 0xc03bed8cf3d0d46U, 0xe2a91bfe472c1623U,
  0x9e9011dd9e4093aU, 0x7f8ee367fe71ee4U, 0xa1d2e2a1021d37baU, 0xc5169d83012d09deU,
  0x1d2cf2c0a20f22e4U, 0xf10a07192fc34908U, 0xe5033e21cb12f410U, 0xcb1727ce380f2d30U,
  0xf5ecf628c6d78903U, 0x4f08bf050ef83a05U, 0xdd7e832fe81e8d3U, 0xd5f0be832d7ffadeU,
  0x9017c09a250002c1U, 0xc4034919fdaf3d41U, 0xb7fb2401a911da58U, 0xae0e9df32d0df739U,
  0xcb39e7f624dbddc2U, 0x12f71d045ebbfae9U, 0x73d7e51a27dfe1abU, 0xeceb11ed1ae817f9U,
  0xe8e3dcf6a2070a28U, 0xffde4316d5bd1206U, 0xa0b69e6e1ec812bU, 0xb164a1402f91fe3U,
  0xf7fdd01fe5e4f222U, 0xef10eb03d6271409U, 0xc8f5f2c1fa1b212eU, 0xc116eed5f6f6fffbU,
  0xc1fa175110e925e8U, 0xfbe73f0627fcfaf1U, 0xae32100a1a218110U, 0xc61260c9f8b1f1ffU,
  0x4f3ceb21bcfe918U, 0x49dd1bcee7e9280bU, 0x9df4f2f80a0f2043U, 0xfee20d10e5da0c10U,
  0xc8eddbf00a2d1f0aU, 0xf4f010e3f8feeae2U, 0xe4041be4dc1384ffU, 0xd322a8121df14dcU,
  0x70801f200eeedeaU, 0xfef5ee0611df0deeU, 0xffff02e000fe5eaU, 0xfafb81ee473bdfddU,
  0xe2e0ec3017673c24U, 0xe74fcaca0fb559b5U, 0xece4152797434914U, 0x22fd9efe1fa7e3e1U,
  0xbe3535ec02053509U, 0x209f92f21f3e12bU, 0x3a05ec55ab374e27U, 0xcbc71e81f23500b7U,
  0x24ce10f7223e1903U, 0xe9512813dacd2de6U, 0xed3d2cfce79e02f8U, 0xfef94bf7f1ec0916U,
  0xc203c714e5fcef07U, 0xfbb2c8fef8e205fdU, 0xccffa8c0c4eb2a07U, 0xe706cb27f40af8f8U,
  0xf205e2e6e2320306U, 0x3007fdb12e5fdfaU, 0xff09f3efe5fceee5U, 0xedf2023421fefae6U,
  0xeffadf0efa051dU, 0xf8eafa10da051d0fU, 0x100bf8fce921570bU, 0xd1dfc6d61df6f100U,
  0x27fd041d680e0dc2U, 0xeefb43380cfb16eeU, 0xd307d2cce7180119U, 0x1e1b7fede700220bU,
  0xef7edde17fabc1eU, 0x18f3e00541090e22U, 0x8e2df04290fa72bU, 0x429ccf3d733fad9U,
  0x22efe2f73906011bU, 0x22219f4b31f2333U, 0xa1a0d14d20a1708U, 0xf6fc7fdd250ef420U,
  0x82a061c3b18030eU, 0x1110b1bf08eb32cbU, 0xd70706fbffbd260bU, 0xfbe9f6810a08eeffU,
  0xae28472c3e0bee29U, 0x9a291d0acb0bf72aU, 0xe84623c6ce2a0cfeU, 0x1eec2a17eef30dU,
  0xb91df7e05bc9d6d1U, 0x4e3d550fadb3511U, 0xf7d02eb0f39d0e4aU, 0xe40fd1f1ee36ecd7U,
  0xeff0301767f017d8U, 0xfbfb7f08e3eff31fU, 0xc421d307d215021cU, 0xfa02cabd040e0a2bU,
  0xd6f70af30cf500f9U, 0x6f5f5200912f4d4U, 0xbad5fb02c013eb02U, 0xf409f2ff2d37e901U,
  0x81cee14ecd5c601fU, 0xc60a401ca8c62d24U, 0xf20d1829023b0c0fU, 0xed1218f4fec826f7U,
  0xff1145d61327ffd3U, 0x1f9f0c7f32a76f3U, 0xdadff793f9f7f73aU, 0xabe7bcd3f408f1e6U,
  0xbae70240f1f6fc19U, 0xf2c083fd6edf4ffU, 0xf82432818bff1fd9U, 0x161bec003aded83fU,
  0xb204e3ed45cdf4ecU, 0x9caad2e512d30efU, 0xd6f10f3cfbec4104U, 0x1bfb14291f0047f7U,
  0xdffbcb201a2a1cc0U, 0xc8bd7fdbfcf00a3cU, 0xb54ef0ecbb0329e3U, 0x8fe2a151bd50cd2U,
  0x2e7040b24f6e709U, 0xfbfe0cfcc3fa03fbU, 0x3ef4f31ae7e6da3bU, 0xf0120cd4211607f7U,
  0xcffa14ef6cfb0fdfU, 0xa501191fc9f11f07U, 0xe131fa81d1f708bcU, 0xec154a192ae6dde5U,
  0xe8f7fbef3f01ba14U, 0xd2d0df0139f409f9U, 0xf9eeddd4e4e43707U, 0xd80c0efe57550981U,
  0x36f6c905024f27ebU, 0xbb075ada0f9b42f7U, 0xbb423044e469dbd6U, 0x46f95511ffb046cfU,
  0xd1f5eed1b5be02fcU, 0xee260f69037044e4U, 0x56fd09f889064e1aU, 0x24f7fbfa17081ce8U,
  0x32e95b1f380afeffU, 0xf9001108f8140d25U, 0xd7f7e8aa2fe80481U, 0xe32a4ed44dfdf225U,
  0x1a144ff3cfe6fffeU, 0x6ede8fe38d81405U, 0xccd4ece5e191f002U, 0xeded021c01f60af0U,
  0xbbdefc06aa2d0fc1U, 0xacf21820131f0af2U, 0x4192a7f5ecf1426U, 0xf0aa0cbf07e130ceU,
  0xffe703ec220ab50cU, 0xe3cef82216030f03U, 0x240911b42207d626U, 0x3f7bf81fb40f8d7U,
  0x1feff8053afaeff5U, 0xf10f5a07020bf015U, 0xd51d18041a1c270aU, 0x10035d2f08fceb2fU,
  0xd6e3cfe611fd0906U, 0xddd1d8e80af2fddcU, 0xb8eb08fde132e726U, 0xfdf4eef7415600f3U,
  0xffcb16eb13340d07U, 0xda280400e9df33f2U, 0xd2040a03f201f807U, 0x19fc0efaf2d11a2dU,
  0xf107e6cbe73609f6U, 0xf7eefc36013c7f03U, 0xb90ec8e5d8fd0006U, 0xee1cf6f4483d0ffbU,
  0x21b2e248e75640f9U, 0xb66709d41d952effU, 0xf5e908e6dc352bf6U, 0x60010061081fed0U,
  0xc2fe04e21ac723e8U, 0x2c1ea5f60cf05104U, 0xff05df44ea021208U, 0xf9f4feb41f510cd5U,
  0x23b3fbc1375347eeU, 0xbd3d31f2bd964bd5U, 0x9c1b1217ef3fcfe8U, 0xd907c8f402d12727U,
  0xf8f6da8101fefc09U, 0xcf1a1c440f280bd0U, 0x1ffeffc3b7e61e68U, 0xea18d9e8f31f06f5U,
  0xb0a0dfd3c2c18f6U, 0xef2a21f1e2eaf8e5U, 0xe9ed81aa38020dffU, 0xd506300b0df4030cU,
  0x905eb1507081b15U, 0xd9e0f1201a3017feU, 0xf6ebf9ebf9d8241eU, 0xfefbd6d4170d0902U,
  0xf3fbd6f60f26f7f0U, 0xf0273cfaf3e40fe4U, 0xf7f11c06cc09ee7fU, 0xf1e7d62efcec2111U,
  0xf8ca09cff0eef8e5U, 0xf7edf40c2bc20c00U, 0x20e3ee0f0903c5fcU, 0xd1cad5f7f30a0606U,
  0xcde3efcd7f2207e2U, 0xb4fc59d21adf242bU, 0xd5141debdc1ada3cU, 0xe326a4c1fefaf607U,
  0xebd1ef191905f2f8U, 0x8f4021e39e9e7ecU, 0xd9f70ba8ecf8032cU, 0xe30ffef7012fe8d3U,
  0xd2f115262cfb17f1U, 0x140d7f1dc31af027U, 0xe65040eec53c1eb3U, 0xfef70e1d0115d530U,
  0x9400eeda34a7dceaU, 0x1fa1c90df40816ebU, 0xc6fdfcd8e28cfd1fU, 0xfbee00fe4d6eb5f5U,
  0xffcaf2181b206d1bU, 0xa63c40fc07d64cbaU, 0x91d001a15170cdfU, 0xbaf8710130a60cf9U,
  0xad04f8fedbfef755U, 0xef0edc7f11077559U, 0x2e0db098faf2064fU, 0xd921e5ff0b38f0deU,
  0xd90913067fe8fa1dU, 0xcf1aef28ebf2f51bU, 0xff14fbe1e91e0cebU, 0xe80ef008282100efU,
  0xcee9f4040be2fa0bU, 0xfb01eefa1ad116e9U, 0x4eff2e600edf7feU, 0xd4e90edb5d56dbbeU,
  0xd1d9d2f4e61542f8U, 0xdad339ea2c8133bdU, 0xc7f903cbd640e8b4U, 0x6c030fcaeddc07ebU,
  0xcafed9eb0ad700bbU, 0x174d07eeff024bfdU, 0x60134eea125fe1eU, 0xda61589c233e2ebcU,
  0x24b110f15811fad8U, 0xf5f85e1ceeee1f01U, 0xf03824dab5f2e9f4U, 0x1506f4cdd9352f33U,
  0x2aae83e3e31831fbU, 0xdfb438d6da81bcf7U, 0xf7c0c9f5e3c735e3U, 0xd0e602ea5279eee3U,
  0xe2dbde155b6516e8U, 0xa7172b28f7b424f4U, 0xb02afe18f353f2e8U, 0xe7040f122ac93009U,
  0xf0e9e4a201a9f506U, 0xf1f1e057f13927e4U, 0xc0e4cd81cbfae81aU, 0xf5f7dcbe3bd2f217U,
  0x27ffc23346e809fdU, 0xd7103d0100ff0122U, 0xfec73dd60ee726edU, 0xc60173d14fe9e2b2U,
  0x27390426f51a01eaU, 0xe1e8300e7f2eecfcU, 0xade317f9148ded2cU, 0xd129d3dcf82715feU,
  0xdb04010550f010eeU, 0xcce23d0afce6fd24U, 0xd7f5e081140807a0U, 0x8f85854eb160adeU,
  0xf68800f5edf34ae7U, 0x15e4f9fa06b6e9ebU, 0xcee2f1dcd6c3f8f6U, 0xd70adef5133605e8U,
  0xc8f50c317ff80f17U, 0xa120e21bb010324U, 0xf53e22edab2825fdU, 0xf2fde8f80bf9fa33U,
  0xb6d4e6f03bd607eeU, 0xad1daf8110a2ae8U, 0xf7f91cd90ae11a05U, 0xf310ebf54b2bfb87U,
  0xe7e2ed1138730cfbU, 0xb4e713fa13a07fdfU, 0xb7152719d136ec18U, 0x30536ee5fdbfe05U,
  0xfd08b3db3307ff0dU, 0xf705cb660d313d22U, 0xf704deea9ffa0c26U, 0x5150a9d022112faU,
  0x6d41e7f57f3f419U, 0xf03a171fdf14d6b2U, 0xe03e33e3b1e229ecU, 0xf4e55ce346eb0242U,
  0x8c56cfbf2eda20e8U, 0xe9fab9f27cc41cdeU, 0xfecefc1026f9031cU, 0xf0f8e60d060ce1c0U,
  0xe1f8d4e97f0b2e13U, 0xedf61648d4f10a05U, 0xfa04243ade151155U, 0xf8f419e2fcf5f518U,
  0xe10fc1c818d51ac6U, 0x2b11c61509060dd9U, 0xbb00f9e9e0241131U, 0xfffffebcffffffa6U,
  0xfffffc88fffffbbcU, 0xfffffe4afffffb59U, 0xffffff72000001c3U, 0xfffffff6ffffff30U,
  0xfffffc5f000000e5U, 0x7500000045U, 0xa0000000afU, 0xffffffe4000000dfU,
  0xfffffc70fffffea1U, 0x22cfffffc27U, 0xfffffc2afffffefbU, 0xfffffff400000179U,
  0x630000008cU, 0xfffffcfc0000001fU, 0x1bffffff9eU, 0x53fffffd87U,
  0xfffffd35ffffffabU, 0xffffffe30000000eU, 0xffffff1dfffffaeeU, 0xfffffef1fffffd91U,
  0xffffff9dfffffc0dU, 0xffffffee1U, 0x16fffffdbeU, 0xffffff5bfffff998U,
  0xffffffff0000003aU, 0xfffffd8dffffff47U, 0xfffffbdfffffffccU, 0xfffffe9a00000161U,
  0x3400000107U, 0xfffffa95ffffff6fU, 0xfffffd80000000cfU, 0x7f41d21227f4a28U,
  0xfec17f8d805f89eU, 0xf748f11309f1f316U, 0xb80720f71102f805U, 0x2516010beb00d05aU,
  0xfeda0bfe1cc2f60dU, 0xadf2b04101fdef07U, 0xdc0430181301d308U, 0xf324f6381f0af73eU,
  0xfa1c2ce9b2000e7fU, 0xe2a11228c6bf1907U, 0xcffdecf226210c14U, 0x1309f5ffe0fdced0U,
  0xf4f822de0e14ee12U, 0xbd1d1812121313dcU, 0xee0542f8250e1a06U, 0x95cd90f62a1ede12U,
  0x8192cdd3f517e1acU, 0xcfc483ecd02ac395U, 0xaca7efd99a1ca9a3U, 0xd70f99dc3399cce6U,
  0x4d40392dbe0fe8fU, 0x26f8d0ff91d3da06U, 0xdee1efe71792ccedU, 0x2a2634111fca0122U,
  0x1f25f70a080efa47U, 0xdab3ffe1eeb517f7U, 0xcdf099eb17061820U, 0x4f0e22e0ed9d4c7U,
  0xdd2cfdf911de1222U, 0x8112fa17fcee133cU, 0xf3301631fa1eb912U, 0xcffba3faf4cd1a47U,
  0xbf7faf402eadfcdU, 0x44020908f081dd03U, 0xfb26f23303dbd3feU, 0x1c826f6e80efec9U,
  0x21ee46090c31f2feU, 0x22ead5e9fefe84f6U, 0xf520f3e908f3ee11U, 0x1fcfe0aee520a07U,
  0xbf80706000f14b3U, 0x438fff2df62e215U, 0xcbf5fccf14f81414U, 0x24080a138104eb11U,
  0x9a0304030eed0611U, 0xda09e21013fd03f0U, 0xda171a200b09eb11U, 0xeb13d027cf98a937U,
  0x23a539db17cc9eb2U, 0x522ba43e8a7d322U, 0x20ce0a40e18880fU, 0xd3d6bb34d2a6b7e7U,
  0x18efab19d25adb7U, 0x8f2fdd06ba15b3baU, 0xcef7e981cd0ae7b8U, 0xba58827d11a2cceU,
  0xe0a8c0a42291d7dcU, 0x1cb89b0ae98189a5U, 0xe5e90787a6cfb781U, 0xa918d9e1e297b2d6U,
  0x2af9b9dbc4d18fa7U, 0xf3b313a2b3e999e3U, 0xb98a02cbe9892de8U, 0xd7f40a031d29e6d5U,
  0xadc5aee0fdc1b6b8U, 0x1ac5f1e5e9dcf18dU, 0xaedc1d8a81f2ddffU, 0xdeb2f298249ef017U,
  0xefeeaf20fc3a79fU, 0xf719b9dfb4a6aebdU, 0xe5ecb4a6d1e1cd13U, 0x50fd48f00426e230U,
  0xfe050616f1d1f1fdU, 0xa5faf820edd10fffU, 0x11fa81e301efe4fcU, 0xf7250d2662ffd6fcU,
  0xb81707def2ebfadcU, 0xb706df45fbe80009U, 0xfffc100301fcd114U, 0x81e98b18f275dfaaU,
  0xafc5d5d90cb8b8f3U, 0x2cb6bad3143e97b9U, 0x9cc56b2cbcabdc5U, 0xad12aafae4bef8f2U,
  0x1edbba1abdae100U, 0xf7a7e39ec2d99607U, 0xf5d0f1d4c39ed9efU, 0x8114ab08a2d0dd08U,
  0x1012110ad0fb0178U, 0xcdcf1d61f3d6ebecU, 0xbb1f612b191f1a17U, 0xc4f70387dbf0ebU,
  0xf12d0af311d40245U, 0x9e04e9f30f06e0daU, 0xf817fefaff1c0e19U, 0x81cf0032daeedfbdU,
  0xe6c0b6e8e5d2dae6U, 0xe5d4d3c317a9af8dU, 0xb9f2d5b99b140ab3U, 0xe5079e90cb0d8bcfU,
  0xe6d9a0cf97dddfefU, 0xd9f5a8ebaf8aa1d1U, 0xdf8411bfd988d6e1U, 0x15f8fa0ced517f16U,
  0xfceef0fee1ef02c9U, 0x102af8d1feeb01f7U, 0xdf00e5f808f9fd01U, 0xcf3f805de05d8f6U,
  0xedf607ea03e306faU, 0xf300c608fcf8fe02U, 0xe9f113150e08f512U, 0xadf719fffcd6111eU,
  0xc7c22119dcd3bd9bU, 0xe4d1e0de0b0de4e8U, 0xbae6e881cdb120d7U, 0xdbd0d917ebc3cbd7U,
  0xe8fcd201fc19bff1U, 0xd51807ffcbbb9de1U, 0x24f5f3cad1fe221dU, 0x2eb9abf231dcdee0U,
  0xc1a1b9851cd6b3edU, 0xe2bf87d720be92dfU, 0x2b8817b88188a0b1U, 0xa616d2e132e8a7e3U,
  0xe9d7a6dfe119daa5U, 0xdde6f699ab92a98cU, 0x14c5379ca2b006a3U, 0xcbb1dcffe3ff2a05U,
  0xe4d9b4eacb89b5c3U, 0xe1d4b3f9dfeca688U, 0xe7c40fa68187948dU, 0xcde5dda1d7b0b21aU,
  0xd50803d8b2d2f7ddU, 0xd4b6221a9b84f72dU, 0xe39a35d38abe07c7U, 0x37f937de300e5108U,
  0xfbf0fe09f1f9f4aeU, 0xf82d061bf9e90202U, 0xeceabee40b0cfef5U, 0x20fd0a02e904e234U,
  0x961b0bfffdda0be8U, 0x9b0e81310201f1e5U, 0xf6fe21170a12dc17U, 0xeafc1006f406110dU,
  0xf40600eb14f9f43bU, 0xf8b4eeddfb0e2bf9U, 0xbee8123150af5f7U, 0x3dffb02e7fd05ffU,
  0xf922020ee71408e5U, 0xaef702fe0808f8faU, 0x14f2ebf6fd01ea07U, 0xe1a2aa1a09a1efa0U,
  0x85a9bae4089b97baU, 0x19accd0500dde7ceU, 0xe684ce83a89fe09fU, 0xd110e5d7a8a7cae5U,
  0x2319d58ca114c099U, 0xfa8ee8e28590c0e1U, 0x959a0ec6818fe8a1U, 0xd9dcce3325f801ccU,
  0xa186889f0c8bce1eU, 0x1bbbacf810cfb681U, 0x289619e4e6a1a5a9U, 0x8b1388d824ea9c0bU,
  0xf11ab409d22912caU, 0x2df4cf0c8fcdefe4U, 0xef98e8c09be0d624U, 0xc110e90ae107c207U,
  0x14221f06e208f27fU, 0xbd9213edf9420ff3U, 0x8f2bef01c1c1b0eU, 0xf5c4f71cddffe2f5U,
  0xb01dfce708440ad4U, 0xea1657220c0e183dU, 0x1f26b6050004fa24U, 0xe0c5cacdd0d3e4a1U,
  0x98afcf9ff5dc9494U, 0x30b9e0ebcf22dba1U, 0xd2c014adc5b3b49dU, 0x8122cca0dec39e13U,
  0xfbfeb9d587fdd289U, 0xcdd3e4aebf849ff3U, 0xa688dbde94a3f48dU, 0x780119f1ff07f710U,
  0xfcedf1fcffe5f203U, 0x331dfde6e61b01fdU, 0x2ee9dae000f9f6fdU, 0x1cfc0317f3b7feU,
  0x8103fdf2e4f8f8dbU, 0xce01be0601f1f1fbU, 0xfaf4fc0dfe02060bU, 0x4ffe44400804c514U,
  0x16161f1200e2df28U, 0x92e0f55ea48111fdU, 0xcb08bfe40015fa08U, 0xf40b0e0f04edcee6U,
  0x8930ffeb0da8fadcU, 0xcb05aa3d1ce7e51eU, 0x18f70d140f19bf23U, 0xd2cc9d102fef24b7U,
  0xc89a8b9ee59fae82U, 0x3d993d30897e889U, 0xc68706e1b1b6829fU, 0x86dcbab6e7b3a2e2U,
  0x32219a81cb2da2ccU, 0x8b2d1c496db8bf2U, 0xfabcd2a3dbad178eU, 0xb90a9ec21740ede0U,
  0x34939f29eaf9c0ffU, 0x31a1e5a1e31aacfcU, 0xa64414a38190b294U, 0x3331ed8a13a82ab6U,
  0xe2d2f732a3a98200U, 0x7ee40ca899dcfe8U, 0xe304dfbbc31a2734U, 0xe3cf8a2e37e5f1acU,
  0xd486bbdb1183e0f2U, 0x2facb8cfebbcbee5U, 0xec8bffcacbcfce81U, 0xccdeac98a0a589ceU,
  0xd1d3a5d2961990e2U, 0xcce6d1a3e5a09b19U, 0x19a5e1c0adbd1e86U, 0x5b092b1e10f60013U,
  0x11f80d0dfbe3ecd4U, 0xdefe011601e300f5U, 0xf5f698f30bfc0d11U, 0x13f410183101df20U,
  0x810912f7f207f7deU, 0xc3009f38fd0403c6U, 0x809ca1b14fbe00aU, 0x34fe020efb298a21U,
  0x1ef50dfbfd1f08c4U, 0xa80f2a221e0df022U, 0xfaf47fd00eff212eU, 0x1511171f0af6d058U,
  0xcd6f00f61b01ece3U, 0xc903fa37f4fef099U, 0xe11a2d131d30de05U, 0xb70ce40a07377f1bU,
  0xf5f706ffed00f2caU, 0x6b2efb23ea23ee09U, 0xc203b1eaf9fef504U, 0xfeeb01f78b04e329U,
  0x18f80bfd03fc0b19U, 0xdf07d8f50af7070bU, 0xec082b130404f614U, 0x340a24fcfe2c981aU,
  0x1bf7fe1d11e812d0U, 0xd6000cebf1120c0eU, 0xe3f3ead004f40807U, 0xff150c1102f0e215U,
  0x811811f711c006eeU, 0xcb0ece2911fa0f15U, 0xd10415240e0be80dU, 0x36fa0c080234812bU,
  0xfe160301f728fde8U, 0xd3f0151ddcf9041dU, 0xde1440e805ff2824U, 0x25070b2402eed016U,
  0xd90a001406ee0ff7U, 0xf804de0e0112ee24U, 0xfe20f22609250004U, 0x9f3385ca091be010U,
  0xf082d4e2fab9a0abU, 0xefed09ce0881aee5U, 0x8a9a19a6ced92889U, 0x831fcf8d0f9c3fdU,
  0xf7eccdf1fed40edbU, 0x1c0dfada14d394eeU, 0xf508fe0c11fe2038U, 0x230d16090f17d213U,
  0xf0a11fb00f0e7ceU, 0xe71bff0f0d11fbfbU, 0xe4f0d3e200050effU, 0xff20b0ae201db2eU,
  0x8115fde714df0cf8U, 0xdf0a9c1f0ef00414U, 0xf70d2918050fd914U, 0x220b11ec04efe020U,
  0xff1cfe180c0dfd1fU, 0x81e22034f1a9fd0dU, 0xe617def814f8fd27U, 0x1610ec2a15fbd222U,
  0xe113fbfd0ffef810U, 0x1d180d141cf309c1U, 0xe42022042114e704U, 0xb7900600e2c21d9dU,
  0xb588cde1cddf90aaU, 0x1eaa99e908b2cfd7U, 0xd28a179e95c6c1daU, 0xb1f7d8b20391f0fbU,
  0x3099bc2bbe5e2c1U, 0x27b0e09c93c79e02U, 0xe4810bc3abead9b2U, 0xe9cd191c24f62bd7U,
  0x1ed414107fcdc7f5U, 0x2d0904e367c82815U, 0x94036284905eddbU, 0xde312ce71722e1faU,
  0x315220e93ce0ecU, 0x6c220a021120d527U, 0x4dd7f022fab9fb0cU, 0xf530f82623c5bd32U,
  0x33290bf5b64409c6U, 0x230008810644fc38U, 0xaef626e92ddf2533U, 0x49fe0304e7e7a127U,
  0x13d5f20531191b3cU, 0x242edc1e020cfde6U, 0xb1342a2f0c40b00bU, 0x811df80310e00adeU,
  0x60607dcee0feb57U, 0x359208f7f7490cfeU, 0x31f901edff11fafbU, 0x11eefe0529fe0cfdU,
  0xb20306eaf02ffec5U, 0x7f86a03f900fdd6U, 0x31100060303160aU, 0xc898cc03d3ece2e7U,
  0xc1c6c7e9dab8e3f9U, 0x5c39ddad600bfb7U, 0xd5dce7aad5b4c781U, 0xc6f5e5cdfbd0bf10U,
  0x17d2def2beec13c0U, 0x1601129cd2a4ac0aU, 0xc5d9d5b5d9a9fff1U, 0xcd1f4623ad43062fU,
  0xb190da261d448ff5U, 0xd1fd003ed7ecbe3fU, 0xb99496cab3dc8cd3U, 0xfa1581ce92e8b804U,
  0xd34816948d21c7f3U, 0xc41704af10050009U, 0xe11003bcefa0c7b3U, 0xf11eda412706fef0U,
  0x103aff0a8e000835U, 0x35eb2d3f1e4dc917U, 0xdcf1ce0815e44131U, 0x180d0622c6f0fb20U,
  0x811b01fc1aa3131aU, 0x241ab5162105e723U, 0xfb2af420091feaffU, 0x8fc2912f1fd32481U,
  0x96b3a1d4ef8eafa1U, 0xec9cd92602b4849aU, 0xeeb8dae28795aab4U, 0x8ce7aa8ea5d0dae9U,
  0x928a9978610d5a7U, 0x99bd7a2bececc00U, 0xe9a902c2c2d7fcc8U, 0x12abcadcd0dbffafU,
  0x9ec7d1a636cae51dU, 0xffe5920b1483dd82U, 0xc9e68cb0e0df98U, 0x89d1a3b202d5e5e4U,
  0xf7f081b59e12c0cfU, 0x13a4caa688caa1f2U, 0xd1c4e3c8a29e1cb0U, 0x6e075bfcfecd103cU,
  0xf7f40f06e0c1e3f3U, 0xdde5f93ef1e51ee9U, 0xfdf381f0fa0adc07U, 0xe2f802274ee7d832U,
  0xa92d0fe3ecf3e9deU, 0x850ab64af7e706faU, 0xeadf1107000224U, 0xd7a7dcce1fdcfab2U,
  0xe988dd8ef8a7e6d2U, 0xdba987faf88cc1dbU, 0x8db31cc1afa5e490U, 0x8d099d81edafbad0U,
  0xd9efd588c0e99cd0U, 0x1dbf1497a4c7a302U, 0x23aa2cb2d8b620d9U, 0xd516094af7f0f301U,
  0xb681b1ffd4a2b42aU, 0x4be9b507c312a299U, 0xb499cbd1aef34f8aU, 0xca4415c941a8ec2bU,
  0xebb31cbdaf0ff1c3U, 0xf434b90c048adeebU, 0xeab621c724ded310U, 0x3d22a2bb45e0a083U,
  0x341a9e0bc3a0b18dU, 0xe6d42c2e1a423b04U, 0xcfadbdccd0e08f2bU, 0xcc2418ebe0c2f601U,
  0x21023ca4c90d05f7U, 0xaaf60543faf8b7d8U, 0xdee22e91a18130efU, 0x3dfa42ff0634cf29U,
  0xa0a0c13f3ef010dU, 0xe2d5fc1cffae17f9U, 0xf508f0fef30ded06U, 0xf6f7f60e0cf1eb7fU,
  0xe20b05f90be3eff1U, 0xf808282506e6fcf5U, 0xf8f316fc120e0705U, 0xccbbbc2bcecff69dU,
  0xc6b0de963395a299U, 0xd899e6cafe8a8eb5U, 0x8191edcbdca3ddc1U, 0x98fa9db0d9d7dd15U,
  0xe6d1deae8e02d5c1U, 0xe4acda918fd28fedU, 0x8ab80da8a0972ba7U, 0xce03d90ed8fef103U,
  0xf7150710db04097fU, 0xd4a00305f63003faU, 0xeefdf2fc0b141219U, 0xf8ecfc070507f60cU,
  0xca0309ecf4c50801U, 0xc61941fe1c191b12U, 0x1f3240200f07240cU, 0x29fc1ff317d42b1aU,
  0x170f21f6efc4e54eU, 0x2cab0c1824b603e1U, 0xa70781162d0c071aU, 0xeb2a002cce030102U,
  0x923719f701b9faf9U, 0xa602eb23220f0d4fU, 0x120c1c0d1d08d33fU, 0x74f2604ff5107260U,
  0xede9ff0503e6e4ceU, 0x3722eed314e84bffU, 0xfdb386ef16fdecefU, 0x52511f9e7e1dc6fU,
  0x81cd5bdff62a08ddU, 0xd121da37feddf918U, 0xca03e627f307f92fU, 0x810fbe2701f02408U,
  0x513f8fa090f0b37U, 0x370cff1bc5b2f307U, 0xb32ad632f7fef508U, 0x505fce8abf6f016U,
  0xc0906ff02d5034fU, 0xd0064e2f2fad8fbU, 0xd11b140206f6d10dU, 0x8121bf42cd33d6efU,
  0xcaf0cd7c01dcadcU, 0xf9b5d323e1b8aee5U, 0xb40ce59229cbd3caU, 0x24ac14d1c5d4d316U,
  0x16cde4d5eb3117afU, 0xad16c9f6bdffc5e1U, 0x39eb40e4e0b7f2c9U, 0xe7fe2f34ec147024U,
  0xe9f900e3e6f8d581U, 0xaf62e719f8250309U, 0xbb1b57f6ed1afcf7U, 0x291816218af9cb33U,
  0xe51dfddf2f15e611U, 0xb41aa32013e3faf1U, 0xd81837181d26e507U, 0xe50f1909e465db29U,
  0x2c2d2008f83f21e0U, 0x37eb4130cd4efc2eU, 0xb41df3dd20e7192eU, 0x2115fa1ba018c021U,
  0xb473f6e4181d2021U, 0x7f2be20a1d040610U, 0xcc46321c31418a00U, 0xf82eed202f4afb10U,
  0xfd2c122bc30b0c4eU, 0x4add1b070c13ec24U, 0xcbf681c705f82736U, 0x4e80e29b502db1cU,
  0xee1902020afe071bU, 0x2b264d0b041d2163U, 0xea2138131925cc0dU, 0xd90ad52f0a07bd3aU,
  0x14a8ba8c28e6f73aU, 0xf2062cd41be499a3U, 0xc3ea39e638a3ee21U, 0x81b40429fc2fcaebU,
  0x2e42d42e913fc50bU, 0x25b6d7ad25dcb8c7U, 0xd12c21101987e837U, 0x240b072210ea15U,
  0x181d0b22cb170e18U, 0xd1e82a1cc8e9001cU, 0x8101fbf3fe111a26U, 0x1cfb0c1df301e024U,
  0xc9111f022ae708fdU, 0xf1fddf210f0d1314U, 0xc02e0f1a290af00eU, 0xf80c0e55fbf6f213U,
  0xef2f70fbd3cf3bbU, 0xfa3b2d070628e134U, 0xdd043ee2051d0401U, 0x2d15282a02f8c46eU,
  0xeb0a10f825e40219U, 0x9f16002c131f0292U, 0x811464362e2ae5fdU, 0xcce2cd21eaeb1bb2U,
  0xcae2b3b928878b81U, 0xd79f95eb05f2aea0U, 0xa3c6e3e6adada5e0U, 0xacdde3e9e2cbe0ebU,
  0xd8e4c490b20490ddU, 0xfcb5f2ccc2c5bf06U, 0x20c609aeefe2e8b4U, 0xc9ebc6dcefe21a1dU,
  0xb781fbcdf9dbfeeaU, 0x3c8f51fe4e8e8dbU, 0xe917e3c2ed00d00aU, 0xdff616e9dac5e509U,
  0x90be222e31b180aU, 0xf3e3fa06edac21f3U, 0xfe09ddfaf511cecfU, 0x20ab00000790U,
  0x1dd2ffffe44cU, 0xbb5000004dbU, 0xffffe578fffff5abU, 0x940fffff94dU,
  0x18e1ffffecceU, 0x98ffffe3dcU, 0xffffe574fffff9a4U, 0x5a6ffffe452U,
  0xffffe4d50000093eU, 0x16b2ffffe4dcU, 0xfffffb26ffffe521U, 0xffffe52c00001421U,
  0xffffe707fffff637U, 0x1175000007a7U, 0xc7200000228U, 0xffffe29e000011aaU,
  0x14e300000a6eU, 0x35ffffe5aeU, 0xf4700001d0bU, 0xfffff62afffff20aU,
  0xffffe85300000bebU, 0xb17ffffe5cdU, 0xffffdb8bffffe582U, 0xe3ffffff534U,
  0x1796ffffe6caU, 0xfffffad200001de2U, 0xfffff8e300000db9U, 0x209300000917U,
  0xfffff4f500001c9eU, 0x12ef000017dcU, 0xfffffacaffffe5feU, 0xf7f701d721e033f4U,
  0xd001f50438ead9fdU, 0xef2247ea0934ec06U, 0xfff40fd113f1e4f2U, 0x7f1ec5fe1df70314U,
  0x11e6c6e7fc302315U, 0x14d403494400f4U, 0x10e9051df52d21f3U, 0xd6e701da2bce3ef3U,
  0xbc24f1f23f06e0f8U, 0xea354e0e2933e831U, 0x3f70fd75014d000U, 0x7f1fbfe122f8ee17U,
  0x1cf0d7ebf23c09dfU, 0x3219d11f513e0f13U, 0x15f60525f83025f2U, 0xc51d01d739f24aefU,
  0xe1f4eafe48e8eb2bU, 0xe40955e6502fe305U, 0xaf810e21723e912U, 0x7f21c0f728f9fa1cU,
  0xbaceee3004a2cfeU, 0x2424cc3f595a232fU, 0x29f2053002362beeU, 0xddfdffd64cbd59eaU,
  0xa024e13154d7fd37U, 0xde125c39082ddd15U, 0x15f713f45e0bea2dU, 0x7f24b0f433fb1f24U,
  0x25dc13ed035dfe1eU, 0xff32c767611a40ddU, 0xe4b30340dc3e33e8U, 0xe0effd756d65be7U,
  0xd9fedc2755181916U, 0xde3355ef7523dbdaU, 0x23f1150f4b12bd46U, 0x6b24b1de3900e529U,
  0x2fec3fa30963db11U, 0x193ccd7f5a4e5842U, 0x398a024a044037e5U, 0xbe13ffd8549d50e7U,
  0xef1cdb204d0c343bU, 0xe61446f16814e00eU, 0x2ee7172a33d7f458U, 0x4b20c3da3a09232cU,
  0xf5a560d1d35d02dbU, 0xfe3fdb7f49356310U, 0x23b2024b0c3b34e4U, 0x1136fee34f9446e9U,
  0xcdfdce244f64e0cU, 0xf11739390c0ee8c2U, 0x39dc1a4336148d66U, 0x301dbabb3a13052fU,
  0x2fc079c3ed56f503U, 0x353ceb773b216622U, 0x3181004af53631e5U, 0xf901ffe5441838edU,
  0x19f2dfec38d75ddaU, 0xff422c2d1507f408U, 0x40d31d536e25ef69U, 0x181cc3b3381d2230U,
  0x16c57fd7e94b0202U, 0x2332fc642e265dd9U, 0xe0ef01442e2f2be9U, 0xe60202e13b692ff1U,
  0x5af0e22f2fe7690bU, 0xe2a24292003ff0eU, 0x47cc21616332c86aU, 0x71cc9b638270832U,
  0x2e67fe6f7422711U, 0xf7240d53253c55dbU, 0xdcb7043ff92b29edU, 0xe4e606d436632bf6U,
  0x3ffce5d52ab47611U, 0x1d0d203808fd0bdcU, 0x50c5297131edcb6cU, 0xf920d1bf3a342b37U,
  0x12e77fd5ef3ff8c7U, 0x19112149201250fbU, 0x21d50a3e012a2af1U, 0xf60f0dcb312b27fdU,
  0x8e9ecfe23c87dfaU, 0x2b661c0d6afc19b7U, 0x57c22f7f2bdadb6aU, 0xee23c89f3b42033cU,
  0x2bce7a0ce63b25f3U, 0x3bf435401c2a49e0U, 0xd7aa0f3e412a2af6U, 0xf00415bd293d2205U,
  0x19e1f6d71ab57631U, 0x330e16ff69f927e0U, 0x56c9317f28edc95cU, 0xe725cab3364b1c3bU,
  0x1de06b16f9342510U, 0x29d74535164f3e04U, 0xe99d1639222729ffU, 0xb5041fa9252c1f0eU,
  0x6913010e10dc6dfaU, 0x380a12f745f33701U, 0x57d4357f2114cb51U, 0xe228cbd53454003bU,
  0x24d85f061a301214U, 0xf6be542d1221371fU, 0xf5ab1e373c262a07U, 0xff242b9422691d18U,
  0x1be30ef903d065efU, 0x3b630d3c3ced48efU, 0x57e6387f4f028646U, 0xdf2cc7ea335fe03cU,
  0xd3f3565c412de4e4U, 0x18ad64270e513426U, 0x29b4263643282b11U, 0xb10335861f361a20U,
  0x4d2b1be3f49f5910U, 0x3a16082b0de855efU, 0x53ff38782e07943bU, 0xdf2ec40030630339U,
  0xdf974c1e1f292221U, 0x36ae6e1f093b3040U, 0xfb812c32e7282b19U, 0xf22a3f811e0f1729U,
  0x60282a44e49a501cU, 0x391f03136ee461cbU, 0x501c387368ffdb33U, 0xe131b7ca2e672437U,
  0x1ae54527d7250e30U, 0x47be7518036c2f0eU, 0xeead332e372a2d23U, 0xab0748811d2d1332U,
  0x37f03639d78148e4U, 0x3743fd1446db6617U, 0x4b38386b3cf9db29U, 0xe733bc0e2d641c34U,
  0xe8e33c4cc8211af1U, 0x31df7310fe622cf8U, 0xdea63a2af12b2e2cU, 0xfee94b9b1a7f0c3bU,
  0x2ce44140d1bb42f4U, 0x342af7f726d764dbU, 0x4450356168e5eb21U, 0xed33b0ea2a5d0b30U,
  0xf8ff3430dc1befefU, 0x3d076c06f81f2822U, 0xeca83f2413292f35U, 0xaec53b718400548U,
  0xbd54d18d28a4123U, 0x347ff2ff40ca65d2U, 0x4167395b2efdf61cU, 0xf439b1dd2b5ceb30U,
  0xe6b42e16ec17f1dfU, 0xe33668fcf2512423U, 0x1f9e4b21142b3345U, 0xdd125ae9137ffb59U,
  0x2d355afedec74407U, 0x365beb5823b96613U, 0x3d7b3f5539eb8918U, 0xf941a6f12d5bfe32U,
  0x3afe278dc714c8faU, 0x316864efeb251c46U, 0x51c75b201f2c3a5aU, 0xd24c4a1f071cf351U,
  0x17204ad4fbbf33d4U, 0x2836eb005eb04cddU, 0x2a6737373a41da0dU, 0xfb3ac80423451a29U,
  0xdcfa15dc9e0c1bffU, 0xe37647e8ea7f0af7U, 0xd99f541812213254U, 0xf3ee4155fb1bea4eU,
  0x263442e915f527fdU, 0x1e3be95032a63cc1U, 0x1f5d33231242e907U, 0xf539cd021c39ca25U,
  0xdc3a09e09a08d5f6U, 0x357f35e4e70dfb02U, 0xffbc521521193154U, 0xb4de3a7bef60e549U,
  0x1c0037d92c1b1a05U, 0x141fe74446992e11U, 0x154f311066e2d5ffU, 0xe639e2ca16301822U,
  0xdd56fed1ee062acaU, 0x97f25e2e411ede7U, 0xf0e45013ee133050U, 0x2112a7fe845e837U,
  0x2cf2260e32130a2cU, 0x83fe7201da41b11U, 0xa38260044f5e1faU, 0xd62fefd60e22101aU,
  0x2b2af7c9d204eae1U, 0xe36412e8e52be6fbU, 0xebc63e0f130b283dU, 0x3674f0002fd30U,
  0x4fa4300040294U, 0x54b3800056c05U, 0x4d7eb00053543U, 0x4d6000004ace8U,
  0x4e349000505e6U, 0x529940004f287U, 0x5625700053616U, 0x575d40005767bU,
  0x684d80005df3dU, 0x52a0e0005809dU, 0x3d24b0004da30U,
};


ai_handle g_forecast_temp_ml_model_weights_table[1 + 2] = {
  AI_HANDLE_PTR(AI_MAGIC_MARKER),
  AI_HANDLE_PTR(s_forecast_temp_ml_model_weights_array_u64),
  AI_HANDLE_PTR(AI_MAGIC_MARKER),
};

