/**
  ******************************************************************************
  * @file    forecast_temp_ml_model_data_params.c
  * @author  AST Embedded Analytics Research Platform
  * @date    2026-03-20T14:11:28-0400
  * @brief   AI Tool Automatic Code Generator for Embedded NN computing
  ******************************************************************************
  * Copyright (c) 2026 STMicroelectronics.
  * All rights reserved.
  *
  * This software is licensed under terms that can be found in the LICENSE file
  * in the root directory of this software component.
  * If no LICENSE file comes with this software, it is provided AS-IS.
  ******************************************************************************
  */

#include "forecast_temp_ml_model_data_params.h"


/**  Activations Section  ****************************************************/
ai_handle g_forecast_temp_ml_model_activations_table[1 + 2] = {
  AI_HANDLE_PTR(AI_MAGIC_MARKER),
  AI_HANDLE_PTR(NULL),
  AI_HANDLE_PTR(AI_MAGIC_MARKER),
};




/**  Weights Section  ********************************************************/
AI_ALIGNED(32)
const ai_u64 s_forecast_temp_ml_model_weights_array_u64[3299] = {
  0x7f0000007fU, 0x606a757fffffffffU, 0xd17212c36414b55U, 0xbac4ced9e3edf802U,
  0x559b6157909aa5afU, 0x863a10f8434afb49U, 0xaae40c0fe4994635U, 0x293faee0d508b681U,
  0xedb5a14c606a22e2U, 0xeed4d36abab659d1U, 0x149061c23f9d2f2cU, 0xc310f80fd8b839bcU,
  0xbc7275a24a271846U, 0xe8d5b5d9fd57ca9bU, 0x993c01aaf1fe52e0U, 0xf7d31642db817cc5U,
  0x177ab80c87d91915U, 0x57c734994455d303U, 0x9beaa5748863edbU, 0xbb27f6e7a459db7fU,
  0xbeb69c5a57c552edU, 0x8b90fb17674c3544U, 0xe82a69d666087870U, 0x44699373adbd5a70U,
  0x4bb3e2078d2bfc81U, 0xc313eb5548d6d0efU, 0xfef19ce7673d8a53U, 0xe3d05e7471870992U,
  0xb0454c046b54f4c8U, 0x72a0310f5d3aa847U, 0x8743afcccd89d84cU, 0x781a81371faa3e51U,
  0xa9b52ffb11f649edU, 0x40b8f3f4d7c35c40U, 0x3b812f5ac30bc6cbU, 0x4a4aba5ec27c569bU,
  0x2fd8cd401f31cb4dU, 0x373b04084515114U, 0x4f16164fb37b1c66U, 0xd937a7c53f3bcd13U,
  0xce1c9e0f08c485b1U, 0x24a152c909181f56U, 0xd62d30f88bd910c3U, 0xad0f5a099aa7f481U,
  0x1b716f9fbbad6476U, 0xf1592311dc4e3f8eU, 0xfff7b9386c8bac40U, 0x873dfaac8196a8c3U,
  0x778e46e4929aa7f9U, 0xbcf29f0c91c3fd35U, 0xe74ce1b0fca620bdU, 0x9859f33db2a9cc6aU,
  0xb420c9a7df04328cU, 0xbb5153e8d83ce613U, 0x361b878107085f7eU, 0xe1b63b6ddbef1a18U,
  0x2244367fbbd800b4U, 0xee2f5a18bfa0e9daU, 0xf3f5c58a3ba7b3adU, 0xc5b4b0bda3d12e2dU,
  0xcc93caceaa89530cU, 0x181643c2458b898aU, 0x69daddeeaf8138f4U, 0xbebd99f3edee405bU,
  0xb8b734e71b16aaa0U, 0x6509db1c1eb04550U, 0xdfce97acec7d3562U, 0x4573171b3b968cd1U,
  0xe73586a43bf174faU, 0x969fd392da78eb55U, 0xd46904e55f314e67U, 0xd712cfef6aac7f5cU,
  0xed431568c448357bU, 0x4aa0972bace5efaaU, 0xf5819f4fc338ef34U, 0x8a96559f571bb92fU,
  0x750bc8f4f79e8797U, 0x59a7f1a156085d48U, 0x8ca2bf7fba1ef0a2U, 0x5509172030cb035cU,
  0x146fd2f84399668dU, 0x6fed46e7e87fc600U, 0x395dd95e248df814U, 0xc1ad64d83afb44f6U,
  0xa116296dbc88815fU, 0x9ec6ff3db5f13fbU, 0xf55dcd46147ef6daU, 0x9dfe92d8a8ba44dfU,
  0x445830cae57c26b0U, 0xe79956902f573c21U, 0xadeecf76e70b7010U, 0xb1818f09c5d7b33fU,
  0xce691e2aceb830bcU, 0x46a6cb9934661137U, 0x16d88b81fbb4fd95U, 0x1c141df9c20bfaf1U,
  0xfa69a98df15b7396U, 0x85793c93a494f953U, 0x4bd02985cac69d54U, 0xbfd9d95d16ee19a7U,
  0x15195cff420da761U, 0xf3a0901f92ca60e8U, 0xeacfc7a0d2f70fc2U, 0x12812b9b35324d93U,
  0xe2bf13582ef97f75U, 0xd40bba19636eb30cU, 0x30fc05936c0012dcU, 0x52a6d8fb75744d30U,
  0x1892c0455d109fe5U, 0xd5aa277f3db7e79dU, 0x208b35309e9ff72aU, 0xd93aedea950f81edU,
  0x6d2228be90a25abaU, 0x3a5e1e8bd74497f9U, 0xd5b353305f7b5335U, 0xf7812e3b1d44513aU,
  0xd53c4b4928dd5d1cU, 0xcc7a9d65f5517485U, 0x928fd63dc8c8b893U, 0x4028f5981274c56dU,
  0x1d0c56d88f7f5846U, 0xfc8399b19abcbebU, 0x5fe2628c9c66ce3bU, 0xe92f3aca84a998a6U,
  0x278fe63f0c09fa2aU, 0x6cc50cddce556bdeU, 0xf8892a049de7b51fU, 0x149094fc8194b60aU,
  0x10a3612b076b09c0U, 0xf2151f57a5bd1760U, 0xf3de4b9896bcca92U, 0x3c73d64f480654a8U,
  0xcd9ce6e8c543cd5cU, 0xc67f34932b543b35U, 0xa08cf164d3e06abaU, 0xa33bbf467f16fe2fU,
  0x2bb1c04b2ad7c59dU, 0xccbc794a26c1f688U, 0x6e575f529b6e5824U, 0x11adab83c36U,
  0x15a000000e4U, 0xffffff040000013eU, 0x109000000b9U, 0xffffff1e000000d5U,
  0x12f000000e5U, 0xe3000000e5U, 0x11300000136U, 0x1380000012aU,
  0x1120000012fU, 0xffffff04ffffff86U, 0xfffffefb00000122U, 0xa1bc2c7f0000011aU,
  0xd45a95ab57b14330U, 0xf0efe931e61dfa17U, 0x298a12755d065bf9U, 0xbb8a3608d2df991dU,
  0x7750ea1e8d6194afU, 0x5ee3a7b667a49a5fU, 0xd3ed12232108e7f6U, 0xf157f8c11629d689U,
  0xf9ce5e01ead7052fU, 0x6614bd2350d9c1dcU, 0xa2bcfd43570d2cd2U, 0x5ae47f6197372eecU,
  0xbe45e5be54704da5U, 0xf226238e73a0b291U, 0x96d356f5003900cbU, 0x757dcc994abb22caU,
  0xea430bd0d8425f17U, 0x444d025016a3eaccU, 0xc32014bc28d0f028U, 0xfc0fbfbe52dff5b1U,
  0xba7d0508e7892b8bU, 0x9134e539996eb3fdU, 0xe033236419015e89U, 0x34d8a341cbcacbaU,
  0xbd2f2ed2df119fbeU, 0xd9905ff03b9ef0faU, 0x724ac6427f993906U, 0xd378965f279ecc45U,
  0xe2f7a6551ae37f27U, 0x7d6c97e39bfa0b34U, 0xa211cfbab4c8085bU, 0x62bc0d1c0ceaa3a1U,
  0x7726eba26067b434U, 0xfd64f598104aa607U, 0x94e600ac4c286906U, 0x6f7f2554353143b6U,
  0x6a8d354b4e407f2aU, 0xb059f6f6700bc41U, 0xe90d3c9af246054eU, 0x9891e8417da9185eU,
  0x21a18b715064a537U, 0xde507878d33366cfU, 0x64b29420085d6f33U, 0x1706727c909b64e8U,
  0xaa0607a59c369ce9U, 0xd9e5df218a5292caU, 0xcf55adc8d3b5ee85U, 0x920b24a18ccc36c4U,
  0x30939b27493fc12U, 0x4751ee23584dddb3U, 0xa1fa427a31ee6231U, 0x2845d35b71c82215U,
  0xed5febb85b813e34U, 0x75dcb3b79bde476U, 0xe76913922e3b0f1fU, 0x9a1ed4a318cd5afeU,
  0xc9be587fa908d13dU, 0x58b8b25a453c161cU, 0xe2644c592c6320f6U, 0x7f00bf040925d9a3U,
  0x75cc0894e5d44dfU, 0x25e1477c45054e2eU, 0x924c120fda62e533U, 0x5bab1e51fe9b27f4U,
  0xd8c37d41f9cdea82U, 0xfc3a45981246dd3fU, 0xd66cb74fbf1f35a7U, 0xcce36ca2691e24bfU,
  0x7fbd399866f5fa2bU, 0xe3d056a1f38dcf4dU, 0x40ff33244bc3102U, 0x290967901634688aU,
  0x819d9117e5fbb676U, 0x3518f0f87960e5d7U, 0x3f28f59c6a89a71bU, 0x69f0492d61b7b2eaU,
  0xb94925c78cbda61cU, 0xe02cc8ae758f1aeU, 0xc07345d1ac6297b6U, 0xa412335c32cef1c4U,
  0xee7f47cbbf5dded6U, 0x39bacfe6b59cbc7U, 0x6d859e5f5465c382U, 0x43510f2f14bbdfd0U,
  0x25ccc44374f9c095U, 0xec1aafbabf0e955bU, 0xe149c2faa85efe52U, 0xd860906b969b9922U,
  0x1c1264d5bb60dc8U, 0x5817a5ba1430bc81U, 0x7bd1a70d3357de8cU, 0x9698ab150af5d53fU,
  0x4089bed44a1c8b88U, 0xe6a6ae479cdbe689U, 0x242ba3fddebff603U, 0xb8bc52bd8d5704c7U,
  0x5ee81181a55c99a9U, 0xf011762fb3a49f73U, 0x62d99c0a3487d6f5U, 0x75001413c6b704cdU,
  0x30e11ee77ffba3daU, 0xdbc14d67aa9536aaU, 0xcc09230bf09d5fb6U, 0xef171cb21f73bf40U,
  0x1f65de12a86f7c97U, 0x60d5e62a4ccb10b2U, 0x6abe7219ca402217U, 0x4f47a624f3bb7de8U,
  0xd577b8250963e102U, 0x9bb475b4dbc5377bU, 0x58fff848e2237fd7U, 0x3ea466b744c0e2fbU,
  0xfee8fb5f4c16f606U, 0x16ceaf30deae737fU, 0xe83c062d139e5432U, 0x25f6ae96adc1df0eU,
  0xdcc7b92853d97be3U, 0x30b22bd1cde246a3U, 0x6358163815bb59e8U, 0xf01148485ba86534U,
  0xb5b77aa771dbe979U, 0xedab9b2fed4ec626U, 0x329557957eb2c4c2U, 0xb7e7eadc5ffd9ac8U,
  0xf3572c6eb4e9abcfU, 0xb49aa30630ec7fc4U, 0xdc5ae9c93f541690U, 0x78776332354a877fU,
  0x9199fc258ac7e263U, 0x6a49d4fddb09025cU, 0x169c20632e2ed908U, 0xbbf8726b4ada7f4cU,
  0x47c0103994062fe6U, 0x94d69bb97cf96166U, 0x34eee297c01c5398U, 0x82524aa1e24fad8U,
  0x4a8cdd097fed024U, 0x58447ee406c298aaU, 0x7dd4d4012e131674U, 0xd46d1dff7cc3ae00U,
  0xa6fe7837ac1061d7U, 0xe02ecd71676d61d0U, 0xb244c0627ffdc4ffU, 0xa1ccf40c55c64d9U,
  0x107f4407218fbb04U, 0x4e0c7f0e94c70cd6U, 0x95d4c74e9c72716cU, 0x50b1d79e7809db4dU,
  0x49d06e47d4d3d118U, 0x5ca7203f96999331U, 0x317b1bea4da7db9aU, 0xd30af91bece24d79U,
  0xb7287458c662f578U, 0xa6a24cebe4d2ad7cU, 0x68d56a9531ef3c04U, 0x3787f6f948a1deb8U,
  0x5cef9fb876efe6dbU, 0x1826673f7216b7d4U, 0x23cb225f8c3e7ab4U, 0x38e0ace2167f9f77U,
  0xb0e1a1f742de1429U, 0xa204039d1eb00e4bU, 0xf409cc9fd4e7a687U, 0xbec1d8693eaa71f0U,
  0xec8d15e612c38c46U, 0x1d897f28a46325cfU, 0x11c0b2691372efd3U, 0xb12abfed67c691abU,
  0x25b60b81dca3b7cU, 0x8e79700ca7e7af67U, 0x52ca5117d70b2537U, 0x18eb42d06a22ea50U,
  0xaa3633990bde5c06U, 0x948864f1eeaee2c6U, 0xf468b87693f350f9U, 0x2a64aadb05665c3eU,
  0xffc0451f4d3dae32U, 0x13ae0f0023557faeU, 0x5c63f57053ed7a7bU, 0xa555344c45b5269dU,
  0x60a1022ac96520c7U, 0x6ef40b73ed4c2e1bU, 0x5069623b4a4e0ff4U, 0x7b7c7f9c9314cdb4U,
  0xac446cbb7116f0d8U, 0x65f615a42eecad53U, 0xcfc65ac2b396eba0U, 0x2518647115785ff1U,
  0x64bf7d7cf19e4506U, 0x793b2165575d7439U, 0xc6ee27aa6d60dbf2U, 0x1188af9ba9de919dU,
  0x32a9148438d9cf2fU, 0x9c3c1bfd13308c4aU, 0x9a1db9da75f68b9aU, 0x1bc98aba8994a32aU,
  0x7fd42c5bbe9e21b7U, 0xe86b97124d74a905U, 0xeed0fbb3c3bed50fU, 0x4ff1726561d3249dU,
  0xd7adb6f8b254fef4U, 0xb48f5a75f6047941U, 0x5164905a7a0f416bU, 0xa3020a08222cbb32U,
  0xabf40b17c36d79a0U, 0x48592aff9b439bd5U, 0x961abe6a06947fdeU, 0xd44ea0884148eebcU,
  0xbe0fd5df52bfa70U, 0x29a3553ba22e8cf9U, 0xb44c4556a3b08a8aU, 0x1ea700f9898a2d2bU,
  0xc49e211e94d7d206U, 0x1c98c5547a8144c1U, 0x4a2c28d4612f2933U, 0x1ec515ee9feU,
  0x30c00000217U, 0x1f30000027aU, 0x273ffffff68U, 0xfffffe6f00000258U,
  0xffffffe1fffffe45U, 0x28e000001ecU, 0x1e500000271U, 0x1df0000017aU,
  0x1480000012bU, 0x28200000218U, 0x2250000019eU, 0x81db017e00000000U,
  0x41d88f8ce6817fe4U, 0xf1d117ed9e217fd7U, 0xf345d8195817ff6U, 0x7f7f1e81414a8c7fU,
  0x818c7f1581812343U, 0xc9817f5a71f9f538U, 0x1a45814281c822c3U, 0x13819d818dd4fc7fU,
  0x8156007fU, 0x0U, 0x0U, 0x0U,
  0x0U, 0x0U, 0x0U, 0x0U,
  0x0U, 0x0U, 0x0U, 0x0U,
  0x6bf6495900000000U, 0xd299958a42614106U, 0x31e7dcfdd88176b0U, 0xf31ec5264210d3bdU,
  0x7f8baf91bff85a99U, 0x256220f84e6118b6U, 0xdfaecd05874a8fdfU, 0x85812d9f8d4a9c81U,
  0x13534fa91fdd17e7U, 0xbb648c3e8e89a244U, 0x17d18a9d54beb62fU, 0x7fdd95865c6ad74aU,
  0xd8cf7f5a42c0e781U, 0x65b46e3eb73571fbU, 0x37d676a64a0af215U, 0xf0f1f136d29e06b7U,
  0xf105598f9b532c22U, 0xdd22654d2575bffU, 0x3f200c6abe1c7f9dU, 0x5a17ec9c5a6e7f3aU,
  0x9653a0df88a00051U, 0xff861364e8ebcac2U, 0x40f2488aa73d5300U, 0x753af6c0ef0f5097U,
  0xe8c219b57f863608U, 0xb9144e2f38c32694U, 0x503b774c34507f89U, 0x8ba85f2ed45d1d52U,
  0x7ff3b908bc99d66eU, 0x6262c7b3e056c9c6U, 0x1477fc46935497fU, 0x7e56477b7a4e3acU,
  0xc2843034af3799cdU, 0xb21647445ed1f022U, 0xfbff7fddd2c3f469U, 0x2486229589cd7f58U,
  0xc46265e25f45c874U, 0x4f90977c116a28c3U, 0x12aa95ce911cb8d1U, 0x406c44dee47f291dU,
  0x1d977761690a107fU, 0x395bcc6dae605038U, 0x1ed02bffbe341f16U, 0x22f2e92216eb7291U,
  0x9884d2728241e4d7U, 0xc986af95f6157f49U, 0xaccaa651ec25b76dU, 0xfaff7b6ccf8b7cf1U,
  0x8f81e8c0e1818f92U, 0x5240eee4694540bfU, 0x22c51af0ea244b4eU, 0xc3c72900a691e60dU,
  0x79b0341863dc8c79U, 0x90233f208193c90cU, 0x81b3e1627602cd09U, 0xa3a0592bbfc8d78aU,
  0xb0e211603330cc5aU, 0x197762db8759331cU, 0x8166d3d76db14bf7U, 0x910554450821308dU,
  0x309edc1230fd52ffU, 0xb60cf2deb2cb388aU, 0x24fdeb810d9b250bU, 0x5c4811e4028fee2fU,
  0xf55ae6fef13df0acU, 0x69108f9afa997f0fU, 0x156ea473288da983U, 0x9fe581f4c2cdeb3bU,
  0xab051a5c4ffa3af2U, 0xb56e2154c83a4c34U, 0x99f090e1ca2243a1U, 0x31a3ac7f26bc44c0U,
  0xe546818fdc20e9f3U, 0x3ff66f100c1c5291U, 0xe43f0e65ba8c3f73U, 0x88b45ef1de11307eU,
  0x6c0dd123816e74b2U, 0x2ffdff9399b248ebU, 0x3ff28b6caf90d718U, 0x9160a407696c26f8U,
  0xb31181909e5d64faU, 0x91d87389e00085dbU, 0x7cf0318ae1b290e1U, 0x6a9741b91361670fU,
  0xb635297fd9a58e7fU, 0x1306f92e360907f2U, 0x4fe9ee6f49f038e4U, 0xc3da160d10364422U,
  0x6fd5784d71fd6487U, 0xdb647b67b49cce5bU, 0xd0cc934f7fa8a70fU, 0xb7ecda0a34da6bcdU,
  0x9b11e3537147b37fU, 0x37905ff82c470500U, 0x26ca36887fda3fccU, 0x88fcb3e494e15aaU,
  0xfd6f39a802073226U, 0x8dff22016023007fU, 0x7894e290ad165a37U, 0x7542e1ae08055eaeU,
  0x94cd5ced6e50ce49U, 0x818378304e3e6b17U, 0x9e6fae67a30c5a2cU, 0x9a197fdae263c1f1U,
  0xcd141ee15d516a87U, 0xaec66d728deed0acU, 0xf4e6116f81c5db57U, 0x318714ab9ee3418U,
  0x67e08ca816c294efU, 0x7f5e978a6cce5cc5U, 0xea70512079e77ee6U, 0x87d553f2598aeed0U,
  0xb4ecf9205788ceb1U, 0xd6ba7f19c2506464U, 0xc287e57060c73c1bU, 0x13245209cd949676U,
  0xec5c8fdfbabc2d69U, 0x623ef416ad9cd27fU, 0x326ca1ca0f5c7fa9U, 0xe9aefc155825735aU,
  0x8cd28f1fadd13a57U, 0x64ecc7a22a492ed1U, 0x9ce5d8a11a59149aU, 0x495304ba588a7c81U,
  0xa1a314501f4c167fU, 0xf1901124a35351c1U, 0xf4d2e5341be50105U, 0xe376811bef26a7c6U,
  0x6aea0295158c44a9U, 0xa7c36e41be6fa9e9U, 0x3177111c818869c0U, 0x1d9cfd9f35cb7e27U,
  0xe3daf90ddd46022dU, 0xde31de94dc2a2f6fU, 0xfd5a7fcf38d4f952U, 0x5d71df66a70dc61fU,
  0x312e713e8d6b3b5U, 0x2b52d8812ceeed11U, 0xf6cc1b81fe9a0726U, 0x98f439ea5606f4b2U,
  0x9df8d700336c2366U, 0xf8217f877e2b021fU, 0xa2a1a67596398705U, 0xe345158924ab811bU,
  0x3409a61b7edU, 0x2c300000169U, 0x3b1fffffe94U, 0x18000000330U,
  0x268ffffff13U, 0x100000002ffU, 0xfffffce100000126U, 0x3280000025aU,
  0x2e3000002b0U, 0x2fd0000030bU, 0x269ffffff51U, 0x2570000009eU,
  0x220fffffd85U, 0xfffffe58fffffe5fU, 0xfffffdda000003d2U, 0x20efffffeb7U,
  0x339000002f2U, 0xffffffad00000362U, 0x157fffffe2dU, 0x3a6000002d7U,
  0xfffffe6d000000e5U, 0x2550000055aU, 0xfffffc0a000002eaU, 0x305000002e4U,
  0x8b64817f0000034bU, 0x7f60817f81bc817fU, 0x7fd3994fcad47fc4U, 0x1bdfee818a007fefU,
  0xf66a25f2e1e87f0eU, 0x56aa02817f937f7fU, 0x7fd165d9a8f97f81U, 0x4b819cb8d1812f4cU,
  0x2491327fb5814dafU, 0x54d57f398181fc7fU, 0x818f7fd381818591U, 0x817f7f967b00403dU,
  0xb881e0310a8133bfU, 0xb966a79449bcd640U, 0x558181a57f12ae81U, 0x7f81953de7926918U,
  0x7e813b811fa49281U, 0x9d1dccd5e6813892U, 0x7ff3b260U, 0x0U,
  0x0U, 0x0U, 0x0U, 0x0U,
  0x0U, 0x0U, 0x0U, 0x0U,
  0x0U, 0x0U, 0x0U, 0x0U,
  0x0U, 0x0U, 0x0U, 0x0U,
  0x0U, 0x0U, 0x0U, 0x0U,
  0x0U, 0x0U, 0x44db785a00000000U, 0x6164a2ca9852a58U,
  0x2e90595bcd65a582U, 0xe8048850ba86adbeU, 0x4a5bba0e96568379U, 0x7ed13a8575a1b311U,
  0x6befd0c67f82085cU, 0xf3d71a0e2386882cU, 0x40b308b2c7859fb4U, 0x3331faf214e1cc4bU,
  0xbde2b23320d2678bU, 0x18367f332c787809U, 0xe3fa1fec5d789135U, 0xfe717cff6f0a236aU,
  0x52387f5a3ed92c85U, 0x8316465ab761d595U, 0x9dd7ac7dd5d53edbU, 0x555b8145323d51fbU,
  0x2517c61cc09dd290U, 0x6c871cfc3f3cf064U, 0xfd78da9da871726dU, 0xefcc47ceced59fa4U,
  0x3e26708ed71923c5U, 0xec810c581e5de832U, 0x9a78bd7fedc8735eU, 0x8c5d2c6a3b752adfU,
  0xbcdb4028d4366493U, 0xe084e9a590a1e60bU, 0xc8cff85f30b7e014U, 0x69dcca5100975215U,
  0x5a24e7dd29e80016U, 0x1be860f326c45856U, 0x3d81362072f73e2fU, 0x8ffd27a077342c17U,
  0x2c093896a962f569U, 0x8c4c262c2c34c4d3U, 0x8192437cefd45ad3U, 0x5103550578e42b74U,
  0x7e76899470547bf3U, 0xf8eb6eee3d24107fU, 0x2306e8f907ee02ccU, 0x9df1b0c37cb214abU,
  0x200ae776c44ed140U, 0x75e3d2e5d7ce8a72U, 0xb844555a03a0aaceU, 0xbc0ad24b8f2b2efU,
  0x94bcedca29ec6121U, 0xe847b7a1bc7f294bU, 0xff567f9730c3a95U, 0xc375d1c51220406aU,
  0x216f47cfa865e096U, 0xed07e94be517c1ecU, 0xdc7ffd09d37149c9U, 0xf1d1829a346a328fU,
  0x140f514112c4f542U, 0x1090db86896b4f2fU, 0x409c3a8699aa437fU, 0x3599505c6e6c6115U,
  0xc18656f136f708f3U, 0x61a8dc1f41c621efU, 0x90ba48ee7c7205d4U, 0x2014b08b3189dd42U,
  0x63bc52b8cb57ed68U, 0x3f64084375134ceaU, 0xf1e0b822d558dc17U, 0xb62de6fb17f01a5U,
  0xbe96dc712f361d59U, 0xf2fb4a1e8d842c2bU, 0xa22781ec9bda62c9U, 0x301730849209cc5U,
  0x1dc96a565370bec8U, 0xf4a37ca8efb2ef6eU, 0x9384608e9ac19e5dU, 0x4624560a3386e2c3U,
  0x3ca0a22e8a253f2eU, 0x2bea35baf9cafb1aU, 0x38425203e76e86f2U, 0xb7015e0d356eebceU,
  0x2fa07f894e017fdaU, 0xf7eef9429a4272adU, 0x26601dce8489df99U, 0xcacbab232e27ea07U,
  0xbbfbdd7231a23d6aU, 0x6565a04e5023ccb6U, 0x1a6aa19c4495302U, 0x206681a7e7b486aeU,
  0x1f6eaffbcbc9fa2cU, 0x29be875262d8d80eU, 0x6acfdee86a9e43bU, 0x9a7a3af3b671351fU,
  0xbd4167c4d15a2768U, 0x83a0747f49b5bbU, 0x7143c093cfd195abU, 0xddc2e8a2b71fe419U,
  0xcca9cbc5432b81f2U, 0x3cbb296830dc6b8dU, 0xd0685a76e95ecec3U, 0x7a0c70d42fe68bf3U,
  0xf31abe7f71e1df4cU, 0xbe444f7da683aa06U, 0xe5061924e803b744U, 0x63e08eaf3989d312U,
  0x6f7797f8c39b6a4bU, 0xba05820ff3544571U, 0xadfed82cd472e254U, 0xf8f475569c90afa5U,
  0x2e8d89b7babeabbdU, 0xa26d2f6a4281257bU, 0x4e92ea7f4447ba85U, 0x5f64c801b6403eadU,
  0xf5c24c4dcf33e655U, 0x93782aa6e53636b4U, 0x9c4be2a442926cc9U, 0xfd1af7013c9fba58U,
  0xa85c8a0bf337c5e4U, 0x3ac4a07b136b3b73U, 0x278d0457d05ffb0dU, 0xa67f42291399ab20U,
  0x3a39b346c01fcd50U, 0x21bb3a3104a49c69U, 0xe9c0d907df0cd3f0U, 0xf3510443f437b479U,
  0x9cd3137bf7abd540U, 0x6eb206cf2d062f62U, 0xc3c83ea44fce2a14U, 0xca445fe8d81b7c8U,
  0x29c5541a73e00204U, 0xb84e23aa0dfb67a4U, 0xd4d6cddc839bc0e3U, 0x6a56de62ab14691aU,
  0xb8f8f8b1819930c3U, 0x8b20e64e72d2db5cU, 0x4baee2a90febf426U, 0x1d48029d3c549a1aU,
  0x6be3be0ea61aa7U, 0xd76efa32440ac992U, 0xfc1e7b04ae02391dU, 0x81df2ec937ca7895U,
  0x73646d667ea2d129U, 0x2794f37fa7b1d6f5U, 0x3eb07ade6c19deaU, 0x935e77b6d0cc7014U,
  0xab0589df5cf6b5b3U, 0xc363c5a77b377647U, 0x4d81fe0e8afe9ccaU, 0x1216d2cf92302e56U,
  0xd1a49e5c10a4bd1cU, 0xb7735b8b1090fa28U, 0x7a12bcf5af8d61e2U, 0xef60b849da4051abU,
  0x449d337a376a730cU, 0x9452f14f4a11c511U, 0xe0c68cad92ef493U, 0xc4dcbf3cfda67e8bU,
  0x2cf199810343af2cU, 0x3566faf896322103U, 0xa2a58f21a1c83be8U, 0x76e2f21481930bb1U,
  0x21fe8bfb8b9fdebaU, 0xb647939b52bf6611U, 0x834668f1fe1b1536U, 0xe05ebedf3ce9f161U,
  0xb971e27a2dd2e0b6U, 0xa23deaaed62f86a2U, 0xc59bda8e81e2961bU, 0x34f59b65f28d5dc3U,
  0x434197a239199b79U, 0x7b5cabe4beadcd5U, 0x7e3e69520a9bb8e6U, 0xa5cff984ecfcfe2eU,
  0x4b62bc9a40bf11baU, 0x1f709d6ffc5fc2dU, 0x668245f5cee9d51cU, 0x1f20ec29cbbf7fc9U,
  0x3614fb30c5c8a050U, 0xe1b81de8a01b21bdU, 0x21f367666b40fc53U, 0xeb81fb9818dd8f22U,
  0xdae6ecd83eb5c279U, 0x12b52e9d3dbf4604U, 0xd99f64b7071ddc04U, 0x88f4a9d0d80ed509U,
  0xbb61a21ce314b68bU, 0x9ca2b0410d691aa7U, 0x863da9eb4472e9a7U, 0xf5f827cf4de9e45cU,
  0x2c81b8c6813c3613U, 0x26b9642815438685U, 0xd3b3261972d8b54eU, 0x9eb9a3c752cc811U,
  0xaf0cea2ef86438f8U, 0x25bcdfce2dcc66d1U, 0xde7fcf53559b8bf4U, 0x46507a3de274b3a3U,
  0x78554ff901d24e13U, 0xf2eeeb60ca469460U, 0xd181d8ecffd45e16U, 0xb1c4eb22b94fbde8U,
  0x7f8c1d64ef1f0f7eU, 0x6895f1ac5f4717c8U, 0xfbcaa387dc438327U, 0xaa0f6b2a5457d9e4U,
  0xc3170ca7487102d6U, 0x949bcb396a1e98beU, 0xc581375124e40a63U, 0xdb29b1a6c83da8c0U,
  0xdbdee07e52e1d2f1U, 0x472ce9f7e29d38f9U, 0xfe096dbe9d435f50U, 0x75da93d1e105de29U,
  0xabbee9f576bc3e3aU, 0x87be3520dd7fb1b7U, 0x960a013302f4fe07U, 0xbbc02e90c56e565dU,
  0xbf03a18e7536ef46U, 0xb6cb277f2f12fa46U, 0xb1f059e9d9dcae3aU, 0xfb6fb6af73519e0dU,
  0x149516ef41399f2dU, 0x64974cf92e142627U, 0xb5343e07eee77250U, 0x5a6858486481581fU,
  0x2268018f34baaddbU, 0x48e0a39ab24435b0U, 0x69b5f1c77636496bU, 0x707f3541b2c7c18cU,
  0xc88d97ed5546645aU, 0x349c9263b6d89a78U, 0x7f31b8cc25f2b117U, 0x56d530dcf569689eU,
  0x5a66f38f61f0b996U, 0xa2733ae74f362b64U, 0x48255acf9ac0c73aU, 0x59ce2dc58df1e329U,
  0x81c53aea923d1d8bU, 0xd7a3238189b11186U, 0xd343a042bee257e4U, 0xd9b9e7e88ca00c04U,
  0x7219ade2b4a5f833U, 0xf1555c462f14ab8dU, 0x36a914db87d3bf1eU, 0x1356a45eab54e030U,
  0x17554112e975c7a0U, 0xc713627fa34c718bU, 0x26ca681f4a45c928U, 0xc040e59fa3930237U,
  0x3a0a58d88e3fd1deU, 0x7fac10e34189286fU, 0x3d3e875a2658df9fU, 0x412835bd4b403726U,
  0xd0a55d2815ceeb04U, 0xa26e5e1cc5cdc5d2U, 0xdfcb307cb35752b6U, 0x1d66daa0b6563f3bU,
  0xf52b4f180a85476bU, 0xe37586284d767077U, 0x31731b85ed660192U, 0x810960e864c863e2U,
  0x31499904f2c5144bU, 0x27d0256de381d85cU, 0x41643ceb6f160506U, 0xac9b6e98e9317bebU,
  0x692d19e011e8a801U, 0xa8f52255a69d7eecU, 0xee0c3419786b13beU, 0x9c0a561ba0010d35U,
  0xf5c06a5577005491U, 0xd1cd93c7bda762acU, 0x3072e3b43bcb71a1U, 0x4717dcf204eb8e74U,
  0xcbc60830b4ee8152U, 0x76b77821c78f1ab8U, 0xd56412653cb17f29U, 0xdeb098be13b0bb66U,
  0xbbe7c797e98e921aU, 0x71a016c397a919bfU, 0x228eb85048b08415U, 0xc2b8929e527aca44U,
  0x7989e3ba37e0fe90U, 0x5f601e1073435721U, 0x7bd7ef81431528d1U, 0x86fc9d9d1a5da61cU,
  0x3c34787f6497ba56U, 0xd3e6615558480052U, 0x1ecae1139de257a7U, 0xc0126f20d7f05957U,
  0x5f7b2da71f29ecb5U, 0xc0813c5fe37332bfU, 0xfffff51644105b46U, 0xfffffbf600000705U,
  0xd0c00000eedU, 0x1bb00000e67U, 0x773fffffe2dU, 0xfffff96efffff95cU,
  0xeae00000fd4U, 0xd8bfffffaabU, 0xb06fffffce2U, 0xd750000107eU,
  0xf87fffffcecU, 0x96700000d8fU, 0xbf000000271U, 0x7c400000719U,
  0xa05fffffdfaU, 0xfffff934000000d3U, 0x5ecfffffbccU, 0xbe6fffffa8cU,
  0x94fffffff03U, 0xfffff8900000032cU, 0xfffff381fffff29eU, 0xc6d00000afaU,
  0xfffffa0d00000dfcU, 0xbba0000074fU, 0x1dc4f285fffffe24U, 0x861d3f73a9f17605U,
  0x53df322bed40c440U, 0x2a43fc326c59f00fU, 0xd06e9cc66d43a932U, 0x14ba3c56147a7259U,
  0xc566a2b3ca0e4af1U, 0x372c771f1eeade9cU, 0x1c534e1ca962dfc7U, 0x603ec5bcae50ad12U,
  0xf977358bf12f3a44U, 0xf5a2c033d7361f58U, 0x5aa0a3e01ce3dfb8U, 0x757ec3bfb95af626U,
  0x1968201f0fca955dU, 0xae2e86d3b8522a6dU, 0xaf7cd85594b76c4bU, 0x31a3291ca2a8b6b5U,
  0xc392fe99ad9610adU, 0x3d1c6d784bb2afb8U, 0xd63ed2a424861748U, 0xa7def3eb9f7ffbe8U,
  0x43f8e4e84e7a94a6U, 0xb64b18e10402dac0U, 0x8c3705f356643b4dU, 0x6602e41ef1d79749U,
  0x297ffd4ee7951c8eU, 0x6b2e7d7ca236bed7U, 0x28c4d3101c62d6c5U, 0x9eddf57ddb68bdc5U,
  0x61b9cc89cab70ef5U, 0xfe594dba95b6bb9eU, 0xbeeaab169df42e20U, 0x6d6cc5712068a0b7U,
  0xfb95ada851dd1aecU, 0x53b2a95dcbc94235U, 0xea3b2ff924729823U, 0xdc45e3ad100d1550U,
  0x461cf60ddd9ddf16U, 0xc8c72888c079d75cU, 0x5610657e61f1fae8U, 0x6b6c624d973cbed9U,
  0x77e3bce303d6a316U, 0x813a2c6c36fdc3d5U, 0xff2a08e921b91bd9U, 0x4b3586ef08e2cef0U,
  0xe299942659e6175U, 0xf886ebd0dc4badfbU, 0x85d9d6e69b9384cfU, 0x4a00a31a6cb5a014U,
  0xe0e295c058da1085U, 0xde9d67de35b2489aU, 0xfd9194993b9f0124U, 0x572efbf38e85dd33U,
  0xe52bbc66dca862cU, 0xaed226e9c72859f3U, 0x71efa59b8624d9e3U, 0x95cc73aa577107baU,
  0x1219a00b6c5caa9U, 0x666a6197b8ad4370U, 0x8512371aaa9e5ab2U, 0x146826dec064389cU,
  0x30cc7542b00d47e7U, 0x32c226e283e5650aU, 0x6826ecf49b1c4190U, 0x25d58bf315b590abU,
  0xa538533c87b7834bU, 0x1723ec94b15a8ba8U, 0x3a5efe8e90fdf5a4U, 0xe9812bc6e9dc0750U,
  0xec36f9c44f0f104dU, 0x7a37def19e9351d6U, 0x7d2bb07b309d7184U, 0xd38621755ed0754fU,
  0xffec8b17312305baU, 0x37a18e6662a1417eU, 0x66047706e3791b18U, 0xe34fa7cc16ac8496U,
  0xf9a3ca1a64728f64U, 0xf7d729b377f70baeU, 0x8f75fa02a34a70faU, 0xb3e9f7c64de337e2U,
  0x8179a98a34a35574U, 0xe962c3ad834be9dcU, 0x1c94bfd483953974U, 0xb12909b4727526afU,
  0xff4600bcccdb84dU, 0x2e591bbfac9e6550U, 0x4ae04b4aa245a756U, 0x22516af6b29c2b9dU,
  0x9410504d1344261aU, 0x74dd969301dff648U, 0x2a28f60871f064dfU, 0xb8af27413d785f03U,
  0x395a63b35b1e6bb4U, 0x6e3ba1d777c431e3U, 0x428f1dd21e2578e0U, 0xf3ccbd666e3b4e52U,
  0xd0bb03750e34b646U, 0xb8f2a29363ed36ecU, 0x4164716c01137a66U, 0x2dfc3453e3d5637cU,
  0x5222690490f3af13U, 0xa7fa7382bc69bbeU, 0xe11c203824ed9174U, 0x25d8b203b63cd54fU,
  0xdc5f764112da37e3U, 0xaed60d6b7d3aed4dU, 0x539fb82ea4447579U, 0x5bb38315107c990cU,
  0xef13e03c914b045U, 0x1efefa3a96648be7U, 0xd19c125e23b1c2abU, 0xd0878dce326c771fU,
  0x7db9df63671c7c5eU, 0x7c59b330d599105fU, 0xad782015114f7f93U, 0xcb1093a99d6addaU,
  0xecacc99260d1dad7U, 0x90688f12baaf5deU, 0xfaebbe916bfccfeU, 0x901defa5b1b5a9bbU,
  0x4f2866371953f747U, 0x7809eb61431c5ddfU, 0x9e3a92c072ce3f61U, 0xc06b12f1a2a69167U,
  0x48fb28ff671ccc03U, 0xfda7550fcbdd1028U, 0xeb3e0443ebe7614aU, 0xae42ecf79df68c44U,
  0x668e850adcc97b8U, 0x7c5052a79400e2dU, 0x1fc2c1575e25af09U, 0x5cb3c43cf9dcc927U,
  0xff9c3274a692f807U, 0x3f89d5b537b92f27U, 0xe9aaf07317f29e1dU, 0x7bee098730df85f1U,
  0xcd74a8e6bdecbd8bU, 0xa7be9394eeedcbedU, 0xcc968de87e712ac8U, 0x2ce9ebfa7469ad2fU,
  0x16aa570288d76f82U, 0xa5bc818ae83a509bU, 0xabc3e9d842684632U, 0x3bae3d2ac9ab0cfeU,
  0xbeaba7c0a514fe35U, 0xb6d20173c1c85184U, 0x8494cc04187b34d7U, 0x14477a29e97303d8U,
  0xfebff20ffb139b6U, 0x6fb97fc6462ac9efU, 0xc78df0b687231267U, 0x317def27a902afaaU,
  0xe6748be7a2bc5189U, 0x5f838f16348783c6U, 0x54536f33ea8ca78U, 0xca79b9456ca6b7d3U,
  0x354e28e1560249c4U, 0xb17b1be1f0255ca0U, 0x5bc40db2b604f616U, 0x29ae48aabd87c95bU,
  0x9609c04bfbbcc14U, 0x8f79d10052b1f77eU, 0x88d848c7b6087477U, 0xc5200d0350ed3591U,
  0xaa7722fdd8cf1154U, 0xc40e820b94a5a4a7U, 0xa5c35b16263e2b92U, 0x2de78cf7c758ffe5U,
  0xd8a7e0eb2be57508U, 0xdf3910756de718e5U, 0xa84de6a1d1e5f1b0U, 0x6c3dd5e4619a74d0U,
  0xeaa1fb88df29168dU, 0x1262f4eb036b3aeaU, 0xa28d8c6b9c504176U, 0x545d7059c0dbdee1U,
  0x8e19552063e4414eU, 0x630a7d2f49fa4ab0U, 0xba24c778750a3596U, 0x57595f795fc997cU,
  0xfee4361276b0acf8U, 0xd667be176da070c9U, 0x39b3bec070ab95d3U, 0x24efe1fdb3dc28a1U,
  0x9ffe6c73d24b4b84U, 0xb2631527e6042115U, 0xa8cdb960f511579dU, 0x5a05a0ed74907f96U,
  0x540f9f20ecbe5099U, 0xd4e1a907ff556744U, 0x8b4fae23de725f6cU, 0xce608e90dc421a95U,
  0xf799ae1a9809f89fU, 0x115c28ae66fd620U, 0xd884c1cd9789f33bU, 0x37cc01f53c37ae84U,
  0x8a9a0f36b7cdfeddU, 0xb38122f4b72a0f82U, 0xe1e64d5a48afe384U, 0x48720252be464f1U,
  0x564685e6641a4b84U, 0x9e8d0ce4fbdfb75bU, 0x498535f38af9f610U, 0xc4082c86bf73f0f6U,
  0x96bf2082f8c6ae6eU, 0x9cd3dee8e4e5314bU, 0x96192664aa3ba249U, 0x3a072e40fde4f051U,
  0xcb1edc47f4cd0744U, 0x35e7412fc20183b9U, 0x972390bffbf8da64U, 0x743fbbcb1f6d63dU,
  0x6f4610eb4e273be2U, 0xee95636e19048cbU, 0xe33d8d28eaa0e4bcU, 0xfb3326024931e3c7U,
  0x4fab1fa19040e14aU, 0xd0f116c9c635ec63U, 0x8b17e31dee5be512U, 0x52ac2a73dc2eba7U,
  0x5f114294d83a113bU, 0x42c7e4b5ac5daf81U, 0x93dda6484b002fb2U, 0xff16eaa8ab1892c6U,
  0xf3b9341b058a3c05U, 0xdb6604705fcb6547U, 0xb96546261c4cadbbU, 0x6d098c09db304a05U,
  0x1e9f09dde82ffd8aU, 0x9e8d5d56b73db424U, 0x89ed37156e2b7d58U, 0x1d5bc25c9d502544U,
  0xf9e6a0416402af3aU, 0xeea27e3e72975df9U, 0xe7feb01b7a56a75U, 0x76bf4b3886663fc7U,
  0xc9dd061869e1f427U, 0x408f66bbe2ff55f5U, 0xfa74a138d588307U, 0xfb386568dbd13311U,
  0x4acc1545d2b862e2U, 0xda1c1afc7f53fd7dU, 0xc440b211cbc20dfU, 0x61e67fde3c183efdU,
  0xdd07c44565f1b853U, 0xeb2bd547aed2e959U, 0xa372453894248906U, 0x6aefa4098b2c902aU,
  0xc94347885f4de5b7U, 0x86a705f7bec3b50dU, 0xa20ade5a193eb20U, 0xb2b3e6710fc4fd1U,
  0x338bc2204381ffddU, 0x30f47491e23bb752U, 0x1fb5385a3525b2acU, 0x652e424f4133f53bU,
  0x1a61e3e803ef822fU, 0x2429b8a020b05fb0U, 0xaa43d6a14f4e84fU, 0x4e19c11c95bf0300U,
  0xd809acecac96d16fU, 0xd1e9113ba19bab24U, 0x17ce2a905981f7a6U, 0xc792c04994f801faU,
  0xf1aa15eed48671faU, 0x48db560fff990958U, 0x6ce3b3d1b23bcac2U, 0x2004d5ebb817f391U,
  0x4c6c0df4d656648cU, 0xbe5f9822428e941aU, 0xfee918f3ce08e4beU, 0x2e5dbf353e5f9433U,
  0xb264c2c9f79a655aU, 0xa7484b0ec6da372aU, 0x9828a1e03fe6617fU, 0xd9ffb1347bd54023U,
  0xac5ebf6beadf3312U, 0x4b566d2876e6e599U, 0x91e0f01cf42f382aU, 0x6f35cb0977d2fb18U,
  0xe3d27c55bac6eedfU, 0x70a3cd6fc7519eb1U, 0xf28beb4e5e43688dU, 0x64b09205cd03abcU,
  0x3d30c6cd1032b95aU, 0xad4418ac0b54b58U, 0x3fcc1f4e23433596U, 0x135720ee94a237bfU,
  0xbf7576944715478bU, 0xb8c2d4322e75cac8U, 0x3003cbe2522ff4d7U, 0x390333ee322714d3U,
  0xc857e4447bfb419cU, 0x74995ac781f59865U, 0x3a83f3e3635cd169U, 0xa4750e56c630d6e3U,
  0x8437b7f8da9ca38bU, 0x837d0b215dbfb772U, 0x8fb1c33dc521fa41U, 0x6c733e3ea859ea9aU,
  0x7011d0c44724f03U, 0x67a22ec19bbfe7c4U, 0x9d8a8b37d5ebe762U, 0x9ea9be46a6def866U,
  0x8ee3ac34dcb83413U, 0x948e2b637f78ecbaU, 0x16031cf17c82275aU, 0x4059a4cb00b0870eU,
  0x74e2e5b0f4d720c4U, 0x116c6c9a92e74599U, 0x116ffb2f8a6cf6c8U, 0xd7330f168d09dfabU,
  0xa6fe966ce91d55dfU, 0x5184fe1515948702U, 0xc15f04efdeb19956U, 0xbd3f58f09eb2614bU,
  0xdb38d48665471eadU, 0x6325e6bff68e37e0U, 0xd4179c72d46581f5U, 0xcce647b3dd66cbc7U,
  0xc3bd488892ac6a32U, 0x42e8dd769c1dc56eU, 0xd20b91334514fbafU, 0xa361f4ba642a4c9bU,
  0x30614b8c48d50ba8U, 0xc022fd5019ca1ad4U, 0xdf062ea0b924cf36U, 0x959e98308a96a994U,
  0x61da37d1f8f224f1U, 0x8af9be9c74ea52e7U, 0xde90396e5851fd98U, 0x114254c7999bcc4eU,
  0x900e5f75d0a09756U, 0x2f40971a4fb19810U, 0xbfee1e24b1256f92U, 0x91b8424ac9458ce7U,
  0xecadc1306a1f10b5U, 0x5df44b98d5f4d673U, 0x3cdcb05045711060U, 0x68d494181fc8608U,
  0xbc0384ba9d8d67aU, 0xeb1bff9efdb27cf0U, 0x15e455ab06ea2c79U, 0x55e704d08485dc94U,
  0x30db796de4d3d9b0U, 0x295677f83eb53284U, 0x46b3664d94ce4682U, 0x3a9a22d1990c17ceU,
  0xd93845b240aff3ccU, 0xd5d27f27e70ec8b5U, 0x8a24bfb30ee1e1adU, 0x5c62f1604a8ad175U,
  0xc700f20469aedf66U, 0x1728df3acd041e15U, 0xb2056bc4eb24f2feU, 0x4568488a9e8ce3a2U,
  0x2d0cb68ca6faa203U, 0x7768774026990b32U, 0x2d32b41c61211730U, 0xe82901fe9d9249b3U,
  0x44dbdcd4f45cabe6U, 0x13eb2efccb04dbddU, 0x9997a9b03555e631U, 0x879454bc41d921b8U,
  0x8554d96e9e905984U, 0xf37224bc6cd7adffU, 0x8c0f93dd8142b6a1U, 0xcde24f14ea39ce1eU,
  0x5de8c5823966d9f4U, 0x862b37cda0a5ecf6U, 0xaff36b6d3e9568feU, 0xf99ffe2153f12a45U,
  0x68382407670e3423U, 0xed54cc3ed461a327U, 0x370cf2c9a93942e3U, 0xf8a8b2bbdedb284eU,
  0x829b46b4ef5d620bU, 0xb9b7a4956a13133dU, 0x2fbb90b0fbe8639fU, 0x74be486674a3e3d2U,
  0xd4d0c74a41352524U, 0x75abdd2bab550f99U, 0x53cd022acf923beeU, 0x5acff429bbaece6U,
  0x6822d723f6accca9U, 0xb5667608c70e21c0U, 0x872974d532ef8892U, 0xca70c12604454a06U,
  0x7372ea8b926ea7d3U, 0x2c9a7a2c1e1d3156U, 0xb15762d551da5da4U, 0xf579908ed2b481acU,
  0x458e62c95c8b6a33U, 0xf9453cd5b7c14890U, 0x2022d02f2ff2e8edU, 0x29029d2fb79306deU,
  0x43bee74867025453U, 0xe668c9d9668b7c09U, 0xef48b50d5aee21c1U, 0x3585b1cb331eed60U,
  0x9eaa1ffe63d228feU, 0x1d013b382afb69e7U, 0x5845f9f9f81ce192U, 0x1bd9edd56557b91fU,
  0x1ed041b9e6576e16U, 0x2e5ec57db612c313U, 0xd5c6346bb822e089U, 0xe6d873465bcb3181U,
  0x6a8c58a4a41891fdU, 0xe18cd7c629ede95bU, 0xf0e817ca8a38fe00U, 0x89e2a6dd1df31a0U,
  0xa79649153cf38928U, 0xbad018cc2e6b1494U, 0x9d00dda87487e758U, 0x99c5a11b470bd47aU,
  0x9c04765f8d0fa0b0U, 0x23c27a53604b9a52U, 0xdf54ec009a91f6b7U, 0x10c22e33d362b937U,
  0x165a105a3f4acd5eU, 0x6b0ea1f3d666593U, 0x969a77b7c783887dU, 0xe7a90a36b3c5a6c2U,
  0xea73693cf448c126U, 0xeccc1b87310fa08cU, 0x1dcddfeeab64a9c5U, 0x33fca2b51ab66dd5U,
  0x26c002ca45c8293eU, 0xd7dab0f7ed4acb4U, 0xe283141f5a171e94U, 0x5a10d1f77226eb4eU,
  0x96de0479d51f796eU, 0xfd0640c91cb7dfacU, 0x33553c8fbbe9c1dU, 0x7f59b78cffe1415eU,
  0x96fa19b9848fab64U, 0x120ab9ba3becc02aU, 0xa9c3cdae7bf297d4U, 0x63e76d9060fec26eU,
  0xd8e8453ddb6d3b3fU, 0x7bc4c50561b19770U, 0xaecb0e79b926d99U, 0x689fa06a4bedea10U,
  0x90e4fb9e911b5994U, 0xf23cffc03fbf925aU, 0xac1f8d5ec876d336U, 0x59d2e75c1f2b5098U,
  0x584471781d67ae06U, 0xd33f726fd2e4b660U, 0xb64bb8a1b3f3db2bU, 0x12168fe9bb0df03eU,
  0xc091f7f972adf3c8U, 0x5ba104ea3d406916U, 0xb4c7f159aee2a85cU, 0xddedc9a3f5c22ae0U,
  0x56b925327768426bU, 0xe8b65b0898691a8aU, 0x677f2127e1f64c4aU, 0xf7e064bdc5b9c7ebU,
  0xbb18504eb82910e3U, 0xac3481121ceab9f3U, 0x8a43b873c32390deU, 0x2e6787501730def1U,
  0xbf5bca2e5d60241eU, 0xebfca30a80d309fU, 0x226adab8ce21cdabU, 0xd7fdf168e9bddddeU,
  0x17e433195785d8a0U, 0xa040cca302305fa1U, 0x9672c17421cb02b4U, 0x44e8250a2fffd0f6U,
  0xda9783197608ab4eU, 0x8f4f7bfcb4dd583fU, 0x3d2a6281fc13e595U, 0x1ed8b130e9b5616fU,
  0xa5ebea3f5901c550U, 0x452404f2bc4d0d4fU, 0x57f0ff83a39415e7U, 0x57913d2617521c63U,
  0x3242aa9f3e10b8cU, 0xaba3be944a869522U, 0x8d39d4f752aa9538U, 0x5653a4e4168d6a9U,
  0xa5103fe6a2c4519aU, 0xf18720d1628d57b5U, 0x5227a85b4895b13bU, 0xfda316c4da44ed00U,
  0x6778c5764785f60U, 0xbd30b5e019763b2bU, 0x27e4419f81243b45U, 0x3b1f2669d4480dacU,
  0x82e9a246840f7793U, 0xc4f5e2e63ee29963U, 0xffdbd7b7d58ad8a9U, 0x5b8d9eebe65822d8U,
  0x6d5609c7e7ed2c21U, 0xc22e26409363f4ddU, 0x7ab6dec926a4c1f1U, 0xb4a06970232dbd65U,
  0x7a001c1da4d3bf5dU, 0x5e950a34a1fca5b4U, 0xf78a5a3a419c4122U, 0x9b23e29161829cb1U,
  0x871d95205d9f6cc1U, 0xc3b11160bd11552bU, 0x205f55f38d4140f5U, 0xee8fa9f0970eef94U,
  0xbe3bcb95caeb1368U, 0x24d099c137ddd231U, 0xfba24997fa09f4e7U, 0x15d344c4bfb15ca7U,
  0xf68dbf6ef0e36907U, 0x5a978fa6d78bcd05U, 0x385d54b767c3021bU, 0x9051a6915289cbafU,
  0xbb10898fbf026bfbU, 0xf8e4a8ec13834504U, 0x41b0c2d201c70bc7U, 0x3b0ada6f00b61b81U,
  0x8d6819c6af8b2b60U, 0xb05f333d494ee157U, 0x106ae99a5643fc34U, 0xe53e0a16f70c1459U,
  0x6b11a2ef8fe824fcU, 0x12bcbd1105100c8eU, 0x4bd3dae4ca84a761U, 0xa6168bd7b12cdedfU,
  0x315c904d0936bbaU, 0xb34896eb2d2e5b52U, 0x18a18f038735dd06U, 0xfe90b62d6fe927afU,
  0x9e45be6f6ca8944U, 0x8feadff76810ffa6U, 0x439d2fe7adcdc74aU, 0x83448b39ea8ee0fbU,
  0x26b391353b51549cU, 0xdb0bb205dbbb25fU, 0x2fb667422c1699a8U, 0xf800f03910480d32U,
  0x42810c88f335e0ebU, 0xa32a95659feb0a5aU, 0x92173bdcb20b25dcU, 0x122abb3d006e4268U,
  0x2f128f191c5fdb36U, 0xe52a58fec40a9363U, 0x6911a102835bf89cU, 0x2be71044e624f1efU,
  0xaab0daf19995bb43U, 0x9f3497a0da2b1dc8U, 0xe1dbc2af483204e9U, 0xe070dbf1acacf0caU,
  0x6a265f49f7115afU, 0xc5413f0eca8af093U, 0x44aa8904717181a2U, 0x311cb7d2ae25fa16U,
  0x8a8e07e29316ffc5U, 0xc0b5abece12857b1U, 0xc8410267331dbe94U, 0x43a25796c11afa1dU,
  0xe101a6b3b012bfa6U, 0x352c9de23884f3b7U, 0x8166dd9d012c05bdU, 0x9daa0b56373d4833U,
  0x95831330d0004e28U, 0x251d1f0766babc68U, 0xbcfd206ca7539efcU, 0xd79a3c1e39851a57U,
  0xce9c3dc7a4c5f121U, 0xb03812ee209a64d1U, 0x1d0b0fe5d24c6781U, 0x6860e214c7c08dbdU,
  0x4a43b60fd133f7b1U, 0xba2f100a36a704b3U, 0xaafe9ea0a00fa8e4U, 0xf958edb09a722760U,
  0xb5b5b3696fcfc129U, 0x5a4265f1a067354bU, 0x5dbc0b6169eb8cceU, 0xb63595c0ada358f4U,
  0xf560af0794e7b362U, 0x22d65e4e68c89b6eU, 0xf4c333860ff676cU, 0x6266edbebc3964f4U,
  0x2c192506c927f61dU, 0xffc0516a8fa2fb15U, 0xeade8d6f3731cbc5U, 0xa7cfda574dc9568dU,
  0xec39d6d94512fce6U, 0x22088f78c915c81cU, 0x9a87acb6357f9853U, 0xad6c6d78ccda66b7U,
  0x2f46f9c9a5b9805U, 0x57485304345998deU, 0xc7f814e0d2b06b85U, 0x241e1fd5a7e37718U,
  0x59abf7a54b32113U, 0xe699f1d5a4b23a6bU, 0xa5fbfe7f063bebc6U, 0xadf3b9b802821fe1U,
  0x4a2d57b8fbd8a020U, 0xf32f161cf4569db3U, 0xb5d7d8b2e01d2882U, 0x3bca94339ad611a5U,
  0x56f71b34392bc167U, 0xf9fb8babdc088cbU, 0x179dd1d9a1fe0dceU, 0xc34a0feb0f0d33a5U,
  0x55bd51ada1ad7244U, 0x9001c6a3de37dd9fU, 0x151ecc3d1cbd7165U, 0xa40fcddc1e823c50U,
  0x5f2b7bacca1fef1eU, 0x32c092aad89342bcU, 0xd84f07664bf4a1c7U, 0x9aab4d49692de1bfU,
  0x258b8bfca04914d6U, 0x413ca111d9640760U, 0x97194dfd68c8bf1eU, 0xcc5b1563af55f228U,
  0xbfb30fd8c84c8931U, 0xbf9efe6ba7c526dbU, 0x58e082fdef6a5a3bU, 0x5907d0f3bab15b87U,
  0x492eaeb901c83978U, 0x983d8a6a81ab1d0aU, 0x56545cc512af01aaU, 0xd1af5acc9d292c87U,
  0x6ea0fcd36bbe214fU, 0x810c59e11b11318fU, 0x8921cea3ada961b3U, 0x56c3cfd4e1300de7U,
  0x33ffb7b550bb0350U, 0xb2353c596bcb4546U, 0x8ca91ac97964d8dfU, 0x45aad4e87a8abc6U,
  0x6bc9979c48286623U, 0x3cb6fb68ff3dc6f6U, 0xe744b6acaeee484bU, 0x4edfd520ee8d6aa6U,
  0x8c3dedb36369b643U, 0xba92ca0bc298433bU, 0x9c204055c3f4463fU, 0x27a1e1c02c1d2817U,
  0xda8d6fd50b2803a6U, 0x5cf497f1c5d4c3c4U, 0xe80cb7e271e035beU, 0x2f515cf6bb014150U,
  0x1b1864681aa9b174U, 0x94b4bfc18eb1e2daU, 0xae114289d0043f19U, 0x3314551359cd0e61U,
  0x8ca61c4f27e62b81U, 0x8fdca1ae5e554b3U, 0x971ad6fbb28af391U, 0x270061d122e40a8bU,
  0xbaea6487ca498a9dU, 0xae678b95b09330b6U, 0x8cea56cdd8bbaf22U, 0xefea12ed98a26cbaU,
  0xf6f8da9f25a8be82U, 0x3620d3371de0874aU, 0xc76707d15a4889acU, 0x2a3cdf658d203520U,
  0x232aafdc4f4ecccfU, 0xe5c91318c0fe0898U, 0xa4a4f123d267619bU, 0xe85d101e008b82b8U,
  0x663c3f0cbe5716c0U, 0xe3b307e50cd5015aU, 0x141020cU, 0xffffffd500000022U,
  0x4000000000U, 0x27U, 0x2200000000U, 0xffffffcfffffffd7U,
  0xffffffe600000000U, 0x1bU, 0xffffffe0U, 0x3ffffffddU,
  0x0U, 0xffffffe60000003bU, 0xffffffbcffffffedU, 0xffffffd5ffffffd0U,
  0xffffffe1U, 0xffffffd2ffffffe3U, 0xffffffc4U, 0x0U,
  0x0U, 0x0U, 0xf6fd1b3f00000000U, 0xa7a30e58f0e0b096U,
  0xac51704f93a59575U, 0x7f617bc36fae0563U, 0x97abeafcd128e7d4U, 0xb5015038115357bU,
  0xcc50cb78f137fe62U, 0xddeb4996bad6cb2dU, 0xb310453a88f61b6U, 0x87e673d12000e2c4U,
  0x9cbee1ea0b650018U, 0x4d524af71acd24e8U, 0x6087f16767463e81U, 0x40fe7fc6b553b3baU,
  0x47c605a7010f423aU, 0x45d2ff9d43a5da1cU, 0xed16284547560625U, 0x1f7f33152f1df461U,
  0xd5fddc86dcc17d40U, 0x98266c890f90ebcfU, 0xbb9ec1592006cc93U, 0xcca48ecb1f786dbfU,
  0xe94204a646bc81f8U, 0x56b96d69c8f7e010U, 0x551272b7bce866b2U, 0x5a3bd76645e90d7fU,
  0xa5edc09e005aeec0U, 0xac262e970a166cedU, 0xe78972553f422f27U, 0xacbeec7fe3386b6aU,
  0x747c7bb3d1a304aU, 0x6a888cd2e7a0c0cfU, 0x2d6d45bba841bf07U, 0xcf491686e6dc2174U,
  0xd9e02f4ce9983b61U, 0x1a827fcc41408267U, 0xd68710907bd5e66bU, 0xc84457c43bc99100U,
  0x6907f6a3125e81f5U, 0xf38c7816350d320fU, 0x36dd17811c72e998U, 0xb2ea7e712182ef22U,
  0x6b63566d5b3d39bU, 0xe8516eed3fa105f5U, 0xb99d42454757b93aU, 0x404c81060f1e45ceU,
  0xb1aa5e3350c5ebc7U, 0xdf592f33c7432d97U, 0xb446e4ca28d41bf6U, 0xc35a58d87fdc4e57U,
  0x2a9d40cf12b31888U, 0x86262eabe90c8fa6U, 0x2205392c06befb8dU, 0xe3d1d4105bce06d8U,
  0x72fd4b8191a4bda0U, 0x37cf74310a5a39d9U, 0x303f21120813120dU, 0x2615d9ff47e2e6f1U,
  0x704545e85cf60d12U, 0x815d5b15b752bc9dU, 0x996dc18c62213b54U, 0xaf5e12d815a7fabfU,
  0x15082d6ece217337U, 0x133c81efda0ea38dU, 0xc577f5ac63055077U, 0xb32e4695dcd7c95bU,
  0x34c54f81ec49a6eeU, 0x87f2ea82755b42f5U, 0xec613a45d0b6ed3dU, 0x46c269977dc1b5b4U,
  0xed49e7bc0330aa0bU, 0x4aa506175047dc08U, 0xdbbbc888aecdc481U, 0x3e1d52c9e1277fb2U,
  0x3ecf71a413e2c72U, 0x9ea819c0912bbd62U, 0xe44ef2c9dfff5f2aU, 0x8f286a0bf9a4bacU,
  0x2900f755e193b722U, 0x5102ca57d77f9830U, 0x5855b4c19c97a1fdU, 0x5c74a14ad4b5441cU,
  0x68cd101f5a4b030dU, 0x94e43dfe7f97c6eeU, 0x2071bef73f41d06aU, 0x5f97b4e286519b32U,
  0xd39a0d5a8b9e7fc7U, 0xcee297c4f915ce43U, 0x79bd1e3bb7275eadU, 0xdf167aa0967ff0cfU,
  0xe7b271a936883dedU, 0xac751ba5ddb91932U, 0xe5f50635U, 0xffffffd8fffffff2U,
  0xffffffd2ffffffd4U, 0xffffffea00000025U, 0x2900000023U, 0xffffffecffffffdfU,
  0xffffffe7ffffffe4U, 0x2fffffffeaU, 0xffffffddffffffd3U, 0xffffffed0000003dU,
  0xe0000003dU, 0x43ffffffc9U, 0x94f95a5600000044U, 0xe170b7c4f718bd93U,
  0x5ba0006d9d0a004U, 0xdda5e192669ffb4bU, 0x8d7450f4feccc1aU, 0xde8cc8f2d393574cU,
  0x2e9bd5b5b7e09ce9U, 0x9134cd9962b112b9U, 0x98dfb03bd0d45cf5U, 0x5fb53ebba3d264efU,
  0x40222ba7bdf7c4c9U, 0x631056314f10ce02U, 0xc7afc0e925f1fa40U, 0xa135bf66f6635184U,
  0x9be224c9dbcfe7fcU, 0x11a554683ed58667U, 0x6d64b70bdfdd59c6U, 0x81675e032f1dd72cU,
  0x5cf43b280e30c263U, 0xce490db548573a99U, 0xd3f3f471507182fU, 0x7767ffe8bd2a9d94U,
  0xbc0e536a93e6c5e0U, 0x9e53f2c8ebec96a8U, 0xe7edf7cc7e6ab066U, 0xc7facfaa4a572f68U,
  0x2bf0bdce16a8f132U, 0xb3e9b5fa9b21bcabU, 0xfed1a8dd8f9c919aU, 0x3a46ad10b829f7b8U,
  0xdf99e63e66af53a2U, 0xf370c3598e926f8bU, 0xbd903a19d122d5bfU, 0xef9094e0d2842464U,
  0x9526a92e78a78f0fU, 0x723cb2e8106c5e5dU, 0xd463b28bfd08408eU, 0xc775c77352a169d9U,
  0xafddea8a489881e6U, 0x21c1f1acb18bd049U, 0x7e0cc5f5734f1ac5U, 0x6442f922ae8ec641U,
  0x4ce1137041223fdbU, 0xb0c0ab6cc0bc7389U, 0x9d18ee96ae582770U, 0xc0dee4f5c9b9425fU,
  0x2df5c7831aafa581U, 0x2b4e2e7a60128bccU, 0x1f9d67ba78537091U, 0xe97d955094506229U,
  0x8a0ee883527ea25eU, 0xe12fa9642fc69862U, 0xc8534e3ea9ad963eU, 0xf7774592dd9eb40U,
  0xfcf6a46ed801d8e5U, 0xaaddcce287ac1515U, 0xd265e8b9eb6696aeU, 0xfb791a61cac2a313U,
  0xf933ef269fd1f9edU, 0x900f6f52f0c4a983U, 0x4550ec83c8f54ee4U, 0xc1a8f38686008796U,
  0x5ac9eae611526022U, 0x863a19ae0efe6bdfU, 0x1fdbdc4f32486328U, 0x2e5c180a6c6b96b8U,
  0x57a5278efab6a031U, 0xc15228d90c5dcd87U, 0xa681fb2da868dfe2U, 0x2a73a76d3f4a6022U,
  0xfe4068ae179cd95eU, 0xd84a4d50ae72f6aU, 0x2a1f03c868b0619aU, 0xcee28ffe013a202dU,
  0x98562022b9eb5521U, 0xb102a908471d0918U, 0x5afee08630b3b93aU, 0x1368acf0c1e8a3f7U,
  0xf6c1a8d25e40a093U, 0xcb0359f0539a01a4U, 0xaba99393de47e258U, 0x501a30d1aebdcbb6U,
  0xa22f9654a720070cU, 0xd15c96173d6a2b02U, 0xc1293f0f31af9f3bU, 0x3324cda9cd3babe6U,
  0x608f3555dcaeeb3dU, 0xdac019b08fbfc82fU, 0x63a9f7360b1a4254U, 0xd63b35fddcfb2ae1U,
  0x54138519ad292d65U, 0x4d306224f7528103U, 0x56d9a1aa1cb9ca19U, 0xaf32cc0a55111945U,
  0xaaa4c6054599895cU, 0xe748b8170636bb81U, 0x540d34c81de8b231U, 0x84ae27681654c44eU,
  0x474d04b84afc0b08U, 0x8c8413a1f29e11b3U, 0xc3859f206611ac33U, 0x47c488ece210d5f2U,
  0xd5ff94d46e54596cU, 0xe339fe695efe34c1U, 0x2b4fe81aeb02d088U, 0x7afb927db81e395aU,
  0x8b30bc2ba4f0ac85U, 0x3573973f931b3b21U, 0xfd70e40710aef7d2U, 0x8f295a0fafd6a683U,
  0x5e6bad99cc173f5eU, 0x582ecd8b21e111e9U, 0x36d608c2c7a299a1U, 0x760e3d39d917dc67U,
  0x26ccbddcb0f4b63U, 0x6c0f796d7531f4a6U, 0x4e426f20713b683bU, 0x2fb324566cd4c37eU,
  0x8db4a52bc62d098cU, 0xcd2a1e2aa54798c1U, 0xcb71024b9c0fbd89U, 0xbfd57bdd2bbaf3e7U,
  0x9f5854c9dd44c203U, 0x4281e9ca39750ceaU, 0x8f3e04f1d617ecdcU, 0xd395ee8b0e5bf117U,
  0xa258cf76fe275fbeU, 0x10b23781e651cd26U, 0x51a78bdddb86d757U, 0x8de3e126579797b8U,
  0xe80185bbc88cdcd4U, 0xc55ba8dcab4fa878U, 0xcfb6336c7bdf0562U, 0x98f61bbf1073a282U,
  0x54749dc226659277U, 0xe80ce93a2fcd83a5U, 0xbd0d612ecad50308U, 0x6d1fb792f3cdcdddU,
  0xfd1da05fc1c24cd7U, 0xdf2ef655363f2d58U, 0xc3a33fd5dc203ddfU, 0xc3c8d645ef10658dU,
  0x55f5d292f2330f13U, 0x3c34260cdcfdcd8aU, 0xc1c86c2cd22e038fU, 0x93af30c8fb959462U,
  0x202ab74a46edf503U, 0x6810af440aef0245U, 0xac078610860588b2U, 0xd68ee727bf99d78fU,
  0xdd27c0a13ee4a48eU, 0x8afe070864732bbU, 0x9f3d99d99dca2049U, 0xe2d520fcc7d0c094U,
  0x6add9750a3e2f765U, 0x5392a59a2bdc60b6U, 0x65dd63e4c1f913f7U, 0xe302418d002d9bd5U,
  0xb3073ab74aa0e1ebU, 0x67c21ec908aba941U, 0xecec6a036506628U, 0x1baf8996f70245d4U,
  0x51d9cfb04c8dc92bU, 0x181038362b81e920U, 0x26d85d110d3de394U, 0x89ffa1e8c2147b1U,
  0x413260eba767f0f9U, 0xc81a4296263da220U, 0xc8b7bd02915e534U, 0x45ce8dde74599802U,
  0xab7f2f54817377f9U, 0xfad9291eb13bdbbeU, 0x9425a2d7db7095c9U, 0x9997a71ec2a052f6U,
  0x2545cb8e44935673U, 0x7590c8d9bed33d43U, 0x14b4ea79f2d97d7U, 0xd83ab4ffcafdcce9U,
  0xd1eb825cc90bf66bU, 0x1ed1d0869b27664dU, 0xbdf9f2d7c1098bc5U, 0x796247fb4f829b58U,
  0x5dd919106e7aa42cU, 0xb68c9065db7b6ee1U, 0x1f0963009fc1c13U, 0xdc74e7ef1fa70fe9U,
  0x1539543d57e0e1ebU, 0x2616d201b9840592U, 0xe5f4625641b28cd4U, 0x93c24ff24ba373a7U,
  0x95da6a79ede66f35U, 0xc8e8008c5232e636U, 0xc01f7f75b337dc10U, 0x431196d379453b8cU,
  0x97bf338f5ca28e6bU, 0x47c5228d1bc5fb9dU, 0xefec60e5a6bd18fbU, 0xe5416879d431bbd0U,
  0x9c372478765e52beU, 0xb14df762406cbe2U, 0xe7c639210dd0bc0dU, 0x71ecada3180f4477U,
  0xe38da62e6ca4243bU, 0x34012f78148a90d4U, 0xb13e52911f167d96U, 0xa9e71d8bbf60e9f0U,
  0xb43adb1740f25441U, 0xc6ebbf9363f161bfU, 0x3273f29d380ef421U, 0x917ba4753b4c1d3dU,
  0xad3953b39c02d7dU, 0xba9156689c64424U, 0x1798a286d21268e9U, 0xd1ce0d855fb300d6U,
  0x29022f8df0dbe7caU, 0xa1583b36e3aebad3U, 0xafe2e956ec43c2dcU, 0xd4bfed552fde5140U,
  0x68504bed8d81df13U, 0x706e04e823184f98U, 0xdeda12fb239a0d96U, 0xd08d67b8e775dc24U,
  0xdbc505b0e84ed8cfU, 0x893ce733d7469cf1U, 0xf0999053454b2e2fU, 0x2468284917436149U,
  0x95a72aca86c2a33U, 0xf0f89f08ea314dcfU, 0x4c0817b789a8619bU, 0xd7575ecd0909949bU,
  0xe50c4a65661e3ee3U, 0xa2a2ae4c4c1ed900U, 0x62dabf3f6000cdd7U, 0x9c282158fb0cf747U,
  0xb436c01c23773cc9U, 0xda21fcd92121af8cU, 0xde46b296c8a2b75U, 0xace5a37aaa272178U,
  0x7fa1d047a3676a4bU, 0xa77b2947e19b2933U, 0xf5f259efe822e691U, 0x9800a220a4152d94U,
  0xaecd729b952e9d21U, 0x696ca23515921aeaU, 0x4f8f0413ec0c13e3U, 0x1acd26be6de10952U,
  0xdb38eefe70c99df2U, 0x2829e6e501df72fbU, 0x33352ef7ee5adb0cU, 0xf7d22dfdf95f1ec4U,
  0x52abc91fd10b5ec3U, 0xb7e032115f0b72aU, 0x81d2fa146af8d803U, 0xe96d9e63e3c3ecf2U,
  0xeeb1830685cf9561U, 0x8a24a5e61248a735U, 0x4d962efe27e8cb3fU, 0xa57b81289940830U,
  0xc58767d2f05bcf52U, 0xd2deda1c53c3935cU, 0xcf94b820f7d20b9cU, 0x152b03685a443284U,
  0x1cd4e7558b259369U, 0x7ac5f807f2d5440fU, 0xabd61c4de72107b0U, 0xb48acf4cd3e46cf5U,
  0x5831fb5aac6caab5U, 0x4c41cb9da8cadabeU, 0x71422fbdaec55844U, 0xceef1b70cd2dfd1U,
  0xa95d65b7c0f6f5c6U, 0x6fe6ec46124f582bU, 0x8f6016fe598c6634U, 0xc27238bb57ddf29eU,
  0xaa3f0968aace01c2U, 0xff10deb13321dc9U, 0xe161cd4e4d7ad9adU, 0xc2ff91e75a04f8efU,
  0x83b10b82cb400269U, 0x7fcbe26cfa07b7bbU, 0x4994d946f87ec250U, 0xaf34510584f8825aU,
  0xb4e13c0fdff443a7U, 0x7eac2379c1da20c2U, 0x49b37b44a32dfdf2U, 0x59290beedfd5a4abU,
  0x38f9b928182e0fa7U, 0x8ff48db608769d01U, 0x2e2ed4b919a1a32dU, 0xd45d447c39a56a60U,
  0xf7d76f11931b8210U, 0x15a5d7e754cba0d8U, 0x8588fcdf0edf1ddU, 0x8adc98bad4aa70cdU,
  0xbc8fd01f0a948862U, 0x2159badfccf3eaa1U, 0xbaf9118a297a88b6U, 0x1b4f14ee54f294d2U,
  0x8c11d9af0ec1b21dU, 0xc590b317a03f66e0U, 0xc90c51007910bc67U, 0xb65bcae39e6f4f00U,
  0xf1ca4c99877d676eU, 0x3f24e27be31f65bU, 0x9be351307a9171ceU, 0x9d154e103436f4cdU,
  0x275889a4fc979d5cU, 0x9268f91454715e96U, 0x125bdd33f8ab8e6bU, 0xed3b14241f4194aaU,
  0x9ae6b9d6eb20ed6bU, 0x45662f075b2c1008U, 0x819fa3ef4848a1d2U, 0x22dc45fa53d4d758U,
  0x9587f10299d9fea4U, 0xa10384a88414d4fcU, 0x76e82eb2a1bd4d8cU, 0xe63da92ddf85d8edU,
  0xcee23e727b64f05cU, 0xa6cbf2a5fa17d2d4U, 0xb34ccd7dad1fa7cdU, 0x963e6ff5f6e26286U,
  0x63d805d2cf685e2fU, 0xe6f3f197501f48ecU, 0x4c9efd9d227c89beU, 0xe28d8969fda09a6eU,
  0xbc4f1ee16b2b37bdU, 0x868dfc9801f06c7fU, 0x5dc37daf1436f705U, 0x4e4731934451ffdfU,
  0x84dbdcfd15cfe681U, 0x122dcb1eb374499cU, 0xc806f56b20f0ae1bU, 0x909d84a2da7fa456U,
  0xe13e975bea218d07U, 0x9f23f91a8c157505U, 0x5cd66c17fdf7c159U, 0x5dbe5ec5fb09676eU,
  0xc1d4b8b993d05716U, 0xb4e305e95fe50f91U, 0xb72dcc3c10b866cbU, 0x2ad12833a11a7dcfU,
  0x96912bf5a097d019U, 0x96c37f094c200303U, 0x6c0494f9aaebb8ccU, 0x2d3ada47d2927817U,
  0x21c1d679eb75239bU, 0xb17fc4dca6f3f067U, 0xe4e840f2256491abU, 0xb3bc8b7021ad23edU,
  0xffd5bf17396670aeU, 0x388bf11947c4d744U, 0x616999046d4b6c19U, 0xcdcede12e6d4e32aU,
  0x1cd9d0f254541a34U, 0xdec8c7a22b1876c9U, 0x6377331a0096685bU, 0xb26c7cc80906fe95U,
  0x23ce60a9a063c968U, 0x23f3e4bcb9a1e22dU, 0x6d50f098ef09aca5U, 0xc99f298fad357204U,
  0x9f555f03d59b71b5U, 0xdc00aeee1eb910a2U, 0x2c0e2a7d9fae106cU, 0x9b4c01de176f916fU,
  0xa5105edeb9fc93fdU, 0x953e302d10fa0d7dU, 0x7399d4eaad9be362U, 0xd4a9304ef6f824afU,
  0xc39d371815353700U, 0x2f5f289ef1fa0343U, 0xc605266b935b516fU, 0x29f303962671081dU,
  0xc148d9309373d999U, 0x8a45bdb9ef25f4fU, 0xaa38af9c245bf127U, 0xc99400fb52669e7fU,
  0x6da49c726f5514c7U, 0xa7cf3022136189b3U, 0xc5d824c040623d27U, 0xdc6fa9c770da2511U,
  0x23217c6c95a70f38U, 0xb50cea9c68ef4694U, 0x8c9cb72ee08b7c50U, 0xb74583222f6a6b7U,
  0xddb12e352116750U, 0x19c94f72425d831aU, 0x9f29b1864bd279f0U, 0x894b66af05de9ab2U,
  0x214886fce805fa81U, 0x873a0110d5ca6c01U, 0xf3655df83aa0c04eU, 0x7495e3a54a5d7b9aU,
  0xff85c0a51beef1d6U, 0x92b7607da29ad825U, 0x9993b8d57b2b9c33U, 0xff67dc224042c828U,
  0xa8129ef96743520bU, 0xb3da2b18c9afd9afU, 0xac6bb9c6c608f3d9U, 0xa36b6e250629622cU,
  0xb9989381198ed6aeU, 0xe94ad0b80f916efbU, 0xf74226348e942385U, 0xb5fefef503250548U,
  0x96689cdb3eb481e0U, 0x2a368f9144b014f0U, 0xb33a42febfd871cfU, 0x2ad1cbb1562ee7f0U,
  0xb4d2ee66520ad235U, 0x405371698f70ec9dU, 0x3e7002e808d3d9aaU, 0x181df9df573a51a8U,
  0xdc57dfe7e65452f4U, 0xda0b462867e0e62cU, 0xe0c5086497c8b042U, 0xbe36334d266ff0fbU,
  0x2a3b0a2ae9498a54U, 0xfce19aacac2496a1U, 0x4238a7d47114cc47U, 0x4f4974de65f1ce7U,
  0xaf6637a534c0d6d5U, 0xc8c746e2b81e1e93U, 0xf4d14c1cd7b1cffdU, 0xb99b11de7b53772dU,
  0x6a9ad18319d1e9dfU, 0xe672c283d07e5128U, 0xc09fbde0f7dea72cU, 0xb8b8c294f14c7bd8U,
  0x7bc5464ac1008600U, 0x6b6ee3563b8517b9U, 0xaaca2f93741c6afbU, 0xf22a44edd1afdc9bU,
  0x5fc930cde3b15097U, 0xc49fa707f992b0c8U, 0xe6b3726dc8731abdU, 0x9bf7c66d26df4fd7U,
  0x67ac39ad56e24414U, 0x9ce42ac563d4d940U, 0x2d74fbbe813bb333U, 0xd6e3330b4951e71fU,
  0xefc466183c969288U, 0x915cc927a67a140eU, 0x9593289ea7275be9U, 0x9a7fdb27bf4154aaU,
  0x1cc81f2902f0fa0cU, 0xcf0ea306742ccf46U, 0xb3da0f6ebd713c2cU, 0x63d11395ab786b25U,
  0x4c4507ad239188fcU, 0x87aa762297ffa4e9U, 0x1d52d3704e9609e4U, 0x215e9934ae104dd1U,
  0xd94fdabf51ba636U, 0x7bd252dec09800d3U, 0x6408f5c421213410U, 0x73244c4c738f6457U,
  0xc712a9b5f849421eU, 0x2aa542b2c8a3a49fU, 0xb04bf2ff0bfcb8f7U, 0x971fa9e8c7268c2cU,
  0xe4d16b427d44f860U, 0x6224448f921e10aU, 0x6490a7836d8acf51U, 0x1a8bfa196a45213fU,
  0x523689c254f3a88aU, 0xf9a24f61c5645387U, 0x94200518c5ed1416U, 0x960254359d1fbd41U,
  0x60fae2bf973d09b7U, 0xc3bc26a39949ae95U, 0x582531b2543aaf3fU, 0x402c0484c91600ddU,
  0xcfad1fa84cbedb6aU, 0x3d9c578f63a101bbU, 0x18c64a204db26a00U, 0xbe81a4a3f6bd58a0U,
  0x75a52599cd1000cU, 0x8c915b119ba8d2f3U, 0xd1ef56fe1d30fc63U, 0x34bd2a6b1d55d709U,
  0xe4b2d9132fbf0f19U, 0x35cc47fb5809d38fU, 0x185b0d5b4647c609U, 0xe2b24e22dca9e1d7U,
  0xe54d03f0dcd2dce7U, 0x6ab3a70fcd306925U, 0x2100eea713645ea1U, 0x24c20c4a55816697U,
  0x4613251bc3e2bfc2U, 0xc5818f9bfe3e3ac3U, 0xdda4a0e7f0bc86e4U, 0x20c662f55b47c407U,
  0x5986a52e0d0eecd0U, 0x8ad49fdef59d0ac5U, 0x4442282940b315f2U, 0x4f271e9f31a06ab2U,
  0x9332b9c3335e84a7U, 0xb4f6371557d4f948U, 0xac42eac4146e1559U, 0xe1456514e20bf448U,
  0x28f849553ec7f33fU, 0x1a0e0e6acf339cffU, 0xbc6ef03ce8120296U, 0xb33d0565ea83adcbU,
  0x1e37411918ed30fbU, 0x1211def2edf8d9b9U, 0xc25a5923dc0cd48bU, 0x4d87eb39c1a4a7e2U,
  0xa369cf1ebb04110U, 0xeb0c3c10a724dee6U, 0xaa2d1ab4810ed598U, 0xe263efb811062919U,
  0x2f52d6db3f973f0eU, 0xcd4b05473ea4e7f0U, 0x20e53c9ab8039fa3U, 0x34e422f64d5db6a5U,
  0x14a0fba8e1c1b1faU, 0x6e2ebe2d1c6224f8U, 0xab8b63f5e11d04e8U, 0x4528818a2f3b8a45U,
  0x5b2fbdd52c31652eU, 0x6010ae3b5cfafed3U, 0xc8b3ff2d45284053U, 0x8e6acdf9fcd1fe24U,
  0x9b13a9862665c137U, 0x4b1c832c7816187U, 0x1cc7c4141125568eU, 0xc50f68b4d85fbcebU,
  0x86f766b4fc2cbb08U, 0x160fb536d1012438U, 0xb262f022ede0f21eU, 0xfb3f4639095f90d2U,
  0x93522d96c651a7c8U, 0xbdedd1321e3ff9e6U, 0xbdbfbefb6266f869U, 0xbef60554130671U,
  0x448ebdaa19c9c295U, 0x6a0560fc8d116fe1U, 0xf64e19db20e889b0U, 0xc403948b1942bfe9U,
  0x42d535932cded11aU, 0xd1b4bb3dc4dcb3f8U, 0x30670048ac016766U, 0x2e231fb91b10e9e6U,
  0x1a33be90d267de53U, 0x285846e5944a32cfU, 0x88f22d3a3d080c48U, 0x9acbbf24f648271U,
  0xa902288fedc159b6U, 0xce34b8369715767fU, 0xc8cf1b1d48eca9e0U, 0xc930e02e82ce6f42U,
  0xa07d294ee119f8bcU, 0x443c835e15f1b6d1U, 0xa1dc7f51a7d8f184U, 0x36a79c756a47e465U,
  0x4be6745de876f182U, 0xaaba95fde465f1d3U, 0x5b4eff9e9c0f519aU, 0x6ed69b64ba31bd37U,
  0x61272a624f627584U, 0xbf0661ed839dd85U, 0xb76981ae225fdbecU, 0x3c3a2437049dff2cU,
  0x1daec9593e959dbU, 0x8521bd27ced11c13U, 0x708eb982cf5247beU, 0x4d50b9f37145dcddU,
  0xd90344a9344c8422U, 0x34285c266b6dc83cU, 0x61b7799103620674U, 0xb09d007d67d318feU,
  0x10fff21b96ce18afU, 0x2daef4e4149f1b44U, 0xfa0fc99a1d260190U, 0xece2aefedd931f15U,
  0x37bc8fb3c3d62bf9U, 0x26de5dd838fb0790U, 0x8f51b8d943f75fc5U, 0xa87c8d51ceae69e9U,
  0xfe7f611b37736bb8U, 0xd43c96b6b076693bU, 0x1e786ff0c7c5e94aU, 0xaf88c1ddfbc7b143U,
  0x9e095033f594d6aeU, 0xa47ab0877dffaeb7U, 0xfc63c88e8afa2592U, 0xc14af98fbf23546dU,
  0x504ce11cff1c92f1U, 0xf6dd2edcb5142740U, 0x90d0b96783045c27U, 0xa595dc87fc48a7dfU,
  0x51abe6e0d4b054e6U, 0xd8fea5a7b145a9f4U, 0x4d491ddabb160508U, 0x94adedb6b5ff8797U,
  0xa12ffeeedba9c79fU, 0x8996e04d1babfcc1U, 0xa5fe1dfecc2e1217U, 0x1b306cf1def0f10cU,
  0x48f900061abfce17U, 0x144dfc05c34d0a35U, 0xf789a0475c3ff350U, 0xcd4d0df5ad412381U,
  0x9e59a00f915e66b0U, 0xd8283329c87353e6U, 0xffab63f5fe4abcf1U, 0x60e2ff4755870e28U,
  0xd34f6b4c5f34a70dU, 0x64d75c36ab63fabbU, 0xc72811991f6c221aU, 0x7fc5d888c33620deU,
  0xd0b4bd8733af899eU, 0x1f4a500b624f02a5U, 0x240f5689a4919830U, 0x7d23bb58172e3957U,
  0x9d5adfef60a73d9fU, 0xd60dbcbc7336e837U, 0xb7e8ba68b66c9414U, 0x4a24435c887abfb6U,
  0xc2f17855b1353181U, 0xcdf97547ed7d1998U, 0x95094188332ee4acU, 0xa16411d4fd4698b2U,
  0xdcabd1a5baf161faU, 0xf3b893605b1c689dU, 0xcb830d559a5b232bU, 0x818ef365e4ef0543U,
  0x34b1ce65cfe55a4U, 0x79f1e17de3150b8aU, 0x90234ae868023b76U, 0x281fd8001d37ecafU,
  0x8c04935e8f20f4f8U, 0x57c5259107089a43U, 0x9dbb0022a64cf499U, 0x9ca30d3fae210563U,
  0xdc1e6c7a1355a81U, 0xb0528c9fd0716610U, 0x31db2c062194849U, 0xd452ed95c6dd2d96U,
  0x5a894301d1dd2089U, 0xbb3053358dd54e20U, 0xf6330376b3ce8cefU, 0x886923f73083399aU,
  0x5610d52b24942a26U, 0x140d49b0fda22996U, 0x7aab1abb22278effU, 0xe86352040fdc8f68U,
  0xb647a83bb0c9b178U, 0xd0af2489ce306db6U, 0x3e3a2c5365bd4cfcU, 0xa9c25883371c35f1U,
  0x2479100db54c493cU, 0xf2d7e7cd7ffbceccU, 0x93f89dd7472666edU, 0xcb7b25ccd27f4cc2U,
  0x666e6afe0dcca0afU, 0x76c7ed33d99c79bcU, 0xed1f127a03f13664U, 0x3f2d67402da944eU,
  0xa326198bf6190e1U, 0xc19defc266c5407U, 0xfd22f23444a996faU, 0x139154f7552dd7c2U,
  0xeac1a2eaabcf6bd6U, 0x79054d57f0f666d9U, 0x93d45f9fd10afdffU, 0x223769a10c08ba26U,
  0x17bd855e5bf081aaU, 0x4092f9252839a5eU, 0x915a9743938ac887U, 0x236c81b10b8dee9fU,
  0x5d1701931e1df028U, 0xf0b32a2e8e56301eU, 0x9b67850b79fe1bb2U, 0x68f95fd1712b2272U,
  0x33fde5b14c5adfb3U, 0x5830d07a2b2f1e23U, 0x8f552c49b4a8734aU, 0xf53c4722070e2748U,
  0x2cf27ba11a381369U, 0x447090083f64bc57U, 0x5e18dd36aec087c2U, 0x3318c6d7d24ae95dU,
  0x28b100a1c92ef6c8U, 0xa32c4b96c18d435bU, 0x8ed1b2c69b71cee3U, 0x61afaa4787704178U,
  0xef790649657005ebU, 0xd06d30311b85a8cfU, 0x709687d4680c71b9U, 0xc7d348308c7603a0U,
  0xce01d1dc39438d8bU, 0x59b9c352405d2bbfU, 0x2a02276559538b51U, 0x6b8404dcbe980c1eU,
  0x30b9cb253a4d18a9U, 0xc0db866d31844cfU, 0xf3c8930dc70767c7U, 0xdd82101c950aa00bU,
  0xe6ddadaaeac7892aU, 0x60de4b4f19e99081U, 0x3f27382d1365859eU, 0xd05ad06f2befde44U,
  0x8dd73cc7f70dbb00U, 0xe8540fd4de4f421cU, 0x36ba26b9abca0e1dU, 0xd0f5edc0728e1efaU,
  0x6df650419a03620cU, 0x42698a63ffa54798U, 0x36cc0f405a016699U, 0x6e41ecd925ad0b97U,
  0x566516bca4f09751U, 0x3a54a95eff625637U, 0x356f617fa94fdb14U, 0x966b9bf1ad6a09f0U,
  0x9d237a26f0d3d49eU, 0x2a68443d9bf3fc10U, 0x30a589f827b755c2U, 0xc0a13c199509cd22U,
  0x49e85ca72d0da49cU, 0x6648c2f47523cc47U, 0xb5793129160b4379U, 0xa3ac96581ae99863U,
  0x3e7829679605bafaU, 0x3ab36faccaeb005fU, 0x55112ea7671d1fd3U, 0x3aacbaf59cf3d5ffU,
  0xbc5bb3259e9bdbb7U, 0x35451055bfb6a083U, 0x5b97153ce79f325dU, 0x88f8747d163570d4U,
  0x48d09a4e598b889U, 0x24fc647b36f3f97dU, 0x66b968e3de7a1a01U, 0x4b33af45f096d140U,
  0x124343357fbedad9U, 0x863d9f6d1cddcb9bU, 0xb65625ba2afcb51dU, 0xca3ac5d2ef338c2dU,
  0xbd1d3e2bd82f020aU, 0xb11cfa47684c3d1fU, 0xa924e419008f79c4U, 0xae569e303efa3cddU,
  0xbf3628f600db5b92U, 0x39883e0c23302406U, 0x1e111a9f4bfa47c0U, 0x3babb8c74418de5bU,
  0x8f50968a78fec8cU, 0xfc8490f23b3339bU, 0x35d55ec315efaa20U, 0xc02dd0a90bfe968aU,
  0xe7efb2e654ed15c2U, 0x2cb5d46950e51b63U, 0xdbb107f3434e640fU, 0x4fd7688b8d4c4286U,
  0x73c30a14e1a6dda8U, 0x4498c8a6d6309a8bU, 0x71959fd49daaa863U, 0x25b284e567067b7cU,
  0x1540328c6b2a350U, 0x88cc21da68de4471U, 0xec1b22354d973cfcU, 0x3187a12dd7b14dcU,
  0x3f17af917c0103e4U, 0xe1c01d5a54a39df8U, 0xaab3c69c7ace1192U, 0xee650e77f3ecdbcfU,
  0x7ca8dbf6205bfc5eU, 0x6d919133bda79744U, 0x9caf719697e272a9U, 0x8174b8895af347adU,
  0x32c609fcbdeaeed9U, 0xdd023c8c87e08fb7U, 0x980461dbe9ce82b3U, 0x95b05b60a143bf13U,
  0xf45132b0ec37eb55U, 0x5efc9e8124b713beU, 0xf6ea6df1670c893eU, 0x31b3faf5fd4ef9c4U,
  0x92fc150749f10d81U, 0xb9985ef3c6a02b92U, 0x3db6fefbe66aa8b9U, 0x36ae0d453d0059f0U,
  0x9b5ad705e7271e01U, 0x1d086b9f8b3d524eU, 0x2f2ae8d0500d5390U, 0xa9c069faedd8a10fU,
  0x38982543532aeaaaU, 0x640ff72c46c7c402U, 0xc22e5eaec4242682U, 0x6d64e042d1922866U,
  0x47cd6731fa521b2aU, 0xefb789476fed4d5aU, 0x690a124a5cdb084dU, 0x12b8a3269a50630fU,
  0x8d9d9dfbec4da00cU, 0xd252c21e18d11227U, 0x8412c2ec03279925U, 0xbb3abb3b661b3955U,
  0xea62546e59895809U, 0x7d2df468c4f6ad35U, 0x312c06bc5a9f7d8aU, 0xcb973dab382a3118U,
  0xb5b19c40fd3e4c90U, 0x95818b739875f986U, 0x39544447d9b7357cU, 0x925b46b25542cfc0U,
  0xe417892093004f6fU, 0xcaba9ed1c41b8197U, 0x1fc1ab5fc8e9b4ebU, 0xe73306c18d6eaaaeU,
  0xb135f6d06a2989f2U, 0x3484423d59058b93U, 0xa51be644cff458c7U, 0x4e49b8b08ac67147U,
  0xd3128db7ee854d52U, 0xf8e0481ac91a87a1U, 0xefcc9adcbb6400a6U, 0xfb4202bf6d1976afU,
  0x38186fc22b38d55cU, 0x917c2431ae76007aU, 0xa90d32f05dd1799U, 0x13d8b5b2f7ae8c84U,
  0x5221b88bd5707b38U, 0x5f12c751adac1dd5U, 0x12c7cac1ddf747c5U, 0xebcef098a3031f99U,
  0x1a2855301d7f469fU, 0xdd09aba966d853e8U, 0xca5b9a45f150561dU, 0xf95c041d56e840f1U,
  0x1b7be362e1689d31U, 0x71068c39d2761707U, 0xe6c7e0ba7ba2fffeU, 0xad9efb19a020608eU,
  0x1f96be683fa31128U, 0xf0261a2d54733fcbU, 0xc9002d26bea67665U, 0x931169daebf7faa5U,
  0xb8e719ca323817abU, 0x5250359cd3e2e314U, 0x4fc743a9b95ea731U, 0x1d1cd62c6962169cU,
  0x1566913c1e6437b0U, 0x914bfb49e09a1844U, 0x195a2bbad5b34791U, 0xf4489bc1c89baf91U,
  0x1ba3ee2be924edb8U, 0xae11fc3ff219f23eU, 0x95a4aaeeb5e2c20dU, 0xc6f5251450ce0922U,
  0xac3d66280305a681U, 0x9fb198e221101aafU, 0xf808fc465c58b815U, 0xa9b013b0e9323b43U,
  0x2e2a1c53a5a4c006U, 0x95ff0bb28cfc4642U, 0x638c1fca1e281735U, 0x48e5cb7565005c27U,
  0x957afabf4435e0b8U, 0xb6b00e34f99d0b55U, 0xe7ebcbed1de87616U, 0x518bf23d3eee44a8U,
  0x641725590877c181U, 0xa66872b57003c1ceU, 0x81f86e0681ba5381U, 0xd0ae828aa8ecf07dU,
  0x95fcab687bc09c81U, 0xa29edcb2fb1f79c1U, 0xa70ba7474d10c34bU, 0x13dfce63b5ea84bfU,
  0x62a9d5bdcd98ea6aU, 0x518f7e7baa496c6eU, 0x198da3192e0c576eU, 0x19071cf5e232488U,
  0x29a1f86e9275d92dU, 0x9ba5241cec740ef0U, 0x1fd11b9edbbfea0aU, 0xb43d7bdd0432d9d6U,
  0xb25d3ea10ff70e42U, 0x639f00aa1fa7fcd8U, 0x6bc53fc8d520afb8U, 0xbd91a44057146887U,
  0x1c4fbe711b86fee2U, 0xf4c6bafb473bafa3U, 0x516e052875932926U, 0xde99218219900439U,
  0xaf03b4ab3565054eU, 0x2ca4a4483fdbb79aU, 0x5088e350df09c6a1U, 0x30a0d4bc074c9735U,
  0xa869d5f304a138bfU, 0xc820513aa132bf0cU, 0xce9d813a44a75258U, 0x24fa65342c2e9d1cU,
  0xc89b262ad58446b9U, 0x4c23810d35b0360bU, 0xe9200aef2f0429a8U, 0x2d4fc617e50fbc06U,
  0x47fa342368f24a97U, 0xe7fa16b06248a7ccU, 0x223ac9a3db35bdf4U, 0xf4983ed14e83be81U,
  0x2fc80949b53611f1U, 0xb8094ca8971aee1bU, 0x3c99491befb8c811U, 0xc6a43433f5fa101cU,
  0x2aed20052a63758U, 0x133659f33d960bd6U, 0x9d4501352016fe9dU, 0x575728e9cd1aebe3U,
  0xc350b509a8b6f1abU, 0x9c92f3b872c23bfbU, 0xec9f32b79b4a12b1U, 0x110e0c1fb2f50fa6U,
  0x713c061003d16681U, 0x9a273174d320c2bfU, 0x51c53736642fea67U, 0x1f3a56bd9c41181cU,
  0x1e0d07f0bef1ec93U, 0x5e6e26d36eb3fe53U, 0x375676d468ae1b05U, 0xe5951d52cbdc90bfU,
  0xc4b683820644636dU, 0xd8eba2ae431e4beaU, 0xb1ff60e2681aa477U, 0x4a45991d8cffc2eeU,
  0xdafeca68c66abfb3U, 0xeaed81bc2a14101cU, 0xf0f762badcf2ba0eU, 0xcf3eb8dd7511291bU,
  0xf451095f4558fb87U, 0x21af2577751bf557U, 0x3db128c215ad919cU, 0xd8e3c861eb9a9036U,
  0x18b091fd3dba12a7U, 0x1d678fd95e99f52fU, 0xe1400919cd1861eaU, 0xd77362df76e037a8U,
  0x19956a6dcbd2a095U, 0xed522d58e79099faU, 0xc32105d1d74afd15U, 0x4142090c12573f28U,
  0x90b6105b4ba9141fU, 0x7d282a5047fb0beaU, 0x7b58a7d4e2a1d132U, 0xfd1117c818095316U,
  0x78af50141d587958U, 0x26a175bdd7109f8U, 0xff5fce57db0440b8U, 0x6d699482b5b350bU,
  0x9cbc9c152c947cddU, 0x5b4e60f116410cedU, 0x94c35f3ea7fc4929U, 0x42d25520ef6746e4U,
  0x982a3a4e4572e9edU, 0x8d05e7fe5b4be841U, 0xa76760643436a74aU, 0xb37bd5391a10482aU,
  0x5240d421a03e9aafU, 0x61c163c39961b54U, 0xf2177fe92f39c968U, 0xa01ca1fd034ebbc4U,
  0x74a3c44e1a6a43a5U, 0x6501564de31de86eU, 0x6b3a1274090cfae2U, 0x91e70b56dd9a2b64U,
  0x4bc42c65d5c1f67dU, 0x69dc6b821355411bU, 0x6ce6e6cfe42f886cU, 0x7a56d331344e43a0U,
  0x69642bffd8cb7da6U, 0x824a0eb13fee0fb8U, 0xf399755c6b9d87dbU, 0xa5e089a72650cf65U,
  0xb6f628be9d0592edU, 0x81d4d9a4a7564efcU, 0xd6bc3272cbc50c30U, 0x48f2b8f4728bf233U,
  0x160596990c2e8572U, 0xb0f004ca85c2021bU, 0x83f2c69ad0c0cc8fU, 0xb395cbe4ad092edU,
  0x42946a8c936ac7eaU, 0xb23c6f55e6f677eeU, 0xd34971dabef2d7dbU, 0xc818bc0ee7b397d3U,
  0xbe9c6d4b0b1c5723U, 0xf8c865aa61db3f52U, 0x8f98fc15b02e6cbdU, 0x3cf40f4446edff54U,
  0xcc0184a45e67e9aeU, 0xe03329f5e4cd8b4cU, 0x311bc9868a2c6e05U, 0xec5eba47f2666c9fU,
  0xe4a7e588c03448bdU, 0xd4a5e02f58ea6462U, 0x4a4e2969704b27dbU, 0x288faa350f236390U,
  0xd04c45ce20e2e0bcU, 0x6bd63c841994381U, 0x13409c71328c4386U, 0x1c5fd700d245322dU,
  0x9b86f23631fb4ef8U, 0x2f2c35f93ecf8b49U, 0x2d7f6f0c6e5ce8b6U, 0xabef838a1c537290U,
  0x8789e847f0f16cb3U, 0x31193e6e0c65ad7aU, 0xb8ab6ba7a2346212U, 0xdfaf17b5f9f4296dU,
  0xe6b4a0067739b604U, 0xa9d7b0000bfe1adU, 0x591b265ccbffbb94U, 0x652a17b4441aa616U,
  0xf8541339cce19369U, 0x5c7bc94f2d5876e1U, 0xe388bff9aebfccU, 0xc92c478ff0bb4946U,
  0x96e901f8ca10dcc5U, 0x2cbc1e266410cf6dU, 0xd3f71abb04428af7U, 0x3528f99548e90739U,
  0xb64b8b466fbadcc4U, 0x4cc9d6cac685efc0U, 0xa818a52abd72dc28U, 0x5643d3c96a2a1418U,
  0x17d44425fdf5d02aU, 0x379f41a2390c884dU, 0x9521bbc5e25d41acU, 0x9546154c174a31d4U,
  0x1595ca19f542064dU, 0xd4c2df396a2cd6c3U, 0x369604680c096cc5U, 0xaa41e4e3ebd9e0daU,
  0xb69191954df360c1U, 0xffbc0be081c87a7U, 0x30a6b275a746ea82U, 0x31f5c3c2984a394cU,
  0xff0ad9c08c1bfcebU, 0xcd82c3481db3fe9U, 0xa7e3efd5bb23a19eU, 0x62062e585e30cc1aU,
  0xdffa27a1540aecb4U, 0x3e2c1fa5f26b3a03U, 0xdd3215d0249c1ea3U, 0x22d5461acc45e409U,
  0xea105bad1737e4b2U, 0x2b3282e4605df317U, 0xd1e40bf2b88b4d3cU, 0x31daf29e979e5e97U,
  0x515f5f0d3a105a4dU, 0x9ad15c9c49d761adU, 0x88660de94a9e4da0U, 0xb61b00ac51504ed0U,
  0xd6fa9b151a5c6b2fU, 0x3236129a6f835ddbU, 0x32b361ac75c48b53U, 0x94af373e0c38afdaU,
  0x3e14a0713b81335aU, 0xf1d85b23aa51a5c6U, 0x61a49d7f2814120U, 0xd24b5a2548d2f612U,
  0x552b528562d5646eU, 0xe1833933093e4da8U, 0x50edab6f669ea2d0U, 0x26dabdd6bb48d65eU,
  0xeab33d548e311347U, 0x9db90d9e81700767U, 0xcdb8419dd3383592U, 0x22dda5270424ea4cU,
  0xd27dc2b5927c010eU, 0x142de6a67861ffcdU, 0x9b1d32a81d2ded39U, 0xdfda102748bc4c9aU,
  0x419c833a938c85d7U, 0xb354277e21342407U, 0xac982820c0d3c9b8U, 0x1d234a3b6f94f9faU,
  0xd97ac50c97b58394U, 0xd51ccb5a6dc8a734U, 0x397e7c9f4e4e5446U, 0xedc4072da9aade54U,
  0x52af42e964722e4bU, 0xd6ec4e98b6546eb6U, 0xe77d1d529cdd24d9U, 0xd07fdedcfaa6660eU,
  0x3cf444decb1e238fU, 0x7b5592269e39caf3U, 0xffb29069ba928768U, 0x5d7476a8e3d9621bU,
  0x92555a3b9443d247U, 0xb199ff54d357720fU, 0xc9639419fa729fdfU, 0x29631b5cb0d1daddU,
  0xb9caed83fbb046c7U, 0x29833c216dfbc348U, 0xc1c32dad814a7d54U, 0x492b6bfbced5883cU,
  0x6a572f5b272c9433U, 0x51b321c2aa3601baU, 0xe04fec096d1d52fdU, 0xe0bb84a640dc941eU,
  0xd0982921d2f7eee5U, 0xaa8c66deb3e20859U, 0xef4dad6f32afa14bU, 0x2ac90c1de75ae2bcU,
  0x2f9fd0a158157c93U, 0x70c895e7e102ef33U, 0x921e6a988660bbd4U, 0x87ad6ca7eb031764U,
  0xc747566aba4d079dU, 0x69190137345a68c4U, 0xabde2e996b991638U, 0x8a59b7407f8975c4U,
  0xca1205b4590b17f2U, 0xba831e54ae3c192U, 0xcc271945e9cf6348U, 0xa5c30b37d2e664d5U,
  0x50c5c1fede327547U, 0xfeab7c2b1f243c49U, 0x60682997b8fd9993U, 0x46cf7a04edc40a39U,
  0x4aca23d711ab8a4dU, 0xebcfcf535506f7a9U, 0xec3ca081aa4c7bffU, 0xb01734b8b46b1d16U,
  0x2f4ef457245bfec4U, 0x52008a33e1c73c13U, 0x4ec1cbb3b1bf86a7U, 0xd736bbf84e2b3038U,
  0xd0e77785570030e5U, 0xa9670353073592efU, 0xee6fe9d06fcd68bfU, 0xae7254f0a6addce5U,
  0xbd530f745cf865ceU, 0x7d5db37a26724ee4U, 0xdc36b80a72393f0eU, 0xafc505ce3b75ad71U,
  0x2a22ec2f2970c74eU, 0x67f0f28832646db8U, 0xe6539f0502709d65U, 0x87eb4ef234357a1eU,
  0x1fa41c41831ca2c0U, 0xe1a34a8659cd3f45U, 0xd4ab48b6b9b399e3U, 0xe88d37bddbcc0f07U,
  0x4415347d2e8d9707U, 0x2fabdbea24d8e6a8U, 0xd97f970219677e5fU, 0xe25f84da52895757U,
  0xb7af4373accb3723U, 0xcac2b2f9ce88f845U, 0x9b9fde93790044fbU, 0x550d453dc8005f47U,
  0xf06d247ff2284471U, 0x2b3817fcf50ab9c0U, 0x2653d70760fe0c93U, 0x6bc99122a2daed53U,
  0x4c9e9c8f18c4b7c0U, 0x494bb437ea9a2661U, 0x3ae3faa7503d405cU, 0xfb4f51eafc4fce44U,
  0x8e3ead94dbe768cdU, 0x37de373718bc3934U, 0xcb985e9d48d6cc69U, 0xb406e095dc779b98U,
  0x7f52d6dca62855f5U, 0xc8f5f5b0c4eb4704U, 0x164665a9b6a2d29dU, 0xb30bc32d50091cc5U,
  0x1ac857fc6a9d4862U, 0x521b6c25b2c71646U, 0x72074ce5b2a0231dU, 0x98a9197939affb1cU,
  0xa54ff97cec3c388U, 0x75b49af10d2fb463U, 0x39a12ceacdc2a047U, 0x254f737a1f224e1U,
  0x29321b855c93ccf4U, 0xaafa1b1c8005261U, 0xfaf6e572f8d5bd59U, 0xf09ef54cbd6b5694U,
  0x1867f63949297759U, 0x81429bf58b3909e4U, 0x121fb96e53bf90f9U, 0xfb4ce1e30e299268U,
  0xcb658e53550b8682U, 0xb7832df789c8c221U, 0x45fc04a962acd8abU, 0xa5c8b7fad8700f0bU,
  0x22c1423a1cf64b3bU, 0x52a5e250105688c4U, 0x302400e127d3888aU, 0xf9b1be49563f1eaaU,
  0x82700d422c86ff92U, 0xd7cbd17548f17606U, 0xae8c5d22e7e5e6ddU, 0x8fa2e99f2b5101c4U,
  0x614309cf38b16a4dU, 0xa424d15a3e728fb5U, 0x2d61479454d6489dU, 0xf44c059be2eeac46U,
  0xe8f8daa9b9ad96e7U, 0x3fb768131a3411adU, 0xda2a49dc898c0bf9U, 0xfabfd8f39a9a582bU,
  0x91d6094fa8828484U, 0x5a37ba6040d8b5d0U, 0x5be877af3ab9c111U, 0x134088b258fd88fbU,
  0xe43c65e467d45b05U, 0x42ce4c3df5b2131cU, 0x10467199ce1aa9baU, 0x113b815303668846U,
  0xad6a182df82fcc82U, 0xc610c8c237a7df04U, 0x3f83aec6767ec13aU, 0xecef183ff01d1b3cU,
  0xfeb33135e94ab04fU, 0x3868bf011605a3cU, 0x747f310671478b67U, 0x31b613ce7814e746U,
  0x751ea36a3c5eb873U, 0xd24546bc704b8a03U, 0x8d61886772fd890dU, 0x2291ea28143f5351U,
  0x52922bd7643ddbc7U, 0x6207499e1fb19c58U, 0xcb85066ac84e5ffdU, 0xb2972b8c08dc137bU,
  0x846b927bacc5a7d2U, 0x2c87d94f5fdb6b4bU, 0xa3eb319305f56989U, 0x7591de608537cca0U,
  0xb066abdb2b25477bU, 0x4a5131edb8952e27U, 0x9eeac32f49ac18c2U, 0x10997c760a0d2f2dU,
  0x8bbe201ea2d24b1fU, 0x64b09f712e5121d9U, 0x361effb2c697e26dU, 0xa4a9f9a50b3d5809U,
  0x1b075660f5b658b6U, 0x715558340bb17ba8U, 0x35a7707312aea5bfU, 0x257cd8670fd87b3fU,
  0x6be37518d22c4b0fU, 0x849bb5b5f6e25a12U, 0x76f2ba4de18669a3U, 0xf25872df7fa20159U,
  0xca195d0d3aa70890U, 0xd919e69589021f5cU, 0x3213e7dc10f4c792U, 0x893f361f6b977bU,
  0x2faf298db2539cccU, 0xdf40f34117f5c9c0U, 0x2028b0a58e57e03bU, 0x1d2eaf042f52dff8U,
  0x3b743b5ac4ec03e3U, 0xc07957fa30cbe1a8U, 0x467e465b14a20704U, 0x56716d32f0ccddafU,
  0xdc14e9945c6255d2U, 0xf3cef99d7c6db6fdU, 0xe11e4eabb03aee3cU, 0x90aeede87af1c63bU,
  0xaccb981777abbb73U, 0x2e4f36eae60d32edU, 0xefe753e4bd056d9fU, 0x44c35baf24279e64U,
  0xe2cb14bc061133b0U, 0x2739d7317b32bcc4U, 0x5054c870c2e2ad92U, 0xc8732a71f90ae831U,
  0x4ab631f1dd38e6fcU, 0x3227f437b94b64eeU, 0xa7bb751f7f989191U, 0x289a8872216b41b1U,
  0x219a61261b20ce26U, 0x67bedd8316a6cd27U, 0x450a42bc9ae993feU, 0x6bc2c5b40a1e734fU,
  0x8e4e1d464352cee7U, 0x79f319fa6145f692U, 0xf1f3dc69e37c976U, 0x4b7f10ad13cbac28U,
  0x1fa777cefdc353feU, 0xa1db8d8ad209eb4dU, 0xe67ed9538c7e6c7bU, 0x7c1dc863565a8ae2U,
  0xc23deda585281ed5U, 0xade991bc231af5e6U, 0x664b6865ddd4af74U, 0x64d6f1bc02c0fc22U,
  0xdcf71d371e27faa9U, 0x96eb60b050d50e4bU, 0xb5a37a20d3938983U, 0xfeb6dbb0b5ddea5eU,
  0x9846d304ea9882e1U, 0xf0258255af138dfU, 0xb027b447f8fcd167U, 0xdaecbc0af43414d8U,
  0xb9ab5e616cb46388U, 0x983c156cc9d4eb27U, 0xfad665abfbfb8fa1U, 0x63d3e44db5ce686U,
  0x3afaf2c7ce81d6b6U, 0x290e1d3f951c8496U, 0x55ff0d0be4a7d0a9U, 0x9d0b3fe6d00200afU,
  0x28e906cb94203345U, 0xedf3c01e69103a04U, 0x99fd31e51ec89c9cU, 0xa9259ac2e8a2854fU,
  0x895a501876588fd1U, 0x19334cf4af989887U, 0xd63b4bb06e36e633U, 0xe3ae6c6d1038a49bU,
  0xcda4962115404b90U, 0xc446e7da5b6b3871U, 0x44a6bd0c2d31ee3aU, 0xf15e61370892a1eU,
  0xdcd9c3c3aa58c89eU, 0x5dbedf5dc5b92f97U, 0x5204d6cd9246f2fdU, 0xc50fe2ea60304e21U,
  0x418b468dbbf0b6c0U, 0xb73b0df89a65e2abU, 0xc232993f07fe0dbcU, 0xd188fed9e192dacaU,
  0x5d22f5ff4d32818fU, 0x1d8ad720d347e662U, 0xeefae8fa25fa219U, 0x1a93c0ad00f2b69U,
  0xf621198fc38a90b8U, 0xc7cc96a95dd2ba27U, 0x469b600772ce87ccU, 0xf3cae601eebfe4deU,
  0x27e29cf343560034U, 0xc860b74c05c303f5U, 0xffffffb4e8e63a47U, 0xfU,
  0xffffffb1ffffffd0U, 0xffffffe200000000U, 0xfffffffeffffffbbU, 0xffffffce00000022U,
  0x900000035U, 0x0U, 0x3a00000000U, 0x34U,
  0x5ffffffdfU, 0xffffffc6fffffff4U, 0xffffffa2ffffffbcU, 0xffffffb7U,
  0xffffffca00000000U, 0xffffffef00000000U, 0xffffffdf00000000U, 0x1affffffcfU,
  0x23U, 0xffffffc3U, 0xffffffbd00000030U, 0xffffffb800000000U,
  0xffffffddffffffcbU, 0x3bU, 0xffffffd5U, 0xffffffccffffffdcU,
  0x0U, 0x0U, 0xffffffd10000003cU, 0xffffffdaU,
  0x3d00000000U, 0xffffffd400000000U, 0x4a000718ffffffb9U, 0x5feb50343e1ef4e4U,
  0x7f89c82652d955d6U, 0x5677f958ffa9ed79U, 0xd257b5c1f1eda0aaU, 0x479384ee27c52f91U,
  0xbd98bc4d92c630b8U, 0x49efe044ee2f4005U, 0xdc7febd55d3ca607U, 0x53004930f938ceb9U,
  0x7f538a6b3047ac35U, 0x88370dca7e05f91aU, 0x8cc8f51debc7d9feU, 0xede488c96501eb1cU,
  0x88f69fb615eaa1bbU, 0xea50e558e9cc329dU, 0xa815f34077eeb27aU, 0xec036c1635ea6a03U,
  0x24183eeed8f18591U, 0xf1ed26ba8d881baU, 0xc50c0600682b5658U, 0x5d26498f55660185U,
  0x2045d1d309dedff2U, 0x563591252dee696bU, 0xd8986941ce53a0bbU, 0xbb4daf14b4715462U,
  0x3318e80fb9aa68b4U, 0xfb55eb4c72f74f67U, 0x34a96f2dc2518ed6U, 0xb8132c6981f8e743U,
  0xe40ee633a72d97d9U, 0xad06a96be817490aU, 0x1c978f5d1cf8d896U, 0xa0671bdc8c531c97U,
  0x147150819291a933U, 0x3675401583657987U, 0xa35ee06766b6fa87U, 0x552e5c2f0509fff0U,
  0xc53b555d5a3ef8ebU, 0xcb6d2088b35d4c4U, 0x571414f22424d4a6U, 0x3429fda7f6029d3fU,
  0x41652ae6326f449eU, 0x756adf7cf46498eU, 0x489d5950d4bba18cU, 0x4aa43c719faa6e8U,
  0xcc5deb3ffaa4645dU, 0xee5a9fcd7f4bbe2cU, 0x5b56980fc54ab6dfU, 0xa497873415a7298cU,
  0x3fbabff24376cf7bU, 0x1a4bb72b6d13774fU, 0x1281d402eda4aa2fU, 0xbfffc12cfa8356eU,
  0x3103128af4da07ccU, 0x5d14b1ac32da0cc7U, 0xc3b52a16f76b888fU, 0x9741625af12e5d8U,
  0xda30624d92667b00U, 0x3ce38d513324c60fU, 0xcd21a76e6657ca29U, 0x3aee99aa45014e43U,
  0xb7920781ae63cfd5U, 0x1681ef48b18e4be8U, 0xcbb8a68977e7c20eU, 0xb5c76ce4a884f719U,
  0x2bdd7fc200754b0fU, 0x565d3602ece97d03U, 0x5ada453e7a62a2d6U, 0x36b6e1a82ce581edU,
  0x65da858a43d56a04U, 0x6afeb7ac2a639e54U, 0xc86eb392f6d87d78U, 0x88a5db121eee9f14U,
  0x1ff0b38736cdebaaU, 0xe08110be5b723b14U, 0x5c13e53c3abc8225U, 0x4fe5a260f29d202dU,
  0x7a262fa38c103f76U, 0xaa6e2ee50cab1fedU, 0x453ac8e362c1d4ffU, 0x1a0efd39d7f3b481U,
  0x920ea3a2fe155a0bU, 0x383dbf06d58fe354U, 0x2417d381bd154200U, 0x4626749ca99539d7U,
  0x5a4428d84b674e38U, 0xffa784fd615f3e8U, 0x5acdaf6067207a38U, 0x44950ecf326e1550U,
  0x287dd90fa5304afU, 0xdd4c5aa04f14200U, 0xa76fd4987a52502bU, 0x3ca6e6591d810243U,
  0x5f77a26e798d05b1U, 0x616f344d11abc538U, 0x4e7176a4d7cea823U, 0x3dfe9859fbca9445U,
  0x17811f576bd006a6U, 0xbdf2043e6aa2b5e9U, 0xe3a52d6bc061b0a5U, 0x19812c244fef3546U,
  0x6454e7d8362ed6c4U, 0x3d341089ccccf307U, 0x41dc9519e6b5e4bdU, 0xf5041cf567e6507U,
  0xe3a94b79feca59cU, 0xa478f7104630b36aU, 0x249c2fabf6290cfdU, 0x3371ba1059c0badbU,
  0xbfa26edcbff565f3U, 0xa5e586309a551e3cU, 0xdec442f28197ca5eU, 0x6814377fe57683d9U,
  0xabe0abd1d6b9bda9U, 0x9c84e19b9b6bd054U, 0x88f6fe1da2a2c10aU, 0x17ce07bb727ab921U,
  0x5a77e51b6099e905U, 0xb1ec8be0dcedefd4U, 0x19aaa6ee770651e0U, 0x2699e9448c59ae64U,
  0x2f40de029e0dc70eU, 0xd2028ba6a444481U, 0xa248822343b7aa41U, 0xe125400628a7db68U,
  0x6ce7910a84a253c9U, 0x42ad43fd5a3bbe2eU, 0xa0afe03f59fc408dU, 0xe178b841133e016bU,
  0x315fd78105aecae8U, 0x4d1884b277059b4aU, 0x66efbc437d377c6dU, 0xdc0d16bce6ec0c05U,
  0xefd76d9c3fa1ab3bU, 0xeed132847c37f78eU, 0x8feb0f25ff334373U, 0x66b8a5c3c29beac2U,
  0x6b72795edc5f0345U, 0x9eea54147a271177U, 0x176590ea88c73ab2U, 0x6de74c42f08606eaU,
  0x8a7556ddc210e9b0U, 0xe79a58337f51f290U, 0x670936604533cdf9U, 0x3fa601b63d5aecc6U,
  0x9e6c8594db382fb1U, 0xbea6f9ff4d091e81U, 0x8a8f2a97a2bc1062U, 0x46318495bb23d264U,
  0xc1f7304f6c98e04aU, 0x1b186f06d13126afU, 0x222b252e2f037b42U, 0x2b0e16d0cca050ebU,
  0x4216eebd2044696aU, 0xa0e7b0267f05f81dU, 0x1b4fcee3fdb6884cU, 0xcfc2f45adae96841U,
  0x4f6ffb440979b12cU, 0xa114d8304ad90169U, 0xe2295356b15d8ec7U, 0xd28acfffc5815479U,
  0xe8bed037b589091dU, 0x165b3936f694670U, 0x6fc6ee74eeaf79efU, 0x59df94660dda3344U,
  0x7c203a6b41ce12c3U, 0x798dd4638fe6a5d1U, 0x2c9981b1ef480434U, 0xb589193c3d30d6dcU,
  0xd2dd25f56bc6ca6eU, 0xb408dd6a3e8fec15U, 0x6600980ecff4c898U, 0x941efb82de173f9U,
  0x6514898a611b9ae7U, 0x1e372b1a932378acU, 0xd09babc3919a0feaU, 0xa6e5f8e38cbd4aeaU,
  0xe01bf44d70ff5dd1U, 0x66cf0b409e053dc5U, 0xed04550b277f299aU, 0xacef3038f23ac14U,
  0x2f7744a835c9647dU, 0x5ffff6f4c144dd5eU, 0x5c8e8b9c5eab1465U, 0x79125e633379e050U,
  0xbb723805d69521e5U, 0xfdde02c77d543f0eU, 0x1322534c937fbf78U, 0xcf731c8f99959fdU,
  0xf3ac9f55e0c22490U, 0x75ed1fd01e164425U, 0x2aa090f47bU, 0xffffffbfffffffe8U,
  0xffffffbaffffffb6U, 0xffffffd80000003dU, 0x4b00000041U, 0xffffffddffffffc8U,
  0xffffffd3ffffffd1U, 0x51ffffffdcU, 0xffffffc0ffffffb3U, 0xffffffe500000066U,
  0x140000006aU, 0x76ffffffa1U, 0x72U,
};


ai_handle g_forecast_temp_ml_model_weights_table[1 + 2] = {
  AI_HANDLE_PTR(AI_MAGIC_MARKER),
  AI_HANDLE_PTR(s_forecast_temp_ml_model_weights_array_u64),
  AI_HANDLE_PTR(AI_MAGIC_MARKER),
};

