/**
  ******************************************************************************
  * @file    forecast_temp_ml_model_data_params.c
  * @author  AST Embedded Analytics Research Platform
  * @date    2025-12-08T09:44:06-0400
  * @brief   AI Tool Automatic Code Generator for Embedded NN computing
  ******************************************************************************
  * Copyright (c) 2025 STMicroelectronics.
  * All rights reserved.
  *
  * This software is licensed under terms that can be found in the LICENSE file
  * in the root directory of this software component.
  * If no LICENSE file comes with this software, it is provided AS-IS.
  ******************************************************************************
  */

#include "forecast_temp_ml_model_data_params.h"


/**  Activations Section  ****************************************************/
ai_handle g_forecast_temp_ml_model_activations_table[1 + 2] = {
  AI_HANDLE_PTR(AI_MAGIC_MARKER),
  AI_HANDLE_PTR(NULL),
  AI_HANDLE_PTR(AI_MAGIC_MARKER),
};




/**  Weights Section  ********************************************************/
AI_ALIGNED(32)
const ai_u64 s_forecast_temp_ml_model_weights_array_u64[2468] = {
  0x0U, 0x0U, 0x0U, 0x0U,
  0x0U, 0x0U, 0x0U, 0x0U,
  0x7f28cdf98817eefaU, 0x2759fa1ace12b550U, 0x5eea085ad909f204U, 0x206c2051def8bed2U,
  0x318b3dd46e2e204U, 0x13e1e9a82ebd02d0U, 0xaf0cfbd838e60bbfU, 0x8f0ea404f332d29U,
  0x2cfe247fd7ff3b24U, 0x1c352acedae8e7fbU, 0x1f2d81d10f5d403U, 0xf83f3ed654aa41eaU,
  0x24e5010828c34c30U, 0x40ce816efe1db0eU, 0x35e5dd99eaf6bbd6U, 0x29929b9a9c01637U,
  0xedbf6cbc11d4025U, 0xa3ad8b8160a3d0eU, 0x3e08eca6debffc0fU, 0x41410648d0c70f34U,
  0x81ea0c29a2f2131dU, 0xfe23294003a80a48U, 0xd94b061bc72826f9U, 0x65d37cda2815eaeaU,
  0xfade2cb7d24112edU, 0x129b14d6bec4e30aU, 0xc01815fa3249ef7fU, 0x163ded371001143aU,
  0x33ce060000f2f302U, 0x9ade31cdcd0d7ecU, 0x1a0c074de0cae9c4U, 0x1ac4d740210c3815U,
  0xbe621d07f0c0d4fU, 0xf6ff3ef5c44cf60cU, 0xddcdcb3acad5fbfdU, 0x9ff74209460dfc27U,
  0xe501dbd15dc1d1e9U, 0xb642e465d4d7add6U, 0xbe3f34b9d8ee003dU, 0x200aebda2951e707U,
  0x1a10a9092c51a8feU, 0x3edc12b7c25c17b1U, 0x43d6223a0c3c18acU, 0x23c2e1be69f21d32U,
  0x2246cd0ed416381eU, 0xfecf5a14debb0c4cU, 0xcda63c7f20e2f2faU, 0xbcd6e5c04dc129efU,
  0xd8d50bbbf50bdfU, 0x22e26b144ef02dc7U, 0xf01d30410f3a44f1U, 0x17760dc2936c73aU,
  0x2b23e8620e052f9cU, 0xd23cf4d609c4f345U, 0x5171b9da2a330515U, 0x1405bdaf7ff9d810U,
  0x20ed0555fdda0befU, 0x11f64dbd0ad4fb51U, 0xff7cb4e300af5a9U, 0x1437fe3e24cb0711U,
  0xe3e538ddca0ae6c7U, 0xe31ab35d0900ffe1U, 0xd6ed11fa2437f003U, 0x7fef10fc2ce5ecebU,
  0xb0f40381c147d05U, 0xee14d62c214981d7U, 0x2f589608171d272dU, 0x1a111d65e6edeefbU,
  0xd059ce4d440c21d3U, 0xbc4fb054adcd4121U, 0x7a60336541db8deU, 0x2cf9ddf0f20222dcU,
  0xc40123d1e5f70ac7U, 0xb8062428faf03e46U, 0xaaac0dfbe006f3c4U, 0xdbf76984b18cd83aU,
  0xd93af88127fcf7e8U, 0xfa0767fcfcee3726U, 0x229af71afda70ee5U, 0xddce13fad92cd6U,
  0x342d06e52aedd9ffU, 0x1af2e5dbd2e71fe0U, 0x21bf0be1db6b7feeU, 0xd3293d16d0c33e15U,
  0x233f223cf0bd8e2U, 0x2806c52bf5dcdcfbU, 0x313dd2ca4e43033aU, 0xfe050a0efcba260eU,
  0x1cbdd21d38227fb0U, 0x16e6f1f651c42508U, 0x19ddce1ef6fff0f7U, 0x12dacaf80a040211U,
  0xdf17a6d001dd07f7U, 0x2769cad619cfa0cdU, 0xfadf0d083bc912d2U, 0xd7ea5f1b0a1af563U,
  0xd4ebeb17de21fed6U, 0xdbc7f32524d9c2e9U, 0x7fb432bf67e61617U, 0xb5a745fdbbd7f5a9U,
  0x1e2b15e9dcf7ef10U, 0xdeddefc0f011d258U, 0xd9fd21e8d7dde9e2U, 0x2f805e4161ac6bfU,
  0xceddd5f4ce32fe37U, 0xe7e9e80915d7d430U, 0xd205fdde1e2eddfeU, 0x34bc09ee13810afcU,
  0x538ee6136e7d0beU, 0x42916253712c9e6U, 0xbdf1fecbda2b1effU, 0xb721dcff1ce6f0d4U,
  0x21d3bcda1dda06e9U, 0xc2ea11b53f40c03eU, 0xd710bedd29294914U, 0x381804b0cb251eb2U,
  0xe69dbcf1c4d60ff4U, 0x50d15bef8feb8dfU, 0xc360f2639ece12eU, 0x21be07c3f4dc1a81U,
  0x291d105df4147f18U, 0xcf6e93ffa24e52bU, 0xf0b90618093beaddU, 0xcdc0c17e95e6945U,
  0xd5d31fe449270706U, 0x33f3a81255dd0124U, 0x6793a08164e0ee7U, 0xfee1fcfc47aed8b9U,
  0xe701fc0613cf1aa9U, 0xf125b5f5a70d0652U, 0x23c5c3174e1efce1U, 0xc756c834feedff7fU,
  0x100fc720f1d331aU, 0xf53ee4c6060bf6c1U, 0xd616f7f5cd29ededU, 0xd600ecd9e5f9ded0U,
  0xb205da16fae2340aU, 0x271e01f9051f8127U, 0x27b9e8fce2f943d5U, 0x28250a1336eee227U,
  0x7f32514dec1f817U, 0xfe00e32d5d110612U, 0x1e27c638e511d24aU, 0x1dd4f3510716ea26U,
  0xb08e90cff481101U, 0x521a9b52ef908e33U, 0xc4ddc9aed55031c9U, 0x28eb4e314018b706U,
  0xe2e4f202d06e0ffdU, 0xb9a969a7afc4bff9U, 0x122d6321f651b27fU, 0x24f871e234d40d23U,
  0xeb0d4330cdd3cfa9U, 0xf4e9111bca201dddU, 0x14481cdb1404e0e9U, 0xfd5f2f7ed0bff07U,
  0xf181d0cb09cad91bU, 0xe2571508e513d628U, 0xefbee2f6e7270ed2U, 0xd22ad22eeb3f37ffU,
  0x15060b37d6be39dbU, 0x5a20df37ed0f45U, 0x397ac63a01ed29cdU, 0xd7dd16d5f0023c2cU,
  0x13d7fb44fbd6dacbU, 0x19ec1b50d2f4ed05U, 0x2467f2ce8df1bddU, 0xdfbed331f5f9e557U,
  0xd72f81dcde58b809U, 0xe03518ebbdf7fb09U, 0xf023f8bba054ecdeU, 0xe1b501f2e0f22236U,
  0x3d0d6e527e70fecU, 0x34e5a3e4e0652208U, 0x2d08d71f0cdab9c3U, 0x2d39eda2fb5fddfbU,
  0xe03806f3f689f103U, 0xfe8e81b2f2d315eaU, 0x2ce66d049d9eb4f0U, 0xfe4ffa3af90ce3e4U,
  0xbdc2e3c33ebd27bbU, 0x2cce4650d816da17U, 0x36a1291423b6d5abU, 0x9a56c6c10ad3bedfU,
  0x3c0dad1422ce696cU, 0x8b052228b9c7fed6U, 0x5634f90e153c1102U, 0x4f1245182afaea29U,
  0xe6a9e7b5a97f1513U, 0x23382f2ad3f1f9c8U, 0xbe25bb1ffff4dde1U, 0xdce7cb3ccceaad0aU,
  0x774fd4530e2467eaU, 0x10a902db3904ea24U, 0xd8d81e88c1638dcU, 0x6c18ff59c9032710U,
  0x71ee001daff6dd31U, 0xcf0d4847ed5115e7U, 0x512530c7ff3732f7U, 0xd5e8c2a9473742f9U,
  0xe9ebfcd3facf1ff1U, 0xe6f62921e4cefd0eU, 0xeb0de4e607defdc5U, 0xe917b5e6175412c6U,
  0xbafda42004292519U, 0x28be0f1cc11ef935U, 0xfd81c5c9c4d339c2U, 0x1bf1cd060c32e71eU,
  0x145edbe11f242abcU, 0xf11438caf545c6d6U, 0xcd21212648f61ae4U, 0x9e3ac712ac5c11dU,
  0xd4c3f0de03e7d5e9U, 0x7f233ee6cd092429U, 0x3746088f0ae7f52bU, 0x43fc2615fd940c0fU,
  0x9f5cea731f209a1U, 0xd56053140200a8afU, 0xe1f6cf02041619c4U, 0x5e391cc8f7e5484aU,
  0xdf126607e1bf055eU, 0x93effafccc41f7ffU, 0x14d67fcd270e38a8U, 0x1670375ddac6bb06U,
  0x301b1e10e0de1b24U, 0x35f112d821a7effeU, 0xf4e9c30decf1c02bU, 0xd5db1deef012e447U,
  0xf9cdb74fe3e8987fU, 0xd1dcee90dd62600U, 0x15cae32633f6d73bU, 0x194209fd3eada7fdU,
  0x21e1f9ccf3412b4dU, 0x3306bfe11311de66U, 0x2ee64f46ee3429c5U, 0xe2e00742fc09ff3cU,
  0x69efd612f61322f9U, 0x8112edf0daffe90eU, 0x5a17d4f934164456U, 0x299c3226e3d3aac8U,
  0x2700192014052f0bU, 0xef7f4dc8e1c70033U, 0xd9d9fdd1c91c4c1bU, 0x3649034552191010U,
  0x3606110ad6f40bceU, 0x113bb52013e9163fU, 0xcbeb4ce411e63139U, 0xec2afff3d0dee8c6U,
  0x16637de1b547f10U, 0xf370ce3300d2519U, 0x163b3449da0b4112U, 0xe73417e4f2f5d031U,
  0x2ae50013d8ff3e31U, 0x2be3ee2125359eefU, 0xb4e20aea0065c601U, 0x4911c0f20bcc2de2U,
  0xfccc263e027ff9f6U, 0xbe28e66919f9f534U, 0x24c3f83bad0ceb1cU, 0xd06eafca5d161bf3U,
  0xe1b51d4dc913b7c8U, 0xf13b323dde33f337U, 0xf742f60874e6d6ceU, 0x2202ef1ad2db0c04U,
  0x91dad129db16cd14U, 0x7aead913c816f00aU, 0xfe143596fc0c5a08U, 0xe5d823dbfa31f30bU,
  0xecf21812ef301bf3U, 0x1d420c03ea49ff81U, 0xf3bc48e54fe63d14U, 0x3ec0dbdb24a93539U,
  0x37ff8ec0c190632U, 0x21f24220251ab400U, 0xd1ea061b0a3a1305U, 0xf03a3459e7fb4718U,
  0xb1bb0c49b3e11a97U, 0xb7f91fbc7ddee6e9U, 0xf6eb2c152e142437U, 0x11e419c9c2f4d72dU,
  0x2c2b46182ef6c3f2U, 0xf0d0eb34f53f3634U, 0xe1211aa227b1fbf3U, 0xeeb07052501270fU,
  0x4733ffe3d1c121d7U, 0xacf0ce8c408dfffU, 0xdede8111facdcdc7U, 0xf849072130fcdd07U,
  0x390b2ab802ccf703U, 0x62f0f9c719ddac2aU, 0xfec3c73a210f190bU, 0xf6c1fbcefe18f204U,
  0x1bfadaebf64825b3U, 0xfd6008231f05033bU, 0xf03ef714de23fd81U, 0x2e450bf99bf22b40U,
  0x3de51df71d0324daU, 0xdcf741ced1380903U, 0x2d519acdf180914U, 0x2719f4caf003ad07U,
  0x5d3bf341cf9e69bU, 0xd9a7d90508253110U, 0xde07230d1c7ff729U, 0x6d01909dab3cc31U,
  0xf52bfab4deb7eed6U, 0xc7d9fb5d920b2f07U, 0x2514e43bac9c2e07U, 0x6d05c197fd0e3c7U,
  0x17f7dd56d3300611U, 0xf93fa5f83c48fc16U, 0x31fd441bdec503e1U, 0xbe26aea3bb936e1U,
  0x18eff65ef5a9d138U, 0xfd3125f13e4ad316U, 0x35eb0ad58b6ba76eU, 0xeff3f070118cba75U,
  0x35e0dfefb533601U, 0xd0b0f5e11b31815cU, 0xf64bfee04afc4956U, 0x57f711ca2ebc0becU,
  0x8a41d641d021c867U, 0xaeb0d8eebcbb7fceU, 0x6d9befa3eef1c0eU, 0x1700c2f6d335fad6U,
  0xfe6aa7d74fac281fU, 0xb3124ca7264cc02eU, 0xa2443270bfd0e09U, 0x534e1640e3e3e63aU,
  0x33f42bf353dfda3aU, 0x22061447ead9eff8U, 0xfb5801071a04ffdbU, 0x42d9b94d0cee9dcU,
  0xc4fe0cbbbf9bc9e6U, 0x90eceb9b250e145U, 0xee90f0781fef7c7U, 0xb1d0caf921f815e8U,
  0xd9182dd706d00415U, 0xd3d0ee5f6124aadU, 0xafcfdcf060d390aU, 0x32e9acc801fe0205U,
  0x8f015e2392281c8U, 0xa7dc1fe63605dfe8U, 0x14d9dbd1f0a5cbc2U, 0xf813f5ed1df313c2U,
  0xf627eceeb7f6ddfcU, 0x2141384327b10541U, 0xf7cc34fd0f8e0036U, 0x2b98eb532129034aU,
  0xbf71cee7c0f1f63dU, 0xc929e524f32419b0U, 0x205d210f487f94d7U, 0xd79009c0dc18cee2U,
  0x26e367e6a8ef0c16U, 0xc4f7b0f45cf8ebabU, 0xfdc2b94ee9034ffeU, 0x2705f7dd66a43a7fU,
  0x5bcf5dce4f300b7U, 0x3bd2c3aedc0120e0U, 0xc6e740dc0c032525U, 0x45eadceee84ce409U,
  0x1081f5ed0af1fb3dU, 0xdf150d11e51b10d2U, 0xf8be330203fb5610U, 0xebc30d6ceb1af9f6U,
  0xdfc93b0b40c21223U, 0x16e73bc4e817d5f1U, 0x27ddbb69f13819ccU, 0xf24ae1d61cc73b34U,
  0x7fffe528121730aeU, 0x171ec405e7e5061eU, 0xf006f6261a4c1563U, 0xd9d714f844f32303U,
  0xaf040c1500c52bf8U, 0xc01d243f3940230eU, 0xfd07e9e5d7e8001dU, 0x41e6e3192307d504U,
  0xf94b45aa7fc7e01bU, 0xb92ae7e3d2f32932U, 0x70931e05d71f813U, 0x342f08f333dbddd4U,
  0x29c534fb4a18d922U, 0x33063ef5f417fc5bU, 0x36c70421712f17f2U, 0x9de06ab5253f278U,
  0x14499b4de2fd241dU, 0xf5fed2153d56e86aU, 0xefd33a0bff1d3458U, 0xee492807502a172cU,
  0xf533e1f7e7258129U, 0xed1ac00edfbb04feU, 0x8fefc239c4939fdU, 0x3eff15cdc8d4e92aU,
  0x3006e24efe40ddf5U, 0x8b49afe6aee681f7U, 0xd10d1c4400981b07U, 0xfce2e2e5c202d860U,
  0x1819040cb73b15e0U, 0xeff2c3566599a006U, 0x711515fafe2f251fU, 0x1ee005c530f9e31eU,
  0x2742c94e12fa0915U, 0xe314462250be8e20U, 0x1b020607c5fc783eU, 0x9e3b8102e7a131faU,
  0x4097d8f4501c750dU, 0xd867103004a757c4U, 0xea1d1615c839fdfdU, 0x14ee562770dbbcf5U,
  0x57c0096125281827U, 0x3dd84037f80efd47U, 0x3e081111331f7716U, 0xf371e0cf0eac37fU,
  0xddf7dd2a08080407U, 0x52e21d3644110c01U, 0x590843dd08fdf52bU, 0xf3271eba853eca9U,
  0xfa47ce1bf7cc1d04U, 0xff0a14d2fad8cfd8U, 0xd5d71b2403ee1d4cU, 0xcffc04cc1e3e0f3fU,
  0xcb163b1228e7e2c8U, 0xf2e9090eb427de1cU, 0xc1e7bde25741280cU, 0xc1b67f4916544e9dU,
  0xd409eee51544c719U, 0xcf5e08fc43d80312U, 0x79ea81192220ca28U, 0x11fa3611fd740d2dU,
  0xfabfecdfb9df15b7U, 0x20eb0029020c2addU, 0x35d8d6e6d51e1d23U, 0xe3e83aff22b0340dU,
  0x612ca81a3464bbccU, 0x4019e7047cae27f7U, 0xf10e8a04419152d9U, 0x2382c241ddebb08U,
  0xc9a01cff7b20eb25U, 0xc7fa81341710e510U, 0xd82bca2d0ff857edU, 0xdea4bf059bc700dcU,
  0xb51add270e253715U, 0x7f0ff727a0420412U, 0xfff3e149d0f12c64U, 0x38e62710f89feffbU,
  0x4100fb04e52e0eedU, 0x2aaf90e02daf503U, 0xff39eb1c59547e0cU, 0x1d2d15ab25daaed4U,
  0x1a03eea5c8e24ee8U, 0xf6eb1047c6d9f0f0U, 0x160905db3a1718efU, 0xe144bdf214ef232cU,
  0x3f0f16bf0ee9f406U, 0xcae7f34d152d0a30U, 0xbe1dea2629d0187fU, 0xf9364b81e4e64c1fU,
  0xe4c924cde80489aaU, 0x24f4fc40eb160882U, 0xe009e915cd1df403U, 0x11070d1e93301ed8U,
  0x48340ac54008b5f9U, 0x692267160659ac1aU, 0xc4b2d640b4f7c508U, 0xc9337dafcf081f7U,
  0xd1c8380826fdf008U, 0xe902d2ae0021f5e1U, 0xb15525f62dcf0ff3U, 0x23a2701de0d2b06U,
  0x3e2c2b90b1ce10eU, 0xf1f91bde027f4625U, 0xda02def4fbd4fbc2U, 0xb51f160646ff1b28U,
  0x1718d9e6a04b0c24U, 0x21ed14d0fd570251U, 0x1fbddb26edf82b5bU, 0x3208fa0ce7ca0a16U,
  0xdcff56f9057038f7U, 0xfb14dc04eef8c91bU, 0x3eee00004415e67fU, 0xdc0e02f92fe7c025U,
  0xbcb81e90da2f528U, 0xe2dc44e0d205eb1U, 0xa8eb06e857ccb4d6U, 0xe0fbf1dfc0f913e9U,
  0x46c3e4fde8e8ded7U, 0x220ec1aec251440U, 0xeaad28c6efd89bc2U, 0x306fe4bf7313518U,
  0x20fb0a1b12f129d4U, 0x173b410c02c101d7U, 0x40d33fed25a4a00aU, 0x212e0af02a9f7ffcU,
  0xfd3d98fc1923dfc3U, 0xf548f4f10c42fed1U, 0x3f0e232fd4261e53U, 0x37fb882bf31d2db9U,
  0xe3456b26f2cbd216U, 0x648f42905234cbfU, 0xb28f5d1a40650ceeU, 0x4eff0ceec7c5cbc1U,
  0xdef0b52600f33002U, 0xd7dbab7ab344f8d3U, 0xec26ea12c7811a07U, 0xdb131d0520081004U,
  0x4b2913fba0284a2dU, 0x193a15e00739e0ddU, 0xece7b1b52f15fffaU, 0x814e0d2551f6b6f6U,
  0x191400f5b90703e5U, 0x1429fc292313eed1U, 0x41302d36283248e5U, 0xeefc0e150eeebfd7U,
  0x0U, 0x0U, 0x0U, 0x0U,
  0x0U, 0x0U, 0x0U, 0x0U,
  0x0U, 0x0U, 0x0U, 0x0U,
  0x0U, 0x0U, 0x0U, 0x0U,
  0x0U, 0x0U, 0x0U, 0x0U,
  0x0U, 0x0U, 0x0U, 0x0U,
  0x0U, 0x0U, 0x0U, 0x0U,
  0x0U, 0x0U, 0x0U, 0x0U,
  0x0U, 0x0U, 0x0U, 0x0U,
  0x0U, 0x0U, 0x0U, 0x0U,
  0x4a31dff0bd41f50aU, 0x110efc251e07f0a2U, 0xe9f5c4bce2feede4U, 0xf410ea181af0bf3aU,
  0x2c0ca523fde3b907U, 0xcfdffbed159ddfebU, 0xf919fe0edbdcfff5U, 0x23e919fb0aaf7f8dU,
  0x16b20220154a81U, 0xfc25e902d2fff077U, 0x16f70c3ae220ea2dU, 0x14ec0927de2af5b7U,
  0x55d51cadd9d14113U, 0x82be3c7bfdce15eU, 0x30304a3038042ee8U, 0xa1e6132cb947c80cU,
  0xe43bac2fe1e8b905U, 0x2ce1f438562b0aadU, 0xe5fef4961bbe47bfU, 0x4fd7111c26c19d26U,
  0xf53be51a0a327e3dU, 0xa8071e362c297dd8U, 0xb5442ae8f781180bU, 0xda0df8d91cba6b99U,
  0x22ed720802f80df8U, 0xfce0df22e9ff0020U, 0xeef90b1719e681dfU, 0xf5ed0715f3edd217U,
  0xf9d7fdd6df2d1202U, 0x17ead61d360bf52bU, 0x2401f6ebefd400f2U, 0xdd220902d3fad812U,
  0xdbd516e74b0e1b04U, 0xfee61a06e7f2e542U, 0xfa05e15f060b081fU, 0xce1de1505097e18U,
  0x2bda17e4e7e91108U, 0xea14e508f2fff716U, 0x7f01ebfefafef5deU, 0xdff4d1080f589948U,
  0xf51f16f37fe30d38U, 0xfcf1e7c1bef2e324U, 0xea0e016bee1d2000U, 0xfff5f0b1e6043b15U,
  0x22d1e4bdb0dd1b16U, 0xfc3af3d61120d33bU, 0x77cdc3063c222b08U, 0xe40ac9fbf7648352U,
  0xe43217d29844ba00U, 0xf223cf3b120629a8U, 0xcd0f57d10e0422d2U, 0xb81703f34c31902aU,
  0xb6ff3ef6d2d1a1fU, 0xcbcec3c1e0a94207U, 0x81c718d1e1fad926U, 0xe906d1f014b968e9U,
  0x2305d919bd1b0d1bU, 0x11d4fa2a2b213d81U, 0x29141dbc0f060dedU, 0xe61d390d010fcd3aU,
  0x111b324827f10314U, 0xcde2150f0ef209e2U, 0xccf91afceb201948U, 0xd94a1f10cda44faaU,
  0xfceefb00ccffd7f1U, 0x63dbd0c3fbe33bc5U, 0xef1105609e5e127U, 0xf62c2420dfea7481U,
  0xeff2d8e40ef7292fU, 0x19fbf9e80ef99504U, 0xf50cf6d6ec120006U, 0xd4fcca9b1d23eff9U,
  0x161fe9219729ff11U, 0x6231f392d13bc86U, 0x20e915ceefdc00cdU, 0x133ee3f803eeba11U,
  0xea5f35281925f42dU, 0x2323120017ecff00U, 0xc00500b3fafbe6dbU, 0xef211aeafbc07f96U,
  0x1205efe4b01ad60dU, 0xd0b0a4b1af32d83U, 0x2909289920040be3U, 0x1e14160af92b8b0aU,
  0xfaf6192c0f2bdc03U, 0xe80405011df4e7e8U, 0x810cfbf211e2f2f9U, 0xe0da32f10cab7cd0U,
  0x1938a233c918d0c9U, 0x3203062a26e6188eU, 0x7f0f3b942caf734U, 0xc1cd0f11bdbd03bU,
  0xf6e144c930f3e806U, 0x13fbe3b6ff2318d0U, 0xaaa2d9c3bbc6ed1bU, 0x2b117f590bdaefe6U,
  0x1f4e11e0e713fcfbU, 0xdd012e0e18fd19adU, 0x160ddff916d407edU, 0xd083df82205e403U,
  0xf20116f1200cfdf4U, 0x8ca12d8150f1dfeU, 0xda06330502e3ccf7U, 0xfee7e4f006e4f581U,
  0xfd150e087f0f19fbU, 0x14faf8dddee9fb53U, 0xe119f266f909e120U, 0x1bf00defedfa34efU,
  0xfbea0cffd8eb15e7U, 0x1018f9f9e5f0f7f9U, 0x6523fbf6cb1d16ebU, 0xf319d11e354bb445U,
  0xd4140a0fae11eef9U, 0xff1126fe190eef9cU, 0x230d0bbb1af609d5U, 0x1312314ffddd9e11U,
  0xed06fcf9330b061eU, 0xcedf32f30ae8ea09U, 0xb4ebe6f2fc02f81eU, 0x10062d1006a77fc6U,
  0xc6e2cbe652f32c17U, 0x20cd08ebab22d161U, 0x28dee77319349331U, 0xfceee4cfdc1135d8U,
  0x431bebeff4180b10U, 0x27c01bf3e6f62fe0U, 0x5f06dd0721fa2ce8U, 0xe03d62315638152U,
  0xebd111da41d9e1e1U, 0x140136dff40cea1bU, 0xcfd61f56e717f928U, 0xb15fff2e6c91df0U,
  0x20c9eb0911e7fad1U, 0x2bffdbfdff1d1b20U, 0x7f162214fe2734ddU, 0xe406eb01f651ae64U,
  0xfbfdf9ec951a1e10U, 0xe2ecee0df9f822a4U, 0x1ffa10a9d5ce20e1U, 0x2b2602051ae49c08U,
  0xf30bf2f116eee5f9U, 0xddd9ee18d7110abdU, 0x81f9f0d6f3effa05U, 0xeef22bc7e19767ceU,
  0x17f2fd16601104f5U, 0xf50eeb0efe1f0072U, 0xcdc1b97f0030fc04U, 0xfcf6f0cbf0fa3bb3U,
  0xf4d9fda91313f513U, 0xb422ca27fc3ee90fU, 0x721be2fb07652ad4U, 0x14e0e319fe298452U,
  0x411719a8a90e15d9U, 0xc8e9420a18effb15U, 0x45eafc031015ffebU, 0xf5fdaa9bf60804ddU,
  0xdd8102fc2cfd3251U, 0x1166c1a1fe815e4U, 0xea0933eb0dc53c2cU, 0xff5acb5446d95e1dU,
  0xbf20835030e21feU, 0x145a161e100c01faU, 0xeffd20e1c26dd248U, 0xcfb763ee1e18390bU,
  0xd6d818ddbd00041aU, 0x16b61aeab37bf205U, 0x32d5df110cf91a81U, 0xe40cd0ca15e03328U,
  0xfd2f04f9a91c0711U, 0xa2bfc1b0be3feadU, 0x3ae8fca510e6fbd1U, 0xe8f903110de5ce16U,
  0xe40f20282ee509f4U, 0xedf8f6f42be731f7U, 0x81010602f9052206U, 0xffb32e3ecc06dcaU,
  0x1f18f2f68e10e004U, 0x15ebed3a14210d98U, 0x1d1311910f0ff7c2U, 0x2909f9260308ace8U,
  0xe61e0c0305bae705U, 0xf5f608060e1f351aU, 0xced0fbf2e706cc35U, 0xae418d30ac67fbbU,
  0xff1ddc049903141aU, 0xf3e52a3a56f9f8b3U, 0xf05819b81fef08f3U, 0xf90b1ee2cef0c30cU,
  0xe322ffd719f901deU, 0xe4ec0bf137cb16deU, 0xaef41edf0fe600feU, 0x15ef3dd1e8ac7fd8U,
  0x82de70fc817d329U, 0xb19221f01f44bb9U, 0x2c3305def90203f1U, 0xdb0fca43efd3cbf7U,
  0xf210fd14081c1100U, 0xf30f0a0710ef22ecU, 0xb6c626f9fcdcdaf0U, 0x16e61706f48150b0U,
  0xd8c911250d7fc3e7U, 0x9f3c6b31cf32f2fU, 0x2c2cdafdd1f9e8e9U, 0x10fad5b10ae9fd4eU,
  0xd318fdda26d4ead7U, 0x10bf313a011cbb47U, 0x3eec37f6600022e5U, 0xbad0190e5132bb29U,
  0x1b9013537818e5fdU, 0xa14f8fcac2ec434U, 0xc03ae33d00b0f140U, 0xf10214bf4c096d99U,
  0x58aff5dfcee5270dU, 0x33f80338d9e3cf46U, 0x4c0a1414080838f8U, 0x19fed405ea5baa7fU,
  0xefed04e78c25ceeeU, 0xe112dc112d1c0f8aU, 0x4100f68117f40a06U, 0xf3f61cefefedacfcU,
  0xb42ff8270af30c23U, 0xf30ee1c606ea0ddaU, 0xb71efff0fec3db20U, 0x2f93ff0d9837abbU,
  0x34fcec10811bd9daU, 0xf2151c0df60c1daaU, 0x2925f0a3fb1219bdU, 0x15180d05faf8a136U,
  0x14190b112d41f6U, 0x4ece9ea1bf002bbU, 0xabf6e514fe09e61aU, 0x21f41ad4f7c269c7U,
  0x1422ecda870fe3f7U, 0x19e3f3301704f3b5U, 0x903ff81e5eb1df6U, 0xefef152e01eda40eU,
  0xf6090b24050d0417U, 0xf2d0fde22a00f5edU, 0x87fe17d3140af2fcU, 0x251326f40aae47deU,
  0x2a1bd3038111db21U, 0xe521d9fc1cfb0da6U, 0xe7e8f3b624ff0f01U, 0x11ed1e2b02e5af0eU,
  0xe8fc150324fcee07U, 0xd04291426ba2ecdU, 0xa9d8e30614f2d306U, 0xc21112e1f7ab6ac0U,
  0x804fe08abf70b22U, 0xf223f44f0f1ff681U, 0x24241a8deb19dcecU, 0x3f90a03218bc103U,
  0xf71c1dfe270ffde9U, 0xd90cfcf310e7f8cdU, 0x870b1f000f02c346U, 0xe9ef01fd25ba61a2U,
  0x2a20fae0bf39e80bU, 0xe0e239261805fe93U, 0x2a160aa2251c19f7U, 0x1f0e101636d6b5faU,
  0xe02ee611140efa29U, 0x907ea07f3e02004U, 0x86e7ff1bfef40315U, 0x63157c117ad7fafU,
  0xecda180773e31ef8U, 0x291417fcccd6055fU, 0xfad8ba7ffa1afa11U, 0xf7ed13d104072feaU,
  0x24fffef7dfcf1f06U, 0x4151d1906fbf908U, 0x64fc29f9fe0aeee9U, 0x1024e900025c9157U,
  0x17f7dbe3bf30dc2bU, 0xe6e6f80128eefbb7U, 0xf91520e7fadfefd4U, 0xffda06011de6c503U,
  0x150a21362a0d30feU, 0xed15d4181a20fcU, 0xa40cf4000720c101U, 0xf05705f1857fa6U,
  0x22e4d9d1a320e71aU, 0x52cfd081d0eece5U, 0x222250beae9e408U, 0xfa2c300502f0ab13U,
  0xd10e0c4616e81bf4U, 0x8508f90312061be8U, 0xa5bbf702ec9ee7faU, 0x2e1e29000a173181U,
  0x3cf91c2481e9ce2fU, 0xe4fcef0632f00993U, 0x4d1ff1cfebec05f5U, 0x18f3173c340fb10bU,
  0x32af2f10524d5f5U, 0xd4101cb6fbfe3edfU, 0xa71124dcff072104U, 0xc0c2d0bfede66dcU,
  0xea220fedbf27f1fdU, 0x8f9ca0d3b0505b2U, 0x2613f9b9071b150aU, 0x142c0d0b17e7ccf8U,
  0xcfb0e08fb2c00e9U, 0x1f7f31514f719f2U, 0xc1e008eb0dfbe502U, 0x1d1c1403decb7fafU,
  0xe514e4bd9a02c349U, 0xe23a1e2c0ca20200U, 0xc200fa617e60f09U, 0x903240d46fea5edU,
  0xc3f2d041608f71eU, 0x11effa1e3205eabfU, 0xbf10ad7e1053752U, 0x2f32e030bd24c81U,
  0xf4fae43919265304U, 0xe5ce20d5e7e33d41U, 0xe1a8252cfe1be510U, 0xd9df2af428fa28deU,
  0x30e3f316001208beU, 0xc48f0f4f909e74dU, 0x7f22f2d73ecc0b0dU, 0x46fbe2063149b55bU,
  0xdab1f8e97ff03db3U, 0xf600f1d4cd17f22aU, 0xad10c076eb1feddcU, 0xe2af1611e02e6ee9U,
  0x5e1ffeff421d8fdU, 0x392dda1bf10b0007U, 0x52d526d3110b340eU, 0xf60b0209355caa31U,
  0x1d2ed2eca0f708f8U, 0xf9e705d7100af5a2U, 0x2c180dbb15d3fc01U, 0xfaeafe0b2eefa101U,
  0xe34640131720e110U, 0xc9fedd132e00e5ecU, 0xbadf3032f3f0e2fcU, 0x90c07f0f5b37fe6U,
  0xd7f50a2d53dbf105U, 0xf5f4f7f2a8180045U, 0xf7e7177fce200c3eU, 0x13eb03eef934570dU,
  0xf3d813b9e3def601U, 0x20edd22c1feefe38U, 0x513bf00cff0203fbU, 0x1d09f8122335b134U,
  0xfbece3f3903feb50U, 0x5fcee39141508c3U, 0xfb0de0c6320729deU, 0x282bfb34fbdfa634U,
  0xd71633042704deedU, 0x15050aaf141eeafbU, 0x8107331ff2ce1225U, 0x2524e9dee9967dadU,
  0xd510182a62fa1fe6U, 0x16f7f3e0cef1e970U, 0xc503f97cf41de427U, 0xc021d9f8190a4813U,
  0x12bfebe3e6f3ef33U, 0x81d0bfbf13bfbdfU, 0x7f301a1d170cf018U, 0xde0014de13739e4eU,
  0x283107d7a413e83fU, 0xd1e0d130903229fU, 0x512e6a0fedc0e00U, 0x7f30d03bce3c214U,
  0x52924043d2df020U, 0xeaf00d13cbfc1411U, 0xb51104f7fce4d92aU, 0x161638ece6e27fb9U,
  0xdfd711ee68143feeU, 0x4df517fced192466U, 0xedf2f26fd5ed0434U, 0xf3da12db1b0456feU,
  0x6ffc6c2f411f508U, 0x322b1b00310d0111U, 0x6f06d13ad42308f8U, 0xf0ece02af17f9341U,
  0x12c317197ffa18feU, 0x21eeffdae3f0dc41U, 0xd07000cee010924U, 0xd7f8f70ae92b03d7U,
  0x21df08d042e4fb01U, 0x1417f0ea0f0b0cfbU, 0x5609e9ff14f404e1U, 0x116cdf81c24ca19U,
  0x224c2cf3ed30dd1bU, 0xfcca0240c922baaeU, 0xdbbdf6acd30e2823U, 0x29feec1e2f36e1ceU,
  0x9d41202048434981U, 0xc1ef77c619e1dacaU, 0xe5b825fae5cf023aU, 0xd3ed65f0c0de5bc4U,
  0xd9e2f4e7f7014535U, 0x7cf5f4cccdb29cefU, 0xcf07d2fb98fcfe84U, 0xd06b5cf81145269fU,
  0xbacb13d2b7280700U, 0x28fec80fc0003d20U, 0x4b3cf96e27d9220fU, 0xe3d5047627e2907fU,
  0x14e7f5d86fd302dcU, 0x2efd1de7c20d077fU, 0xecfbed59feeee126U, 0xfb1909f81e0f6916U,
  0xedf4e7d1e3e805d9U, 0x524eb05e30c011fU, 0x6419e1dc542300ffU, 0xe41ccb280231b247U,
  0xd132ccce2d51f00U, 0x4633cdd8fa4015f5U, 0xf12a4509113213cfU, 0x26e5e6fb2f1f260aU,
  0x26f1fdd235d61aecU, 0x16241215ec06cfe1U, 0x2a2df9ff7fe916bbU, 0x340e3af507dcbc03U,
  0x1becf4225bd94700U, 0x100104ccccc1d569U, 0xec1bd859f753ff37U, 0x14fcfeef0b115604U,
  0xe8b50b2cfb230bU, 0x24f8d5201329ed3aU, 0x511bfbd8e1fa09faU, 0xdae7d42fe2588165U,
  0x38f328fc9e0d10ecU, 0xe06e60b26e00cb0U, 0xfaee26a807f01c14U, 0x3425130aebe1c21aU,
  0x53e251a031efb2bU, 0xdee50ae01aea28f6U, 0x9adc170a15f50427U, 0x1bcb2af326817ab1U,
  0xee075e3141f727f9U, 0x19d025e4da3a107fU, 0xcb16e479eb0a1020U, 0xf9e600f2010a32d8U,
  0xfbde1723f9bd011fU, 0x3015cd0adb05f8eaU, 0x5fffdcf4410d2ce0U, 0xf6c6d03ff3698e46U,
  0x43e711da200f00a9U, 0xcfe1c42fd3d8ead3U, 0xfa242c5e1c2e6bfeU, 0x8104082ae9ac0aeaU,
  0xd4f1ccdcacee7d9U, 0x1ee95236f53df118U, 0x94bb2fef9d506f1U, 0x9e5e63ef636f81cU,
  0x52b1ae74a17edd8U, 0xfe32fefa7f09edf0U, 0xeef5e15398efb218U, 0x2de6f533fc3727f7U,
  0x3b22fdf80bd409f3U, 0x2ef9e6231146d3e3U, 0xf412c51f26c30060U, 0x13f4cfeaf1efdb71U,
  0x16090516e77fdfffU, 0x352b54b8ecf4d4fdU, 0x3f952de241b11dfU, 0x1db8fbf9ebf903f0U,
  0xd19fbf5ca11c4f7U, 0xcbea08fd2e072ccaU, 0xc81037c5fcf1ef38U, 0x319ea1cb3eafdd8U,
  0xebf416e72b0daaf6U, 0xcb8df8e0d1dbe9f1U, 0xc6db09c5b33d970fU, 0x6396507f91b3a2cU,
  0x120c00b219bb044dU, 0x187f153dec0ce6d4U, 0xe60d2a14f41916beU, 0x32b4c824c419e21aU,
  0xde011114240c1dd0U, 0xfb0ce813b3edcc48U, 0x21d0454f8dbf83dU, 0x8ef13ecdd2f31ffU,
  0xfdcc01106fefde8U, 0x1233071eed2a0711U, 0x5a06fe191e3315f2U, 0x1405ce05131a8152U,
  0xf3f60f2566f8280dU, 0xdc07f904ccf5047fU, 0xe8cf1459fbe90eeeU, 0x15f015f8d1057ad1U,
  0x3704b0e3f7d60f00U, 0x2efac8f51031d7e7U, 0x7cdf1b3520fef5cbU, 0xdd44f36e2b6e9669U,
  0x2925bc0ecbeaad09U, 0x44ddd4734991ebc7U, 0x46fe5c0d16dd2999U, 0x4d941fec439ea54bU,
  0xa4fd1e275230c034U, 0x7e221e19a8ff5c9U, 0xe4a1210bfcc2ca3bU, 0x51eeefe393c17e81U,
  0x6020b0864f00b0bU, 0x19f705dee425d17fU, 0x18dbf46b05ff0816U, 0xd5f328e5ec064d0fU,
  0x34dfefe7e5fd06e7U, 0x2322f114ea11ee0bU, 0x57f110f0e7f90e02U, 0xe6dae80c2340a040U,
  0x2af7eaeaa2260f2dU, 0xf80ffc173c0e0581U, 0x1ae824a620e609ffU, 0xfc03e93fff099523U,
  0xbc16fbf9fc05340dU, 0xbe8ff19f9f002deU, 0xa5f82df20c1af313U, 0x20ec21fbfec270b6U,
  0x758154c531db05faU, 0x3f831b05aa7f1baeU, 0x72810f3245c4ea72U, 0x157fd5feb59c27a3U,
  0x3fdb682525404687U, 0x7f4664337f859854U, 0xd49037b0d4942bcaU, 0x732415c09c81f034U,
  0x91cb81284216e46cU, 0x2b381ad02ba74e2U, 0x643d3b810ab00defU, 0x7faed3d7a5b95d8fU,
  0xd47fc3ebbaf7b302U, 0x927f2930443e0418U, 0xb17ffe4526fd750aU, 0xe92eadb11dc19b76U,
  0x404000c81a553e2U, 0xb42ea05812b25edU, 0x208849d9b6aa4681U, 0x9830b17f346bfafbU,
  0x18fbfe3062c2bd5aU, 0x7fc45f0bdf17347fU, 0x15a77e4e09202fe2U, 0xd853f25b8eed881U,
  0x68c6e9010d607f89U, 0x81d2d01ba34a8154U, 0x483d4a4196f70362U, 0x7f9abbee3fbc47ddU,
  0x5e07ab0a50878ea7U, 0x162e3fb781a4b081U, 0x8140247ccb4af0f0U, 0xe02951c5460f11c4U,
  0x97cbdef46181f3d3U, 0x47e0b457370e1e7fU, 0x7f12f7c581d3fe3eU, 0x9927821bb14184ccU,
  0x581c4e7194be5ecU, 0x8f818863c3472c15U, 0x2481a5174fe0cc35U, 0x5681d09ff4b32400U,
  0x6241f8110f13b445U, 0xcbe3815425ab3d81U, 0x13251ddb06bf8fcbU, 0x6cd6d1e97f0a8deaU,
  0x46fa2b7fcc2bc2efU, 0xbd7f7e6dc5203f8aU, 0xd245bedac9816ba1U, 0x357f16d3a3c63bccU,
  0xe83a17e0ffbbae6fU, 0xcfda58f10ff28142U, 0xd4c5030735cc81abU, 0x3f53a9c6320a7481U,
  0xd4506704e99f7fdaU, 0x41e3e2d67fbfd94bU, 0x7f4ee8b545a5b5cdU, 0xd358e006c843249eU,
  0xfae8440b12de3d7fU, 0x927fe8a033137f8dU, 0xcb1681cc1cd48d34U, 0x45420ba0881bf6eU,
  0xfbfcbbfa47848177U, 0x2fff59810d842133U, 0xc67f387218fb2469U, 0xca75811a5ac015f0U,
  0x2d61d902f4f57c42U, 0x2e7f390f1f37c681U, 0xb20081857030c538U, 0x810dc6b09bc8e739U,
  0xd1e035c8a4d5ebffU, 0x8187ce1af27f8206U, 0x20cca6bedc32d8d6U, 0xd6bfb10e814d2bfaU,
  0x68000002c9U, 0xfffffd730000025fU, 0xfffffda00000012dU, 0xde00000316U,
  0xfffffe1a000000c5U, 0xfffffade00000116U, 0xfffffe860000015dU, 0xffffff5cfffffd7aU,
  0x1e2000002ebU, 0xfffffec1fffffdc3U, 0xffffffa5fffff7f2U, 0x2a8fffffdf9U,
  0xfffffca0000001deU, 0x24c00000122U, 0x2380000011dU, 0x5ff00000859U,
  0x1d40000043dU, 0x22fffffffadU, 0x38a0000016dU, 0xce00000554U,
  0xffffffcbffffffc2U, 0xffffff8bfffffec6U, 0xfffff8bb0000010aU, 0x9200000412U,
  0x2db00000234U, 0x3930000011aU, 0xfffffb100000018cU, 0x6480000007eU,
  0xfffffcb6fffffc38U, 0x1fcfffffc9aU, 0x9ac00000003U, 0x24e00000536U,
  0xe2d000ec21e1fcc7U, 0xec400149fdc70bfcU, 0xcd5e9230ee7c3f3U, 0xacfcbafde73e7fb6U,
  0xa1e0a9f4f4cfc823U, 0xdefe152539efee25U, 0xb8ccdc18fedfd8fdU, 0xc6e9ed1a8b093419U,
  0xd66613dda4382b3cU, 0x5cfcafcf0aefa75cU, 0x52bbda14c8f519e7U, 0x411f7f2f4331f57aU,
  0x74693ade1e6e3b03U, 0x5c93bf01401ddccU, 0x3ac8d7642114041dU, 0xf006428e48e224d9U,
  0x198119fc5e9685f1U, 0xd41bf226aed5fd23U, 0x3cd120a42d0a1c2dU, 0xbcf6a1dfbb40470aU,
  0xabe8b00005c8f4f0U, 0x28e60b0dcd09b7e9U, 0x96dccb3b09d08f27U, 0xc5e52cf0b4562e36U,
  0xd47dd490c4a343dU, 0x58d6dbe6e608cf12U, 0xfdcc0b1689571b49U, 0x7ffa09023534a668U,
  0x3c18622bee6d51f4U, 0xe92618f32ac0b1dbU, 0x2e4fee001b444659U, 0x3dd11fb31baddbe9U,
  0x237bd621123f0969U, 0x5dbee1c90e34f70eU, 0xf9010d16e631fa1fU, 0x3f313636edfac348U,
  0x34254c1be50b27c3U, 0x2d2ef6ed16cff4d8U, 0x2d340009140f41f0U, 0x3c70ceb7fdbd1e3U,
  0xee5b00e9f11f207fU, 0x6411ddcdec2cc519U, 0xea1615f7930731efU, 0x76f669f80607c85dU,
  0x39145334fe211710U, 0xf2e413efe4abc7ecU, 0x40e9ffeb09286ce3U, 0x32f833f963ddcfedU,
  0xb2baade506efdcc7U, 0xcc3f5d50daa8e8caU, 0xc240d92b1bdbfe1eU, 0xdcafb51ad5bd479fU,
  0x2a4a0bc169681ccU, 0xeae8aaf9e8f2fe49U, 0xa3cdcdd83cf68deeU, 0xf424cc6dec475132U,
  0xc29a33f5e7d8cef8U, 0xf13b393dedd8ecebU, 0x1b281fde3e072515U, 0xa90be6bd19292cc1U,
  0x81c9de23dcb7f333U, 0xe5ea14e4e22e301dU, 0x92c5f1d6f017b5d0U, 0xfd00f11284512837U,
  0x25140f38e7072439U, 0x43e5e3bde439ed2bU, 0xedff1900b52d380fU, 0x7f184a380ef2ce30U,
  0xf02554330677131eU, 0x121212043cdbd8e4U, 0xc1932ee2b105515U, 0x5cdfcd9b33b8cfe3U,
  0x1e990a16f9ddbf83U, 0xbee9fd242cdfe7d2U, 0x10fae6e111dcf9ceU, 0xc5efb3d9e6ef1cf3U,
  0xced2b20de8f99fe3U, 0x9ce19fd29442fffU, 0xdd0432edffe0a0beU, 0xd205dc4c810f2919U,
  0xd088fbcff1def8c2U, 0x9e082931fbce23beU, 0xef12ee2a46e812eaU, 0xa80daa05f43521f0U,
  0xabd9e6c4e8e2bb12U, 0xdee0030ae04216f9U, 0xc0ef0edbe8ddeec9U, 0xb61d130a815441fbU,
  0xb8a718e935d9a08aU, 0x936e0f1c1bc857d2U, 0xdec8ce507d8396edU, 0x88fd21ba17281cf3U,
  0xcfa60205ace2b93fU, 0xbfe23cd6396cfce2U, 0x815b04f0e4d8c3b7U, 0x8305a14e25f2c40fU,
  0xddaa190257bfad98U, 0xee1ccd131fd502a4U, 0x42c332ec392ac9d5U, 0xcbcb8699cfb63d24U,
  0x98b0f3fbdeadf1ecU, 0x221fc24eef383cedU, 0x8be3dba8bac0e0b6U, 0xb942026ce27fece9U,
  0x3a7f18db0b16325eU, 0x2fdabcfcd229c4faU, 0x29cc0e17ae01ec0aU, 0x352c6dff2dd9b856U,
  0x6d1e29f41e0e6dcfU, 0xf0feeedf27c4d2d9U, 0x3e290c0f42124d13U, 0x2006d7f575d8df03U,
  0x1cc2501f1c10191U, 0xc92e413700f6fed9U, 0xe8101f093feafbd2U, 0xcedbcde02c1359eaU,
  0x81eed5e711cd9c2cU, 0xf0d2df0b29252df6U, 0xecc0e2d902e0c8d2U, 0xbbe6372ab639f1fcU,
  0xe1210eb05fff473U, 0xffea5ba0dedd0f9U, 0xdee81413c72717f5U, 0x66fa50271a270134U,
  0x3a3a4823292c4709U, 0x3e30ebe8f908d1d5U, 0x7f2a31e8103e44f6U, 0x12fce5bf7acbe3c8U,
  0xfe7f0016e24b3035U, 0x57ded6c8114a0c33U, 0x3cefce9a042e92eU, 0x4de012d928c9e7efU,
  0x3d1051ee0c4917f6U, 0x1ed6d3f638e7f9bbU, 0x5f03d3df23273615U, 0x1d214cd7395c3beU,
  0xc98108ff26dce086U, 0x9b39562f05ea1ad1U, 0x203c28bc2bbfe2b1U, 0xd60a8dde452c72a2U,
  0x96fe9a22e0bacd0dU, 0xfae6fb11d6eff427U, 0xd31406f3e6cdc8dfU, 0xd20a2c4da42ff630U,
  0xfa2133d8bbed0c5bU, 0x9f4b9e32725f243U, 0x20fde914f137152eU, 0x712b504bee18ca05U,
  0x7f2502030a024ec7U, 0x21fff20dfe1f0f7U, 0x621f081615186630U, 0x4225e0e75b99d3f5U,
  0x25eed4f388059708U, 0xef6df0fa802df07U, 0x1def7eabfb0b0d4aU, 0x2be9f131814ee400U,
  0xfb4717d22aed15b2U, 0x5e9972dee906b412U, 0x120d8865f02c3311U, 0xf66cd9f507c8e9efU,
  0x270f1a2df807ec22U, 0x50e1e0e3f036063cU, 0x28dc0a13b1291e2bU, 0x3bf7464a16189d71U,
  0xe9da4730dc7f0904U, 0xf8330fe10fbbb2b0U, 0x116f31c1d476c63U, 0x260fd89c52aa0b1bU,
  0x29cfecc3fddf781U, 0xaf432e3ce6842ab7U, 0xba2be0275eeaead9U, 0x9f05ca17d10350faU,
  0x95eecff630d0cc2cU, 0xcee3506eb1703ebU, 0xb6bd0fe001c7f105U, 0xdd20ec6b90130e02U,
  0xf78c1bf2fdc3cdd8U, 0xc0f64a3f2b01ecf6U, 0xe0051e1b4bfce6e3U, 0xe818ab0a070958ccU,
  0xa9fefbcc12fabb01U, 0xf908e10810451e0cU, 0xd2f7ef0111c9bdf3U, 0xf313ee15814b0d14U,
  0xe9a4c200f6e4d78dU, 0xc42a2a1136d70eb3U, 0x3411f6df7fb5f6ddU, 0xe9e297be47dd4f9bU,
  0x8be08deed4a6bbdeU, 0xf4f80610e34fd101U, 0xbf0ee5fce9d589f3U, 0xab1fdf40c341232cU,
  0xf19d20e3f2d7dbfdU, 0xef3725fa20f0ede1U, 0xfb3201140de6e7f3U, 0xedcfe3dffd1515bbU,
  0xc3feaed800c7ab06U, 0xdf1d0bd21d44fd3bU, 0x81bf1c1bcac5fafcU, 0xe4dee228c5493b12U,
  0xf54e114d0118f763U, 0x42f7d8d830f40d17U, 0xbc1fe398d603f5dU, 0x4e00797119ec965fU,
  0x3cf15445254550dbU, 0x1fe41feb5dc7a8dcU, 0x59321ae441197f1dU, 0x60ddfe9f2189e3d9U,
  0x424805d4e324fd7fU, 0x3de9e3a313f6d210U, 0x26c72a37a7571a49U, 0x1f0332462b2ae053U,
  0x5a4256e5f03706a5U, 0x1d240dced5ad07f3U, 0x67e5f8281b316f23U, 0x5407fa0d56db16cdU,
  0xd1aa2eb52bd104d7U, 0xb94806492faa25e1U, 0xd2923f03fcfd6f0U, 0x81cdc2ea02f34f88U,
  0x8dd2e4fd28dad328U, 0xdbbdf32bfb45f705U, 0xc313f7fed6b49813U, 0xdc07f250865e001aU,
  0xe1cfdbe536d1f6b2U, 0xc60b0f5608dcf608U, 0xfb08def05f100310U, 0xe1ef9c1815370cc9U,
  0xabdef11821b0c313U, 0xf3d81affd524ee15U, 0xe8c3fbe4f0dfcaefU, 0xaf0df740815cf911U,
  0xe496ecd600cac794U, 0xc0174b2efbc4e3f1U, 0x174c2ffd710f19f9U, 0xd3ee81bf0f2b4dccU,
  0xa5e2e3e735edb4e9U, 0xdf7db0a1636231eU, 0xb9dd1dedcdb3d7c2U, 0xa131db04951b0400U,
  0xcd8f00c92fbbd7d1U, 0xa00f284811c405beU, 0x1f04de0d44192005U, 0xc0fec008d4f211faU,
  0xd0c40e0508e3b9eaU, 0xb9d90d12043b2203U, 0x81f20908b6f7b8c3U, 0xdde4e24290490318U,
  0x98fd9c3f4f2ba81U, 0xd423283818a612c6U, 0x223dfce33900ecf7U, 0xd903addffe0866c6U,
  0x9ced09dcf0e2ce13U, 0xcffc2b182f0a161eU, 0xa4c1ff1cf9e4e3d4U, 0xdbe6d83f8a2b283eU,
  0xbed1dbd5fab7d39aU, 0x8f48484901d32ef3U, 0xe627dee052d02616U, 0xe7febbebea4070f7U,
  0x99ccf40be9e78b3bU, 0xc40622eef1052638U, 0x81c21fccd3d0ccfcU, 0xce04d307ad660e09U,
  0x377f3c2a122c1476U, 0x6719deb3e33a0941U, 0xdce5003abe2c1401U, 0x1b067512dad4d741U,
  0x7d0d2d321e2b1f12U, 0x61714f02beaddc5U, 0x722de609423dfb38U, 0xbf73ac858f1c6e1U,
  0xb7dcea0f190618d6U, 0xb10e4a5beccb10d0U, 0x2216f7f07af528aeU, 0xb1d2b2f62b1541a6U,
  0xd8eaed0b35db89e0U, 0xececede4030eece7U, 0x86caf6cb150c81ebU, 0x8f33d81e9f272af1U,
  0xbfe42c0cd5ced9cbU, 0x4140e092bdcf9d7U, 0xb746bde61bddfa0eU, 0xf3c1a6a4003d0cb4U,
  0x81a6b5eb31cedfdaU, 0xe635f007f566d30cU, 0xd0260419a3d796e4U, 0x91f03d04e37b4a4aU,
  0xcef52ef30c20cdcaU, 0xf21522460ce81fc5U, 0x82fccd044e1f4d7U, 0xd71ae6bef91433feU,
  0xceec06f7ffcfd9ebU, 0x220dae104380029U, 0xc2e1f7ea1cfed5f8U, 0xcb132f35813a272dU,
  0xe499e0e0e1ff0eaeU, 0xe91e2d2c2ac6ddc5U, 0x520ef255ff8f503U, 0x9ae7bfe00fd24ee5U,
  0xa101bf080bc0b606U, 0xd0dc2e2a055700fbU, 0x81f4131f05b8dbe4U, 0xb122111799302928U,
  0x3ee43fe8e126cd81U, 0xcd0f2f5e073123f0U, 0x121033c66ba6c897U, 0xcfc7a3cde90032d7U,
  0xec9cd3ce37bebc25U, 0xbb3ac4b2095b2e41U, 0xdf010af82acef2aaU, 0xf6ee0f26df6f5a35U,
  0x307fec15b6eaf961U, 0x59e0f7fd192ad33cU, 0x39132bd0d45506fdU, 0x4e1e5a1ec72fcc2fU,
  0x794f2e5bdd45fbd1U, 0x2e122fcfbc132defU, 0x2a2b3a194a085b37U, 0x45fbd0db549ad8d1U,
  0xb7feaf5e548e175U, 0x3ec9aedec52cd338U, 0xde1912129b251b11U, 0x441a21fb29f8d14bU,
  0x3d4716350b304adfU, 0x8020209d9d91922U, 0x2e0241eb40f06709U, 0x3fdae8a079bbb8fbU,
  0xc3d4faf62ab9d58fU, 0xf6e706290bd1e2e4U, 0x60312d420e31ef0U, 0xe9fcc9d7cd0368cfU,
  0xa6f8ae000ad98c01U, 0x2cf4162bdf28e41bU, 0x810e16f40823b5d7U, 0xc8ddfe58b2152441U,
  0x1f28f0f1dc22ff5cU, 0x4ffbc7d4f517ff29U, 0xf1c606dbc9482be6U, 0x36f95a4201eead5aU,
  0x7f1a062df935511cU, 0xf5e7faecd1f8fdbdU, 0x73280230e3113befU, 0x4308d3d15ae5eaf4U,
  0xbfbed4f52fbccebeU, 0xc43f011b02c61a12U, 0xfeff1d361ce51e13U, 0x91b998bb1e156ecfU,
  0x81c7cbc7dfc7c3d8U, 0x12dd0bddf94b1349U, 0xc809dcfe010cd9c7U, 0xd5d51629a23eebf6U,
  0xe87f2c27cc48f359U, 0x57a6c6cad912ff3bU, 0xcdd1d930cb2b063fU, 0x7c156c0ec72ea36bU,
  0x4e5728ff0a345e18U, 0x40ac6f6f4cfd3faU, 0x620303fc3de7541eU, 0x241b41bf74b2e102U,
  0xf5f105e728cccaceU, 0xcafa172d07fb21e2U, 0xf3213210bd1200fU, 0xe1e9c9d4e1f659f7U,
  0xbffbbedbdbd7caffU, 0x1fddf00726440410U, 0xa4f50afcedf3c30dU, 0xcbf8163181301c2fU,
  0x53de5e5c4002c48U, 0x58beb4e2f1460951U, 0xddd14f483411c0bU, 0x6cef5a15bbf6ce58U,
  0x7f2a032a0b1e73e8U, 0xe5de19d31eee13ceU, 0x5019382d520c120cU, 0x56f5fbb543e911f6U,
  0x36581ee9c7fe4929U, 0x25e6ddbd1d1fe9f1U, 0xdbbc0f04f9ed0b40U, 0x543f4b29cde6b003U,
  0x82d17481360ff07U, 0x3819f432eb07d6e9U, 0x7f01460d2e3b3e1dU, 0xf6210fb71be1c70bU,
  0xc9a8d6e032a9f6a8U, 0xbd4e394f29ad49fcU, 0x2aee363648ec2afcU, 0xc238c9b4c71d38e5U,
  0x86a9962e05bec834U, 0x1a2810dc3f1c0b24U, 0xb5c30bb2ebbfbf09U, 0x9e2d422181073bf4U,
  0x7f4f414e8511fba1U, 0x161308f1201ddc76U, 0xd114ba758838dac9U, 0x7333bf1edad43e4U,
  0xbf3dd9e13ec3474aU, 0x981cbf4eb9c4fef0U, 0x5f35d6db16dcfabbU, 0xccc6b6fece24ab1eU,
  0x2e6b1107d0312d36U, 0x2d0ccecbeb42f413U, 0x6e6d818a51fec36U, 0x622938f520f9b12bU,
  0x4424ff14292264e9U, 0xf80023ff22c613faU, 0x61ef000a2e1d130cU, 0x1a0afbba7fbcd514U,
  0x2fef2fc820e0204U, 0xf9cf0a0f0bfd0605U, 0xf8f2fa0bffeef705U, 0xfcf5fafde9ed00feU,
  0x27ffc1110fbfeeaU, 0xd3fdfaf614fe07f6U, 0xfe04ee0001fdfffcU, 0xfefd6702020004ecU,
  0xfd480603ed27227fU, 0x36f3bff8e512ddf5U, 0x3f018ef99030a16U, 0x4a1d42000ed6b041U,
  0x5b4e4c1219400cfcU, 0xa1cef10d609d9cbU, 0x412220d7271c1c3fU, 0x28fefbb559bcbdd0U,
  0xd194e8ce2b04cfc9U, 0xde254c46f88be4e5U, 0xef3221ec2203bd00U, 0xcf07b9ce2d3954bdU,
  0x81d0a5d608c1d300U, 0xe4d132d8fe353d2eU, 0xaafee2efc3dfb0f0U, 0xe8e52d38c34c252eU,
  0x1619f629e5f31b63U, 0x4dbddab51655290dU, 0x1ddfe510be322c19U, 0x44223c43cfdba847U,
  0x2f4c2e37da245ee7U, 0x2df02b0e32ce16eeU, 0x6fe00d17fc065eefU, 0x27f31fb47fbf03d0U,
  0x3f4b293ad41d3840U, 0x53f905a72e141447U, 0x23abea4799341e3fU, 0x6a3d410ff1eab763U,
  0x44d45d3a127261deU, 0xa14130617e4bfe1U, 0x4c28d8e832246d78U, 0x1a1d228162c70a03U,
  0xd71fc01b0a1f084aU, 0x4c140602f42f03eeU, 0x26c61405e542f90bU, 0x7a01497f00d8aa73U,
  0xf8ef1f3c1b6041f7U, 0x4fbd5fc30e6abd6U, 0x4650da23102d0b6cU, 0x60f934a460aebc21U,
  0xdeaf38e6f2b9f681U, 0xdd10f30d17b62bb3U, 0x30824c661f3eeeeU, 0x82d7d2e7dd116dd9U,
  0xd3f2bab61f8ac703U, 0x2929ecdef165461dU, 0x13dd2926dac8d0a9U, 0xf737fa54b12de0f4U,
  0x1425cf2ad8450e54U, 0x7fcaf7d1d934feeeU, 0x23ff242da52d0b2eU, 0x63064e3605f7d758U,
  0xfa142c4e1a5a5504U, 0xd22d08ff4cb9fac7U, 0x304915f55a0a2e56U, 0x4c0dd3b650a8e203U,
  0xe719f22de33b125bU, 0x113f5bbed492203U, 0xe71511f6e017152fU, 0x53305544320edd53U,
  0x6b452520101208eaU, 0xd91a07f325bbe3d8U, 0x7f0d11df1ffa3f0aU, 0x17e6d1cf4fa605c8U,
  0x127fdff3c339157fU, 0x39e2cdd9ee62e73bU, 0x91c1c28a5f50ff3U, 0x48184133231db531U,
  0x4df55ff207472ce9U, 0xcfedbe62af116d4U, 0x770220d301180b45U, 0xfbe1efdb29f5eaedU,
  0xf6ef0c19d4a7c0baU, 0x9736293fe9d717d9U, 0xc431aee266dbd9edU, 0xc8dbabd0fefaf7c5U,
  0xd9039ed6e40596ffU, 0xe118d63dfb4f3129U, 0xe3e6c744af21912eU, 0xabe54763a97f07ebU,
  0x2054eb03cc0e2251U, 0x43e4ead6fb35192eU, 0xf5f4df25d105fa1bU, 0x43fe6008e9fdbc39U,
  0x320b2cf4201b57feU, 0xfd30e6f018d0fffeU, 0x441205fd2509142aU, 0x180ee6e27fefc0ecU,
  0xcf9e09d707cccca9U, 0x9d10343801a02609U, 0xe2f5f4dd58eedfb5U, 0xc000da1217335908U,
  0xa6db97ee20d5a732U, 0xd8f232f925183230U, 0x8107f7cdf3f0c7fbU, 0xc0e91f5a9f74093eU,
  0xffffec2100001204U, 0xfffff732fffff4d2U, 0xffffeb1bffffea57U, 0x1a22000007e4U,
  0x14b2fffff6f9U, 0xfffff103ffffff3bU, 0xfffffb0c00000abaU, 0xffffff6200002957U,
  0x379b00000e2aU, 0xffffe46effffec51U, 0xd8dfffffabeU, 0x5e500001716U,
  0xfffff085ffffc437U, 0x868fffff457U, 0x12640000093aU, 0x774ffffec62U,
  0x21d700000548U, 0xfffff36300000384U, 0xfffffe8f0000150dU, 0xfffff35e00000b17U,
  0xb73fffff07fU, 0x17bfffffce4U, 0x80900000851U, 0x696ffffeae2U,
  0x236a000008acU, 0x10affffff095U, 0xffffe43200000cbcU, 0xfffff9e5fffff285U,
  0xa600000046cU, 0xfffffc5dfffffe53U, 0xfffff18e00000704U, 0xb18ffffe833U,
  0x7d57cfe8c100347fU, 0xa97b8b5721fd292dU, 0x255f1e93bd479e3U, 0x64c77df55bd0acd1U,
  0xb9bfcfd21555f3cfU, 0x4006cdcd553948a8U, 0x3ac326af9ac82219U, 0xdd1bf3ac3a31c2caU,
  0xb2c2090d1bc2eca7U, 0x46c62a03be96abddU, 0xf309adcdfd0f063aU, 0xa7dbe5cb0a5f02a5U,
  0x371da8e8d1b00dcdU, 0x4a1dbf67ea53f730U, 0x739f55281383f03U, 0xcd35d4505833f249U,
  0xe0308dce6f8ddfbU, 0xf2eafe0f1d0d1ae9U, 0xebe71c027ff41be4U, 0x1de4ff19250bfde1U,
  0xceff1f1231ce4ffU, 0xed0a20dc25ec2715U, 0x8f4fc15dc0a01f1U, 0xf5e7e8f30eeb14efU,
  0x4e02af814610ea71U, 0x950493c7f00b66f9U, 0xe4f26eccd9b244eeU, 0x2f25385048f503e3U,
  0xd01f5f13d8f6a442U, 0xdf3379ffbe75dafU, 0xee1d311ea9bed056U, 0x38abc591ffc7c4aaU,
  0x2812f498f435bf4bU, 0xbf64f73fcf0343eaU, 0x514f23ddd9d358ecU, 0x34352c431202e415U,
  0xcb15fe5dedee191aU, 0xbdf9f5a206a811e2U, 0xfcbd4bfc81bff51bU, 0xf2b83d0510290c13U,
  0x5c1fc6a85162f6eeU, 0x70f1e493f6c6639U, 0x6829400f5281f917U, 0x122d71242de6f333U,
  0xc6fb3073ee7a2c1aU, 0x278c419773830b8eU, 0x5a82bda889dc969U, 0x5bdff29db8befbf1U,
  0xdcdd35f8a7dd4c17U, 0x491b58e8a1e11e35U, 0xb7a71cc8f05eb3f7U, 0xddf194f49d6b29b4U,
  0xf90793ed199a5d9eU, 0x5c61a111a64395edU, 0xcc53c9f0811bdfdeU, 0xe36bbfe669a547c5U,
  0x2323f2e3f8f1ddfcU, 0xdc06f1fef0002208U, 0x273726dd30ef18dfU, 0x7e7093307c0e700U,
  0xe812f511141b023cU, 0xe3e645dcf3f038edU, 0xe5ed22d081dffc29U, 0x3cfaf0cdc31e051fU,
  0x6463afc64b0edb6bU, 0xd914f702fe110afcU, 0x5c7f2e3eedba5ff1U, 0x102dee154eee1512U,
  0xefc10a13f3252854U, 0x71a54ff110d23b3U, 0xeed430df1ba20429U, 0xe6dfb8d2e909c4d6U,
  0xd7b91d4adab322f5U, 0x2f09f2d1c9019e44U, 0x3edb3f7f1541a7fU, 0xcec006831467ebefU,
  0x6dc50708fd1449abU, 0x6a759b5f8ff227f2U, 0x560a214fbe2c5fd7U, 0x1b10c11468e31163U,
  0x4306d1c11d071819U, 0xed2902f731051ffbU, 0x3724190e24c52c16U, 0x2c1442420bc2f0ffU,
  0xd5ed3139e527c038U, 0xfbcdf8ce09d006c5U, 0xf609f30881f61f22U, 0x45d405d7bfe6e517U,
  0x3ad8f2e0fa2f322fU, 0xc744c52308552fe3U, 0xe21e0a2235f868b7U, 0xe9316def57dbf5c9U,
  0xbff930fd0064cf60U, 0xf49f63c9021d150fU, 0x3dd0f5a281aedadbU, 0x66dc2912e33711d6U,
  0x5e4e91d5be4e1e31U, 0xe96aba0fff5f4b07U, 0x20037fcd288d0adaU, 0x2b3337142c90ea4fU,
  0x20f5787e63792b58U, 0xcabc6cf81dbc70ddU, 0xe5c3370d94942056U, 0x3ecf3c0392aa2105U,
  0xb090409040a0603U, 0xf50a02fc08fd0606U, 0x40505fbfef3f6fbU, 0xbfe0a06f8f3020fU,
  0xfd0706000b0108feU, 0x5fafef7fefefff7U, 0x60d09f77ffafd03U, 0xf20bf3f301fbfdU,
  0x16ace827c81637ddU, 0x2f0440ebf8f6f12aU, 0xe5d5c5151048230dU, 0xebe59cdab1fdf381U,
  0x8d417a12da10fa7U, 0xb3cc9f492329265U, 0x37469a4387142b00U, 0x146cf73565bdc243U,
  0x613796b55c18e249U, 0xbb6e1438bbf64315U, 0x1d003012ba63dbU, 0xe387ffb5dbcd606U,
  0x33b1e324d1507ffU, 0xf2d611de1c9717bdU, 0x56d5ebddde1def14U, 0x17bf1aa0ec4dd630U,
  0xbdef00ef314e305U, 0x4aec47f4d4d9c21dU, 0xf0cf0418efeada1dU, 0xc900e802b5f7e7c2U,
  0x2dfdd4e9001613d0U, 0xf6f4f815d3301b1fU, 0x24ff0640812e39efU, 0xcc11d2212f2afe35U,
  0xfcfefd03f5f302f6U, 0xfc0ff3fdfeff08f4U, 0xf8fff602ff0802f7U, 0x5f8f60206f10704U,
  0xbf9060dfb0d010aU, 0xf4f4010d0ef30701U, 0x8fe0b0c810ef6f9U, 0x4fbfefffcf7f40dU,
  0x9cb3236f7fbfbd7U, 0xff0f410107c0e621U, 0xd607c4d6271310edU, 0xbfc10220c7ee15efU,
  0x16ef101ac40b07U, 0xf0fbec0be522ea1cU, 0x1d2cdaf7810612e4U, 0xedee60b03f4fbd6U,
  0x14e4cd01e73ac512U, 0xf430dd0e201e01dcU, 0x2c1cf91922cb211eU, 0x16380b3f28c4241fU,
  0xf001131df5f60000U, 0x208190ef5cf47dcU, 0x1ed1fade8114e2fbU, 0x4021606c5d400e5U,
  0xe9cb20fc8301ecd0U, 0xf6f1244129f120d1U, 0x338d7887f43f744U, 0xc4bfde2bef0ea8b1U,
  0x2515bbd6f1fa41d3U, 0x200b08ef2c31bfceU, 0xd7e81411ae021337U, 0xeff8343feec040daU,
  0x43f7eed911e00745U, 0xfbf6d1f1d2000506U, 0x1a29f52328f24de3U, 0x4330102130bcdadaU,
  0xfa110f15202f0a2cU, 0xe8b7fceb2af62be9U, 0x2ec7f40881111d06U, 0x1eba26f6e90e0ce1U,
  0xfefff100f308fa0bU, 0xf4f3fa0700fc0bf8U, 0x10fe0010030cf804U, 0x2100c0cf5f40003U,
  0xdf80e07fdf2050eU, 0x1f90df5f406f6U, 0xafc0d017ff4f2f4U, 0xfff404050ef7f9fdU,
  0xf5e90305f401efecU, 0x11eb11ee07faec10U, 0xebf9f1072b0f08efU, 0xf60ee3f9ee11efffU,
  0x18e403fb0bfd070cU, 0xeaf9f0ff0bf50dedU, 0xfffd02f17ffa07efU, 0x1506ea0afff5f10cU,
  0xb814144f41a70b12U, 0x5ba312e701faa009U, 0xe6ae9ce0d7f01c3eU, 0xfbdba051132d5c8U,
  0xe3cdc30b14b25cdbU, 0x471f0c2f1468d922U, 0xd4e6fd0681eaff12U, 0xc40ef8073cea0d2bU,
  0xf1f60705ea0af402U, 0xef04f1f405030907U, 0xfc000dfd0700f60aU, 0xf9f6fff109faeaffU,
  0x8fa0f0a08fb000bU, 0xf5fb0305f704f8faU, 0xf20ff8097feffbf6U, 0xf905ff0afced10eaU,
  0x1d11b4cdcddab338U, 0x1537c250463c28ecU, 0xea7e56407da97f03U, 0x212dec226fe0f405U,
  0xfa22253fcf64971cU, 0xb1c769d7618a56feU, 0xed87f6b5a0952814U, 0xffa852a4ba334712U,
  0x607f2fa010500ffU, 0xf3f8fdf604100ef9U, 0xd0a0cfbcafafe05U, 0x20ef50805fe01f7U,
  0x8fafc090909f8f9U, 0x4fa0e06f901f601U, 0xef9040381fffef8U, 0xf6f60709f3fffa0bU,
  0xf6fd4b5a11cee1f6U, 0xaa43d4b5e6f00aU, 0xa8c9e824c8480a30U, 0xfdb2c2d1c340dcb8U,
  0x4700ede7ce01edc1U, 0x1d13d22ebe37f4f4U, 0x2e0dc548810337c2U, 0xc002b35047d5cf35U,
  0xf90305070503f00aU, 0x2fc09f90df5fcf9U, 0xf7f807ff7f080304U, 0xf9fd030ced0eU,
  0x10801030af90bf9U, 0x30005f4f9f909fdU, 0x3f8f2f6da02e9fcU, 0x2f710fdfeedfe04U,
  0xbbee096112fa1411U, 0x3fd28fffebb08efU, 0x1ea3b32a110916ffU, 0xa0a919fead3d4193U,
  0xf8c20fd31c0b1e1aU, 0x2df3bc0da750d54cU, 0xd603ff6381213022U, 0x40720044bdc33c4U,
  0xf31422490fc81109U, 0x1fe93df3e4f11141U, 0xc70ef922e443df3eU, 0xc0a507acbff7dac6U,
  0x371dbb2311fc4dadU, 0xeb2cb00006eab4ffU, 0xd346de22815807c7U, 0xc4f9d62c4720193aU,
  0xb60e22ebd515dc12U, 0x200e44f81fd8aad7U, 0xc7e9b341ce4dd203U, 0xa2ec0c181304e611U,
  0x30d8c4e811f014d1U, 0x17550e0e0a37e828U, 0x32fdb80d815ee2b1U, 0xad2dcc385f44003eU,
  0xc8e64cf3e9f220f3U, 0x37d907c5e6cdefe5U, 0xcafcdc35dd4d0c3aU, 0xdcc6d8cdb80defadU,
  0x3ceede9d1b83bd6U, 0x2a2912fcba48d543U, 0xde45dc4e8149f8ebU, 0xd1ef132c252b1609U,
  0xdce34629e7ecf0f7U, 0x1adb4ccae0aad701U, 0xb4e5b319f514c232U, 0xd3c4de0bb13436e3U,
  0x23e8fff7cdc73baeU, 0x42110e4ece3bf13dU, 0x172d0243810404d8U, 0xea32e3fc30e7cc15U,
  0x664ec7f8d630121dU, 0xb61cb9403bf9fb22U, 0x6f346d1c1eec6113U, 0x76060d3a1f1c1df6U,
  0x94f01c431703e1edU, 0xf3b05cd76be8f999U, 0x3e9253d130a6d300U, 0x7081cef8fef5e410U,
  0xede0df60d1cf15d2U, 0x19a47f9badc923c7U, 0x6bcabe6e134baf7U, 0xd40bb6a4f42dfeb2U,
  0x1aaac6ca10c75ca3U, 0xea21af74fa54e008U, 0xf0fc163fae752128U, 0xa7089f6c58320defU,
  0xfaef4d39d9f8d6dcU, 0x478b79b7f8ead6bfU, 0x434dad2e6f90451U, 0xbfd7db90257ff2deU,
  0x6418bd3cbca94afdU, 0x2060994101f7b838U, 0xa108b3239a7f1de6U, 0x1726075474b73e3fU,
  0x511ff408004df62fU, 0x654d918111216e5U, 0x634a0a0819a04becU, 0x51fe4f1cfbc53100U,
  0xee4331101e5bf74aU, 0xcaaf5ba44bae4da0U, 0xf004f9ca81b925e7U, 0x2adcd5a3120efbd6U,
  0x5ae9effbd4eb2054U, 0xc860c4ddf41333edU, 0x82112dc51cd13c2U, 0x622e616067b4d33cU,
  0xc41a520e0909faecU, 0x1cc439054ad140a9U, 0xaceffd081f13114U, 0x42da1cdad1ffe1bdU,
  0xe88f70f7d9ffd30aU, 0x5e1964e9edadcdb6U, 0xb4030a1bc4741139U, 0x9efaed00f11e459eU,
  0x18a90115e887efe6U, 0x60ec8129867d9843U, 0xa179a105e33e291eU, 0xd13cad6979f93dceU,
  0xe11f2b1c1a0d2b97U, 0x3f11350910c7c2d4U, 0xa19dfcce3be2ad61U, 0xe2abb6c3924afcccU,
  0x19e8a2e1dcf06cc7U, 0x5de73cc005fb54U, 0xf41ca7608144d621U, 0x986cd86416fa1d08U,
  0xfbf3eef3fafb00fdU, 0xf113070b03150004U, 0x100100f4810df908U, 0xf5000f0af3eefcf6U,
  0xf7f6060a11ff030fU, 0xfef7eafa07f10bU, 0xcf5fcfbaeed07fdU, 0x120504eef2fe0e11U,
  0x221cccfc18250df0U, 0xd339dde80431f124U, 0x20f91d1881d83f1eU, 0xf5dc043f3be20ae9U,
  0x404f500d3fa20f2U, 0xc9f92aea05fdf4e6U, 0xf30422cf9ee11505U, 0xadccfc00134f442U,
  0x2e0f49db34a84397U, 0x27b25016bdb2b20fU, 0xe501d4f5d4109d30U, 0x26a2e120840db181U,
  0xfb47eed1f38beea0U, 0x24f1a070ac31a2e4U, 0x1640c40da62c0ca8U, 0x1011befdf907db45U,
  0x1e27d0ebea05c5f7U, 0xec270b15f31a140bU, 0x10133e1ab6fc07cbU, 0x250c152f14f3f638U,
  0xbe22403f2408d400U, 0xe2f343f630fff1c7U, 0x23ce34df81c43728U, 0xf9dae8bfc3020a0aU,
  0x6d3ed2decf23eb46U, 0x9349fb2a1060660fU, 0xf47f7ae163a95dc5U, 0x5dee5a72699703dcU,
  0xbc113618f546f3f7U, 0xe90c0adc4887f6feU, 0xb4e12de7d585ea56U, 0x48bd6c4bbf94d23U,
  0xaecc5b33c69032b0U, 0xe7004cb11bb0ced0U, 0xe7af81e9e9ff0c10U, 0xc00510a3a0d5ad02U,
  0xf0fa0029caa5f4e0U, 0x6af1c125e3548d53U, 0xa749150e17b3ef2U, 0xa52b2e49f610bbcdU,
  0x1214a6d0b61aa748U, 0xae49ad3df43570baU, 0x497762bc7f946b0aU, 0x240d3d4d3b00eb11U,
  0x96392449e3eea566U, 0xcfc10dac16ce61c2U, 0xff9040b99e8cbb16U, 0x6a63eebace40212U,
  0xccba19310cee41d3U, 0xe70b33c1d9ffe606U, 0xb98fcee34903d529U, 0xb802b487f137b1b2U,
  0x22f685deeeeb0dcdU, 0x2fe28a331bfd111fU, 0x303fd920b67f05a5U, 0xd934d4387abcf90cU,
  0x575b9cd6c31fbf58U, 0xef29af4aed181a18U, 0xfa0b66de0ff716a5U, 0x2b2458ff32a824f2U,
  0xa446453cd838a665U, 0xe91261c021044602U, 0x4ad08ac81a03022U, 0x4fb537d3a2cd2501U,
  0xd1daecfcfee30fbbU, 0x57ef3da7abe5f40cU, 0xeac8b1e0c104c025U, 0xcebeb5d6dde6d29aU,
  0xa2e9ecd0a0a5401U, 0x571faf70c70d0646U, 0xe358a1f7816b151aU, 0xe36ccd54fb28fe49U,
  0x3e07fac3dce1ca2fU, 0xe91bc8fa3915fdf7U, 0xfc4645f77ff43beaU, 0x32413f4df3c8140cU,
  0xeeff25464006b937U, 0x9fe14f439f91ac2U, 0xfcfd100eb1dd0435U, 0x2c0080fbdf3171eU,
  0xf2030f1a01120cebU, 0xc1110f7ef01f809U, 0x4e8fef43318fff5U, 0x103f0ff03edf9f4U,
  0xff1160e0af4ee15U, 0xecff06eaf309fb0eU, 0x1c04f9037f04f50fU, 0xfc1306e9f6170212U,
  0xfadf3233d0c037c6U, 0x1ef823c908b2f5eeU, 0xeee9a3e09401c104U, 0xa7a70ab2b855eec0U,
  0x2b25b31ef2ce52e3U, 0xf807cf5acc13ea58U, 0x2cf5a4f2811734c5U, 0xe1f8e01f0b2adf26U,
  0x53811d93030d64eU, 0xaf59c425e527fb36U, 0x414eecd7f8c30501U, 0x20f8f25020f23bd9U,
  0xe431734fd1213faU, 0xfc24eaef6b21ac8U, 0x2abce9f28104092cU, 0x2ad1e2fbd6341a27U,
  0xbdc7cc73ee983dbaU, 0xdd1842e3f8e7e3cfU, 0xc623854cfcebd66cU, 0xafb6efba8d0954a5U,
  0xc818f2ba350a1db3U, 0x2bef12e390d7f055U, 0xcff6974d8121dc40U, 0x216c9121f920ec24U,
  0xb3fafa5aa4feeaa7U, 0x3cdd6622c8aeb9bcU, 0xa6fd1d10fe5e971eU, 0xea8cc3930307b01cU,
  0xdcbdbbb6e598e2c8U, 0x57e7ee1a97f7a568U, 0x2ef9284ba2601addU, 0xfc7f39246ea7e0beU,
  0xd9de6f3c37ba1404U, 0x4685392815bca01dU, 0x2382e3b3f77c0ce3U, 0x8115f8c1131b3e8dU,
  0x57e4bccbdbeb53fcU, 0xe8ecf85bb348af2dU, 0x2502fcf4922b0dccU, 0xae262e5c11d71cfcU,
  0xf5e9030b35f1eaddU, 0x3e07eb07ddf91030U, 0xcdbcdc32cf0b1330U, 0xeac0f6ba0a0408f1U,
  0x9f2b8e3cecf2eddU, 0x171c0013e12ccd3aU, 0xe43ac01f811b32ddU, 0xba1cd00e121b0aebU,
  0xeaaf22f735deeac8U, 0x29ac34cf14bfeee4U, 0x11d50b39c0ef13f5U, 0xb5e8ac14c73709e1U,
  0x44e0b9c6b71645e8U, 0x392ac757e8f0e735U, 0x1f2eab18811e46eaU, 0xe4f30054fbf0fc35U,
  0xf50f00e01530d835U, 0xda21dded110835e0U, 0x30f20cce6a02fdf8U, 0x3ae416280c05d9faU,
  0x160b2a2732120c17U, 0xe30507ed3dc93b11U, 0xe6d506c981d9d2f9U, 0x32c224190df61909U,
  0xcfb80d4d39ea44b2U, 0x2efe12f0e7bab81eU, 0xcfb6e0faae38e038U, 0xc1bde2dbb32e13b9U,
  0x17d4cdf8c3c2400cU, 0x354dc03ac03de212U, 0xf839f7f781092bf0U, 0x343c2204704112cU,
  0x592dfc92d009bb30U, 0xe23ea325183d300fU, 0x32642e233a9d74e7U, 0x2f0c021000e40febU,
  0xaf4b3f3d2aeade51U, 0xd69c25fa639d459eU, 0x1a9bed0d8191f533U, 0x1f994fc9dcd4f2f1U,
  0x1cbf00001a26U, 0x1f47000002ecU, 0x25d700001ee7U, 0x145d00001ac0U,
  0x248b0000154cU, 0x17cb00001578U, 0xffffff5500002650U, 0x18710000205bU,
  0x2f000015bbU, 0x13fc00000d06U, 0x17d700001c4fU, 0xfffff979fffff846U,
  0xfffff299000013a2U, 0xffffee4f0000263dU, 0x5dd000019e6U, 0x1a8d0000124aU,
  0x176f00001604U, 0x1b830000176bU, 0x176900001d7eU, 0x1f59000020dcU,
  0x1e5e000025eeU, 0xd25ffffe75eU, 0x172200001d33U, 0x270100002a95U,
  0x21aa000025acU, 0x22510000211fU, 0xffffeaf900001655U, 0x12d600001859U,
  0x192b000014a9U, 0x149c00001d72U, 0x13d700001531U, 0x222e000016aaU,
  0xf40b092412e70bfaU, 0x9263b1e1601031fU, 0xb8111efd190ef119U, 0x27fc81f85c222e29U,
  0xe23010ffdfb151fU, 0xfcfd261a1e651a01U, 0x101db60e2e150105U, 0x2127ed21180e2221U,
  0x8101c1509181f03U, 0xe0d230e161afffeU, 0xbb1c00ecfd15fb21U, 0x1d0b8c1b7fff4c12U,
  0x142300131c24fdffU, 0x2006291f2a770825U, 0xa30b0f5fa170d13U, 0x1b1cf4121d02ff07U,
  0x130bfdff2ce70826U, 0x242a210dfd271f0eU, 0xa8062afcf7160919U, 0x2027811566fa5101U,
  0x201005f3fe1df916U, 0xf91f2221347e2019U, 0x114b8152c251008U, 0xb2907fc251209fcU,
  0x21d032628fa1704U, 0x507012c07fc1e14U, 0xaa230510f8f7120eU, 0x120f8a127f052118U,
  0xf902022631283001U, 0xf82322fa067e02ffU, 0x715bdfa3530241bU, 0x212d05fe34fe01fbU,
  0x110d181a22e2fd1eU, 0xf71c0f1e04ff1b0dU, 0xaafa21f7250426f9U, 0xc0db12d7f0c28feU,
  0x15222e04201e33feU, 0x202307190c5300feU, 0x1c06baee082619f3U, 0xfb301e1c1313190cU,
  0x1c360c1d13ee2625U, 0x6fdd327170a351fU, 0x8e2618ff240f5b2cU, 0xfdf9ae277f2f0425U,
  0x32e1716132515f6U, 0x2b112d15e3581621U, 0x1b12b4220a0a1a16U, 0xf50714ff2cfc132bU,
  0x70e191800f4fb16U, 0x250dce2d2033190bU, 0xbccb26f520374a3cU, 0x3232f0027f1a0f2fU,
  0x2215242df10e3127U, 0x23fc2e0821102123U, 0xfffea8f3f20bf334U, 0x2124071f0705fa01U,
  0x2f0c403cf2fb0f16U, 0x5f6963909f922f7U, 0xa501221a17f97ff9U, 0x44100a42743ed71aU,
  0x3bfd172dfc043926U, 0x152d3518fe1226fbU, 0x1ffda703131b29f9U, 0xfd0f223507fb221dU,
  0x1a26223f363422fdU, 0x18f681340f010611U, 0xb4de1d15000e79feU, 0x2ffe16015404ea15U,
  0x21140d07fdf73033U, 0x11242ff109e833faU, 0x2420da0d3604010cU, 0xd260a310923091dU,
  0x382c142ff51b2127U, 0x5178121213e2f1bU, 0xa0a2282b1413750dU, 0xd15260c26f3cef5U,
  0x2122182efc1c3b06U, 0xf40f272434e30927U, 0x2d16d2461b1b2a13U, 0x1e2320183dfdf80eU,
  0x2c262932f9ff0d1eU, 0x829811d12300bfbU, 0xc0a8081a04144c19U, 0x8092619fe26d20aU,
  0xf9210ff31d18f8feU, 0x230f1bf2f7f62c25U, 0x10dea27142401ffU, 0x1630352717290cedU,
  0x23013f1b0c324533U, 0x104281f9362a09e5U, 0xc3b7465117017ef9U, 0xf20a32f3fd2e8e0cU,
  0x3a431f20020b294aU, 0xf003061106fb4a1aU, 0xea1fe32325440e00U, 0x37462f1eff31f425U,
  0x1df4f6ed1dfe4ff9U, 0x3fe8b340742333dU, 0xca812b2c2e1f662fU, 0xfa3e4928ef02873aU,
  0x4b14f21823f119f5U, 0x493c181140be354eU, 0x1b4df3483137fe10U, 0x44f1170ff4000f3eU,
  0x4f0334f205ec2109U, 0xf5148111054400fdU, 0xffa50e444d0b54ffU, 0x38f93f3ac431b4fdU,
  0x4243ee0b27392009U, 0x8ff0d3826d8390eU, 0x2020df360df60744U, 0x3527f908230232f7U,
  0x320238303d0b352fU, 0x25fd813fea1830f4U, 0xf7bd574a22f15120U, 0xed085d48c226c622U,
  0x3c0d12f700393330U, 0x12f129ef3ebe522dU, 0x4c3b0b3b1213004dU, 0xf0e53f4835f0ff30U,
  0x8565c64e107660bU, 0x38d88b6b72083f04U, 0xbcac5d3654187763U, 0x11a7f6b9158e1d1U,
  0xea12e856f541fee7U, 0x2ff25ef9f5ae191bU, 0x2c445727504e302eU, 0x6df479fe6b5e31f5U,
  0x381f65643bfd2303U, 0xe08d7600a0d4d41U, 0xd4db183d7ff52924U, 0x7a677607a41ac842U,
  0xfe4b380ef850262eU, 0x56111820f19fef67U, 0x24ea563277370e68U, 0x40dd6650044008f9U,
  0x4cdd38146f5453f3U, 0x7843214f35e25714U, 0xeff32d69e5fed14dU, 0xebfa7f0599370eedU,
  0xfa3b1559f5122759U, 0xed73230825cc376bU, 0x157752251759f262U, 0x40ef6d365a436d2fU,
  0x1b10391249325142U, 0x4106357bd47b453cU, 0x27375b5ad94e8154U, 0xfc558ebbe4022e9U,
  0x28f4ea4072747517U, 0x437804e7ea8c123bU, 0xfeff87867756a05U, 0x56131915385e42f1U,
  0x17f913083463ff09U, 0x5955521b2d14fd65U, 0x117d1d411231ac18U, 0x3dec562a982e3ed4U,
  0x370064eb6c3d6736U, 0x2bf91e46eed72755U, 0x2c062afaea2b417fU, 0x79263df517495700U,
  0x1df70ff314033a2fU, 0x14077e0f4b4dfd24U, 0x22330e6a1b25a0f9U, 0x45144037ef297feeU,
  0x40411b021e122bf2U, 0x33530f4a22bd05fbU, 0x12f81e1c2f0b381cU, 0x23b15f2204101efU,
  0x2715283e10161c36U, 0xf3207a3323173c17U, 0x2a58097f14348336U, 0x11d2c3ce02f5918U,
  0x2e2610f132161112U, 0x3349eefd2ae80a42U, 0x21f71f282cf61812U, 0xf4ef211400172f08U,
  0xfe2b3407f22c1af4U, 0x35367441fa0af0f8U, 0x587a317f25399328U, 0x3333815150c6d27U,
  0xf32d16011d0e081eU, 0x2a28f5e2f1fcff31U, 0x1f1b1e23072c1815U, 0x322a2203ff151afeU,
  0x30282e27f0ea3108U, 0x8187f2120fe071bU, 0x3c78ef7b160abbebU, 0x1e0847220a355b20U,
  0x222315390a0bed16U, 0x12180f20f3fa351cU, 0xf2f81d1a172d3713U, 0x17f8e9ea0bfb2504U,
  0x20c000001c9U, 0x237000001ecU, 0x222000001cdU, 0x27c0000020aU,
  0x27100000248U, 0x295000001eaU, 0x2a5000002b8U, 0x48500000320U,
  0x4df00000519U, 0x4f3000004e0U, 0x3360000039bU, 0x28a000002dcU,
};


ai_handle g_forecast_temp_ml_model_weights_table[1 + 2] = {
  AI_HANDLE_PTR(AI_MAGIC_MARKER),
  AI_HANDLE_PTR(s_forecast_temp_ml_model_weights_array_u64),
  AI_HANDLE_PTR(AI_MAGIC_MARKER),
};

