/**
  ******************************************************************************
  * @file    forecast_temp_ml_model_data_params.c
  * @author  AST Embedded Analytics Research Platform
  * @date    2026-02-26T16:45:26-0400
  * @brief   AI Tool Automatic Code Generator for Embedded NN computing
  ******************************************************************************
  * Copyright (c) 2026 STMicroelectronics.
  * All rights reserved.
  *
  * This software is licensed under terms that can be found in the LICENSE file
  * in the root directory of this software component.
  * If no LICENSE file comes with this software, it is provided AS-IS.
  ******************************************************************************
  */

#include "forecast_temp_ml_model_data_params.h"


/**  Activations Section  ****************************************************/
ai_handle g_forecast_temp_ml_model_activations_table[1 + 2] = {
  AI_HANDLE_PTR(AI_MAGIC_MARKER),
  AI_HANDLE_PTR(NULL),
  AI_HANDLE_PTR(AI_MAGIC_MARKER),
};




/**  Weights Section  ********************************************************/
AI_ALIGNED(32)
const ai_u64 s_forecast_temp_ml_model_weights_array_u64[1583] = {
  0xef02260b342e342aU, 0x15141c172839300cU, 0x2ad733275429ec0cU, 0x127f5ee7f0c1328U,
  0xd8fa3f1615490753U, 0x231e552df8fe241aU, 0xff55e2d24859eabcU, 0x4504f95741fe9b0eU,
  0xe6c74631af8104e2U, 0x4d4c4907a8ed0479U, 0x3315489615ec3fd6U, 0x56a623da232896fbU,
  0x99f4d8e515673aedU, 0xfcf7de30751f0930U, 0xfaa62c3d350f4a0eU, 0xc64158541540ffe6U,
  0x8e3832dd487fd922U, 0xfb8102f80b1520f3U, 0xcfeb07ccefebf2a3U, 0x5facd07f3029b1fU,
  0xf2ba221b38d9ecb1U, 0x9620c5c5420b6315U, 0xfefee921a33be3e0U, 0x12e62334270eddf7U,
  0xcd2b69420ef8e905U, 0xdb1c360d0e40d3f2U, 0x741bff171ad5fc3bU, 0x44faf30a81ecf0d7U,
  0xeaf7b371981ea53U, 0xa808fad2c8d3a9bcU, 0x1a6ccffccfeabe01U, 0x21e88b36a7ad0ea9U,
  0x2bfaeb0c29b7cd60U, 0x2cd2a601d79cb2d2U, 0xefc52ca6e863e539U, 0xfc20a714c6e01f24U,
  0x12d2f3dde21f2dd6U, 0xf012fc134f3ec5bdU, 0xfd12fa7ff606acbdU, 0xbe2f3eafb881b45U,
  0xf1fddef7edf0f9d0U, 0x4e6ea8108f9da09U, 0xa208ce19e7d60ae4U, 0xb3e539d5d53ccbd7U,
  0x20d0cce11086fbe2U, 0xbaedf7e910ecfcf0U, 0xef090adedcfaf6a5U, 0x13f817f605bfcaU,
  0x17080f374eabbcf5U, 0xd70e610bdb7f2322U, 0xe8db42a9472f08e7U, 0xf01f20da0fea10e9U,
  0x4030f6f8ed12c6fbU, 0x1ce1f2fc53dbfd11U, 0xfaf71a6cfeecdf79U, 0x7117fc1f118470dU,
  0xfc03e42b2441d5U, 0xe40df42afd0b7f0fU, 0x391c3206e1720507U, 0xf8c93bf755120dc9U,
  0x12b6ee51d0220215U, 0x11e009e73ffdecU, 0xfffffe88ffffff7aU, 0x131fffffec3U,
  0xfffffa7e00000001U, 0xfffffbf2fffffbc4U, 0xfffffe74ffffffb7U, 0x4a3402dafffffeddU,
  0x7b72481f2b1f5dcU, 0xc003ae18d54d20caU, 0xeacecc15a83cae1bU, 0xebc9d3fefe4cf6e5U,
  0xe60a1602b9e7c4c8U, 0xa7fe13e7bcdacc17U, 0x81bbc534dcfbd0U, 0x282df8dfd8b03edfU,
  0x2bc8e2f1c7eb815bU, 0xdbef1cb53a4131f3U, 0x9efac1480d55e199U, 0x31074620b0db300cU,
  0x40db04098a32de84U, 0x1f2922eb1abedfc8U, 0xed0becc3fed92417U, 0xec590c23f42a1481U,
  0xfb0b0c143e21e6f3U, 0xcf4def252be3fdf8U, 0xdbcf27d05319ec20U, 0xfbd2dd86c08581f5U,
  0x39254ee6fdf7a9U, 0x531822f181b4bbd7U, 0xcbbde2e9e930f241U, 0x94260902fc5ddadeU,
  0xe20711fa9dbfe2a2U, 0x20ffe58e41fc1ec9U, 0xfbab1aeaf7bfdb0aU, 0xdaf366f516820002U,
  0xcc8b2470afc8145U, 0xe2e1228129f74118U, 0xeff3edfbf1dccd19U, 0xbcee8a0bbe9f310dU,
  0x6d990e33a8cba3aU, 0xf1b1fdf023f2f8f5U, 0xd2710f30807f4d3U, 0x5d91fe681e5bdcfU,
  0xd71ceba4ca1c170eU, 0x370a02020811e2e5U, 0xca4110206a143bf2U, 0x81f635fd64d80df8U,
  0x586b5561e83fU, 0xfffffecafffffecbU, 0xf5ffffff75U, 0xfffffec4000001a5U,
  0xffffff94ffffffc6U, 0x19c0000006fU, 0xcd5f7fef7f0e7f40U, 0x2454b7c48c7f55f6U,
  0x577ffe27961a817eU, 0x81813a813681U, 0x0U, 0x0U,
  0x0U, 0x0U, 0x0U, 0x20c70636cffa0b36U,
  0xe42381d87ef7647fU, 0xaf17ff814572602U, 0x7f0a14ea1518e735U, 0x27470bc7c01b9ef0U,
  0xa8198a51203c2040U, 0x8f32f6f114c77f6aU, 0xeef0a9813eda4a81U, 0x81af1250bdb936ffU,
  0xfd34e1d03fad9b03U, 0x4bf47f5c01dea6fcU, 0x1f1781f23802fa52U, 0x8110f6302cd8fdedU,
  0x3e3b201200cf060fU, 0x3a40048105ebbef7U, 0xf5c814f96dfe48d2U, 0x6a4a4e35aac87ff0U,
  0x97f8d2c0467f46dcU, 0x2f13300bef81a037U, 0x2adc6f0903cf2d81U, 0xf8c01062d874d039U,
  0xe6853922f2813781U, 0xfd177f42145b7e1dU, 0x818ee96a4e46aaccU, 0xe87c73e616f1a9c6U,
  0x6448d9b31d7ffba0U, 0x810b0ac7dfd43ff6U, 0x400981f73ecfd494U, 0xd081ce6ad6f795d9U,
  0x2af1199732ef41d4U, 0x6f3ab8ee7ff74fe0U, 0x10ef812d9ccabbf6U, 0x81b0d82f1c12f70aU,
  0x2f5e2f34340a1134U, 0x3baa3e7cc87fa5b3U, 0x2acd4500c117fcfU, 0xccf7e4eaaa81eb25U,
  0x13f6fa810be82b2cU, 0x1d22fdcf0e00b107U, 0x32e6fa810cfcefd2U, 0xe6ffb308e8ee7f13U,
  0xc0291fce17815132U, 0x8f1781250c020f10U, 0x7f04175afdf51bfeU, 0xc48f1cf0012a3f7U,
  0x118efcff16d1241aU, 0x5e2f99a0e1e7ff9U, 0x7f5719367fb9518fU, 0x69ef11419bf3e607U,
  0xe7fadab0cd0e812fU, 0x95ac191430f98186U, 0xdfec0df8da810b18U, 0xbc98d9150cd1ef03U,
  0x462d160881631f38U, 0x137ff3ca94f50212U, 0xc4ff9d7e8931d81U, 0xbe4701e0bafa1e37U,
  0x18ac0a7f64e9ffU, 0x7f42e47fd0afe407U, 0x24de19c44f3834beU, 0xb781da2ced0b1af4U,
  0x2cc881dd1420206bU, 0x56d0f2d0130017e4U, 0x2e804ffe70dc87fU, 0x7f55d2e1efffd6e4U,
  0x213d7d7e7e381bbU, 0xdad587cfaf051824U, 0x14b806ba043f0b81U, 0xa9a1b1a1c819020U,
  0x327ff735c13b9e02U, 0xe605097fdde42a10U, 0x25cec781cdb40547U, 0xe8e718f45d49f88eU,
  0x2d3e08390d14057fU, 0x474cca81ce39eef6U, 0x79350c26e6d581f7U, 0x928b5d17f092c16U,
  0xedeb818316f1dc18U, 0x23053118bbdb9f76U, 0xfc9091ced812cfaU, 0xfffffef800000025U,
  0xffffffd70000001aU, 0xfffffd4bffffffdeU, 0xffffff4a000000a2U, 0xffffff76fffffec3U,
  0xffffffe10000003eU, 0x1900000094U, 0xffffff1bfffffe41U, 0x660000002dU,
  0x12cffffff82U, 0xffffff37fffffdcdU, 0xfffffd06ffffffccU, 0x18000000f1U,
  0xffffffcaU, 0xffffff80ffffff57U, 0xffffff5effffff00U, 0xfffffe81fffffff4U,
  0x1900000022U, 0xffffff34ffffffbdU, 0xffffff3bfffffef8U, 0xffffffcf0000005eU,
  0xfffffe980000000dU, 0xffffff21fffffe9bU, 0xfffffe970000007bU, 0x81ffffff94U,
  0xffffffc4ffffff17U, 0xffffff90ffffffd5U, 0xfffffdf4fffffd0fU, 0xffffffc400000003U,
  0xffffff4700000096U, 0x8fffffeecU, 0xe0000002aU, 0x9a7f47f76e140bfbU,
  0xc07f8177877f817fU, 0x538ece9481ed7f7fU, 0xc518157e2e7f3481U, 0x81ce7f7f7f9c7a20U,
  0x25817f7f81817f7fU, 0xe7f669fd7ae5981U, 0x817f9ac41b6b9b81U, 0xe03c7f817ffe6481U,
  0x7f36637f90bd3750U, 0x811381b331b0f3beU, 0x7f818181f62d7f28U, 0xc47f8dccf47fc5dbU,
  0x811c523bc754b12cU, 0x307c7f7f3681c4d6U, 0x88ec81bc62817f2bU, 0x7f03b843fa7f7f88U,
  0xb4c534a0811629a4U, 0xc97ffb7fcc81e7efU, 0x46e4edbb7f093128U, 0xd5be0422c025817fU,
  0xbe33f4325e3749cU, 0x81df3367814d7f22U, 0xa4d33e81819be15dU, 0x0U,
  0x0U, 0x0U, 0x0U, 0x0U,
  0x0U, 0x0U, 0x0U, 0x0U,
  0x0U, 0x0U, 0x0U, 0x0U,
  0x0U, 0x0U, 0x0U, 0x0U,
  0x0U, 0x0U, 0x0U, 0x0U,
  0x0U, 0x0U, 0x0U, 0x0U,
  0x0U, 0x0U, 0x0U, 0x0U,
  0x0U, 0x0U, 0x0U, 0xfe010047e712ea03U,
  0xaae9f1f7fedfdf99U, 0x49ddca0d2827d5efU, 0x18c338fd0db304e1U, 0x91d0ff804130016U,
  0xbec81ef32ece410U, 0xf9eff8fcfbe6f0f2U, 0x13fa42d826ebecccU, 0xf0e7ef16d50fed1aU,
  0xddf70a88010acd0bU, 0xdcf30e05e754c320U, 0xe2020911dee5f855U, 0x43200d14060fac07U,
  0x2d0a1c4556fe05fbU, 0x2f1ce424d181ba20U, 0x6bb28391be806a1U, 0xfd8d00d9deeaf944U,
  0xda03ddff0bf4d8efU, 0xa2f30020007d4efU, 0xeff11cd7f6d41560U, 0x20e3fafde828000fU,
  0xf17fd60009f8e2d2U, 0xf523d6f30c3bc92dU, 0x25f91e3ae7e51aefU, 0x11dcf6cec92f2741U,
  0xba17162125a2cf05U, 0xeb1b1fff0f74c8cbU, 0x89fb2926f0b17f22U, 0x64003853cf300340U,
  0x1820dd1729affa0cU, 0xfef9ade80c29e629U, 0x3e11620ed9f834d6U, 0xdeb107c4ac0ee529U,
  0xef06050701edf10bU, 0x421b1000d03ab8e3U, 0xd403fb7b13123960U, 0x43212630b62afe4cU,
  0x27d8d2077fb80491U, 0xf70c97f717f30555U, 0x30e61f0bc7325a8aU, 0xf4fc003817fc1f2dU,
  0x79eea3b6f0d334f5U, 0x400f6f047fddfe3U, 0x251ab9acd803dd37U, 0xf013fb06bf0735U,
  0x4f1f7f40770df1dbU, 0x6a46ff0d8323c336U, 0x2ecb20e21528edc6U, 0x1bcf1ecd04e3f2f7U,
  0xbf43102ee16ed20U, 0x207f02209e0e70dU, 0xfa2508ed3fee0b04U, 0xde55010ee8ee25f0U,
  0xf9f7eba73bcbd7e4U, 0xee390cfd96f21fdcU, 0x3008f432b075d681U, 0xfdf1f410ec1914f0U,
  0xd113fac8e9ee0bcbU, 0x94e2e7145afc9810U, 0x18011b0d0c1be10dU, 0xf34a080cd0f2214cU,
  0xde021bf42eefbad7U, 0xb43c121981d80704U, 0x5ce2fcfbfe4605cdU, 0xcdffde2de1f0c52U,
  0xd1dded0b2aceafefU, 0xfb1114ec057fbf14U, 0xd5051037c9cd4211U, 0x28ef0705bd341047U,
  0x3b17e9eb13f0e7eaU, 0xf9b4fa0cddcd32U, 0x4ff14f20f1280ce4U, 0xcd14417ff202f71aU,
  0x201f9b614e2bf27U, 0x24d0a6ec2042c2cbU, 0xf5daebee03e30906U, 0x1fff0afceef2e604U,
  0xfd0d49d50007ee04U, 0x1bdaed1df60bf413U, 0xfbb62b0adde603ddU, 0x12d7faf4f61efc23U,
  0xd103c6ec1501d5e5U, 0x26057fec240cd10aU, 0xf2fb4ffdf2cb0a47U, 0xfde8fffed90e1d2bU,
  0xb24c3e115cdfab8U, 0xf1eaf0fcf4fcd712U, 0x24d51d0d04ca0cddU, 0x3fe16f59c370d03U,
  0xa6c12ed9ec81dbb3U, 0xe2180e234df704U, 0xf32b1a19f3b17f12U, 0x3f3d1627e87ce136U,
  0x1f12f6f505f1e7d6U, 0xfaf4a1fa0fcfb937U, 0x19c15338ef2125feU, 0xcd30738f82112f0U,
  0x607fd20400180ab4U, 0xd7d1fb10401ffd12U, 0xb1f83c014d0ff113U, 0x1add1c4de2ebed13U,
  0x7401b9b33cb9bad7U, 0x1003e90a1346921dU, 0xf4271e67d5bc015bU, 0xfeb0fcbadb011111U,
  0xcc0017b61300f50fU, 0x56da7fb10617e0adU, 0xef951514deaf112fU, 0x13a0a1bf408d4f5U,
  0x2cf650ee06e50628U, 0x1efce6fd03eef30bU, 0x20db29f3c2e1fe2cU, 0x19e1ca29d7fe0224U,
  0xd8dafde60e0512f1U, 0x191f0cb64f190206U, 0xf6fe0aedc5d4ff7fU, 0x1bc9f2edfa042e08U,
  0xf72f262718ef02d2U, 0x9b240129e40dc211U, 0x15f10b39ecf5f80dU, 0x2aeb15f5e3f70113U,
  0x14e7e522ffe30ae8U, 0x41f7161a50f10de8U, 0xed1e2611f495e8f2U, 0xfb70012af6182a09U,
  0x806c5a85911dc00U, 0x17efe915caf8daebU, 0x750af209be310381U, 0xe12a0e18ed0bd636U,
  0x32fa8091c04bfe1U, 0xcf14fff7051903f1U, 0xe6136512c5fa1e53U, 0x65f012f3fe0c0bfcU,
  0x4724c512c8f101d3U, 0xd605ef07ae41ad07U, 0x10b3c1e7fcd0863U, 0xe9bb2bf100f6f85cU,
  0xa0df4272becfee1U, 0xd1fd11b9cfedede6U, 0xd840360d2e93f4f0U, 0xfee01f1701fd1c23U,
  0x670715c105d7e208U, 0x1036eeee0605edf8U, 0x17e10b131846ef81U, 0xd51eb941d8051146U,
  0xe4f01d8d26daf2bbU, 0x3ef4adc8d929e4beU, 0xf9cdd90705a0f222U, 0xf72b1901ee0c0f08U,
  0x2bf57f2115d74eeaU, 0xbaf2e90a00edf211U, 0x50fb381ab3e606e8U, 0x1c30cdfc12c0535U,
  0xbff13cdf3681d701U, 0xf9e61d06e742eeefU, 0xf1f21e26fbbc39feU, 0x444b2339ac6a066cU,
  0x3016e9bd0201fcddU, 0x42eced328ccdf12U, 0x3eca5b4eee0020e6U, 0x19d704081601f637U,
  0xfb0cfce40ad600f6U, 0xb2bdf121d12bf5f6U, 0xf1420ffed0f4e906U, 0x1d150012d2e1db11U,
  0x490535074df5eb09U, 0xaa5c16f08125e6eeU, 0x6eb1f2d095ef3a8U, 0x1ea9f6cb0c0c2211U,
  0xde6250a17edfa03U, 0xf9f136190401f0ebU, 0xe9142d09d99103e5U, 0xf2c8f2e7f529fae2U,
  0xfa0781ba0201e4c7U, 0x2f3fbff1ff0f9faU, 0x25d6d136c34ef0acU, 0x31cd29e89e16dc55U,
  0xacf90eb739c3f9f0U, 0xbaee5949093ba996U, 0xdb3b9e7305a33a7dU, 0x42060b3ac37f252cU,
  0x531d23f55b3011f5U, 0x632ce291d39ec31U, 0x7bb15716aae31b14U, 0xdd0512d03ce323U,
  0xd2de05eb34b120f2U, 0x2b29fd21467fb606U, 0xd3e8142902af4f48U, 0xfbe02e47c544f536U,
  0x4933c9140dc5d8f3U, 0xb05d51000dcc952U, 0x47ee4735ccfdedd6U, 0x15ff2154e01708faU,
  0xee2cd4b01ee5dcfdU, 0xd7f50c13cc4de815U, 0xe12190edaf8ff1fU, 0x1910fdf603f8fd00U,
  0x1e1653f1ee909ebU, 0xe149f321b5810811U, 0x26ed163d0a1d0783U, 0xeab5000feff0f8e4U,
  0x8f060bf49df0e9fU, 0xfdd6e8f83c2ed5a7U, 0xfc08811ed68f3c34U, 0x3b17ee020174f3ecU,
  0x153bd6e81223a8d6U, 0x4ecc9220cdbd370U, 0x70aa1c0d51d7fee5U, 0x1b13f87ffb2f2c0cU,
  0xc8e2d0b70de30feeU, 0x13fbf32e2d0fc7fcU, 0x151b3ae501e6f331U, 0xbeaf0f3ce0ddb16U,
  0x34ed5efbefd507d8U, 0xe0de12fc80de918U, 0xfbd8170af0dcef11U, 0xb3ee070ab5221c72U,
  0xb7691adb5ca8ddf3U, 0x3b1520eb0067fb04U, 0x94e10847d89e341aU, 0x36fb217fcb172244U,
  0x2c4faaf326dfd2eeU, 0xf8e4dfe403fbd035U, 0x4bda633adf06200aU, 0x3b132ee0b07060fU,
  0x1debf2070fece9d6U, 0x35fc17041201e6e8U, 0xdc43bfde4bd0aedU, 0xfad4f2f1fe191611U,
  0x10fc81cb0d29bfbfU, 0xeffdf4060f15f8e9U, 0x6de4083beb38faa1U, 0xe5ccfbe5e817eb6bU,
  0xc9e9ebef60d8d5c2U, 0xe1db7fff324ac0dbU, 0xa52b0f3506c62737U, 0x4aef1769d13bbd23U,
  0x4448c7bc60ce07e6U, 0xdfd8bf041b39f739U, 0x3af6546fdfef160eU, 0x585050b873005fdU,
  0xb3002fce22b6e6daU, 0x61ef04b2130ebd0U, 0xa7dc2328dd816136U, 0x2a01395ddd7a0e58U,
  0x4f4de5defefbf5aaU, 0xfdfcc80100f7fe17U, 0x5ced3075fdf765f5U, 0xe0d0fb0381eaf425U,
  0xdf142a1522d602ceU, 0x13ed50cd4b11c6e7U, 0x9bf3e822d6c2360bU, 0x15023a6dd2340f0bU,
  0x47412ec020e210f0U, 0x15060e0c1817ec14U, 0x33de1069e33b14faU, 0xffef62de01b02e8U,
  0x290bcdb3f9f10d8eU, 0xbfc111270609f8f3U, 0x280e30e616f102f8U, 0x2eeefe207d21eU,
  0x2a087fdce5e9b607U, 0x2a20f50fe812ee26U, 0xbea38ee081406a7U, 0xecd5fb0db32bd403U,
  0xb4f7f50f26d8dee0U, 0xdee0ae502330911U, 0xa5fbdc20dab95017U, 0x2f24437fb9712613U,
  0x2c56521c2d0501ddU, 0x306d5f50720f429U, 0x5de36444d42ae8f5U, 0xd4ebf609e3080112U,
  0xf606fbfc05dfffd7U, 0xee2b127f3411de0bU, 0x12f8ff0ff1e62043U, 0x11dd2305de1c0f15U,
  0x1643f0fb040a05d4U, 0xbf2d8eb0bf2fe1cU, 0x29fbfd12fd101516U, 0xe8b30c0315e61630U,
  0x35d99ab420f2f0f8U, 0xbf814e4231cbee5U, 0xf60deeedd119b16eU, 0x13e1160d0ff547f5U,
  0x2a1157210d35310cU, 0xfb0eed44cbd38110U, 0x56f1f3160e1306c3U, 0xebacf7a619f9ff19U,
  0xfdd9f80dd601e4U, 0xcfc87febdd1deddcU, 0x120c3803c401f9f8U, 0x26feead40b0e22eaU,
  0xf7125ad9e8efede3U, 0xd014fa07ee289cfcU, 0x320709010603fec8U, 0xf00e0eeab51dee51U,
  0x248f024f503a9b6U, 0xf7df5341e652d101U, 0x81f1fb330fb55a0aU, 0x342be112cd5b0727U,
  0x2147dfa21ad106f3U, 0x1f07ccf406f8e01aU, 0x31066f3af7ed4a0dU, 0xac6d701e816f249U,
  0x4600f71d31a6cce3U, 0xd7ee3ef2f07f13e2U, 0xe9562f0d203e1a1aU, 0x42384614955a0e54U,
  0x120ae5e0049ff7e2U, 0x3e6c31e1511f731U, 0x5401051bfc1febd1U, 0xd196d2228141e44eU,
  0xf1562e1acd2ae2dcU, 0x70d113a1d5fe624U, 0x8f45174a2bb82afcU, 0x4d184179000ffe30U,
  0x603100d957e9af12U, 0xf6ecb6ea09eec754U, 0x5430a5be303eecaU, 0xcd3a20cfc164e2bU,
  0xc6d9c8cb3bc902c1U, 0x8f1031147fef500U, 0xec2433ede5f2ef7fU, 0x1efe1de8db41f51eU,
  0x133c3f17dbf90a18U, 0xec23d00ae315e130U, 0x13c62b03ebdae312U, 0x7e30efaa32aee15U,
  0xc80af20d3bbde3bbU, 0xe6f015f3f96eeb02U, 0xdffceb4ed9b04c43U, 0x7fec122b92430721U,
  0x3c6420cd09d40bbeU, 0xf8b5ec0c04e046U, 0x3ef57a24ebeb09f2U, 0xeb02180eb412f253U,
  0xd0defec410d194b4U, 0x12307511742d711U, 0xc3101829efd85327U, 0x24013814986be57fU,
  0x5018d4c0f8d2fbdbU, 0xf02bcfe1506ee38U, 0x62066442efe50defU, 0xbcc2900ec1314d0U,
  0x47fb4502eb220722U, 0x4e1e03f27f24ed08U, 0xd21aca1457f9252bU, 0x21f9101bf8e83bfeU,
  0xf2e4cedb4adaed02U, 0x3ff2e5ad162dedU, 0x2720db0e9662089fU, 0xbbe306f5eb070729U,
  0x131e581b21fbc7a7U, 0x14492dfb357db5e6U, 0xa2b11223e89f1413U, 0x420e1b3bdf28e1ffU,
  0x7f21ebe7bbf4faebU, 0x47fedb2af0009645U, 0x9f94402a60645fbU, 0x15cff714944cf048U,
  0xacd6020525b9cce5U, 0xedd01051f7fd105U, 0xc118f130e0b95413U, 0x4504160382350c63U,
  0x242af22c0deff1eaU, 0x1fca2fb0ddad414U, 0x60cf6648f3f70505U, 0xcad509d2a57e004cU,
  0xf2fc0eddfbafc5a6U, 0xeef22a030062fa31U, 0x94050e450f9a7f2cU, 0x5d1ef555c0661608U,
  0x933f6da21c3c8bcU, 0x4fc9f15f524cd7cU, 0x75f44d2de8fd089fU, 0xfebfeedf814ef54dU,
  0xf923230b3eaec820U, 0xfb2a4313f04efffbU, 0xc2140b5905b0681dU, 0x621a333aac54f84cU,
  0x1f14f4de1e1be6d4U, 0xf5f8a0eaf813f12bU, 0x5b025d72e81141daU, 0xede3cffe04201d1aU,
  0x7e6e0e804ee0f07U, 0x27d5f1f17f0aec00U, 0xf203d6f32bed0434U, 0xf9120519150eb9fcU,
  0xea1839f4f316e1e8U, 0xf1050c4be9419feaU, 0x21f9f7f40ff11900U, 0x1bd40c76f0022d06U,
  0xb1c0d75d1bedf5e2U, 0xc9a41de6fd23dbf5U, 0x11936003507ef15U, 0x191c071cfb008127U,
  0x3a197d52fbe89de8U, 0xf6050340f11bbfeeU, 0x31b001eff21cf9f7U, 0xe5d705f4b31bef41U,
  0xcdf6eb015ab6acdbU, 0xb3f171a07619807U, 0xb914294ecd81434aU, 0xe05033fa8600430U,
  0xe72822d0280ffacaU, 0x16ecb0f30619d828U, 0x5ec67e3ef9252aefU, 0x2a8736d7fdec02ebU,
  0x41062aeafbfe1be1U, 0x1fe41d114e0f1df4U, 0xec0f1f1f21a32b13U, 0xa13d6f9e83d5700U,
  0xf6ea8181662aa4e3U, 0x1a22def5c31f51f1U, 0x6fe4072dc42d1a93U, 0xf1e61baee4e0180aU,
  0xc50a38db18f3f60dU, 0x25202126e7180409U, 0xe6f909fc06a121eeU, 0xe9f9f80b053ce129U,
  0x1d20ed242cf91910U, 0xb03fadb22280b0fU, 0x44f82bff81f8e8d5U, 0x1bb1d909181bd73dU,
  0x481aeb012bdee6faU, 0xd83b34d81b3ad1edU, 0xe80840410d101c08U, 0x4a0b0ee6c724fd01U,
  0x40eab6e31edef6c9U, 0xf9e60d2205da02e5U, 0x1a0105260e534281U, 0x2faffaeef805001cU,
  0x1005101cf9f300e8U, 0x5f1a1e05e0fad011U, 0xd50beb0c35c1f613U, 0xb540d2705090b1eU,
  0xee6b7c214caa8f5U, 0xee260a02130c1be3U, 0x27f3f50de1370b81U, 0x8fdff32fea52f638U,
  0xcbc3d0d120b3d8c1U, 0x4533ead46b52dbdaU, 0xd4e41627e6c71644U, 0x3016094ad7401b1aU,
  0x256e01b4e5ac35caU, 0xe26ee1a0e558315U, 0x7fcc2542bd12e0beU, 0x2bd4d602cde3f7f2U,
  0x1a0efbe502fb0519U, 0xdfff6ef3f01f9ccU, 0xe85e0b1a3a19f120U, 0x16020c08eef1e614U,
  0x3a09fda37ff4ccc8U, 0x2013f81c943a17fcU, 0x26e9f818e744fbacU, 0xe4d5fafbdf0ae34aU,
  0xc5dfecf353c401ddU, 0xf11c09f01c7fdd10U, 0xa9f0f458eb945103U, 0x74020817c54cf554U,
  0x1644e8a932e21d01U, 0x5db94ef0209cb3dU, 0x63f73563d20114e3U, 0x37d04c02000e1f0bU,
  0xe60cd316deed0407U, 0xe119fce4fc02d6feU, 0x20bfcdee7dd02faU, 0xff28072004295000U,
  0xf7eefcd0471cd830U, 0xd64f0303d40c18d9U, 0x1d18ef12f130ce81U, 0xf0e90326cb27e660U,
  0xccd9e62a10e3c5d8U, 0x1f0cedf8ed450005U, 0xb6fc10330fcc070cU, 0xf6fe507fc52e0e41U,
  0x391328100fdde5d6U, 0x3eed20807dcfd20U, 0x29f44ab3ed04ebf2U, 0xdd01ff16db27c416U,
  0xfdf501f610dcd0daU, 0x9083005f441faf0U, 0xe10e0534ffb46202U, 0x3b330412d536f811U,
  0x1d25eca026d412edU, 0xfff6cbff08d6fe2aU, 0x7fda2b4204010adcU, 0xefd93b400e23dd07U,
  0xca1ff0f1fd091a28U, 0xd50edc06114bf8f5U, 0x1cb7261fd3d20519U, 0x2f19e8f4012de8f8U,
  0xffd6302b32263b05U, 0x557fe1fb2810607U, 0x52e62d1afcf5cb9bU, 0x2994ba2ff711fd1fU,
  0xddcffb98fffb100aU, 0x870e072f4fedae12U, 0xd2307cee2fd75U, 0x14effcff16f421U,
  0x2f3b46e4f7c54000U, 0x21fee1190ae1fd35U, 0x3fd936d719e01781U, 0xafc20401e76c1f49U,
  0xfafc10112ac7e7b4U, 0xdce506130b2fd303U, 0xc5392f17f6de3623U, 0x58257f1faf33ff3bU,
  0xfd2511cb02fdebcfU, 0x1efbdb090a2dc438U, 0x33d3491fe9d51a1dU, 0xfffffe81ffffffa8U,
  0xfffffd38ffffffd2U, 0xc00000026U, 0xea00000126U, 0x3bfffffef9U,
  0xfffffeee0000006bU, 0xffffffc6fffffe92U, 0xbfffffffc1U, 0x75fffffeafU,
  0xffffff910000003dU, 0x1120000003bU, 0xfffffe23fffffef2U, 0xffffff3cffffff6eU,
  0xfffffec0ffffff7fU, 0xfffffdd9000000cfU, 0xfffffe75fffffe9bU, 0xfffffed5ffffffe9U,
  0xffffffc8ffffff7eU, 0xffffff0effffffadU, 0xffffff73fffffeb8U, 0xfffffe84ffffff8cU,
  0x6cfffffef8U, 0xffffff14fffffbe9U, 0xfffffdeffffffd6fU, 0xffffffa4ffffffc2U,
  0xa5fffffe54U, 0xfffffd93ffffffafU, 0xfffffd35000000aeU, 0xfffffdbb000000c7U,
  0xfffffefa000000b9U, 0xffffff99fffffec8U, 0xfffffe60ffffff7eU, 0xa8e0b1fbfbee8381U,
  0xf090b2d5d996e6f7U, 0x171a9faad8f1e2e9U, 0xd713fb9823e594c3U, 0xddafccab6f501d6U,
  0x1bda0b0fa1061b8fU, 0x88a10b29d09eebdU, 0xf08db00a12d2efccU, 0xbf0f59dc3511d3b5U,
  0x922e29b91b44b881U, 0xb4dca7b9ee89a6b4U, 0x330c1fcf43e9e028U, 0x450adae89faf5b49U,
  0xb236fb20f8f03e3eU, 0x13c005d6208be41eU, 0xd7a6d8d2e6b7eadaU, 0x90b4c3e6e5d7bf9fU,
  0xb48192c4c28c8fe8U, 0xe3998eb4d8d9d7d0U, 0xdc02d890ffa7af9cU, 0x22dd1222c5c5fde1U,
  0xc2d715ede002e1acU, 0x230514bf140ddab5U, 0xca98eb0df7c3ecb5U, 0x130501f3393b22c2U,
  0xff1616e40cf20b20U, 0xfcc5e1070efbe9c9U, 0x1af646f81d32812dU, 0xf7fcde2a0e26e320U,
  0xcbe319db14f1e40eU, 0xec012a0311f2fefeU, 0x28d407fcd2e9f600U, 0xa19fe0f1eae5bf90U,
  0x9fd5a1f51f81da17U, 0xfbe7b397ec88a9c7U, 0xfa261bb214b59c98U, 0xf9f712a38adc1eb4U,
  0xdf1914b7eddccfU, 0xdba0069fa9f4a6ceU, 0xcb2badc22c71d96U, 0x15430e34133b2be1U,
  0x2405cc81ed1dbafdU, 0x46163d20ced6243fU, 0x2a05e8421fede30bU, 0x21ea93fe0a0991faU,
  0xe3e574b430eceaffU, 0xfb1ad6e700caf9f4U, 0xe5f81344f221cd1fU, 0xdab2d4c0cad7b6f9U,
  0x859fd8eacfa5c3d4U, 0xcd2b4d3e9fe05d5U, 0x1c0dfd8e28d79c8eU, 0xf1ddc5afa6150782U,
  0xe625f601cef6c0c5U, 0xf2d1048fc3e09ae5U, 0xebe9d7d0f581ddccU, 0x1d220a4ad418243cU,
  0x1909d6b8f420e515U, 0xcbd0a1804c2077fU, 0xf4d4d30b2ee9a719U, 0x82d4e3f5fedee608U,
  0xfa2a1fed13040fedU, 0xce01c51505efedebU, 0x7e923f6e51c1a1eU, 0xa1ac925efcd0c4fU,
  0x6d3dff1dddaf3ebU, 0xfab010f9e3e20153U, 0xeef3d30309bc2ff1U, 0xde91a05ddc3fcf2U,
  0xec15470e040732cfU, 0x22381fc10f1d1e5U, 0x2dc06f7110939efU, 0xee01e204ecb3e6c7U,
  0xffece72d13e20013U, 0x247ffa03eef610b6U, 0xf501f710fbf439fbU, 0xddedfff4fbfbbbe9U,
  0xf0e91830f50bfaf6U, 0x160ffb85ed1de1dcU, 0xfcf7f7fefdfa1c02U, 0x9396ca1a1efbaeebU,
  0x9ccdfc101d88f723U, 0xc1dc8c89c1a7f0a0U, 0x221208eef3bceca4U, 0xddead4f1e8c809edU,
  0xc1da0df3b2e01592U, 0xdcc5c981c21f95c3U, 0xfac2f212f0a1119fU, 0xa1d5c910da2e9990U,
  0x8b83a48ed5c5a216U, 0xecd9df9604818fdbU, 0xef9f9d1f9c8aa83U, 0xdae4ddb3a517df86U,
  0xd00a2fd6e2001398U, 0xed8920d8a4f3a8e7U, 0xfe91e13619abeae4U, 0xfdf10509179ef406U,
  0x3e61204050f04e7U, 0xe4fbf9f50cf0fac1U, 0xfbfcf7f10781edU, 0xe9e11618fc020516U,
  0x2f90815f7fffb08U, 0xf6fe0a020ff9060dU, 0x5fcf106e9060a01U, 0xd6cfbd2b001fa6bfU,
  0xe5b286a5eda686edU, 0xbe7bda422c3bd81U, 0xcf1bd19314bb92b9U, 0x2bdd06938d281ea2U,
  0x211ad72fbae300b1U, 0xf2b6ecc18ed294e7U, 0xf390861bfee8e692U, 0x40baf23191dd509U,
  0xcbe51de210ffc31aU, 0x31df5edde1ccf10U, 0xd3de0818d41cc3d8U, 0x1cfde9bbd6b1fee8U,
  0xf4d8e320d4250af3U, 0xad0c3b6b5c481b9U, 0xe6b5bdede516ed07U, 0x328ae5d613909ff0U,
  0xa88e1cbf01f4bcecU, 0x2d44f3c024d3b2d1U, 0xfc815f2b4640942cU, 0x45f7c516d5412eb6U,
  0x1cd2b7e31cb7c79bU, 0x1219f2440b362f24U, 0xa5d6e0bfc41f159fU, 0x433c2cee30433ec9U,
  0x350ee0aee4ebdbd1U, 0x140f2d0f08011da5U, 0x25087f0f5b1aef29U, 0xe503f84110158b2eU,
  0x34f4391005034434U, 0xeb1bf2e2f8e32831U, 0x2016542d4016ed23U, 0xa18d8a22c7b5a4dfU,
  0xc18686eff087a926U, 0x2b1a819bde93a8e4U, 0xb717f18ad49fd3d5U, 0xdbc7dbcbd4c9eae2U,
  0xd80ffeaccb12d296U, 0x2be8eba49fefd8daU, 0x18bec9e60799e993U, 0x94d6fa03dd1ac42dU,
  0xcbe2f4a7db17c923U, 0x16e42fec0c81ffa6U, 0xf5fc0bc8e78dc9ffU, 0x15e7ecd9dff122b9U,
  0x1403d711c9ff079fU, 0xfb0f04f2e622c3cbU, 0x99eade518cae2b6U, 0x8ddcb904f1f8ccd0U,
  0x9d870caac6beae07U, 0xc812c4bae9a488b7U, 0xeacc00ca26d5baa6U, 0x1b0415dbd417d7dcU,
  0xe7df01d8d41dc886U, 0xddc8ef93cdddaebdU, 0xf79d81de0795c882U, 0xfb12e161f2f9defaU,
  0x21c3b7ebdcbbd800U, 0xed615e5f8c60a61U, 0xe00ab82401bb37ebU, 0xec07fc0debb217daU,
  0xf918162313063cd7U, 0x32b81d518dccfdfU, 0xeadbf7014f120cf7U, 0xc7b7afcd30a28a40U,
  0x859703fa46e10241U, 0x1a2f27d1f69e88f2U, 0x14bbac8ed2abfcd1U, 0xb991982901ca1faU,
  0x4630e5cec49af001U, 0xc52937811a17c6d8U, 0xb40e892c15e626a4U, 0x15120a27154630e1U,
  0xe726b5c1dd3de9d6U, 0xcce0110bceddff55U, 0xd6dbdf120fff810fU, 0xc30be4de0c1912efU,
  0xee30ff221d072604U, 0xe70aadf6f4dbf3f2U, 0xfd191cff0d0e2f1dU, 0xf51de94bf3e7122eU,
  0xf503ceb5e922fc1bU, 0xe031130cd9c70f7fU, 0xf0dae9160ffc9b02U, 0x3a1d0cfefbe8e1efU,
  0x92e171408fd270aU, 0xed11b2030411dfe9U, 0xa0e0e0e0d060404U, 0x9bd18c1f2728ceaaU,
  0xcec60e89d914cfe9U, 0x11ee90810d96a7a1U, 0x9ed18bdda86c08aU, 0xcd06d58495fbf0dfU,
  0xcf2d2afedee91daaU, 0x26b818eaa72abbbcU, 0xa92c3231ba82bb0U, 0xc0b3bad9fe13bffbU,
  0x86b8e5c404d4db05U, 0xf7f9cb0bd481f0b8U, 0xbc618f21aaae4b4U, 0x17fdecfa9b06ead5U,
  0x1300f326bff8d7cfU, 0x2520f8acc90893afU, 0x11eae81517bd249fU, 0x918881180fe3b8fdU,
  0xcdc6e7e50912e5dbU, 0xf322f0c8e0a7ddafU, 0xdde42622e38cf6d0U, 0xfa0d03d082f715c8U,
  0x1d0de311cdd5d5acU, 0xedc7fd9f8ed4dde3U, 0xd4a487f8e09aecbdU, 0xff25d93ccd060d3dU,
  0x1aeadbc3c12fbcc7U, 0x7ba1906d4c3f66bU, 0xecf6f81207c211f4U, 0x81180a09ebd19dd8U,
  0xe847311432f73bfdU, 0xdc2eaefd34ccedfdU, 0x24d9ecd84c11fb16U, 0xef0ef9da1dcfdbc7U,
  0xffb6a28818fa81d8U, 0xf81dfb92c6b8eb03U, 0xfa12fc002be4d3c0U, 0x13a4e79dc4da2bbdU,
  0xc809ecf6edf50bbcU, 0xf04c4b4f9d5c6f8U, 0x3c1971ccdcfd9d4U, 0xfba6d1e3fcd596daU,
  0xb196d6812aadb5f8U, 0xaffd1b8dcd7bcf1U, 0x2ee7eaa8eba4b3adU, 0xe40e119bc2091de0U,
  0xe7042421b4e22194U, 0x2da7f0ff8e22f3a9U, 0xf5e099d9ebc90dbfU, 0x86c9c9c0ebcefdb1U,
  0x8aa9d0f7cdb9a710U, 0xd2ffdec3dcda9abaU, 0xb61722a52ad5ceacU, 0x1d12d601aa1ddaaeU,
  0xf2fd0cf0bd221a81U, 0xd6b31f9fcb069bb2U, 0xd6e29bead6cf0fc8U, 0xc9d15737380624bcU,
  0xa4c43203d7cac5b8U, 0x4eeff3c0f1fa9997U, 0x5bec52c00b90f852U, 0x28dc06fef328e681U,
  0xc9f309fed5cc3ac2U, 0xbcbc14190c0cd8b3U, 0x9f3c35af00054c0aU, 0xf3aaa12392e3cddcU,
  0x3ccf8e85a488a6b5U, 0xb46bb1ecc90dff8U, 0xd3fd57b3b9e1819aU, 0x2513ff3d8a0ca208U,
  0x9f070f55ddfd1bd6U, 0xecbce91950011c6U, 0xa9edce43f8bcf13eU, 0x9c8eb902e5f4cdf9U,
  0x8c03e8befbd1d70bU, 0xe81c11c9f7e010feU, 0xd9c3ccdd1abdee9dU, 0x7fe201fc5f9d8b8U,
  0xefda112ce010e99fU, 0xf1cae0d6fe0ec1d0U, 0xf0eb01f1d5b5fe81U, 0xb08333009fc02bfU,
  0xee15cb81cf001837U, 0xe799f229e70dfca6U, 0xe6ec01091440fa19U, 0x2907d40d22098821U,
  0xf314b62204f50b16U, 0xce1035e000cb120bU, 0x262a27fcbd0cd022U, 0xdbf1f4e904361cb4U,
  0xe90cd0c9eadadde5U, 0x402c3e217dfc6eeU, 0x7f140303f50baf13U, 0x27ded9eadb04eed8U,
  0xdee815150fe5e7d6U, 0x22ccfff2c3dadaf6U, 0xfad3d5f111d5f4faU, 0x2e1016fb1f7f229cU,
  0x1a11dddce2f8e8e3U, 0x3190a2af3f80de3U, 0x21fdfa0a3331c523U, 0xca19f9e324288b1aU,
  0xe5240417f5f604U, 0xd8f0ecf1080a0908U, 0xe112f0cbefad322U, 0xd6bebf558dc829b5U,
  0xc905f14141ba5514U, 0xfd42a6ad17ce02e6U, 0x540e81fbfd0afc77U, 0xd345e3e8c3195c33U,
  0x13b81103d61fc512U, 0xc3d405f433eabeb5U, 0xf91b41dff6dd15bfU, 0xf5cbee17fe81fe3bU,
  0xf6f4293f03292713U, 0x440cf0f0131daa3cU, 0xe70ec70a04da0602U, 0x191cfa09f817dcefU,
  0x16e9053ec1fd1aeaU, 0x7df3824f651d6e4U, 0xfef8fd3a1fda21d0U, 0x90deb25fa1fe2b9U,
  0x11e1db27fca90619U, 0x23a505f5fbde0ddcU, 0x1410081a18c57ff1U, 0xc4f8f2f9f7c91fe2U,
  0xf416291a0c163bccU, 0xf915b792fef7e9efU, 0xfadd17143006d7f0U, 0x26131a290c3a12e7U,
  0x181aded30b02e8eaU, 0xed16101af9ef0edeU, 0xee0a23181b17f518U, 0xb9f6ea0417048112U,
  0x40a1dd103edf116U, 0xf513e7e800f1fc02U, 0x1700171c11fcd41bU, 0xbae0adeff20eae97U,
  0xebefe9ab03ad8f16U, 0xd61aced5dc81ecb2U, 0x2af40be7e7ccd9c9U, 0x2114d801faf5d7ceU,
  0xaee0f17becf22d1U, 0xf1e7e192daf0eb8aU, 0xe7b6ee2c1ca922f9U, 0xc4cacff32add17d5U,
  0xa7d0aaba1ead8a10U, 0xcbf3b1d60da381e9U, 0xd9e80dac2793e7ecU, 0xcfae22d9101627caU,
  0xd1de1bf58d3007dcU, 0xe98231b9ba0cbb95U, 0x2adf30fb1adceaacU, 0x2217080dfce4e308U,
  0x170208ddef0adebeU, 0x1fc1d0aebf90dfdU, 0xd5f0f527e1fe1304U, 0x1d0b25f80502bc04U,
  0x11009fc0d1efff8U, 0x1f1981010bc7fa0cU, 0xf4f106faec09e60eU, 0xa4dd97fc1dd3b688U,
  0x8fb481a7ec9cd4e5U, 0x2114e8aaead2c2f0U, 0x11f8fce5eeb686dcU, 0xdd27e7dec309d6d9U,
  0x2cf50a33be1611bdU, 0x3096e3bd9628a1e8U, 0xe7b4ca252d9a1ea6U, 0xf5abc5d2a70129c9U,
  0x9dbca7be2781a1d7U, 0xc48fc14296aaf48bU, 0x43c54f31b02033f1U, 0x17a988c38ba1c4b7U,
  0xb24b42abd5bc09b9U, 0x8538a1a84df7873eU, 0xc1e23318151df8bcU, 0xf930f0070e00U,
  0xf20fe1c4f51e0ee4U, 0x1d060afee7e00943U, 0xf6dfe72b00068108U, 0x9e7fcf9fe1306ebU,
  0xc17260b1c171f03U, 0xee0cbdebfd1ef1ecU, 0x320fffe03f41f02U, 0x8101ec0f19f5148fU,
  0xf0c4a3d20bee9414U, 0xf00015d7d396c1daU, 0xf51d0aedecd9ce02U, 0x20cbf010ce1912d0U,
  0x1f18eb2ab20deea4U, 0x10e2dc90f503b08aU, 0xe5e3d601e2f81ac7U, 0x14ff26210c0829a7U,
  0xf20908b907fa2306U, 0xbcc7f10301091484U, 0xf9ce0de5fb439e26U, 0xfcf5001efa038a32U,
  0xa1e1d4e04c4cf25U, 0xbff63e001df2140cU, 0x401afadf81f90df7U, 0xd29c9ed719d8e901U,
  0x9297e3e430d087d2U, 0xdd0ba8af079c9989U, 0x8e00800d281dfcfU, 0x19dd1ee39ffeeebbU,
  0xf0fa1acad4d428d5U, 0x30c0208dfed587d5U, 0xf8a019fbefb72b98U, 0x506fb12023b16c3U,
  0x11ac8ccec0506eaU, 0x3df0519e1ebf92bU, 0xeff701080319810cU, 0xef03e2e11b23e6f7U,
  0xf101fc231cedf104U, 0xd209f0ee11faf3edU, 0x26140ae8f4fef618U, 0x917e57fe3d1f324U,
  0x21dbae1135a0edd3U, 0x28adfce817ca1220U, 0x2eef3242eaa7600U, 0x9ec2130cd6ae4ef6U,
  0xeb0b664402f414b7U, 0xfe1bb1cd1af4c3c9U, 0xeec90b173113f2f5U, 0x9db5b6210f1ed2aaU,
  0xc5d3b889daa787dbU, 0x1f8dadae6c3e3caU, 0x12eee4acf5cecb18U, 0x1b1e01add3f5eda4U,
  0xc9e407f79922ea96U, 0x13d60ba9fdcc81daU, 0xf196fc00e6db1393U, 0xb5c1d8ce1be6ccc0U,
  0xafbece3cdfab94d8U, 0x11ec8dbcd6b1af81U, 0xffde10ea14cb86a5U, 0x1f4eaa1e3d508b6U,
  0xcf22031bb0dde6d5U, 0xd0a02c9f90ed9bd0U, 0x2ca9a629cfcbdcdaU, 0xa7c7f0bd0d1719fcU,
  0x8ea1f0a7ccddc4e8U, 0xdd97f6c59dc9a0U, 0xfafa32a30681cfe1U, 0xfedc24fabdf2feb4U,
  0xd40fdf289505cbb2U, 0x5ffe1bdcdeab1bbU, 0xc500eee200950b98U, 0xbdb5d501037fbffbU,
  0x9812c3b30d36e01bU, 0xb09a5daefe1fb25U, 0xef18e3bd22e4c601U, 0xe0e5ef8eae14e19fU,
  0x1df505eaeef102f3U, 0xfc8520eed515cacaU, 0x18a6f7f4efe3e28fU, 0x620ed4eb0ebf815U,
  0x1af3ceb6ccfbe6fcU, 0x1ce708fcfdbdfe63U, 0xc8f3d72dfde9f9e9U, 0x81e53bfb01da31eeU,
  0xf5280e2029fc27faU, 0xf721c1f71fe4eee4U, 0x8f5f9daf1052d08U, 0x32361c1b1b81d1d5U,
  0x190703c70717b915U, 0x21c5342505fc20cfU, 0x11102f07045301U, 0xf0af126fec09d19U,
  0xfaec36d1f921e816U, 0x1912c6d5ffe0091eU, 0x228fce4260ce422U, 0x914fb3d0081caf8U,
  0xff1d5f10028bfc9U, 0x454b1913f2a916faU, 0xd5f7052b19f745e2U, 0xb8040c03f2c6d4f9U,
  0xe6d2110e09fafff4U, 0x4519d2bf0edde008U, 0xed16e70be2141106U, 0xc88ead052205bd09U,
  0xccbcdca519b8d7faU, 0xd9ebb68d1bd9a786U, 0x3cd28d61fb2ccd4U, 0x26f6f5ce94f20cc5U,
  0xfcbdf7ddaec5d38bU, 0x16eeeb03e7cdcd81U, 0xcddbbb13cddd0789U, 0x16fe240a236b2da6U,
  0xfd32e8d803fd1023U, 0xa0fc0511a8f6fed9U, 0x15e606feff278137U, 0xca2dcc030f06a410U,
  0xe8ef02d400d91107U, 0xabed15fe01cefd14U, 0x230f05c3c9f91d17U, 0x838d8124ea1ae436U,
  0x82f2efda0906ac09U, 0xe2f80fc40384bba7U, 0x300ad9d81c8de5a7U, 0xfce202949c16e582U,
  0x151d2613afe40dacU, 0x9d707e9db1de6bcU, 0x1afcd7d9eacad4bbU, 0xeee8e8060a0717e7U,
  0xe5f6fd161eef3114U, 0xc818e1ed23d2e502U, 0x706f8f0dd0981feU, 0xfb12cffbfa1557f2U,
  0xf009e4160506dbffU, 0xdff7dd1409f8fcf8U, 0x14f003eb0ff3faf1U, 0x813de5c5b7e8218dU,
  0x83e093fd182f83c8U, 0x3d29aa12a9a2bc12U, 0x87913caa21458f9dU, 0xe4e01987df96a68dU,
  0xae35445bb72606c3U, 0x5b3edf5a03c1993U, 0x33ec37df432bebf8U, 0xfffffb61fffff3d6U,
  0x8d4fffff294U, 0x81ffffff41fU, 0x3eefffffd7bU, 0x23f00000032U,
  0xfffff45bfffffcd0U, 0xfffff524000007b5U, 0xfffffb86fffffd22U, 0xfffff3eb0000084eU,
  0xfffff1e5fffff2beU, 0xfffffb4700000050U, 0x38500000494U, 0xfffff56bfffff37eU,
  0x6d2fffff4daU, 0xfffff855fffff035U, 0xfffff22bfffff930U, 0xfffffd38fffffb86U,
  0xfffff92300000844U, 0x4fa00000635U, 0xffffff83fffffa8aU, 0xfffffbfc000004ecU,
  0x20dfffff2b4U, 0xfffffb49fffff6c9U, 0xfffff2f200000249U, 0xfffff4de00000883U,
  0xfffffdcb0000039bU, 0xffffeea8fffffa6fU, 0xfffff354fffffb5fU, 0x9a800000360U,
  0xfffffcbf0000076fU, 0xfffff3150000084cU, 0xfffffb6d00000721U, 0xd5f9f8fb3fe01431U,
  0xe8e74a7f2b15e4deU, 0xd1d3ebeb0af34429U, 0x3aeececfe003fbe1U, 0xe2dde61ddc25e71aU,
  0xf9c61ef116dcee19U, 0x53e507f3ebd70d3aU, 0x11ee42240b002ceeU, 0xcf00fef850fa073bU,
  0xea32fa7f14eae2d0U, 0xc9d52bdef80d4133U, 0xfecb6fcd6d418f9U, 0xe3d3de2ca534fedfU,
  0xddc918ea18ddef24U, 0x6b08110ae9e8d749U, 0xe2ea5639d0fc32e3U, 0xc6060af269efd26cU,
  0x17e7fe7c7f0ddcb4U, 0xbedd1cc90f505041U, 0xca12a804ccf8ebebU, 0xe4c5d045de4a2ae0U,
  0x23d0f0f01dd30435U, 0x57443420e103d55fU, 0xd7e2315822f439d5U, 0xddfb10ba4801f339U,
  0xc2ae23a4512eabeU, 0xd7f7e1d2fc0f0d2eU, 0xbce9e81adfe905eaU, 0xf1d5da39ba372414U,
  0x4f1222d13cb132aU, 0x7f3734f3e51ce641U, 0x2ceb4246f0f323e1U, 0xe1101da3502c014aU,
  0xfdaa12215f5eaa6U, 0xd90bd9c602247334U, 0xf116250ce045c69aU, 0xf0cdcf4b814134fcU,
  0xf008fb5114f71735U, 0x493d1e2fd73ec947U, 0x2de81d57e9eb24ddU, 0xefec26ca4932fd26U,
  0x312fe30231fcee9dU, 0xe52222c424132733U, 0xe1f3253ce7f6feb8U, 0xebcccb50da4104daU,
  0xda22dd3b13d7eb38U, 0x7f376321cc590740U, 0xdae912584de720e2U, 0xfeef30a845493b0bU,
  0xa10f1e50a49f197U, 0xf33cd4c42ef01734U, 0x8e12583aef0720b0U, 0xdfc9c65681422543U,
  0x3940f43c15ab2a3dU, 0x726b79f0be73b63aU, 0x3de94758f0e41fe9U, 0x110c35263be4de06U,
  0x36f86bcf382bf19eU, 0x552e1cb14222132U, 0xed04302cf9c718bcU, 0xd1cac4539e3d243aU,
  0x8571b2218fafa3cU, 0x2f526f14b67fe42eU, 0x17eb634f56e51ef5U, 0x23f237532fb0fa35U,
  0x211e31c25b00edafU, 0x16602dd52a301b2eU, 0xe2ee4b2c03dc37f9U, 0xc4cdc54b973416f8U,
  0x2a63f83c1b270638U, 0xf96237e9b57f0e21U, 0x3ced1242e3e91d04U, 0x36293b0727d71012U,
  0xf62f3fba1a3de5bfU, 0x266ee3df0f5f162cU, 0xfcb739300e18ccbeU, 0xb6cec346a32edce7U,
  0x316c1731205ed436U, 0xf012323eb67ff617U, 0xdeed353855ed1f14U, 0x4b07406a2010041cU,
  0x42e454b75307d8d2U, 0x367801ebeed85b2aU, 0xb2ca5b2b19e1ffd2U, 0xaacfc041ff27de3cU,
  0xce70e27f2811be34U, 0xfde37418ba7dcf0eU, 0xf9eb493004f42227U, 0x62ca49091a072b17U,
  0x30d02fb81be6c7e7U, 0x487fd6f9d1b26a29U, 0xf4ca6e3528951ff6U, 0xa1ceba3d6321ea26U,
  0x3472f934336ea035U, 0xcfc1372cc27cc206U, 0x3e6492a48fc273bU, 0x6530467410e7024dU,
  0xdaff20c78aeabfffU, 0x4a6ee10b3ec07f22U, 0x1a195b403207d5dfU, 0xacd4be311d16fdeeU,
  0xd460fb6d363aca2dU, 0xde91540ed866c8ffU, 0xd7e46e1e21062644U, 0x6f364c6f0ae5fb48U,
  0xf9e847d0a0feb115U, 0x536a071eeea55c1fU, 0x9247f4943d8f6bbU, 0xb3d4b72d610fdff7U,
  0xdd5bed513f15b82bU, 0x8aba6108ea5f10faU, 0x42dd1c1a1a132b53U, 0x7dca581d05fb2b7fU,
  0xd1c5cd8ec02a130U, 0x616a4d38fdea121dU, 0x65373a4e5dc116fbU, 0xbdd0a72c14091ee2U,
  0x1e5e00444f24c72dU, 0x94b409de025da6f4U, 0x1bd21d17d2263568U, 0x6dd3513cff3d3974U,
  0x3e1d2fe78ee7aa40U, 0x585522463cb54116U, 0x5d00285263db48c0U, 0xddd6a9221702df46U,
  0x3250127f4d14b526U, 0xd99477c31c47e1f3U, 0x2fcf0f1140363463U, 0x65dd5115fa161029U,
  0x3f1920f0cff5b452U, 0x5849d657f8d55212U, 0x59f044516f431ddcU, 0xffd7a11c42fd11d6U,
  0xd749403d510ee523U, 0x81ef2afb363adff1U, 0xe6c6310d184c3966U, 0x60de5243f45b250cU,
  0xe1fb4ef3d6e9c663U, 0x59413f692bd66610U, 0x2df435317d1453ccU, 0x28d597186af9dd1fU,
  0xeb45f27a582bce22U, 0x81ce21025230abf0U, 0x3cb753094a69406bU, 0x4bdb4368f2781e44U,
  0x23d54ff2814eea5dU, 0x4a2f0665eb71090dU, 0x35dd18097143d00cU, 0x49daa20e39f7f6d5U,
  0xf73308124d31ec1aU, 0xcb0167185a1dbff2U, 0xb24f0203723c5dU, 0x3ed53757ee0fda08U,
  0xd3477feabbe61059U, 0x3f24df62dccc580cU, 0x38d00de6682d1badU, 0x65dbab0744f7eaf8U,
  0x2e2536214603f315U, 0xcd0158e15f0f06f2U, 0x2ca877fb487c3c55U, 0x331c2c48e9e60e1cU,
  0x3f67edca50d3551U, 0x3219f859dcf66f0cU, 0x5f2a19dc5a2111dcU, 0x74ddb90116f823f7U,
  0x231516133effbc10U, 0x81040de05b02f2f3U, 0xe19e6df41e7d3b4aU, 0x2c31234ae21f282dU,
  0x2f0a23c8a2fc594cU, 0x2610f9521cb6540cU, 0x522414cd4e0bf122U, 0x7edec6fb22f9de3cU,
  0x1e07f1253b1bc00dU, 0x8f1204d757f5d4f3U, 0xf092f9eb117f3c42U, 0x25211c1cdb0a020fU,
  0xe5fa29afa5287744U, 0x19060f4802dd4f0cU, 0xc101fe8405ff30dU, 0x7fe1d4f711fae3e9U,
  0xe3f90f0a381fc50aU, 0xe1200bc050e9f1f1U, 0xe588a6e2547b3d38U, 0x1aff1418d71cf2efU,
  0xeeef159ef2197f35U, 0xcfc023714fc500bU, 0x1afafad92c1dd1efU, 0x6fe8e4f64efc1ef2U,
  0x5ed221a325aee08U, 0x848f541e100f0U, 0x1d8fc1dd106a382aU, 0x293a4000209d7U,
  0x28b1c00037531U, 0x32f520003182aU, 0x366030003670bU, 0x34163000340f5U,
  0x38558000352b8U, 0x351ba00032eabU, 0x3786a0003c2faU, 0x3cf0200038d3eU,
  0x340dc000369fbU, 0x2f8d100030ac6U, 0x2902a0002e449U,
};


ai_handle g_forecast_temp_ml_model_weights_table[1 + 2] = {
  AI_HANDLE_PTR(AI_MAGIC_MARKER),
  AI_HANDLE_PTR(s_forecast_temp_ml_model_weights_array_u64),
  AI_HANDLE_PTR(AI_MAGIC_MARKER),
};

