/**
  ******************************************************************************
  * @file    forecast_temp_ml_model_data_params.c
  * @author  AST Embedded Analytics Research Platform
  * @date    2026-04-01T13:00:12-0400
  * @brief   AI Tool Automatic Code Generator for Embedded NN computing
  ******************************************************************************
  * Copyright (c) 2026 STMicroelectronics.
  * All rights reserved.
  *
  * This software is licensed under terms that can be found in the LICENSE file
  * in the root directory of this software component.
  * If no LICENSE file comes with this software, it is provided AS-IS.
  ******************************************************************************
  */

#include "forecast_temp_ml_model_data_params.h"


/**  Activations Section  ****************************************************/
ai_handle g_forecast_temp_ml_model_activations_table[1 + 2] = {
  AI_HANDLE_PTR(AI_MAGIC_MARKER),
  AI_HANDLE_PTR(NULL),
  AI_HANDLE_PTR(AI_MAGIC_MARKER),
};




/**  Weights Section  ********************************************************/
AI_ALIGNED(32)
const ai_u64 s_forecast_temp_ml_model_weights_array_u64[356] = {
  0x0U, 0x0U, 0x0U, 0x540181cbdee944b1U,
  0xde5882dca307b094U, 0xb504ff2d2822ed29U, 0xeaf6168110f317f0U, 0x20dedc061ec521c4U,
  0x2ffd13f310de00e9U, 0x9b335e34d5c3de81U, 0x2eb18bc1f1cb0f49U, 0xa0e427612834e6b3U,
  0xdddae313b410e040U, 0x8fcd4f3ddeceafdU, 0x481b1c3802177ffcU, 0x7f2043c9e9059540U,
  0xe4ffea2fcadf2adeU, 0xe91dce07e35027acU, 0xd55232f390bc7f1aU, 0xac2334124099c81cU,
  0x666fcd03432f228U, 0x51eceb7fc9b256d0U, 0x21ea17611bd666b2U, 0x35863cf7101819f6U,
  0x2f022a5d2dda407eU, 0xea81acf2d727cad4U, 0x7380ee23ce4b6cbU, 0xcfa14f609c902e6U,
  0x4745a4d09325U, 0xbf77f27bdaebf05U, 0xefdb7f09d527fb06U, 0xea5aac3fec21fa03U,
  0xe0d216c2418a1d1fU, 0xfb01cdf12e15d00fU, 0x7e7ed28bec9251cU, 0x2420eafb7f191d0dU,
  0xedddfc5f196c01abU, 0x9d1002ddd08136d6U, 0xf042fabdd1df07dbU, 0xf21a0f0bdcde8ec8U,
  0xc1b663f4071ddb81U, 0xf109ea1d5dce231fU, 0x2b7fdf0ae13e18ecU, 0xec8ca51561f330eU,
  0xbb55651dbbc3065aU, 0xd37f2f05f8f604e3U, 0xdbd9d7982301deU, 0x67c6dbafa41cfa6aU,
  0xd6f4150b0ef3d317U, 0x2e4515dff41f2abbU, 0xf6387fd1114dd509U, 0xb43ca3da2e5be07bU,
  0xffcdf2080ddfbebbU, 0xa6871cc57f1d424bU, 0xc022b9e4d9f3cd20U, 0x8118e33ff2293918U,
  0x22cf09081215c3b8U, 0x4510d7e4e1d308baU, 0xe0de01a31642f242U, 0x18165981f7c640a5U,
  0xb49fdae051e0e104U, 0xc6b8c47fdef604e4U, 0xeb36ccdfe36a6af4U, 0xf85e36f67f1155f6U,
  0xcf33290bd9310ff4U, 0x3fa234e231775c5U, 0xeb29e0273081dd24U, 0xf45e0e918dc1ef0U,
  0xf41bdc04daaa16ffU, 0x261e1033471db5c2U, 0xf534b6217fe783f7U, 0x7cfe0c010f30e7edU,
  0xd034e213ca2113dcU, 0x75191753de22dad7U, 0x73dbde0efeafa81U, 0x0U,
  0x0U, 0x0U, 0x0U, 0x0U,
  0x0U, 0x0U, 0x0U, 0x0U,
  0x0U, 0x0U, 0x0U, 0x0U,
  0x0U, 0x3f666e83bd3fe239U, 0x238bc3eaf3f8177fU, 0xa26c2c586eb7fc16U,
  0xaad9757fbeb20eU, 0x810aa8bea6c8ff31U, 0xf40c403524311726U, 0x1ed0cafa1ed53993U,
  0x7fd8243de9fc6662U, 0xe9190125f4d681e1U, 0x3d0724f4cb010c00U, 0xfb7f06fdb82c37b4U,
  0x2c46da51029a3aaeU, 0x194291a127319996U, 0x87bfd9d57f112cffU, 0xb6e536d3e2f708bcU,
  0xb8432bc2f581b974U, 0x37123bbb3f81fe24U, 0xe65f15ce41d575c8U, 0x11d41a9a3547d33dU,
  0xff5747ff5cdf1b8U, 0xfcf958f0cf0f24ebU, 0x51e13dab7f29e6ebU, 0x35d0f7e29781fc0dU,
  0xdf96e4fefdb5ddd6U, 0x101f4a61ce004a3U, 0x3024d018eb3c81beU, 0xab4236ef26ea48ccU,
  0xcbb23dd8813e3eb7U, 0x6572ba1106f0300aU, 0xf1fc7fecffffb217U, 0xb01d8ad324130d63U,
  0x7af6d481c3ab04e2U, 0x0U, 0x0U, 0x0U,
  0x0U, 0x0U, 0x0U, 0x0U,
  0x0U, 0x28d92899e4377f99U, 0xc57fd4d6a4b8e681U, 0x11dff61530f57f9fU,
  0x9d63248149177081U, 0x49b17f255881e3cfU, 0x17ac99407fbb402bU, 0x7f232b28812a8136U,
  0x7f8d3b9490c43b71U, 0x647c7f3dffbc28e1U, 0x30be7a387f8126f9U, 0xcc6583f5d881c30bU,
  0x2a554b4b04817fd8U, 0x81ee13828102abacU, 0x7c812bde23457f18U, 0x7f9f7234c9e38459U,
  0x2cfffffffcU, 0xffffffd0fffffff9U, 0xffffff96U, 0x4100000000U,
  0xfffffff60000003eU, 0x3dffffff1fU, 0x3bfffffffcU, 0x0U,
  0xffffffbdU, 0xffffff2ffffffff9U, 0x400000000U, 0xfffffffd00000000U,
  0xdcb7e022ad0f4d28U, 0xdd15bfc408541616U, 0xdae950eb7f3f3262U, 0x180c9b975928d1e5U,
  0x222d78f3d6a7b2eaU, 0x81f6f50ca3b549d9U, 0xc51ae2e223d52edfU, 0xec039c56da607f57U,
  0x51f19369127a5cbcU, 0x2eac2da9ac384eb8U, 0xd91cb53204811a3dU, 0x52c350deb5ccceeeU,
  0xb9c740677529af72U, 0x1782b08e21ecf57fU, 0xf0d9058699d468aeU, 0x1d37a7f906a732fU,
  0xe2d1d3fb4771ead3U, 0xbd9f63bbc0bc7ce2U, 0x7cd9c752a49d9fbaU, 0x3f28ae8132542616U,
  0xa3107cf3de1f1345U, 0x7fbd740fb43d9a73U, 0x6925d7a9bc94bd66U, 0xde2f6535694ee76bU,
  0x662d5d5c0e402b2U, 0x485ce5911cebae12U, 0x991495de687f2beaU, 0xb01600d60220a950U,
  0xddcaf73981fb9b8dU, 0xe65af007851864edU, 0x7f251df001e1c660U, 0x192455daed0d40f1U,
  0x8b03618e94a2484fU, 0x5648cabf21607f15U, 0x1b4ddca04371e511U, 0x5e8cccae793efdf6U,
  0xc11416c9fae2e0bdU, 0xfdf2deed1df0de0dU, 0xdc4eda3781ee252eU, 0x89c0483c14b11ee2U,
  0x14d0bc189b811f43U, 0x6b50744dcdc930feU, 0xc11647e84c8671a3U, 0x325f9629dbd2c65U,
  0x2981aee33f038e68U, 0x47289f2bba4ea439U, 0x2b6270a259fec69U, 0x3c4881294a0df19bU,
  0x6acfffffb07U, 0xfffffcfdfffff89cU, 0x2f6fffffe1bU, 0x73700000934U,
  0xb86fffffab4U, 0x7cd000007abU, 0xfffffe0afffffb52U, 0xfffffbdafffffe98U,
  0xe60f44ba59dcf781U, 0xb8cae3138a43c92dU, 0xb2aabcdc87cf9dccU, 0xc3f6b87d81825d0aU,
  0xce5372c426ca1b93U, 0x63796fd881705709U, 0xd4a3fa4b7fde2e14U, 0x1e33eb20c7439c57U,
  0x6fe8c92413fd8131U, 0x4cae027e3bd554d0U, 0x4dee96759bdc5ef8U, 0x9db045ff81e05127U,
  0x1425aff6eef2e822U, 0x77227f2d1c21aa28U, 0x2da5adcfe3d94381U, 0xca27ebcf0bbdfebdU,
  0xc42a9252fac79d42U, 0x147c691c5a88103U, 0xc9eb1088fa7fc55eU, 0xdca48d8bd2cba76fU,
  0x274ac4e5ae9f81b4U, 0x5b83a70e9eb2f455U, 0xd29d8f5a6577eaaaU, 0x35276f3866704f81U,
  0x106daa5b50082ea8U, 0x19fa42349e457f62U, 0xcf8131c843f60ca9U, 0x23d41f84a23ed1deU,
  0xd49f8152baec43d6U, 0xc149f88100737dbaU, 0x610f50136362be92U, 0xf0810ccfb76ac503U,
  0x86e76ef921baebc4U, 0x260f09d162097f53U, 0x1132d5791b91e86dU, 0xf9537e7f3eaab7e4U,
  0x40813aa3d613b33aU, 0xd9077acc3716b8b6U, 0xa3ae1cce322fb42eU, 0xf59b74e81a32322U,
  0x6eea3e76c359f2d9U, 0xdb0e7ffacca28c0dU, 0x4e96a57f1c06f0daU, 0xf7462f46003eef1cU,
  0x7a94f408b9a862f7U, 0x7fa028552c9798d2U, 0x227fddd6712e1f3cU, 0xc6b8256724f5e898U,
  0xffffffc8fffff8d8U, 0xfffffc2800000cf1U, 0x12efffff9c9U, 0xfffff468fffff591U,
  0xfffff6befffffc85U, 0xfffffc57U, 0xfffff737fffff991U, 0xfffff8c7ffffff55U,
  0xfffff1bafffffa41U, 0xfffffa95fffff865U, 0xfffff84dfffffc12U, 0xffffff0dfffffc1dU,
  0xf0e249dc2feade81U, 0x7e3981011b65c17U, 0x8407ff0a51483135U, 0x10030e9281f60ebdU,
  0x8f93c50f2d474974U, 0x27333dd0d1060038U, 0xb94781b2ce2b05b8U, 0x872e473066ee6404U,
  0x25213dbab08aa20U, 0xa30cae76905b4928U, 0x92f7329e2aa6f340U, 0xbb3a40c7b87f3d62U,
  0x810fe8bb26e3a9a1U, 0x9c32a7e1bf477ebeU, 0x8e27467e4f192998U, 0x1bc3be95cef428faU,
  0xe1b2300b6345147fU, 0xf16aa3f6391fc763U, 0x58bc51489aade807U, 0xfa5884376d3b0eb6U,
  0x816db33b463216U, 0xf932420792dbaf48U, 0xd3c2d51def193e26U, 0x2a3181564f01d113U,
  0xb5d2bd9c554ff3dU, 0x239c8e5483a7d827U, 0xc7d80b7f595acb3dU, 0x9a713e07dee71e7bU,
  0xc1f479d7584beb77U, 0x965181e2d4409446U, 0x6bcc2738a330a467U, 0xb181140508ccdd66U,
  0xd4c4f32ac11a11c0U, 0x667369045628d9aU, 0x7f8d99552c7a32c3U, 0x898b8d70cce21652U,
  0x7ce0b1efd00fc361U, 0xe6b7120b97628f9U, 0xb1b9419ad101f181U, 0xcd95685aa67f70bcU,
  0x67201d30e7d60a17U, 0x37e57412ead7383bU, 0x2a40c930ee97762eU, 0x6e3b67613d81e34fU,
  0xb84da6ff621a1a32U, 0x40ea4b48c4ad0dfcU, 0x3e6b586bb4c6a833U, 0x34b6f381c07f0e96U,
  0xe0f463211ae13100U, 0xfe9ea37f39014b45U, 0xdde3bb3dcba4f03aU, 0x8c17da0ef1059f76U,
  0x3f11a5d7ac0ef494U, 0x81573a7d49ef049fU, 0xacbb22c7ff519275U, 0x4f7f2f5e4dda5ca7U,
  0x86217dbba8ba35a5U, 0x2350792e02ee2f52U, 0xc82842388175c005U, 0xfec42d70e94b8a78U,
  0xdf332c40f950a911U, 0x5fee367f50d726f2U, 0xe9c2f3da0cc725e7U, 0x38af5621c369d97cU,
  0xaa311bcfb2f0bb5cU, 0x1c58dfe67f00c3cbU, 0x9e196a7f105f98daU, 0xa9ba5e2e49a9829U,
  0x4d57541eaa7fb84aU, 0xb81911c39238b50U, 0xff1807774cf73c9fU, 0xc92400f8d8570f6bU,
  0xe0c0000006dU, 0xa5100001139U, 0xe26fffffab2U, 0xfffffe8500000068U,
  0x163e00001145U, 0x6fa000009dbU, 0xffffff7200000644U, 0xfffff7f1ffffffd8U,
  0xb05fffff7d9U, 0x2cefffff02aU, 0x221fffff34eU, 0xffffd7a5fffff2ffU,
};


ai_handle g_forecast_temp_ml_model_weights_table[1 + 2] = {
  AI_HANDLE_PTR(AI_MAGIC_MARKER),
  AI_HANDLE_PTR(s_forecast_temp_ml_model_weights_array_u64),
  AI_HANDLE_PTR(AI_MAGIC_MARKER),
};

