/**
  ******************************************************************************
  * @file    forecast_temp_ml_model_data_params.c
  * @author  AST Embedded Analytics Research Platform
  * @date    2025-11-13T20:24:43-0400
  * @brief   AI Tool Automatic Code Generator for Embedded NN computing
  ******************************************************************************
  * Copyright (c) 2025 STMicroelectronics.
  * All rights reserved.
  *
  * This software is licensed under terms that can be found in the LICENSE file
  * in the root directory of this software component.
  * If no LICENSE file comes with this software, it is provided AS-IS.
  ******************************************************************************
  */

#include "forecast_temp_ml_model_data_params.h"


/**  Activations Section  ****************************************************/
ai_handle g_forecast_temp_ml_model_activations_table[1 + 2] = {
  AI_HANDLE_PTR(AI_MAGIC_MARKER),
  AI_HANDLE_PTR(NULL),
  AI_HANDLE_PTR(AI_MAGIC_MARKER),
};




/**  Weights Section  ********************************************************/
AI_ALIGNED(32)
const ai_u64 s_forecast_temp_ml_model_weights_array_u64[1726] = {
  0xd0dde0ec8123f5c2U, 0x9cbf3fffbac1d0fU, 0xe1072bf7ed10cc06U, 0x1f06e17ef60aeffcU,
  0x9b33d70b01f9e8ddU, 0xebd7c73de1fc2e35U, 0xbf34afd305210bd3U, 0x7f81f9b010c4400fU,
  0x1b518af6defbd3b4U, 0x3a00237f16352bf9U, 0xaa1a32b92ec01de0U, 0xf6f62c350641e413U,
  0x21df0af3b93800f9U, 0x3c1ab3790dc66d0aU, 0xa9d710f7f9d2e033U, 0xf7041214deace330U,
  0x7020e031ee2d01dU, 0x1e07f0229eeacd81U, 0xbed0bfbf87ff412U, 0xdc12e60d0fe340c8U,
  0x11f5f8e30d02ee20U, 0xf50806eb1422f8fdU, 0x2feb200029eb2df0U, 0xf1198f0b210b1af2U,
  0x1ee6202fe0271ae4U, 0x1903e6ec7f0ce50cU, 0x355563b11e4be32dU, 0xe422e11f36e0f7c4U,
  0x289ae125173f7713U, 0xb90bb4dae624be45U, 0x87f36381b31b1abcU, 0xd8f569bd212be55aU,
  0x1ba7f47f1c2ea19U, 0xe218c420d7c9beffU, 0x9cad0ae712397484U, 0x1237fc42dde1e517U,
  0x3d74115fabf19fcU, 0x23151a2b19f7cc1dU, 0x174ae97f220619e0U, 0x1708f8ec7fee20e7U,
  0x9e8e418e4f64222U, 0x2a0c19fc06ecc823U, 0x1714190be21fef0aU, 0xfa45f012f2ed1e15U,
  0xbf6f1fe3dcd59d9U, 0x8b0a11a4dd02e205U, 0xe8a109e3e6da11e3U, 0xe9e909cbdd7fe0f5U,
  0xd734e601060a09e2U, 0xc9b928f50e1512ddU, 0xf210a838faf7f71eU, 0xe3e64aa607fc0fd9U,
  0x807b07f81c80d3bU, 0xbfeb26f21046e2cfU, 0xf01ee901f9fa1328U, 0x728ffcc0d35052eU,
  0x10a1d9dd4ff0c2aU, 0x3c0be5011034e425U, 0x3934cbcae901001aU, 0x16cadb27b5061de8U,
  0x4ddeca32d60df8U, 0x11fb02f7f2e881e7U, 0xbfe0ae40319f220U, 0xedfe010bff0ff2ccU,
  0x127ff401f616181eU, 0xe2132503f0effff7U, 0xf91513bcf709f82eU, 0xfce9191d96d0f118U,
  0x14fef10701fedd0bU, 0xa4f2fe28cfe77fc7U, 0xc80e22c70d0005e7U, 0xdfd018e2e2f8f21fU,
  0xe21905e41ad3e801U, 0xcd3d31d9ce5d71dU, 0xd56bfbe97f81a821U, 0xfd0d00fa11061bf9U,
  0xe8fdeed1f4f49bedU, 0xfa06f3fe01eb10c2U, 0x61ec6fee2fe000bU, 0x1d0bc6220d0a0aeaU,
  0xfc1423b9231016d7U, 0xafb071206f1dcffU, 0xf0c2109097f1f09U, 0x481c397fd90f1308U,
  0xb1dce439f306e3e5U, 0xe7f9f5ff10a3f61bU, 0x1211e0f202212a0cU, 0x26ed0537c803fb02U,
  0x11031102e3431426U, 0xdd1ad6fb1b8113dcU, 0x23ef06073106f416U, 0x7f1402f8f30e0b68U,
  0xa0e5c273c0006f2U, 0xfd2aef43ec0def1eU, 0xef282fdc15ec0200U, 0xd60815170128e205U,
  0x4eb0ef608f90dfdU, 0xf514f110f7f7eb0cU, 0x2eb16f5000d15e3U, 0xb0ec111f51500f5U,
  0xea000c81c40903e0U, 0xfe1120a8fafc027fU, 0xeee1072a93fa19eaU, 0x2ed14f91401e6f5U,
  0xaffff43cf4f566c1U, 0xeb7f090a342cdb28U, 0x1b10242eff16eaedU, 0x3bf71c0701e21123U,
  0x106d739f40b01cdU, 0xad111f192101421fU, 0x2abdea00160fe61dU, 0xe058f5e521dedbd1U,
  0x388b1709b4e8db16U, 0xe63c83e5dd3981beU, 0x6f70bfd18ee7fdeU, 0xaf1af7af1010e7bfU,
  0xe9e503f7ecf109fdU, 0xdcefdfe6f633fef3U, 0x50711d9c4172ce7U, 0xe414030d9c29ef07U,
  0xe4520e01d930bfdU, 0x29d77f24edf7cb28U, 0xe5cbff2c05e3ffe2U, 0xf2a6ccfb0af90c20U,
  0xe504d432d1c90ad6U, 0xfa337da3026cb11U, 0x7fac81060154a412U, 0x90307fdf321f3f1U,
  0x707def7f401ff03U, 0xe4070fc902f7f6f9U, 0xdfdfff0cc70c0df3U, 0x24193de8e17f1f19U,
  0x2ceb01ee220a093aU, 0xc90de1f4f016049cU, 0xf11521f617ed0817U, 0x6d22f061200efffU,
  0x21ec150f2415ee63U, 0xee812b12a7dc07f4U, 0x2d9cede07eee318U, 0xd2ddf8fcd9e153d1U,
  0x307ffd0eb5381016U, 0xfcbf58cae2f8feffU, 0x17c44e580115d925U, 0x2cefcc383f28c4fbU,
  0xa6ea23fe2ca7d424U, 0x38b63012ef18c129U, 0xe7fde3ef1620bbebU, 0x55c7e4f708e30a2cU,
  0xd17f810807499102U, 0x29fe193a02f6e7ecU, 0xbd0a07ca27f1f8cbU, 0xf7dd1019140b0819U,
  0xaefebfcfe3c0912U, 0x7fdaf91f12dc4ec7U, 0xdc7ada13bd16e8e0U, 0xc90f5baf13aa0b0cU,
  0x28d20463eeeee52aU, 0x170bda7f6fd6daebU, 0x2e712f00633f2fcU, 0x7d3ff07e425e3U,
  0x2807f2eef6fde819U, 0xed1de5f1dff8fffeU, 0xdd8db16e3ea1403U, 0x2e16990601fbe5ebU,
  0xd51631cb14e9f5U, 0xc42dec278c3f1e1U, 0x1d0d29dbd3f781ecU, 0xf1fbe4f904f8091bU,
  0xd8051408faf61ee8U, 0xbf5bb03ec18121bU, 0xd3263681c7ee24dbU, 0x2b02271f3d2eab1cU,
  0xdfba3900edcc2605U, 0xd1f5d90df6dab30cU, 0x81f2c4fad9dd34f1U, 0xfd7f2614f408f52bU,
  0xebe354c416d106edU, 0xd05f64fd401d11eU, 0x81e05f034f707e8U, 0xef1c08dc171dedd6U,
  0xd5fbf81008f57f0cU, 0xda10f819fade09U, 0xfff4f8edd32b09f3U, 0xda21edfaf2e81602U,
  0xe1ef347f0fc619fdU, 0xdf512eee6f0113c5U, 0xa9f83e26122fd413U, 0x639ceb1adf3308f8U,
  0xde057f50fbd13c89U, 0x3acdb145fa18181bU, 0x8b7d9edae19c6f1U, 0xe3079b353a98ec1dU,
  0x33d4fd7f783628c9U, 0x905440923792703U, 0xa068a0bff903912U, 0xf9000ccf2ffada48U,
  0x7fe31412dd30cb67U, 0xe8f3eb44e35004eeU, 0xe60fccdf0dfae7c5U, 0xfbe9dcc3e90d0f09U,
  0xdddc1212f0defeeaU, 0xe2152214fb2091c8U, 0xcbfa190a2327d1dcU, 0xfbfcf913c4e54bb8U,
  0xf862b2fdff12c516U, 0x181336819af722c2U, 0xd712e1d402f825U, 0x31c60442ddf726fdU,
  0xc6e3d31f4411b3f3U, 0x819214f3d0c819baU, 0xfffc48fe19ecee08U, 0x26f7b049e9fc0b07U,
  0xf916f7b50bcadf07U, 0x2ad8d73f97fcd50aU, 0x33f216fd7781c5d5U, 0xd3f5ed2c2d0d5908U,
  0x59e7fdb9fdf2d737U, 0x540b3cedf707f2d8U, 0xe0e8106bd20f0b4U, 0x1715d4c0350205f7U,
  0x11df2c5390901U, 0xe09e2f904a90f00U, 0xe3e52cef053aa5f3U, 0x1e4335bb22f17f81U,
  0x9842181ec51a0b30U, 0xb04de5503ef2c5ecU, 0x12db68665bc38fe1U, 0xe4ea081595cc914cU,
  0xfbed0afee077eb37U, 0x18148113e70927ebU, 0x3c17fa951cf52c3fU, 0xef9f1032c620a27U,
  0xfad339f33ac23a1aU, 0x29ece318d11b9620U, 0xe5371903f31ae581U, 0x25301d1624342d1cU,
  0x1d60000d508U, 0x5e50000026cU, 0x2f500000439U, 0x7d000000a1U,
  0x2c4fffffd49U, 0x267000002f1U, 0x292ffffff34U, 0x1160000013eU,
  0x1fa000000c9U, 0x16f00000097U, 0x33100000118U, 0xa800000336U,
  0x46600000355U, 0x3070000000eU, 0x3210000020cU, 0x3ce000001f7U,
  0x3b600000141U, 0x309000001fdU, 0x11b00000164U, 0xffffffa8000001d9U,
  0x22d000001a1U, 0x2ed00000245U, 0x4bf000002c3U, 0x1cb00000138U,
  0x410000014cU, 0x73000007e8U, 0x23100000775U, 0x542712bc000003c5U,
  0xbe05203131dbe373U, 0x13052e04cce3d823U, 0xfe44e9ea201f3243U, 0x542013f50e6c7f07U,
  0x28355a37141fe24bU, 0x11af121f6fc10U, 0xdf50e42714e5e331U, 0xfb1ee11829ecfd0cU,
  0x4010d1435091c19U, 0x3e003a240d02f3e9U, 0xd62c47320ed62b5aU, 0xffe29291321faf2U,
  0xed13220cfef41cfbU, 0x10d9ff0e15080e33U, 0xf4f90eea0bf0e23eU, 0xef18ebf2fd38eeebU,
  0xf1bac130825fbdeU, 0xfde223ddf52be418U, 0x2f31192bf4ff053cU, 0x710293f1d0add13U,
  0x1b0909f0fbee0aeaU, 0x51ff80504d51df6U, 0xe4ee0e1fe8eb1404U, 0x101faf4fe1118f7U,
  0x180e0fe401e6fdU, 0xe1f41cf21eeaf60fU, 0xfbfbf9470af8ed1eU, 0x45f5ee0306e30b04U,
  0xeb1c050f25f501deU, 0x29e619e81b18e4f3U, 0xb051bf4f7ed9524U, 0xd3f30a04fbfc23d7U,
  0x152b0c131d2512e4U, 0x2de31af72a771609U, 0x8fe7f0c081703f9U, 0xf1f820fa081e4915U,
  0xb604120d13162812U, 0x5a0210fd25041bfaU, 0xf107ed0dea0118feU, 0x1e011347014d212bU,
  0x8f4105938340496U, 0xf00b0815fa4026f4U, 0xe2cf171f12ff39ccU, 0x2a506bf80b190226U,
  0xf1ecf77f033b1ff5U, 0x3dcff381e2fef11U, 0x9fdef180bf60426U, 0x2011109f025292bU,
  0x2b1df6f207112e19U, 0x3fa1de70d1cf11cU, 0x2407242441e1070aU, 0xfffe222a0a30fb1aU,
  0x23f31f1720040b26U, 0x2a220042fbebef0aU, 0x49312c282510f40eU, 0xdcf7ef28f6e52d06U,
  0xa02312e134008e5U, 0xf026fb17f3e78cf1U, 0xb61a0b070d2c18ceU, 0xff2f2842e7140207U,
  0x1d5203f52481e9f4U, 0x1d41ca2f0aeb200bU, 0x131eeff524d6f8e3U, 0x76242e38251e11feU,
  0xe04c2d4307173c53U, 0x9272032463f0ef9U, 0xfd09f200f9ecead4U, 0x1cdf0103310323e1U,
  0x3d2a02ed043c1b24U, 0x1c01223213310e0cU, 0x190906252231eaedU, 0x1dff102e03482614U,
  0x23f8e83108fe3202U, 0x274c0112df1022fdU, 0x180c03fb101ce30dU, 0x1e173e26010c5afeU,
  0x37fa232b04020b2fU, 0xe82ff60b81042decU, 0xdef8100520d32327U, 0xfb36042508fcfc1fU,
  0x2c312b9809f0f91dU, 0x7261e2ef7ed1543U, 0xfb12f2e31c0d09U, 0xf4f2a331b26162cU,
  0x282e2900312871feU, 0x451a234b2117015eU, 0x5eb33fee9f8ef0eU, 0x2323152a35d008fbU,
  0x162a1d34040eee21U, 0xff1c1d10fced0514U, 0x36f4282826322e39U, 0xff25211337250a11U,
  0x841eefa2532ef06U, 0xe25064a3a421d24U, 0x37f031df26183e31U, 0x8200c177f1620feU,
  0x2234e93d003d0e1aU, 0x81b810c121e0809U, 0x3b3c20e7e93e40f8U, 0x40a112ec10c15fcU,
  0xe19f170813521b43U, 0x6c689c1c5aa83fbU, 0xdf97a5f4e4208a85U, 0xfdaabe9af18394c5U,
  0xe2d4f40a0d81b7b2U, 0xba881d1304db8d05U, 0xdffca709990ade2bU, 0xac1df32505b9e1d6U,
  0x9f0a9391f107a2cbU, 0xbdbccc01e3fb2005U, 0xccaef79003ffd085U, 0xd1aeff9d9da009b8U,
  0x829825f2cedfa1d2U, 0xf1cd2acaca00b9caU, 0xef8ab2beaaf7ef09U, 0x15d5c0839df171abU,
  0x942398acb7c396cfU, 0xa3b252093cfd199U, 0xaf27e5cdbb8bca91U, 0xa4a3b6efbebadf27U,
  0xe295f521d7022200U, 0xf5110c211e0a14b9U, 0x5edf828020b1b0bU, 0xfaee10fb110d33e6U,
  0x2d427aff081b180fU, 0x1f09e745f22b19fbU, 0xfa0d0c19372e230aU, 0xf8d1f0ed1de92606U,
  0x24020c1afd1f2913U, 0x1c02f3fa0a19db19U, 0xf906f9fe1516f4f0U, 0x16031b277fee141dU,
  0x2af1f3fee458f10eU, 0x109f301f2153521U, 0x14fbf50a0d0a06f6U, 0xebeaf5e1ec0bf6f1U,
  0xf1e4f5dfd9e9ee00U, 0x10fef0f3dcf7f907U, 0x5ebe8fd08f806e1U, 0xf20c08ea0adcf1f7U,
  0x1f9ecddef0303f8U, 0x24420a2afd91e7f5U, 0xd4fcd33d3dfcfefcU, 0x211e1beb51f9e8dfU,
  0x7f21f52ede2f2e0aU, 0xe361284d162b0041U, 0x35235413c4913ffU, 0x14fae3fc26f401ebU,
  0xf52322242f1ff7eeU, 0xcfd2038011d2625U, 0xef3fd061aea0d08U, 0xe2cff1a27222634U,
  0x2f050753ef1b2deaU, 0x1c18f726df101d09U, 0x393ae42927181602U, 0xf9fbece411e8e606U,
  0x8f60e1a192e6313U, 0xff021739f9ee0d02U, 0x372a09da8af90535U, 0x40906264fe30526U,
  0xf402fb130e27ba19U, 0xf20006ece0ff3a2eU, 0xf6ef0bf90ff7fc12U, 0x23ea07ff10fefcf7U,
  0xb1a00ed0bfa1314U, 0x22305f41810f91bU, 0xebf2060e0a04ef01U, 0x1005ea02161bfdefU,
  0x15faf3f908540d10U, 0x25022f0ff40f05f6U, 0xf113f41508062916U, 0xba0a140311fd151dU,
  0x3ae2ed07f810f901U, 0xff04ecf2010ffa1fU, 0x6111838f5372024U, 0x14250ae5f30d147fU,
  0x550415e7791cedffU, 0x3d1c02101d290817U, 0x2ae58d00101f2803U, 0xfd1356e0e4182017U,
  0x2e24fb15d2f4e3f1U, 0x9c011cfb18421523U, 0xe2870027891fdadcU, 0x8cada702e920f59eU,
  0xc0c8efaee9ebb7adU, 0xfd160a0ec1a792e1U, 0xdfaef10b03f4c1aeU, 0x1227fd29b0f7bcf4U,
  0xbd11aeb0ddcb938cU, 0xcaef81a6919397baU, 0xc839c85c097860dU, 0xc2ac851ffec30cc2U,
  0x2beaf2acc415af1fU, 0xb185bd1bbe8b060eU, 0x172b8ec0baa4c3e1U, 0x19d726d2b99eb3dcU,
  0x10c821ae941b2c08U, 0xead2acf1930afdd1U, 0x2ac6f315fdf717bdU, 0xe91920b387a58a1cU,
  0x87c28d8289f4db85U, 0x1ff094bfcb99b5b0U, 0x34f5133b23f918b8U, 0x18f30217181728ebU,
  0x1516f8052c192decU, 0xd1725ef0a1524e5U, 0x292add4d0b2a0a26U, 0x114f61cdef70334U,
  0x1d32f4e8e9171a2bU, 0xdeeb0925242e031bU, 0x20ff1203332a3534U, 0x3c02121ff4ea0406U,
  0x231f370cb3fa292fU, 0xf7062b0e14e8fe3dU, 0x1839313f0b11b8f7U, 0xf3f6455c1a2aec3bU,
  0x6408fdf5221007d8U, 0xf0fff11b320226ebU, 0x312f371a6b201afeU, 0x13ef27f81ee4810dU,
  0xbf1ef9012e364fd1U, 0x156827522e2d20f3U, 0xe915070cfbbfe924U, 0xef05dd0df1f5fdf0U,
  0x12121cf827faeff6U, 0x7914021e09eff9f6U, 0xf831112af3ee0a1aU, 0x91b17f2260c1b1aU,
  0xafceee701fc1606U, 0x11fc081812ef03cfU, 0x12f6f7f6c20411f7U, 0x2ed000b1f09290eU,
  0x377f0f181ce9eeU, 0x8ee35261debf5U, 0x30c021520f12628U, 0xec051a0100e0fedcU,
  0xfaf30ceee703f1faU, 0xe80a05fdf7ebd4eeU, 0xfde70003f2f2fcf8U, 0xe603f1f515f90b07U,
  0x130de703e2fe12f9U, 0xedde02fcef050203U, 0x2c18f6a6210bfdedU, 0xe1100e271102ff4aU,
  0xb1c26ead5fe1126U, 0xf31fc2603fc3517U, 0x1c2a0b3327427500U, 0x49321218130cf97fU,
  0x1dee05f501ef191eU, 0x536041218a20218U, 0xe406eb0c3816ed11U, 0x211e22052fe6f4f6U,
  0x53eff516f5251de4U, 0xe7672b1e0808fb32U, 0x5293a15180d0cfcU, 0xaff100000f3e3dfU,
  0x502f300ec1406efU, 0xf5fefe0fda0c2214U, 0xcfa0df5e91dfbfaU, 0xff6e81105041212U,
  0xf1f6d91c0307fcfeU, 0x15f900f1131d1dfbU, 0xf881ea1b15f7f703U, 0x21fe060bf040440eU,
  0x40e3f204fa2fdd03U, 0x2c1a0827333ffbU, 0xe919215a5e0c2244U, 0x40430502d16b1424U,
  0x11fc031d20352a09U, 0x1c2ffcd4df2ff1cdU, 0x53630012018f24eU, 0xef30020f1fec2930U,
  0x93211232d212319U, 0x2325171b00382a28U, 0x1430290a2605052dU, 0x27ff2c0b21091019U,
  0x2929e5f601402730U, 0x15e83621fa370d10U, 0x1304eb29ee253a33U, 0xa4263a160f23432eU,
  0x49dbfb17fe1c1ee2U, 0xaf8d22bfa16280cU, 0x180ffb2feb310623U, 0x50b1a27f3fa04d4U,
  0x1e03f81ce9f616f0U, 0x11fb25140a1c220eU, 0xf413241bf91cfee5U, 0xf6f1ef21141fecefU,
  0x7fe23fe030e150bU, 0x11380d13fcf8e91dU, 0x2fd0107f0080d06U, 0x14f92118fb1a2e28U,
  0x30ee3f2afb1eee00U, 0x280d2cf8bf1d0a0bU, 0xedef0fff29ee0d16U, 0x2717fb01f613c500U,
  0xfdf12d5f0318fb19U, 0x7f34fa060ffb06f8U, 0xea2efb154c1e1c19U, 0xdfe38f234340d1eU,
  0x903362538d597f1U, 0xbf16e5032a2e46e4U, 0x146f284f1d141a04U, 0x25542dfd158cf60fU,
  0x1817ef1f2820f426U, 0x343833ed14f3ef1bU, 0x67fe193ff90adf06U, 0xd738151019030c5aU,
  0x53b130e272bfd00U, 0xceff40a06010a19U, 0xff1b141ff5020308U, 0x41ece7fcf1360339U,
  0x1ff0f3205310de1U, 0x3133101a26fa1d0fU, 0xd0802491420f811U, 0x111312012e1d2923U,
  0x182f17ef271bf2fdU, 0x14361121faf02527U, 0xe81b231432df65ffU, 0xfe222a13181bde0cU,
  0x2f05171c81e50f2eU, 0x120cec1f2ae2e6ffU, 0xee11ff270d0ad0f2U, 0xfededc5f3070e4dU,
  0xfdf8e70307fe0c19U, 0xf6ea371ce5fa05e8U, 0x2727eede08e80904U, 0x2742dd1002352921U,
  0x10132610fa24dd38U, 0x1901ef0208212106U, 0x142e1af31830f206U, 0x120e253b092c2d15U,
  0xf90ceefcee1a5225U, 0xe51402102302332cU, 0x47e62031eaf12a18U, 0x14f1df2cf0f41315U,
  0xf7071722ef413220U, 0x513f90520f2317fU, 0x5523180665fa050fU, 0x2e4ae10e05310d18U,
  0xffe6a50035280805U, 0x9fc660522fdfb22U, 0x28190719dbfc0f02U, 0xfc94280c0c572943U,
  0x1e21241326480904U, 0x1e20e60ae43d09f6U, 0xf62b1ff32b3709ebU, 0x22331e351ae90127U,
  0xffa23f013470713U, 0xfdee21ee32122c46U, 0x2e2df4eff10a1610U, 0x5a2804fa2d200535U,
  0xe3311a1e22211e1fU, 0xf91f19374c2f172bU, 0x1222a0b051df9e6U, 0xd16f106341e3134U,
  0x322efa262d0329f3U, 0xf8ee3309150fd825U, 0x240d522923271e0cU, 0x25221a303a57f5U,
  0x812231091109203dU, 0x50d8d619153e3bddU, 0x2709fbf30e030b34U, 0x622296625231a0eU,
  0x2fc1c451916e381U, 0xd02e61ad2380bf4U, 0x10d042127094de6U, 0xe5c62f0f12ef521U,
  0x1f03ea5e312df1f9U, 0x22f72d4a06f92b48U, 0x28dd0d1ff2cb010fU, 0x370117f4e849fa1cU,
  0x2f1f2d22eefd1933U, 0xd1b4e281d21e926U, 0x2c012c4101ff1b28U, 0x2e1f1b28f440442cU,
  0x232236310f24dff6U, 0x100127372828fa35U, 0x4f3604f90eea3415U, 0x2cf825152d141d05U,
  0x26fd26eb3e0f1f3aU, 0xf70404080805b302U, 0xab0c25182a3144f1U, 0xf13ef22b1b49172aU,
  0x30283c2cfe96f701U, 0x184cd219153bed06U, 0x3135f831571ae5f3U, 0x3b04152c2c43f313U,
  0xe958232623fe1953U, 0x113d4a0823001c0eU, 0xdef720e6220f1008U, 0x1b32ef1a2e02fbcaU,
  0x2230040d3a492835U, 0x3e2b2cf90cf4480aU, 0x3117f5de222bf203U, 0x26f21a2efa17fa32U,
  0xfd1f332bf32ae635U, 0xe520a11ff3a173bU, 0x3335233a20242f0aU, 0xf7052531091a7f41U,
  0x130c430dfa1ffa25U, 0x2f1f230a86280f0aU, 0xd80f18311cf5e334U, 0x20481e35151fbf20U,
  0xc381ea70a1e2254U, 0xd8484a381f1f0a42U, 0x28fe3f060efde247U, 0xff522424ff092d01U,
  0x3611e0b035338d8U, 0x340712213620ca6aU, 0x4e2fa12da163c18U, 0xed0b3a1941dbd3edU,
  0x1f046411ff3e07feU, 0x38f3f0032ef620fbU, 0xfa02372337433704U, 0xe482350fdf52bf5U,
  0xfff0d8452df6ed1dU, 0xfdff0f0afe251a08U, 0xfa0808ec21162d54U, 0x10f31dec7f49ee38U,
  0x194becf6f50a221fU, 0xffe6930236112206U, 0x2134611afc384dfcU, 0x2d3d09fec81de100U,
  0xe7cdf61b36712423U, 0xfcfb0011001a0f01U, 0xfaf627140be3edf1U, 0xede50923222812U,
  0xe103012638141a00U, 0x321224080018041fU, 0x12dd1cf42629d9f1U, 0x3e9de2e0609f40dU,
  0x222de809fde5ec24U, 0x92bf0221e1ef4f0U, 0x190ef90b0e29fd2cU, 0x150610f3171acdf9U,
  0xeef5fb1cf0193603U, 0xf834ff01232512eeU, 0x2b01dd0afd7f0a0aU, 0x301037f3141cfcfaU,
  0xfd2feb18e2282feeU, 0xbe140bf31ee2401eU, 0x33fdff1628f6fbe1U, 0x17e5bb1d1a04e6f4U,
  0x22fc1452e418160eU, 0x2cf4133829e913b4U, 0xd6e1da19ce3b2837U, 0xf2db042316214900U,
  0xf71d64ddf12d020eU, 0x72bd65a1141fdfeU, 0x1e1af910130bfc46U, 0xefe01d2ede04ee13U,
  0xede821cf122cf5ddU, 0x1727fd190b1610ffU, 0xf6083413dc232635U, 0xe71109190e2bfbf9U,
  0x3518f8e7eb34173eU, 0x1429ed0efc20e5e2U, 0x21dfa43fd180020U, 0x27f90ffc03dbf9e6U,
  0x17fa1bedf91215e6U, 0x3f21617453114ffU, 0xfb26f90e151581e2U, 0xaffb0afaf92e4c0aU,
  0xdd41f3002b180204U, 0xd502ef02cfcff30fU, 0xfee5f81ce1f810efU, 0xea0e0b03ec1c3b1fU,
  0x44fe0eeed807f427U, 0x1716f70ad7d71525U, 0x52de2ef081bfbf8U, 0xeedf6dfdd120426U,
  0x12e1fb031ae5ff4dU, 0x71ecf4ea1912e800U, 0x112102ec151df7ffU, 0xfbeecfff042c2bdcU,
  0x2f051bd50a01160dU, 0xfd0c200ee5fd3cf6U, 0x57f2c25f6461735U, 0xfff2f50735ec1612U,
  0x638402539f84b2cU, 0x1609192cd622281bU, 0xe9161ad88f134534U, 0x220006f74cf80b06U,
  0x231dfe29f80bcde2U, 0xb1d5aa8c092b1057U, 0xeee3c0e4201b9196U, 0x8ec6adaf0ed9ccU,
  0xe0c989259111aaeeU, 0xc097882f9fbfd4c8U, 0x190002fdaab6e908U, 0xbbd52914a3f6e013U,
  0xe0f585ff14a3839fU, 0xd0d78981a3d291d9U, 0xa2fbd0d0b08b28d6U, 0xc2f0ffafcbad09bfU,
  0x9417d6a5099a0f8dU, 0xbedf23a9a6d311ddU, 0x18b505e090b4cabcU, 0x86bdefe1e02cdde2U,
  0xc80b02e688e4e3a8U, 0xbf02bbf51ab7f3fbU, 0xe99802151d849190U, 0x6b5b7ca9914cefbU,
  0x8eff080fa5eec8e3U, 0x7e392b905a8cdfdU, 0xf6010405e203f018U, 0x2f230001eb02dffeU,
  0xe614e82c180b23efU, 0xd6da11f914f1200fU, 0xfe2feb0c191e1e3dU, 0x1e4f8e71930e102U,
  0xede51e0c0a1615e8U, 0x3409050507001620U, 0xed35ea092e08f4ddU, 0x181c12e746050909U,
  0x100c140f0be2deffU, 0xe028e4e92b283015U, 0xe10ec361e1efe1dU, 0x2015e81def47f219U,
  0x4054a28dbf1e905U, 0xfb0ff1f708fe37feU, 0x812711181514481eU, 0x2fdbf116ef030defU,
  0xe30db1ebd70e1735U, 0xe9240245f53e2841U, 0x1106f62b411ef89eU, 0xe6ecf62ccf3bf9f9U,
  0xed0a05fd27270bdcU, 0x1b544be6ec0e2401U, 0x8f2087f0813ff00U, 0xdf2bff3c150c10U,
  0xf7c811f20fdb18e9U, 0x10fe27291a032126U, 0x2e0b08eaea04da33U, 0x20c0afd23242406U,
  0xf4f4153d1c080f03U, 0x2c01fb120f592112U, 0x1107f81fff2b38f4U, 0x19031c0fdcf92020U,
  0x1140e1a210c22eeU, 0xc1a13fe211a2614U, 0x702eaf5211f030fU, 0xe724161d1a08e5e6U,
  0x400f9ea161015f8U, 0x103a0c2ff215fbedU, 0x99bdb50cb0da0609U, 0xe5a5faa4aa85dea6U,
  0x9ae90fe20bc4da8aU, 0xb913b4bdd71597c6U, 0xe4bafb1ec9b60724U, 0xb7cda6c42c21b5d2U,
  0x1588d2918389cce1U, 0x1ca9230fcae693dbU, 0xa8d5b3f4c9fcb293U, 0x20cada06b3f8bbecU,
  0xbaf497aced9adc15U, 0x9ab6c811f91ed7d0U, 0x50312d90eb284ecU, 0xa2e4ca901b1818e3U,
  0x890efaea1c10e1aaU, 0x16068b0eba16c2aaU, 0x1d189ee515dd918bU, 0x9e92a119a4e2cbc5U,
  0xd6dea21489feffc6U, 0xb1bb8d84b1d61999U, 0xfc0c25d681ddcd85U, 0x201f18f0fe001308U,
  0xfb2008e116042414U, 0xe3f111f3e9ff011aU, 0x2a05ee052ffd35f2U, 0x1123011100fe0646U,
  0xece7111d16e70af0U, 0x1ffc19e328110f22U, 0x2cf7423c10fdf419U, 0xe614ec2a0e0d0afbU,
  0xb9fceaed0c1f3c20U, 0x30e90b220e2204f8U, 0x1e0fedfff41f2527U, 0x14e5fd111c29082dU,
  0x1f0b07fc23e41c6aU, 0x22fb12f97f0c0a1aU, 0x1816e1f6fcfd1212U, 0x40aa11b04351d1cU,
  0xe0b3dd9071a102eU, 0x3336feddc105dd06U, 0xfdecda23f5681559U, 0xef04061514082401U,
  0x30af4fdf7051af8U, 0xafcf7040d0d110dU, 0xa010df1f00c0905U, 0x1b0b122105151826U,
  0x11f0cf7f8150100U, 0x2182e1d000f0215U, 0x4607fffa170a19f7U, 0xef8011316090ef3U,
  0x1017111f0f2c1219U, 0xe3062a1617d8c503U, 0xeff6f1db100515ffU, 0x1e502a4e260b16f1U,
  0x1e0270c3c5b0bf8U, 0x2b0c7f3a0a160006U, 0x210f110f1e30fbU, 0x9bfdfc331818334bU,
  0x5b03071d2b1f1902U, 0x260ced04ecf81033U, 0x7f50d482b4b0f30U, 0xd7a5839bdde688ceU,
  0x2121b79e3edebfeeU, 0x1e858a991d83a7dcU, 0xffb328bca9ae84c6U, 0x81072de4c98cc822U,
  0x9faaac0c268ce81dU, 0xbc0a86c90493fbbeU, 0x1eada0af959ad7e4U, 0xc5882d03ba11e79bU,
  0xb0d0d1d785cf0b97U, 0xcf17b7ec22e4b31fU, 0x729e50ce78fd396U, 0xe7e1f2029489f483U,
  0xe59eb5a8d11edbdcU, 0x85062786f5d6c92cU, 0x83bdd5fcbd9af99cU, 0x139b87b78ef1a2faU,
  0x99deb7cd84a3bc95U, 0xfd0abfda2aeaa2a3U, 0xdd21c6ef02f69b27U, 0xed493df5069b17f7U,
  0x238d34030ede70dU, 0x40ef8f140d20cddU, 0x691c0243feed15deU, 0x440343b09170f1dU,
  0xd34201f3d031f10U, 0xe2f10edcfbda181cU, 0x7fb190a2929fbebU, 0x3bf212ef393bfdecU,
  0x4b260620170d3627U, 0x3430fc0b1f3b2d0dU, 0x7040127272014dfU, 0x53cf327ebee0f1fU,
  0x2777f705eb250d36U, 0x2332fb0803fc1cefU, 0xfc0f3eea1df74b2aU, 0x37e91a15f80fec15U,
  0xf30d13ef810e0823U, 0xebed1a164b161d27U, 0x14313049211ab605U, 0x4046ffae030e2d44U,
  0xc114013c081f263eU, 0x17ee581800fc092bU, 0xfe2622ffdae94c37U, 0x275600ff316f5b13U,
  0x1610132324fad15eU, 0xf3de1524eb07103eU, 0x1354f8fff9d81127U, 0xe812ed0e0d08eb10U,
  0x3e292107efff0aU, 0x75ff0b2a1a0d081fU, 0xe07f2540ddfe2318U, 0x25180318094ae0e6U,
  0x2aff0d16feecfe10U, 0xaf413f8ec2c1b1aU, 0xed1eeaf62e28f722U, 0xf0ff3190a3122f6U,
  0xe5dbc309051e02e2U, 0x91df7dd332cf803U, 0x2722f7fec00f18faU, 0xfbbd25f0f9021d00U,
  0x72b051513461e25U, 0x14f1d7fb0835c30fU, 0xeef50de61a251e06U, 0x13fe064f7ff7ed0aU,
  0xb2cf516df64465dU, 0xf15f516fa2d0305U, 0xf209f3bbea2a0bf4U, 0xc7161e2e1d01003cU,
  0x29241cf018ef1300U, 0x240a0a0a2be3052bU, 0x2f3715e7104b3319U, 0x14291006f7fcdb66U,
  0xe9fa11e61406ea2bU, 0xec31e4e41aff221fU, 0xfb0407041e070a01U, 0x1f01f5271308ecf2U,
  0xca1a16f90c1302f3U, 0xf4e91127fb1513e3U, 0xeb13c8f4f01fe416U, 0x52e06fdff01e6feU,
  0xffdfec2c2900fc83U, 0xef0ad6fceb291330U, 0xfdd35029f5105a0dU, 0x306e7f2000fb16f6U,
  0x625c87211331711U, 0xd7e1ee32390c4656U, 0x1bd21cf72be1171fU, 0xdede507e615391eU,
  0x300ce5f60826e919U, 0xef291fda3afe1ce3U, 0x1516ee2b67ea29eeU, 0x4b08f81e063d3713U,
  0x319ec0e172248faU, 0x1bfff6dee5371bc7U, 0xdbe6132ad3fb1804U, 0xf6faf3e8f3eeedf3U,
  0xddf0d3dde1011df6U, 0xed1b1e23eaf601e2U, 0xfd190e0117fbdef5U, 0x10ffbf3f717e524U,
  0x33904f6178e35f2U, 0x2711c249241224f5U, 0x17431ffd10e5f329U, 0x7c2bfb17142603f9U,
  0xd3480229222a4430U, 0x2129ef1e312f0f11U, 0x194109eefbe1e6fbU, 0x22d82729384228deU,
  0x4330f2e105430d31U, 0x57002516f03b44dfU, 0xfb37e5e42040f1f6U, 0x2a2f1d0a2e1d06ddU,
  0x32102112ff3517f5U, 0x165eea01e30c3930U, 0xe93cf0260ae7f5efU, 0xe31620103bde333bU,
  0x140e3521de1b0930U, 0x1ce61c13811c4ff2U, 0xef05f30445cd182aU, 0xeb574508f123d9f0U,
  0x402c07bfe3f5f03bU, 0xea4427240efc1944U, 0x332031f017e11705U, 0xf310edfb121b1c0dU,
  0x1a2de6f43f5b7412U, 0x627144a23ecd449U, 0x10d330f30618f52aU, 0x1b32102923eadc22U,
  0x2f32343c21001e23U, 0x1e2127f41bea41e9U, 0x3f23102ae9090c06U, 0xfd462418f7f4121fU,
  0x2c13040f0114101eU, 0x1e3119291f2afb1eU, 0x25270805ee06037fU, 0x1a263a03551beffaU,
  0x382e01f4f1fceb3eU, 0x25e089fe2e1bfaf4U, 0xf00344f124182104U, 0x3c3c23f9e308f011U,
  0x40a23061a37f03bU, 0x17131f0102ffec08U, 0x1cf928ebf8e31305U, 0xafb0609170c0414U,
  0xff0bff0f28f41ffaU, 0x23f9e518f7ff23fdU, 0xf7fa27130ef017e8U, 0xe2f7165c2012f00fU,
  0x4021171322e10014U, 0xdf2ed6183cff13f7U, 0x1ef02c081a2af61aU, 0x10ea100beee0a7fdU,
  0xdb0d1ae6ec153fd1U, 0x1b31211cf62504feU, 0x1fe4e7f1286b20edU, 0x37f25e1b1c250421U,
  0xd9121f2fd93c561bU, 0x81001a092204342dU, 0x4bece417180213e8U, 0xebfde50ff3042e04U,
  0x11060347ed2d2e19U, 0x90bfd22fc1701dcU, 0xfde9f71ff1021603U, 0x18edfd1f1a0a29e8U,
  0x211413001a160ae7U, 0x170de039021cf90eU, 0xcf50d131c1d1f05U, 0xfd1d01090b210402U,
  0x8fb1409f2f71417U, 0x814372313074622U, 0x19162102140408fcU, 0x140e0b01be222701U,
  0xe9f42722230dee01U, 0x27212a1313ffde06U, 0x1e220777ff0af718U, 0x7f250027fd2232dfU,
  0x110613114024240bU, 0x242d2c0e4126e51eU, 0x1406210e07019406U, 0xbd03eee1fa2b41e9U,
  0x7380f472d19f9eaU, 0xf9462e0bf9a6f6f1U, 0x1e0baa16022514f2U, 0x532545f43300f118U,
  0x7ff9e8420234090aU, 0xf4611753d0f21e72U, 0x2961370a3313fe2aU, 0xd9062cc622fd27f6U,
  0xf9fe071c2927f5beU, 0x2dff107d3413e33U, 0x18f93b46f1424110U, 0x393e2be50d0be022U,
  0x7eafb762c1be5e9U, 0x220d1d1fffe1391cU, 0x92f414316ee1afbU, 0x353d0d204134d81bU,
  0xc537234120123c31U, 0xf8112b04f718eb46U, 0x161ef02cce0b2400U, 0xeb2b2106fced4414U,
  0x231dfc2bd416a9f9U, 0x1c98bbb22101f533U, 0x1d10daf386b107b0U, 0xb096152692838fd4U,
  0xf584a2f6b1aa818eU, 0x12e6fdc7a2d4b18eU, 0x2be0bfb192504e8U, 0xca279cff27a921d7U,
  0xe2c02987b316fecaU, 0x6c591da23dec289U, 0xe3d4872adcb70c92U, 0xf692b785a4d88bfaU,
  0xdb840b92ef8708f1U, 0xb986c2db0cbfe708U, 0xd262cc2ad1c8ad0U, 0xdfaf018aac8689baU,
  0x24aa0a00f9c40499U, 0xdddf8293b9d5a7a0U, 0xe584a19b100888feU, 0xcab1f4b182002201U,
  0x87f98f12b105fe19U, 0xd8190c8b69be3c2U, 0x1c312615e46d232cU, 0x37e2d8e6f330e840U,
  0xdf1fe51a29170711U, 0x9f8034477060a42U, 0x30180e23f1785534U, 0x22f720ef32172218U,
  0x130eff0ff0e19bcU, 0xd61e2006f402132dU, 0x32212719f60e0dfcU, 0x213df60240ee0312U,
  0x274b07ef28555515U, 0xc1430131afb0b43U, 0xeaf3efdf1812080aU, 0xd1fe5fd1735fc3dU,
  0x1edc0114fc3a1615U, 0xe1fe629df171424U, 0xc814390301e43416U, 0x6f80515dffb0308U,
  0xb08c0ec151afe0bU, 0x2e210809fcf719f9U, 0xdc89fd0608cab484U, 0x8abac5c21912d8a0U,
  0xcee6218225dbe906U, 0xa4fbff2cb187c11dU, 0x16911afc28268dedU, 0x2889aba5ccca21daU,
  0xa1a6f10e23c621a9U, 0x178cb4009423abb3U, 0xf1e88f29f2c2c423U, 0xb9d782a5a3e1bb96U,
  0xe1e9f7e8faeffbc0U, 0xa7991ae1cf8db099U, 0x8603c195910fedb8U, 0xacd8cb12f5b10ad6U,
  0xce909688a9e1d09dU, 0xb79418cdf196b1aeU, 0x84f119e5bd86ef92U, 0xa72cc00486e1811bU,
  0x92b3dd089194ab88U, 0x2bd6b3f089da2820U, 0xf94ce0f5cdb1c322U, 0x24f8d631eef0f0eaU,
  0xc3736dd342c15feU, 0x37ec1626c9fdf80dU, 0xef180a3ac517f2ffU, 0x1c35fee7fa47082dU,
  0x7ef2c19eff92cf6U, 0x19e6302dfd142b3eU, 0x522503d54a0fd7f6U, 0x82cf80d11f5ef28U,
  0xe1ebf1422808220fU, 0xd2d250ce54310fcU, 0xf3fc2bfcc71bef0fU, 0x197b113fec281728U,
  0xe3400bf81accf50bU, 0xe90a49e740f764eaU, 0x3928261bf6482c39U, 0x37f013d2810f1e1fU,
  0xf8142e093cd2f330U, 0x2d183f63072cafe0U, 0x26102dcb46f51c3bU, 0xe432160906f71e40U,
  0x2610341707eaf10fU, 0xfe3514270ae31835U, 0xd43210b073a2907U, 0x27230b1b23ec1160U,
  0xfe0d08ff10e40ff5U, 0x52309ff2305d023U, 0xa013f320d1b1219U, 0x1219e6fe300af917U,
  0xc0dd132e2c2a4604U, 0x241f181b22290f21U, 0xf10bf507edf70722U, 0xe3ed271626510e06U,
  0xf82020fb28131651U, 0x22142f21693c151eU, 0x5b43f30317182b01U, 0x13ee8113241b2e26U,
  0x110d49dfebff1621U, 0x181d07e2d820d3edU, 0xd4a8e3de28710636U, 0xcd2cbbd0920f0eceU,
  0xa1b18487aca3a9a0U, 0x8a4bbc0b2ea248dU, 0x9de2f80fd1092afcU, 0x25f6daf3850bc009U,
  0xbe10fbdf0d06e805U, 0x584aaccf1c5c1ddU, 0xef13bccfb4ccd4e9U, 0xeb0be4fdaa05acc5U,
  0x3f0c3a2a3f083dfU, 0x4e30fbae08d16b4U, 0xd701d4da02e79ff8U, 0xdbbecef984a0bb25U,
  0xc2daded4e8aaf8e5U, 0x8f8e19cf326a1beU, 0x9dcd34bc9bb699d5U, 0x9ce1696e1f68bcaU,
  0xd902a89fdaa0eaddU, 0xfe1020910dd8a019U, 0x2ad2bbb4a5eb81efU, 0x519cd1bf108f6d5U,
  0x1d1f22e4c002f6f3U, 0xd0f1e9193df0f622U, 0x233b4e1925fce307U, 0x261cbe3d2d0bfcf4U,
  0x36001a0601fa3548U, 0x1b2c2d25fb06ea0aU, 0xda2f22e5f63afe13U, 0xe026560b19d900ecU,
  0xe6ed0536ed28df21U, 0xf0e3e020f41e312eU, 0x2f210be71b042e3dU, 0xf03231fa07f2ba0aU,
  0xe0db137f3933e20eU, 0x48100c2a32dd0ef2U, 0x32f8fd181f2007eeU, 0x142723fc074b09f9U,
  0xf804f8221e119221U, 0xc900e92723021fd8U, 0x1d5f12083d3bf91eU, 0xa414d6d4d49f1506U,
  0xfdf3bcbd1cc7f1b5U, 0xced982ba06ea189eU, 0xacea94c5bf8fc1e1U, 0x88df8b0997920f9dU,
  0x7c8ddb1daeaa5bcU, 0xaf17cdee3495ebe6U, 0xb0dabb0e01692211U, 0x4ec48fbba2980a86U,
  0xd9ebd181d401d8d1U, 0xa995dfc7bb16c697U, 0x9ad4b69ba7becd16U, 0xc3babf07eea7effeU,
  0xd9e0b041300f5e0U, 0xeea7a903c0fbfd62U, 0xb610a4a0e100e2f2U, 0xba039ec7fef3a594U,
  0x21049bd9d1c31da7U, 0x9ffff31710ae91f2U, 0xffdcfebda110ba01U, 0x46efbdd8ab4U,
  0x2cf000002b2U, 0x4740000032bU, 0x229fffffa30U, 0x29b00000376U,
  0x325fffffa2bU, 0x28800000261U, 0x2be000003f6U, 0x36a0000038dU,
  0x4760000036eU, 0x45d00000413U, 0x325000002e6U, 0xfffff94c000003eeU,
  0x2af0000028bU, 0x2a0fffffa42U, 0xfffffa3d000001d4U, 0x3d90000034dU,
  0x36200000351U, 0x44f00000455U, 0x2ea00000280U, 0xfffffa2e0000052aU,
  0xfffffa4700000412U, 0x23200000421U, 0x399fffff846U, 0x81818fadfffff963U,
  0xc8fc9f42817f1c7fU, 0x817fade781eb7f7fU, 0x5981117f6a7fc39aU, 0x90817f7fce3af90bU,
  0x37e3817f890b9c66U, 0xbc021581fa2e2f44U, 0xa1f07fd6f0ff8111U, 0x1c7a3147b0145ae7U,
  0x8108a5e7817c7f1aU, 0x81d9471da481cbe1U, 0x8e8184f281f1427fU, 0x97c67f200d8181c3U,
  0x7f81a181a5a14879U, 0x966f817fa17f40e4U, 0x8e281caa7615e81U, 0x854ad3f281107f7fU,
  0x818e14d9ff817f5eU, 0x81d5097fU, 0x0U, 0x0U,
  0x0U, 0x0U, 0x0U, 0x0U,
  0x0U, 0x0U, 0x0U, 0x0U,
  0x0U, 0x0U, 0x0U, 0x0U,
  0x0U, 0x0U, 0x0U, 0x0U,
  0x0U, 0x0U, 0x0U, 0x0U,
  0x0U, 0x1a8b0bd700000000U, 0xd5e697988505c847U, 0x1c38e1c1d97fee3eU,
  0xddfee6231bb7b531U, 0x479f00d5c75778ddU, 0xecdeb3e50fb871eeU, 0x79a8166e7fab777U,
  0x5a2e92652ffa150dU, 0x39cf3dd1f96d431dU, 0xb36d1bef170a4c0bU, 0x60f1e93a5ceee28fU,
  0xaac9286f943252c4U, 0x2920bdf4d1a72bc4U, 0x987bfed7518c10e0U, 0x6cca0f18f1b4f9e4U,
  0xe0702b4f33912031U, 0xccba96b23d05fed9U, 0x15dbd07443509c81U, 0x13b34febc63cd10dU,
  0x81ab25fecb22053aU, 0xda542154af563a48U, 0x45a7a3030d0820abU, 0xbdfd2e4b1bf6ec4bU,
  0x3f4b5f5b5c3f64dU, 0x6402c1e04c19e127U, 0xf101212aefc3cbe1U, 0xc595cdde251837b9U,
  0x23ec1d10ffb24d4fU, 0x7fdc1f9c643292c4U, 0x385a1b6866641aefU, 0x24e525fceb5edd90U,
  0xe46f28f1e9cb2a08U, 0x29e64aa17605dfdeU, 0x330a25220224926aU, 0xda05c798f6e30eb5U,
  0x71e57f27552d0405U, 0x9b160fefea3f221dU, 0x890cc581d5fa20f0U, 0xa403e50a245ed620U,
  0xf5b1e8e905cd3ccbU, 0x2442e76b2444f42cU, 0xc5e4c201ebab44c7U, 0xb83035a719a4f536U,
  0xcfd998992245e630U, 0xfc7f2a7430d2665dU, 0x74b3acd114d61e1fU, 0xf61afc51ce5b596dU,
  0xa5cb93da2eec6d3cU, 0x4718cbd430e83a5aU, 0x91c3e781b05b40edU, 0x9e739ec2d2390959U,
  0xf6192c89c1f36ea1U, 0xc78ade6335beebb9U, 0x3a32344ca8c1cdfaU, 0xeefcfe61041206e6U,
  0x20c9185bf21ffaa9U, 0xa1956daf2d9e300U, 0xa2c310f30bf8e46U, 0x7ffed72f39a0a998U,
  0x7cbbea2c3b1f9698U, 0x51da3e4598c5fed3U, 0x6d0528215489c929U, 0x6f02e1152ce08cdfU,
  0x197ac21bfdd9b57fU, 0x36071b93493d1634U, 0x59467ad43fe3bae2U, 0xc4b86196016a00d2U,
  0xaa98cb8b1e7318feU, 0xbe6791eabc2b6819U, 0x5f221f241a6c3fdcU, 0xe1e32b5edb627f09U,
  0x1efcaabbb4bbd4e7U, 0xda15efca2a29ce61U, 0xf02c881347a1648U, 0xa9c7ee6e9cfc7072U,
  0xe63ea8a2c827c4c6U, 0xc5ee3e5c13cb27d8U, 0xb7ea3638d7e775c5U, 0xeae304301ebe0320U,
  0x1cf3aac2de242867U, 0xc107cd4796747771U, 0x65a5a5aea33126d7U, 0x1eafdb489a2f3874U,
  0xe5898133ea00537cU, 0xe2ebf7546aca3e60U, 0xcc0477d2063733dbU, 0xb346cd763818ac7U,
  0x105e771e48248a55U, 0x5f5517056ac0a7f6U, 0x1c04663fa2eb91bU, 0xd9f777922175b6beU,
  0x982e9f813a56d50cU, 0xea56d9591a2acaf6U, 0x4cd0da2cf6008a7U, 0xe3b574612e1225f7U,
  0xeb3afcf7b28c29cdU, 0x1b5e261ff69b5922U, 0xdf12db0a76c4ef17U, 0x7c8accdbe6c640c8U,
  0xe061d04b5c2b8e1fU, 0x4115bd9e4720a228U, 0xbe351c6d82636c0U, 0xe74ecc62e47f9192U,
  0x3c7e4207fedc3dbdU, 0x543e71e9b703819aU, 0x296a08fc58a0f5d0U, 0x21ef9ca85231fb26U,
  0xf131bac6d8ed49d1U, 0x2c4d3526c844bd19U, 0xa047031dfdeaeb6fU, 0xc9e03cd1914d197fU,
  0x2828caaaaaddd3c4U, 0x213a576f3d363f46U, 0xda8da0adf2b2c53dU, 0x51e931f22fbf1eeaU,
  0xa8d1f3413d3a05ebU, 0x7931bcd1ddd0efd2U, 0xfad96b5ed881f079U, 0x475a05a46c0eac40U,
  0x73b0aff275f218fU, 0x31ffa9d383dedf9U, 0xbeec1081e43bd302U, 0xb9579d4ecef76b0aU,
  0xa0ee1fbb613d0e3U, 0xaad373fcf2377003U, 0xaef1e739c3db2326U, 0x90f733ae5aed032U,
  0xe4b00d81cc1b140cU, 0xf25ad16112d4d3d3U, 0x51063509ef380ea9U, 0x902f7d6d3e84d68U,
  0xecf9d81b00293247U, 0xccacd9ca292f0638U, 0x81ea2b08bc524363U, 0x2a08ba3a9b3f354cU,
  0x2efa0a2fbb5532a7U, 0xf6f3156192056333U, 0xecb9c7a79aa81e5eU, 0x49550eb7ddfb55dcU,
  0x6e20dab823a79d6aU, 0x9945f80caedb08e3U, 0x2520182c75e6c8deU, 0x9bac9c53a898948eU,
  0x6abf68066016c6a4U, 0xaa9c4d9e8112dfa3U, 0xcf94a3a1fe7f4c43U, 0xf0fd241523df2cdcU,
  0x8a5d1cbce33262cU, 0xb0b9204c1de032cbU, 0xd4fb9b29f1d03831U, 0x9ef5d9a44d1ab4d7U,
  0xd5071086921e6869U, 0xac3ca048b7684e7fU, 0xf2c0271503cbd2d0U, 0xfda4e54e9ff6fcf2U,
  0xddeb2af0f30fd940U, 0x1fc335053e1b2425U, 0xf405aa1c337a32U, 0xf53a19303136425fU,
  0x69169ff58a2e2783U, 0x5641ba5eca79c70cU, 0x5581aec126ef3ae9U, 0xac8a35ceeb264d7bU,
  0x94e3ea9fe3522f6bU, 0xb3120714a57be42aU, 0xf2a608cdefdb57a2U, 0xbc37dae890ff7202U,
  0x96a2a42d8d81ef58U, 0x1ea1d128ef2e1368U, 0xd497fd08fd7fb2e5U, 0xe841a00fb74de1e1U,
  0x18c40327d20a17afU, 0xb8b8006132d9f210U, 0x2a0d052affbd2d1dU, 0x426d270810d3cd0dU,
  0xc0e5134b6bd002a5U, 0xbe9a3310c5c245fcU, 0xebfa3d463ca0036bU, 0x797099d038818417U,
  0xdeec147e7e61e022U, 0xe02a4fbb3cc8a085U, 0xefee1812576e9c2U, 0xcd46edd5c15639c6U,
  0xf44ff4dcc754cf24U, 0xba3c120aef44eb30U, 0xae21e02effe148bcU, 0xe6a94f9e1f28411fU,
  0xca122a92d5f1f624U, 0x9b4ce821a86a777fU, 0xc590c504d1080f91U, 0x3943237ed174c11U,
  0xdc93fa029d866a69U, 0x9edc6ad0f6a4356bU, 0x14c817a5d3f014f7U, 0x81c1ab09dad33d7eU,
  0xc3b6a6addfbf688dU, 0xaacce9282dd6f2e6U, 0x4a379017abadd671U, 0x55dd0b4f4619e00fU,
  0xdc14766bd1e0241aU, 0x5dff7f1e6db418bdU, 0xa756d9cc11c4370cU, 0xdb4aa5ec25fb21feU,
  0xcb2f232c6e5b9ecbU, 0x222b08e4cd60bc2aU, 0x1d1d3828dc25daffU, 0x600662b81ac32ab0U,
  0xf2ff28ebfeb0b26cU, 0x7f7309e35cc4e5e4U, 0x70e14f2b35ccf333U, 0xa2393b2ffff7e2adU,
  0x83c7da15a821c867U, 0xf8ebd84bef18c27fU, 0xd945ea0148c2d532U, 0x3fb6eb498d076f26U,
  0x4e870bda12cc3a3cU, 0x25ca5d463290ffd4U, 0x71c93d2e291e07c8U, 0x4d245ad451c6bdbfU,
  0x1ae03dfb0b9d364bU, 0xf2c6bbdb39ff8c0eU, 0x11613d7f27f2309U, 0x3d4d8145852bf296U,
  0x73fc61eb380e23fcU, 0xdb2b052a3eb8a8dfU, 0x272a4ed404fe9a6cU, 0x6363cef91ddf89e2U,
  0x3736fb640d69922eU, 0x6657e32ce118bbc3U, 0x3a1934de20022fdcU, 0xd5d620ce69c8b00bU,
  0xbc36e60feab0fd52U, 0x311bf1fc5044e590U, 0xe4d704677f1601a8U, 0xe6479ecaeff4ea2aU,
  0xf30e76093bcbbec4U, 0xf8c17511f68193e8U, 0xfade54c8479b8454U, 0xd9bd1c327af0fcbeU,
  0xb86d5a7d6f364537U, 0x97cb7be19d49343cU, 0xcee4bd81067b3775U, 0xa9308f143f3be354U,
  0x30d5e5c486461ad8U, 0xa8cd2959f33ae3e5U, 0xbac00bacd9ab5efeU, 0x120be62742c10b22U,
  0x42f768127fa232dfU, 0xeecf6bc85c13f4bfU, 0x1139d60154b5c917U, 0x6d7a8cfd03bb2527U,
  0x59ca056aeed9f7deU, 0x7df09bdaba06b10fU, 0xe7f07d9d6b3c4fbU, 0xf9e08b73111029bU,
  0xe53fbc90cb22ed6U, 0x5b3adfc1da0091b8U, 0x13d007c974d99bbdU, 0x6569fa1cce72188cU,
  0x37e0036bd7e6b70cU, 0x57865c11e142d4e5U, 0xc812e4fe77c8d3d5U, 0x6ef8c1db06f3feafU,
  0xeecf56790bcdd181U, 0x52dcbe35d75b110fU, 0x37ffc9f17fa3befcU, 0xc73433fb7ec823cfU,
  0xa3ed76dd67f3f504U, 0x650a001503a33d2aU, 0xffca36f0147b2f98U, 0x381f1659a31cfab9U,
  0x7f52f9e9ecae2b26U, 0x381a2ebf369fd400U, 0xad0e3bf432d81be1U, 0xd54ce1fd3f0cbaa6U,
  0xace3d2cf51be410U, 0x2c64dc1f2302cdacU, 0xd8170f7f3a283ed2U, 0x2e26eba2451cb7b2U,
  0x112c565d7e09fb0cU, 0x3a25ed0464df27e5U, 0x2ed968ea39dcba15U, 0x135e8f7810dcac16U,
  0x56d5d4e60fdbe0b2U, 0xf02a5e2637bdb593U, 0x297464d441dd8ae5U, 0xd2fea4f63324222eU,
  0xe9c9f9eff27fe2ecU, 0x5c698334f25e19fbU, 0x11f11368efaec9d1U, 0x4d28d4095edc2da5U,
  0xea73e75d67f18f03U, 0xec6e8ef14b1fd381U, 0x78d55a53115c3b8aU, 0xc9d57fba07cccfdaU,
  0x998420aaede35d0bU, 0xe318135ef4544f06U, 0xc20f8eddfabe32c1U, 0x28fe16401571e80eU,
  0xa0b5e814341571c4U, 0x1510e8094cc7b477U, 0x8b94fabeef7870c2U, 0x842b146b32cb7819U,
  0xead90c69c85906f7U, 0x9d40650541022dafU, 0x490a280fd20a1942U, 0x3d0e97bd7d6907fU,
  0x28b86f6f4d419989U, 0x3c53ea327f9a534U, 0xfdf620eae593e547U, 0x7f39db02401bb409U,
  0xe5465d13ea3e2cf6U, 0x5c4d99289e628edbU, 0xd37d3c63042e88U, 0x3d2eeac2be50709U,
  0xdc41a3cb8ac3645U, 0x31c7940738c2cdb7U, 0x7f19bcf00023fcb8U, 0x184aebe2bc4702c1U,
  0x11edc5e39f676f21U, 0x6dcf14537c9e174U, 0xf33c98d4f2d73ef7U, 0xf8e371be81187437U,
  0xa078dfaf48c6752U, 0x5c66b2d36cbae1e5U, 0x3c6fbb105d9cf1f5U, 0x7ce6d21e46a18cc4U,
  0xa5611d34741e1444U, 0x68dccafa4734aa15U, 0x34d33249e1f60631U, 0x91de71b10c7bf81U,
  0xd125b3ab8e35dccdU, 0xb134a91937713759U, 0xcf41ca8dd5a4019U, 0x9f136dfe8a9d31fdU,
  0xb406cadcb00d7ff4U, 0x38350534d4a72915U, 0x81c20f0d0d032659U, 0x204801d02a69416cU,
  0xe28b5a8024c139aU, 0x13a43f310bcf1e58U, 0xf5bb02271e8b170dU, 0x8ea52bb8600ef05eU,
  0xb8c8c0ddc3035972U, 0x1e6cd5d7ea7f5813U, 0xcc0639ea91413cfaU, 0xeeee57f596af37d0U,
  0x196bbd8fa36162dU, 0xd3dced15c30d344fU, 0x8196f5bfdf46e62bU, 0xa01e94ce0757606cU,
  0x826f1fdd2f5ddd2U, 0x2a2d85324f9585eU, 0xe8b9ded5dc250368U, 0xe555bcdfd0d5c24cU,
  0xd2d8d869309bb032U, 0x68df01ea4118a717U, 0xf0e7fc104436bfddU, 0xc61de310e503b8b0U,
  0x6cd7db07f965f481U, 0xc9f947da37f7d223U, 0xfeaa13f91c7fc647U, 0xc2150f38f1415bdeU,
  0x5f1a07c20bf24ba4U, 0xb1cf3deb0601e50U, 0xccddc1162fbc46daU, 0xd4c869acccc0b50eU,
  0xe497e5afda7f6e62U, 0x8c37e04ec31c1404U, 0x6409e33e1caf48eU, 0xb8b9f9f71810275dU,
  0xd5ed16bc9ca00411U, 0x476ea2c35da9ac3aU, 0x230b3d200dc7a0U, 0x47b23f0a1f190106U,
  0xae175f3e3240815eU, 0xe7c585a207144311U, 0xf157fb097b3232c6U, 0x166f003c1ef6c8e5U,
  0xf95c161d410f9093U, 0xf3e26a2caecef1bU, 0xa364ea5456b3e47fU, 0xf32bd2e2eccc88daU,
  0xfd4c29d166cfebd3U, 0x3f22efc3aecU, 0xfffffe4800000193U, 0xfffffe630000032bU,
  0x38bfffffd7bU, 0x3ba00000407U, 0xfffffe41fffffe10U, 0x3ac000003b7U,
  0xfffffde00000045eU, 0xfffffe45000003caU, 0x375fffffe42U, 0x3dbfffffe42U,
  0x3a6000003cbU, 0x36e00000160U, 0x457000003a4U, 0x34500000404U,
  0x37cfffffe43U, 0x478000003fdU, 0xfffffdc4fffffda9U, 0xfffffe44000003b9U,
  0xfffffdb3fffffe10U, 0x450fffffe48U, 0xfffffd94fffffdb8U, 0xfffffe29fffffe44U,
  0xfffffd1dfffffed3U, 0xfffffda8fffffd10U, 0x40c000003d2U, 0xfffffe39fffffe44U,
  0xfffffe5600000413U, 0x390000003e4U, 0x37c00000456U, 0x368fffffd8bU,
  0xfffffe4e000003edU, 0x7fba1523fffffd9dU, 0x65c4d71f5e370300U, 0xaf11b2d623d2392bU,
  0x3e223f2ff8656f5fU, 0x1519dd3e65180e1dU, 0xc2d2e435fefaf7cbU, 0xc1393214db0decd7U,
  0xf83923515dd517d6U, 0x515ffb13d5dU,
};


ai_handle g_forecast_temp_ml_model_weights_table[1 + 2] = {
  AI_HANDLE_PTR(AI_MAGIC_MARKER),
  AI_HANDLE_PTR(s_forecast_temp_ml_model_weights_array_u64),
  AI_HANDLE_PTR(AI_MAGIC_MARKER),
};

