/**
  ******************************************************************************
  * @file    forecast_temp_ml_model_data_params.c
  * @author  AST Embedded Analytics Research Platform
  * @date    2025-12-07T18:04:55-0400
  * @brief   AI Tool Automatic Code Generator for Embedded NN computing
  ******************************************************************************
  * Copyright (c) 2025 STMicroelectronics.
  * All rights reserved.
  *
  * This software is licensed under terms that can be found in the LICENSE file
  * in the root directory of this software component.
  * If no LICENSE file comes with this software, it is provided AS-IS.
  ******************************************************************************
  */

#include "forecast_temp_ml_model_data_params.h"


/**  Activations Section  ****************************************************/
ai_handle g_forecast_temp_ml_model_activations_table[1 + 2] = {
  AI_HANDLE_PTR(AI_MAGIC_MARKER),
  AI_HANDLE_PTR(NULL),
  AI_HANDLE_PTR(AI_MAGIC_MARKER),
};




/**  Weights Section  ********************************************************/
AI_ALIGNED(32)
const ai_u64 s_forecast_temp_ml_model_weights_array_u64[523] = {
  0x0U, 0x0U, 0x0U, 0x0U,
  0xf6d634f3397f0ce8U, 0x16092df2021ace65U, 0xe1e600fef00fd8e8U, 0x83516e142081a10U,
  0xf3dfd3ea2708faf0U, 0x1a20fe105557180eU, 0x40ddbe9fd057fc6U, 0xecd94138045a10f1U,
  0xfe04c5e2d92e290fU, 0xfef1362276b6eff6U, 0x2e682a92d2ae0bfU, 0x310812112f819fcbU,
  0x811c6905f227fdf3U, 0x11fff71fc6d8564aU, 0x5a4f0ae1fdc60edcU, 0xe3cd6716ec92c9b8U,
  0xc82ed7f311fdc0faU, 0xed2d41da1b3d2719U, 0x2145dce4c08f1c7U, 0x1dd81db0ae81ee8U,
  0x9ab12bf11bf5dbe0U, 0xeb1d19c8f424a498U, 0xe901140dcf43487fU, 0x41d9db17fcd21007U,
  0xd1e2360b81f62dceU, 0xe301c2b34013c604U, 0x3feb0bfe03d906d6U, 0xff0ef1c2f815f312U,
  0x49fd0250e754b93aU, 0x747fb61c17f633ecU, 0x4b4bb0d51dae21adU, 0xda55d04e4e9efb7bU,
  0xc3dee8b442bb87d4U, 0xca0b81edf8d1eb28U, 0x93cf3cb3fad9ebe2U, 0x1e58232ed8ffa546U,
  0x701d2c239bb7d30U, 0x160725ccc32cca09U, 0x37251406d5380e81U, 0xb8210221efd0bc43U,
  0xb2802d581f8e136U, 0xfdcb070dbc13c035U, 0xc6e90e85f9e74122U, 0xaddffc256cfc11f6U,
  0xfbe402baac22151aU, 0x541412f202174921U, 0x153af2def5048116U, 0xfef9f56bfd32c911U,
  0xfed9a7d0db4e02ebU, 0x8e55307fb903a405U, 0x2815ed201783dde4U, 0xebc40322d202062cU,
  0x50201d162603610aU, 0x1d40f5a5e73cab0dU, 0x8178dcb34b901848U, 0x1a2df4ea95e5e898U,
  0xc3e521142edb04c9U, 0xa199a601bb7fd7ceU, 0xe8fadc277b530639U, 0x3207e40d14102af7U,
  0xcfd8bd5be4f9461eU, 0x2e07013c68a8017fU, 0xe0421aef130eee0fU, 0xa5fffb36cddc3243U,
  0xd44ff80fefa72fc3U, 0x265921fbf930162eU, 0xeb81cf24f6c8e817U, 0xa1016431fcf2cffU,
  0xfb55ca36ae75187fU, 0x4430143557101ee4U, 0xe5045f14e5d8bbbcU, 0x94366f3006c4b40dU,
  0xcf305f0345d1d77fU, 0xc9ef3af536febbd1U, 0x56e2ba8a0ae9af07U, 0xed21211dc13d641bU,
  0x1ff9b1502f371ee0U, 0xfdf392b6f70ff3e4U, 0x17de1fa896ecb1e0U, 0x1181142b0df337d5U,
  0xb6e4fafb69f1cdb2U, 0x5381f9d5ecfa9fc2U, 0x18c3d44932b70a3aU, 0xabf090ff0438d4c6U,
  0x2fa6000911143a7fU, 0xde200edd1cf04d33U, 0x3db739fc35b90f2fU, 0xf104101e2edfcb08U,
  0x8fff84e7e00d4457U, 0x3035f2e5cb8e22e0U, 0x12570efff9c7f5d6U, 0x187f3cee7b2b67cbU,
  0xcc7a24c643fc6855U, 0x4c33957f3af3c616U, 0x90924f809e70428U, 0x7096ccc05142b149U,
  0x24e5faf7f70442d0U, 0x32401979361046dfU, 0x3b153e81e4e0cc1eU, 0x975537cc26e5e001U,
  0xfeef1a811902f81aU, 0xf7e59803fb2b0300U, 0xf1e0cd2ad21efc23U, 0xd1ecbac6d6a069eeU,
  0xc509230f1b1f2dfeU, 0x8cefe90f060f32ecU, 0xd0f1d20aa6f92b02U, 0xfc328124ee36e8c3U,
  0x2700b9f3fdc4bd2aU, 0xfab7131f7f5eeb55U, 0x3e751b449d93d70fU, 0x43382b0d31c2f6d6U,
  0x79e1e4fd2de1846U, 0x6cee207fda10f704U, 0xf7d63cd3d6dbe88cU, 0x4920dd1ae6df03d3U,
  0xddd01d0b0ee52603U, 0xf4bd42e6131458b7U, 0x852cd2faef93dbd3U, 0xf6b618c137e4057fU,
  0xed2acedf21491ce8U, 0x228110f5f41924f5U, 0x1dd613e407e3651cU, 0x4d1dffff9ff62244U,
  0xbef8ad5bf7f8c838U, 0x715fbf2b64c093eU, 0x11eb9ce6cc26fd34U, 0xfbfa0281da18b51aU,
  0x0U, 0x0U, 0x0U, 0x0U,
  0x0U, 0x0U, 0x0U, 0x0U,
  0x0U, 0x0U, 0x0U, 0x0U,
  0x0U, 0x0U, 0x0U, 0x0U,
  0x0U, 0x0U, 0x0U, 0x66d9d41200000000U,
  0xc01b4f2529324246U, 0x453b240cf6a1da39U, 0xe07f0d14fcae05cbU, 0x172da6eaf781e8d8U,
  0x5e3d19cdbb07d3efU, 0xe4d40385d57ffa19U, 0x16e754d120d895baU, 0xf9e2eeffbc26f5f7U,
  0xf02be03537bfef94U, 0xf3881702f98142d4U, 0x26df1b081bab3d0cU, 0x6d48cddf1ec01e2bU,
  0x7fc3cbe1c93148cdU, 0x4766ea2f1758d8d2U, 0xd2c82fb49c0b3009U, 0x3af47f3b0b105012U,
  0x605343e44441d7d0U, 0xd3e77ffe54d31ffeU, 0xf6dcfa52e82ceef6U, 0xf61128fed62e3df9U,
  0xc62e7f652a0908e5U, 0xffbb33ffe7e9c52cU, 0x11dfd0240f15d9faU, 0x1029ce0710810440U,
  0x965433f10fef5fe7U, 0xf50ddf2fe07df37U, 0x1b12e7f449dddefaU, 0xfe5f3f524a0e20abU,
  0x1248bf1f0e282dU, 0x5733d41c7fc4ef3dU, 0xf2fe81c515b6ab2fU, 0xc2e4ef2fd5bbbbecU,
  0x2c250f00f145f5fbU, 0xd90f7f56eef6f42cU, 0x225d3f60cd160c8U, 0xadbb20625ee59f3U,
  0xd8f1a457d3cefb07U, 0xdf8f8ef0b0222296U, 0xaaf0edc623ecd158U, 0xd7f47f5139ca8e26U,
  0x4af601e2007fa65cU, 0xb9948c47ba061e19U, 0xf120014cbc0a4dcaU, 0x514311f28085414U,
  0xff1f39e7132e2909U, 0xfed67f4913669ae3U, 0x22daf2f72c11e96aU, 0x3cf7118855e1f6a0U,
  0x1129b58d8110a1aU, 0xfbcb027f68ce1835U, 0x49331b6538813ab2U, 0xe670ea26f7200850U,
  0x3e304f2652ac8f9U, 0xfdc13c29e115dbffU, 0x17fdae270cb5cbc1U, 0x15b3fd56814237e7U,
  0xfb4d74ecfe8fbb7U, 0x22ec33221e4e25d2U, 0x9d24ebce39c1f203U, 0x3fefa282a14e624U,
  0x10f8f5291a7fc081U, 0x54513371fa9e1c1dU, 0x17337ffc1dd507bcU, 0xf6f51639c79f091eU,
  0x14f6e4f4edd5d0e0U, 0xff8115dc11d8d9f8U, 0xccecff33faebbf13U, 0x327d0fbfb04251fU,
  0x22eb14c612bc7d42U, 0xe93417f5da540c81U, 0x7f59fde5fc49c21eU, 0x4c410b21627230e2U,
  0x60e008d7f60e8317U, 0xeab614d9fa332318U, 0xbaccd0d6a6d042e6U, 0xc20e1b4ae6d0f1f2U,
  0x5f6dc537fa217f15U, 0x46eb2b1509f0cae0U, 0xa34645816a19f409U, 0x27ca299d7d31e0f9U,
  0xd6fb340a22c415cbU, 0xf38ab212d215d5d3U, 0x2d15fb6de24ee838U, 0xb0011a0a4e7fbddaU,
  0x24e7e5e911c9756eU, 0xd1b14cdd1028ecb8U, 0x3cbf4d2815d13c5U, 0xa91f2ffec8f7e226U,
  0x351e6161df8287fU, 0x32d9d50b66bf3cd8U, 0xf12fd106e7U, 0x0U,
  0x0U, 0x0U, 0x0U, 0x0U,
  0x0U, 0x0U, 0x0U, 0x0U,
  0x0U, 0x0U, 0x0U, 0x0U,
  0x9b4ecf1b00000000U, 0x872a81b1c37f4183U, 0x81e1f8bc4d55f5c3U, 0x81b8cbd8da89c765U,
  0x551b433ab1e850bU, 0x8114ccde9321e39dU, 0x2ba1f01a5aff411dU, 0x906a8cb115817fdaU,
  0xebe17fc654f1f6bfU, 0x83557f714860341dU, 0x5d766aa5d9c4224cU, 0x3ec77f679e8bfd8fU,
  0xe0bc4011d1ef4881U, 0xbc515f9ca09ec77fU, 0x6d27bc73813d411dU, 0xfee381995cf309e0U,
  0x94f0f2937f02c50aU, 0x60ad54fb7fa9011fU, 0x7f99ba3e32ebac20U, 0x7f0c518d1b95db41U,
  0x7881585d9a49b805U, 0x794598d5e09c75e7U, 0xe97aa810c3099bdU, 0xc9491c7f49b4ed01U,
  0xaf7a8194a342996cU, 0xae34b7c1165aeea9U, 0xf0977f62c8147f49U, 0xd10120c8b57ddd34U,
  0x9be7f377fceb7c0U, 0xc85be0be928d8475U, 0xefc3a3ba930d7fbdU, 0xed2bd1d475a4db7fU,
  0x3c72caabce081c7U, 0x87737a81e74d5547U, 0xd838d2a5117f1e69U, 0x3775a63a8ec1b644U,
  0xffffffff4c947f87U, 0xffffff8dffffffa0U, 0xffffffffffffffccU, 0xffffffff000000aeU,
  0xffffffa2U, 0x1900000000U, 0xffffffc1ffffff70U, 0xcdfffffff0U,
  0xffffff94U, 0x10ffffff1fU, 0x9200000026U, 0xffffff8dffffff45U,
  0xffffff5a00000000U, 0xa700000000U, 0xffffff62fffffff6U, 0x30ffffffe7U,
  0x292ef65200000000U, 0x1503cc15f92ec0dbU, 0x2837148eff3645e4U, 0xb95216e3a653cd2U,
  0x1ecefce081fa616bU, 0xdebbe2aee3c779f8U, 0xd9f60b7fae2accd9U, 0xf07cc2f7300a8b51U,
  0xc855397f523adfc1U, 0x61b2ed7b6bc6e936U, 0xfdec103549270500U, 0xdfbd07760c1b47deU,
  0x8d6c1b5d384f71cdU, 0x6ff4bef342e8c02aU, 0xd424c1ffc1c07640U, 0x139cdf7f21335920U,
  0xb80230221fcc293dU, 0x7fd0e21203dfb019U, 0xf1f2a9975d563dfcU, 0x1d0c1bf128257fbfU,
  0x3363f232254e38daU, 0x12efd1d6d040b2c9U, 0x1a81f6db5fef5a0aU, 0x1beaa714450111e8U,
  0xc7602781d3a6d2fU, 0x2c817bcc0e57f64dU, 0x8ee00b2541e3ffcfU, 0xdf1e5d1d0bf1ec4U,
  0xa84076e9f2dd692aU, 0x31dc54ce6309d053U, 0x8e94e2417f702f76U, 0xd40d88485fd709beU,
  0x2de42b7f9ff44664U, 0x2c973b36fd531677U, 0x262d0b3721fc552cU, 0x73dc99bd526032bfU,
  0xd08727f913be007cU, 0x8136d6bbedbcebb9U, 0xfc36d755ca14d817U, 0xf03de892fdf0a61aU,
  0x2d40cc2ee1196f1U, 0x1a9a3c7bfc5c8157U, 0x12f113d8f46cd84bU, 0x4631be4a6b657541U,
  0x31088ca019463527U, 0xa739128befb60eafU, 0xfa54ee0526c302d0U, 0x827a1f1f0df9fc7cU,
  0xea7bdddbdf87c481U, 0xd0f75d33d0368ddaU, 0x2ab688b670fd4c4aU, 0x7ae7186947601c1aU,
  0x3968d672cb41617fU, 0xeb1077497d2a9706U, 0x35f6cf3335333452U, 0x10f23a226c230123U,
  0x6fefc13c9409c57fU, 0xd36ec8b08117f9cU, 0xff45ca6e92011303U, 0x93c825eb999bb1c3U,
  0xac14396a54e0b604U, 0xc9c25d204bcb18ffU, 0x4087b1f761ee7f1aU, 0x2ba4e254f9ef4e9fU,
  0xd4f62ac4cfd8c9f4U, 0xebdb164023147307U, 0x623e5947852bb1baU, 0x3b4f3f81009a4075U,
  0xaa74641904fdee8aU, 0x1e4d7d585058dee6U, 0xac4014d07e0e6204U, 0xb1943f747ff07ef7U,
  0xaf464de111e4bd4bU, 0xd88f1d25f1e4a475U, 0xe3c5fe0817cf1e5fU, 0x4c831d4b28ed2181U,
  0xeae0fb37d907674dU, 0x1e25ead192f3dd30U, 0x764c7fceb61bc594U, 0xb313a30820cca64U,
  0xc1e36b077b3989c3U, 0x74d4390422441a79U, 0x1692009e1e27d279U, 0x6581bc2c4e283da3U,
  0xff151136a026e61eU, 0x7f8f7dc80ffe9e70U, 0x9185dac8e8faf45bU, 0xff02b620ebd23b1aU,
  0x1a81263adfdae0efU, 0xb422223b93bb08c0U, 0x4858c92b0919bb4eU, 0x92bed61cda8ae41aU,
  0x27e469de103ff8c8U, 0x7a1f074bb6e79dcbU, 0x9e00eff664d523bbU, 0x7c8ecab9de6fe4c8U,
  0x3506a2b294427f18U, 0x1c0253189bc36baU, 0x6dcfd0f33f369a8cU, 0x8e327fd49f85e725U,
  0xe7b3981b57cc0d37U, 0xcc0c9adc8a3871d4U, 0xdb5dc7f81b9605b7U, 0xd2497fa5cd370729U,
  0xa3ede61203dabae4U, 0x1816d0565133c97bU, 0xb9ebaf94290d7fecU, 0xc9a2ca0c32527f9cU,
  0xffffecb7ef54096eU, 0xffffee8500000fafU, 0xffffed29fffff110U, 0xfffff136ffffedccU,
  0xfffff300fffff0f3U, 0xfffff178000013eeU, 0xffffeca8000012e4U, 0xad6ffffefc9U,
  0xeb9fffff0fdU, 0xfffff2a9fffff3d8U, 0xffffeccd00001228U, 0xc57fffff118U,
  0xe33ffffea34U, 0xffffeb2d000015e7U, 0xa9859b8eb1817994U, 0x94608b8176ae48aeU,
  0xad719db17893a77cU, 0xa48da37e98b3455eU, 0x8171c1649faea49cU, 0x825faab55a8467a7U,
  0x7fb396487f9e709fU, 0x57bb83afa08fb5b4U, 0x954da56497825eaeU, 0x6e7e8f58b898678cU,
  0x8cc28ebcb17990bdU, 0x4bb9917b9548aa8bU, 0x699585719f8169bcU, 0x99bc6b888b5d6ca8U,
  0x4995338d90b7a189U, 0x5ba595558173a1a9U, 0xaa9d645dbd6ba3a5U, 0xada09abcbba3b448U,
  0x58b6739d84519346U, 0x7f98499c8f6a9c98U, 0xbf82b2c07fa78b55U, 0x90b0728664a6aea0U,
  0xbe9543ad8d748a76U, 0xa97899975671b55bU, 0xa546a089988bae8bU, 0xa2b74ba17cbbbd66U,
  0x9d5e5a8b6095816eU, 0xb7a3ba88a4aa43afU, 0x937781ad5a8655a1U, 0x92479cb67392886aU,
  0xa6a2836485b27352U, 0x9b658131a38daa9cU, 0xbd7dbd9a64ae4987U, 0x64aeb44f52855bb6U,
  0x5693aa988586c0a3U, 0xad54927d94ac75a5U, 0x3d7f8c7aa98244bdU, 0x8291a8a88f4ba7baU,
  0x60a8926aaf4ead8dU, 0x75a79c668cb25f81U, 0x82a55194b86d659aU, 0x4187628eb7b0b7a5U,
  0x77a68f4f834597b9U, 0x9c815464a04eb58dU, 0x90bb9b839d8fa952U, 0x7bb17082934fb660U,
  0x68845c81a07a929cU, 0xa48f9b9f7fc2b15fU, 0x98a4478e3e82b9a1U, 0x9caf7fae8952ab43U,
  0x9078b3ad6e739f64U, 0x8f618192aa978dbeU, 0xb99a64a174b7a26dU, 0xb05772ab72999376U,
  0x82ba81b2828b4aabU, 0x826ea581528657aeU, 0x9247a7b54c889b5fU, 0x82849772ab936655U,
  0x93569950b6ba838cU, 0xa04481bb7f925f93U, 0x3e88b2544a847283U, 0x61bdb48e9793a5a9U,
  0x9b66a460a29067bbU, 0x75528a61868151bfU, 0xbba2b881a778aa83U, 0x7f879755b25c9887U,
  0x518b8a5d86b7748fU, 0x8c8e608fa5616c97U, 0x459667978ca5c081U, 0x6489a86fbf6f958bU,
  0x91a77450bc65a793U, 0x9cb1abb5ac9c8e79U, 0x608f4fafa35fa478U, 0x7e9d7c81a76298b3U,
  0x9fbf888a6087847cU, 0x90817d85638594a3U, 0x998b42a0bb63b55cU, 0xb6559c9f346e974dU,
  0x8b548f9b8482ab92U, 0xb0856ca94eba987bU, 0xbb685a9b6881885bU, 0x2fd800002f3cU,
  0x304700002fadU, 0x2ffe00002f8eU, 0x302c0000301eU, 0x2fc500003043U,
  0x328c00002e83U, 0x2f6400002f8dU, 0x2f43000030acU, 0x31810000314fU,
  0x2f2100002e4cU, 0x360200002e15U, 0x324f00002df7U,
};


ai_handle g_forecast_temp_ml_model_weights_table[1 + 2] = {
  AI_HANDLE_PTR(AI_MAGIC_MARKER),
  AI_HANDLE_PTR(s_forecast_temp_ml_model_weights_array_u64),
  AI_HANDLE_PTR(AI_MAGIC_MARKER),
};

