/**
  ******************************************************************************
  * @file    forecast_temp_ml_model_data_params.c
  * @author  AST Embedded Analytics Research Platform
  * @date    2025-12-07T19:25:04-0400
  * @brief   AI Tool Automatic Code Generator for Embedded NN computing
  ******************************************************************************
  * Copyright (c) 2025 STMicroelectronics.
  * All rights reserved.
  *
  * This software is licensed under terms that can be found in the LICENSE file
  * in the root directory of this software component.
  * If no LICENSE file comes with this software, it is provided AS-IS.
  ******************************************************************************
  */

#include "forecast_temp_ml_model_data_params.h"


/**  Activations Section  ****************************************************/
ai_handle g_forecast_temp_ml_model_activations_table[1 + 2] = {
  AI_HANDLE_PTR(AI_MAGIC_MARKER),
  AI_HANDLE_PTR(NULL),
  AI_HANDLE_PTR(AI_MAGIC_MARKER),
};




/**  Weights Section  ********************************************************/
AI_ALIGNED(32)
const ai_u64 s_forecast_temp_ml_model_weights_array_u64[2468] = {
  0x0U, 0x0U, 0x0U, 0x0U,
  0x0U, 0x0U, 0x0U, 0x0U,
  0xf3130413fef63df7U, 0xecedb2f4f1f2f908U, 0xf7f205f515312dd9U, 0x1b210637a9ee0e61U,
  0x91ed2fef3cb1915U, 0x1eccff24fe2be7d4U, 0xbd3f0f01eaefeb1eU, 0xc4f70b117f1804ceU,
  0xe03010d5db42f4d1U, 0x2d373abf3bfd1b7eU, 0xad4ced2afcc11a7dU, 0x3cba0515d40237daU,
  0x49e4062f2a1d0f26U, 0xe4f1cc3ee7bbfd1aU, 0x2bf7ecdfeee8ebdfU, 0xdb7ff7fdbef59ed3U,
  0x8ce4f5353f7f060fU, 0xf138e06bd22fdd43U, 0xfabace2151f528e9U, 0x211a041ec89542deU,
  0x32e9ea4ddcccedbeU, 0xbc39c6f0fcd13fdbU, 0xe4c1fefe12f00db0U, 0x25422d0a8b4705d2U,
  0xe61efb0c40e6170bU, 0x2e01fd3948f3a5e3U, 0xcfe920d28115420eU, 0x1af012221f084034U,
  0x428000419d9031dU, 0x15cdcb02e319d4f4U, 0xeafbfbe6ca321b36U, 0x1ee4f6f9e0071a13U,
  0x34043f25b884abdfU, 0x2feae43a96cffae3U, 0x7f183d703121867fU, 0x364855f603ca2445U,
  0xb033324ab1cf5daU, 0xe5fef3d3748158fcU, 0xbc083c04d613cc0fU, 0xfe3381ece7b9d318U,
  0x428ed0312f7ee0aU, 0xe755eff633f0e806U, 0xdc10c035007fe4f0U, 0xb62450f521f0074eU,
  0xf1321ec9ef23f93dU, 0xcfe7fee20211012cU, 0xd728324cf219c8e4U, 0x6290105302c141eU,
  0xd91cf011ebe5f307U, 0x15e9a72402f71cfbU, 0x4f1116d91506e20cU, 0xd010ab516f1fe11U,
  0xa11da0f429e7f709U, 0xefd4e5e3fa372f24U, 0xb837e20629fbf60dU, 0x810be6e00fdf031bU,
  0x15e807da3ed6b0e0U, 0x2de8b8c31c14dda0U, 0xece216b5e1a434f6U, 0x8feced913c00e63U,
  0xca51b9812b1f00f0U, 0x4f3b23c939263a5eU, 0x2fc1829c402bf26U, 0xeb473cec3abeeb15U,
  0xf514a6cde1f4fc35U, 0xd87a52ede02803fcU, 0xc2912b21ef5de10eU, 0x58efff2515e560deU,
  0x7f0aac0723fcf33cU, 0xe022b62330a0ae5U, 0x59d3bb05fb084eb7U, 0xe7f5c0f8e5f4fcd4U,
  0xe8cf1317c3eb0045U, 0xcc0c32e1f3a113e9U, 0xf3dfcbf3513020feU, 0xdd2eea210f192c44U,
  0x552806e4b42e4cfbU, 0x1114b202f109187fU, 0x13e0f6bdeae8fce8U, 0xe3ffd8ecb7ef2438U,
  0xcbeafaf5f51060e5U, 0xfd0258013c7fe521U, 0x3143fa06f78be2b7U, 0x36da110bd8105dcbU,
  0x81a22fd29996f12U, 0x34cfe6ca074feaf5U, 0x21cef3ccc3e1e0f6U, 0xf2d1d82a08e50794U,
  0xa405fb664ef71506U, 0xff27ed82b5ca1700U, 0x7d15efc5c19fbb08U, 0x308d5dec7fdd6e4U,
  0x26f40e04f30cf036U, 0xf3e60dc5fa2ae7e0U, 0xffe8f1cfe0fe20bcU, 0x4ac4e5eaef12e281U,
  0xf4100729ffe3d9bdU, 0xc513d2192c030c1fU, 0x151cd4f5cd07dc15U, 0x34c811a2013053U,
  0x970df91c51e50e15U, 0x2ef918d1d42a0f02U, 0xde1bed441d125d7fU, 0xb716ef09fc1270f5U,
  0xfc5ad6241b4113f9U, 0xe4267fb2160e0617U, 0x38161603f5dc13c7U, 0x3618111f43f5d9b2U,
  0x2cebbfd0fbe6eb00U, 0xffd9f71bca20c0b6U, 0x4f513efb12304efU, 0xda0ef729e61b30fcU,
  0x2acdf853f955f8f6U, 0xc39c24bdd3f6352aU, 0x46ece1681b7f2039U, 0x6fee7b43211121f3U,
  0x8b2081c42fcce33U, 0xc35bc6cb241d4ff8U, 0x45268ef61af11cfeU, 0x13f5261381c794ebU,
  0x946efdc0d3c02e8U, 0x1f0004242f0e0811U, 0xe2ccf1fbe7d9f140U, 0xd9f71e2ea523aec0U,
  0xef23abdce8cf4df6U, 0x3f022d01fa2e211cU, 0xe8f0f4b9d8e107d5U, 0x7fe10ce3360b27cfU,
  0xf001f2533be01a1eU, 0x42d204a2b1472e48U, 0xdfe6cfedf21ee8dcU, 0xe2c00c4921fdd6c9U,
  0xe7f72a1e1b162333U, 0x3a4b8bf667814ed1U, 0xe12b71e22c1540e2U, 0xb212dbc508cc2c57U,
  0x1a81d20f453e0ac2U, 0x97bb0e12d33c0231U, 0x9e84151cba0123cU, 0xa320fee3c2160517U,
  0x36f6e2f4fdd5c014U, 0xa007a5e72ce3a062U, 0x9f030ae1081ef91eU, 0xfe00c8d95dc92201U,
  0xf90e0b230cc42c06U, 0x811428f63513d7f3U, 0xcf24f9e30df5f829U, 0xf7131fec4619e81cU,
  0xf007ec11d6d0d712U, 0xfef20f0a33f80ee1U, 0x1f640ceff9da0d11U, 0xe10e23ffdc211f12U,
  0xe4d236cfbffa51d2U, 0xda1604a926ed01fbU, 0xb9630cd743202fU, 0xc6d9dc0d110eb5abU,
  0x3d90b1928dc27bfU, 0xd61efbed144b1dc2U, 0x10810615d73fee95U, 0xe43cedcd11ffd34U,
  0xea4556c402b498a3U, 0xdabcff022b24dda4U, 0xc6fcf1ea144917e1U, 0xe0cf33e17f10fe5fU,
  0x52d8f40aef25d208U, 0x2f39ee29b61dd503U, 0xd91a176cf3b51eb1U, 0x5bf232b859bc7e1eU,
  0xe2a375d7f6ddce2cU, 0xeec8af0404ee08cdU, 0x3c28931304052003U, 0xfe020acdab2921e8U,
  0xef1836e37f28d5b4U, 0xe70e2dc84acaf3ecU, 0xe405d734eadf1c67U, 0xe8579dfce52bc1fbU,
  0x13c80a2df8f1cc01U, 0xc6e2b830e1d0079eU, 0xf540ee510213d2fbU, 0xe6911e201feadd53U,
  0xdf60233d420dff14U, 0x1d1024e3fd39f704U, 0xe0224adffd0c1e1bU, 0x81300bfaf326d6f5U,
  0x81d7f318d517dbe1U, 0x2bfa17ffd1c746dcU, 0xeb061a2910c9f616U, 0xff0d261de62a55e8U,
  0xc9efdc0719f90027U, 0x18f106d904c40ce6U, 0xf325c431f32ee615U, 0x2225ef1f494f115fU,
  0x5d005a00ecff8ef7U, 0xe1f0ea11e6cce41eU, 0xb5c50a074136cfdfU, 0xc7d007b015c0e87fU,
  0xe2edd02d2ff82db4U, 0x13dce7c512d10f14U, 0xeb67e72d06214bb5U, 0xfedb053cfcf2df28U,
  0x2500ff21eab6fa1fU, 0xfee5f843fd2c3e00U, 0xd6a24aef065cafdcU, 0xd6110018c80d41e8U,
  0x4e0b0ce46312f5ffU, 0x38bcf2abf1c9e2eaU, 0xf625e6e74ad7a1e3U, 0x35797f12d20305d9U,
  0xd981da210329b8acU, 0x10221ff35ffb27e7U, 0x122a138ae8372c26U, 0xfb144331fea7d8afU,
  0xe972c1f8f417dcfbU, 0xe1dbe54113128caeU, 0xae224ee439cedd3U, 0x6dcbc7006d638dfU,
  0xcf705ed16c9f5ecU, 0xf4ec0117fff30efcU, 0x12e8dd11ea08fad5U, 0xed0e121a7fefdef3U,
  0xfbf90709f9eff0f7U, 0xeb121110e6030c2fU, 0x44300114ebf0fa05U, 0x922d610e5e3e522U,
  0x33da225c25300728U, 0xf8f80f51fadc6dddU, 0xc412f308284d1040U, 0x112070bb1c32e735U,
  0x36f829f9d50af7f3U, 0x2471acd9dceb4281U, 0x15f6dc05f506ef17U, 0xb1f4b71bd2ffaddbU,
  0xdd49f708b529f4c2U, 0x96013814b0f0b84fU, 0xc7e7f8a2c25104feU, 0xf8e81b49506f2ce8U,
  0x4a29f7e2dbcebbedU, 0xe6fd1a05e80117f0U, 0x321a373ae501f7f2U, 0x86d72c4481efeaeaU,
  0xb1fe2270ed9cc0aU, 0x13c5f6ea3eff30d6U, 0x8e80ccf1df01217U, 0xf32541f181e00f1aU,
  0x25ea113bf4e027e6U, 0xcefee0f3706d617U, 0x37053551cf1715d3U, 0xdfee4fe6eaf5d627U,
  0x30ed5e08c927c50eU, 0xc12cb2e4dad225fcU, 0xc8ddbf29d807ac38U, 0x26094821ffb87f86U,
  0x43f11e35102e1ed1U, 0xdb248912f4b129baU, 0x711aec5011caa04U, 0xddc123eec407e722U,
  0xa7d7f4ef0c7df5eeU, 0x133151cee1bc442dU, 0xcaacf72b01e79af0U, 0x46ca4f06c4e60808U,
  0x3cf3e0accdd0acbU, 0xb6251922e6b0fab3U, 0xb82e1d6fec0b341U, 0x2b1ebe9081c5eed9U,
  0x2d66f7122c506116U, 0x9f8d0f58d09ff20U, 0x802f7ebe8250450U, 0xebd614041409560aU,
  0xad22d048c44affe1U, 0x62dceee3e1249a0dU, 0x3fd2f63bf081d7ccU, 0x1845d30e02ed394cU,
  0x5d37d2c21410b2deU, 0xe454e20311dfd49eU, 0xda261db5000798c5U, 0xdd68293bf74866f3U,
  0xfe8e091fa5fc1714U, 0xfa6e8bf50f5917f2U, 0xd400361b5bf0143aU, 0x37fd0124930e5fbU,
  0x49e314b6caf223ffU, 0x43c68d29cef107e0U, 0x81b8dbe634e1fa30U, 0xfd1244cf93be3226U,
  0x13ebff2e3233ed08U, 0xf60606c2f8d30d49U, 0xfbcbeda40b3727d8U, 0x82ae4f4fef9ef0fU,
  0x2e200f4b799d1eeU, 0x104cddf29146d7eaU, 0xd328e4210ee25b0cU, 0x93e05ef1bc1cfa37U,
  0xb3b6eaa3522c0d19U, 0x38f3f8292749fef6U, 0x1d32300ad0f8e845U, 0xfde1f80ab8f87fddU,
  0xdfc039fdf653f56fU, 0xf4f81621e2f7040aU, 0x892522fbfe3bea27U, 0xecd942cfcab77ffcU,
  0x749c4e0df8f122f5U, 0xcf0ffa04c2f1660aU, 0x6d4b4ccf1c16eae1U, 0x411fe2e6ece8fe00U,
  0xe8e213f609d8ec46U, 0x240febdefe19f7f2U, 0xd8c708f44eddd91aU, 0xfdff1c01812ef92fU,
  0xc8ff1b475821c1ceU, 0x7f7ee11d1221925U, 0xd4df14f1fe18da25U, 0x49fdd11453efe816U,
  0xed8e4f2f03e0911U, 0xf83a1ebe0054ee33U, 0xed5517bfddda02dbU, 0x51021879502b8114U,
  0x6d14bfd7c5e30e06U, 0xe4e204f7ca08dab2U, 0x2111e635d8f721d1U, 0xede806e0f219eff1U,
  0x8e6fbe207a341f1U, 0x46391aecf1f8cbf9U, 0x2cf70514d5cf1bc8U, 0xf41600a3d32edc02U,
  0xec52811e0d0b41f9U, 0xd8f1fdf6d2100bf6U, 0xb8db272cf0c0031aU, 0x1d0a5def56e20d2bU,
  0xeb087ff60aeb1b1dU, 0x3160e409fd92485dU, 0xacf2473514e2e5fdU, 0x36c03f1ff50ceadbU,
  0x25d5599dbfd1d6c0U, 0xf405c6fa511dcd2dU, 0x34c705e525f056eeU, 0x37253e4bf7da2eeeU,
  0x2616fbe432d2d4cdU, 0xba1cf7d6f93048f9U, 0xb18edf1f8624f06U, 0xffec2005e3173907U,
  0xd10c0abecbcfdfa5U, 0x8810dd1b8ab490cU, 0xead3cc0040c2506U, 0x2ffb24d1632315f5U,
  0xef0f1600b9eefb08U, 0xe70bd7082132151bU, 0xcd53ef5071c05fdU, 0x28f3eeedbe032727U,
  0xb918271fd7271e1dU, 0xc37f17a5d1d0c2eeU, 0x92e04b4c70705efU, 0xf6fd032f23e11f17U,
  0xe243d8fcd836e7f6U, 0x29260fe106594781U, 0xc9d4e102e4e733d8U, 0x26f8ae2222fcbcc9U,
  0xfff0e18c2fcf23cU, 0xa8b8b2ccfa241ef5U, 0xd8f916079ba7243aU, 0x15f7cf2eb9f814c2U,
  0xf2fe262ebd413c4dU, 0x972bd413453ee5edU, 0x14db08f3ace815dcU, 0x34418fafed2b5f2U,
  0xeed912bbf2f9fa72U, 0x7fbf1d19bde9f120U, 0xdac03d69f2db311aU, 0x170128374acae21bU,
  0xdfda30ae0cf5c9efU, 0x1475821bcb0b1501U, 0x5abc9b07664fd958U, 0xb0c3ebd92bf1ea7aU,
  0xfca6041ad4d0f93aU, 0x24f5eacc13f3b9c8U, 0xea4e22b33062db58U, 0xfd11f10cc9af8156U,
  0xe40cfadc1f01eb38U, 0xe5161cf6e6e5efdeU, 0x7f08050f0150fc06U, 0x11da3dff1afb921dU,
  0x7e9f32af5fd07f0U, 0x1611efc228c6f83dU, 0x1a3fe6251605eb1fU, 0x97ecf014202703d5U,
  0xf2e305cdb9b51238U, 0xf9da1210f5bd4ef8U, 0xe4e2c520cae7eb12U, 0xe2ef230ce0e97f46U,
  0x8a9ad532023dffb8U, 0x128e9e013d00f13U, 0xf1342c02574ededbU, 0x70bf3fdbcd2c1c5U,
  0xd5de08090d02c02dU, 0xf4e31e45fb063a7fU, 0x2f2100cde21df402U, 0x381ed0110eead1d2U,
  0x18bdbc3af306d810U, 0x331118ec30310205U, 0xc3e433d393f4f31fU, 0xc6d21c082a7b21c1U,
  0x6cb21408e1b5ec38U, 0x7084efeaeb7fb0bU, 0xf7cabae71820f971U, 0xf9d70e0520a50c17U,
  0xe0ae7f0206de0a0dU, 0xb828eef1eaee0f08U, 0xf31cd92c01d7bbd2U, 0xf551cf5fef20421U,
  0x8a390ef5280566f3U, 0xdf003c24bf320baeU, 0xbd7fbfce146db239U, 0xfa151c45dba7bd49U,
  0x36ba04dc2a162f87U, 0xdb441b023af005fbU, 0xbcdfabc1ed111a17U, 0xfafc1a573292d939U,
  0xf8192873dfb5e019U, 0x1e1bea1bc42137dcU, 0xebf1f9fc334c0314U, 0xae2c3ed679dcf3edU,
  0xbc3b2603e7deffd1U, 0xde5832fdef0aa25dU, 0xec1dfb6519510350U, 0x2815f4812d05e8e8U,
  0x2605e7d8ca22331fU, 0x131edbfb1ee62fd9U, 0xff32e4ed04fb02ffU, 0xb02dc060f1b3312U,
  0x121de3067181dffeU, 0xc1dfff50de6e321U, 0xe9fe3f02f2d006f6U, 0x15df01f7f9f71813U,
  0xfb15daafed8bde50U, 0xb51d080ac2903c1fU, 0xd95a594728e06a2eU, 0x94ea3c22ce812ff7U,
  0x543f6f4de7ffa5ebU, 0x4d45138fdfff6dc9U, 0xab7adc373025e9fdU, 0xc702ec06c69fec12U,
  0xb33cb023df5e0e6U, 0x970d0b201ae5db02U, 0xcd17edc924f25debU, 0x7104d712795f9e8eU,
  0x30eacfed3ae37f3cU, 0xe3d71d05de02c6faU, 0x2abb211b0420ede6U, 0x2d1afc16eea43ee4U,
  0x13f235e729c8b207U, 0x3ce8bfdcec41cf8cU, 0x9f3af70cae3c1edcU, 0xe651b383ef2ada3aU,
  0xc42aeb0fb481f013U, 0x57091056c305ee52U, 0xd602f5090639d1c2U, 0x11d204209ea59d8U,
  0xf976f57ff1e1f6b1U, 0x1d440dcb1d37d904U, 0xe10c0cedb0b271c2U, 0x3207f7f7e9e7df2aU,
  0x3fb4d40c08c4130bU, 0x2cfe53daf12cd226U, 0xe1c60b9b749fb102U, 0x2aaae14225df056U,
  0xf4bcab7fb718e3f4U, 0x48f2f41310a2b6f4U, 0x24f3d622393ad1f6U, 0xedede9cdcddfb5a7U,
  0xd9b81e26c90bb0a7U, 0x5721d3ba0cb60c00U, 0xe432c8f8d21114d7U, 0xff17f0b843e8e9eeU,
  0xad2b11f8dd0da77fU, 0x31b0dbfefe07951dU, 0xfe11095103f9fe3aU, 0xc7600e46b4f40b1cU,
  0xa211c9dc45d705fbU, 0x1f8f4b8f419d198U, 0xcc716ab2ec92910U, 0xe9f326e85ce8dfeaU,
  0x19fb600aee25d7e1U, 0xc13b4232d5d524deU, 0x587f2700fc2431d1U, 0xc8400518280fce45U,
  0xc2f041644b2af707U, 0x34dcf7f150ee0b14U, 0xc52d4eefb04eb18U, 0x9f1ff499d8c8d905U,
  0xce229e8ddb1a13c9U, 0xbdfc1e12d024e32eU, 0xb4050aebafed29edU, 0x793cd0b6bb06efbcU,
  0xa4e2bbc7fed2bd6U, 0x54fca927ee4fb5e8U, 0x47274be6fce53799U, 0x65fc17ff185deaf8U,
  0x1236e7e7c9b6d213U, 0xf1bcc4bc0803db22U, 0x1a3e05a8e91115adU, 0xa9e238b8f7f9045cU,
  0xfc4cf901fdcc1f35U, 0x1406084224020819U, 0xe4fce703ec09f95eU, 0x7f1610310e01144fU,
  0x40f95ba0a450403U, 0x1033e3c9293cfe35U, 0x81c8db08a9cd33f7U, 0x451ed97441213cU,
  0x6d043d190df244c3U, 0xf2c76d2c1348edd2U, 0x37ae23cceaee1de4U, 0x54f1494a31d856f7U,
  0x0U, 0x0U, 0x0U, 0x0U,
  0x0U, 0x0U, 0x0U, 0x0U,
  0x0U, 0x0U, 0x0U, 0x0U,
  0x0U, 0x0U, 0x0U, 0x0U,
  0x0U, 0x0U, 0x0U, 0x0U,
  0x0U, 0x0U, 0x0U, 0x0U,
  0x0U, 0x0U, 0x0U, 0x0U,
  0x0U, 0x0U, 0x0U, 0x0U,
  0x0U, 0x0U, 0x0U, 0x0U,
  0x0U, 0x0U, 0x0U, 0x0U,
  0x3eabac1d10e81312U, 0xfa3a420237990a0bU, 0xe2e3e40b42fd00ebU, 0x6365762bd08ce2e6U,
  0xf501cab0013812adU, 0xf4f9a0fc386415fcU, 0xdfce32bbef72fe04U, 0x23ed32be6f7f1727U,
  0xc0056ed04002e36U, 0xb21d07ddc2ed1b2cU, 0x254a01cb2df8db15U, 0xa1a1616dcafbbcaU,
  0xf216ff1d003be621U, 0xe0fbed3112e5e9edU, 0xb429e3c2c80f4f81U, 0x1dd7f551f9313a08U,
  0x934fa65e7192422U, 0x19450b5ec7ef1446U, 0xe7b85437c215e72eU, 0xba7adc6f0e6d0cf7U,
  0x22d12fdd01c2f433U, 0x1c4c130016ebeaefU, 0x9bb87f1af5910a2bU, 0xeebdf708f70711fdU,
  0xd621ebe81f14ec65U, 0x303a039f0311f90eU, 0xa6c8d6ef2ff8e8f0U, 0x1f54abde335c9f6U,
  0xd813f433041135e2U, 0xacf4ec03060f21bdU, 0x1be9f00dfb197ff7U, 0x12214036292bf8fdU,
  0x124be0dadcf3e202U, 0x11e00501b514e042U, 0x22cd0bf404ef0c12U, 0xd2effa2f0411e1c6U,
  0xe8091eccf2f14913U, 0x1047effab818387fU, 0x27dd05e8141ec943U, 0xd1fbe5f6c4082deaU,
  0xd20728f629cfe1e1U, 0xbf0a261bf8f3f339U, 0xa95a10fee20926ffU, 0xe6231cc2d406c87aU,
  0x181881483f47dfceU, 0xdd611fe7255b11feU, 0x56efe89322002604U, 0x4bfad23d3f13f023U,
  0xe7fdec07ed2c73feU, 0x6bccb06da48622eU, 0x2327f97fab2c1bfdU, 0xdb0654ece74e1bdeU,
  0xd99e311db42cd823U, 0x941ac543c5d2ca23U, 0xfcbee1efca3ca500U, 0xddb1da10f7945d1bU,
  0x2a223408147f2a44U, 0x9df5f6eef0d4e8cfU, 0x3d94e5f1920311deU, 0xbbd7a6aefcf3371aU,
  0x13d7dfe1f7d31e27U, 0x1c0f95d9080901daU, 0xdfe0f4d725eae743U, 0xa3d4dbc4b41c2b08U,
  0xd01dbadcdfd1e03U, 0xfb1823e8e0322659U, 0xd7f04ebc5050d04U, 0xde9f0fc43cd0d1aU,
  0xdc17e807eed8cce9U, 0xf9ead8d6dc3c01d7U, 0xc204143a210ce90bU, 0xe6e3ea18fe2f361bU,
  0xdfb070629c30d11U, 0xbde32a13e0e97fe3U, 0xe643a0fc384cce1fU, 0x35bb210d1d5eeb30U,
  0xc3e3610d24e8e069U, 0xe0d39b79ea3b4328U, 0x82259b41de906d8U, 0x981e974b1a0afd53U,
  0x225afe15c07ff6e3U, 0x76cdf618c8f72dbcU, 0x1f432cf4ddb0e119U, 0xecd2d605a30306f2U,
  0x2812289a0baad5f5U, 0xfdb9e9201a51fa32U, 0xe5c602cf72191107U, 0xd4871e05f58d0610U,
  0xd405020727e7f3e9U, 0xc3d4b372212e312U, 0x5dce8ceda2fd1e2U, 0x40ebfadefe19ccd6U,
  0xd34518ea2a1681f0U, 0xd70acfd8f5b135e1U, 0x1811d6aff3ff0ee8U, 0x180a2b0f5003fbceU,
  0xfbba4a5ec3fe4befU, 0xfee6d0defe2d041eU, 0xfcfd03ee0ba8182fU, 0x2cf612c921241152U,
  0x2e00695f930f210U, 0x38f306d7a9d3d97aU, 0xd4ef0cc415e12327U, 0xa6b9297fb43001dbU,
  0xcfcd50fbebde0224U, 0x252b4e2c31e6dffaU, 0x1d2010f35ddffef5U, 0xf07ff8c4d1e9912aU,
  0xdfe2ef4239b2f99cU, 0xaee9f027f5d646c3U, 0x556fec0afd34dae4U, 0xea2923fa19562c0eU,
  0xdbee243538249709U, 0x1a1533f1e4e20d2fU, 0x7f39ece1ee041cd0U, 0x6f66648f3061331U,
  0xec07bff3ca12f6ddU, 0xe1db01e7f2c02cdaU, 0x29e9040a151213e1U, 0xfe1ec14c1c43db1aU,
  0xda1230ed24110123U, 0x2d56fafdf45ed22cU, 0xae521ea5f17fd7f8U, 0x323e40fcdfe0e30aU,
  0xe401d4d42e46f8afU, 0x30db0a3c0ee319baU, 0x6d18e3dcdb0b3bb7U, 0xf4551d8dc42fd17dU,
  0x2e58f91a223443a6U, 0xe828f7e9a8d2440eU, 0x17d03548cffe7f28U, 0x20f9e1ea20dad21bU,
  0xafff7aeedc121901U, 0x32d1044bcc1acb30U, 0x823f44441a22d11U, 0xc5cfa40f23de28daU,
  0x4226f72fccbb0af5U, 0xde0da4391855efd9U, 0xe8ed53f909ca450cU, 0x1cee390eea0518d2U,
  0x2dfc1a26edbc0027U, 0xf1f2c7c7c10aead5U, 0xb9c6e8066bec0d11U, 0xc0e081edbfee15ebU,
  0xc81330d1f6cc06dcU, 0xe2bace1ccd30223U, 0xdaf819322f0cafcfU, 0x51d21505d0de1265U,
  0xe3fada0313cfe5efU, 0xd9fcb6db2cf27ff2U, 0x323ed02a6ff1ab9U, 0x5f1419f61b61e21aU,
  0xda933c01cfdf8b9U, 0x5e280fbc42bb00f4U, 0xeee223a61302d70bU, 0xe2027f02eb01cb43U,
  0xcf49f510e523fb37U, 0xda5503ec26fa1ea2U, 0x1c420ce5f2f5ed01U, 0x1e3031d6fcee002cU,
  0xce75c12df81015d4U, 0xb232e92e0d260bd6U, 0x3bcef7f415c36fbeU, 0xd6be43ff0c64ddf3U,
  0x29c6f19c0bf218d6U, 0x4df3be30e174dd0fU, 0x963e27f89bbfa8f3U, 0xdfe5174d9d8133f6U,
  0xfb124537de7fd8d6U, 0xd8ebbbf42cde3e34U, 0xc13232f5273ef8e6U, 0xd3eafb18571268bbU,
  0xe5001ad038e22ae7U, 0xfd031426a149f804U, 0xaafce2f80b02c911U, 0xa906bc1c40de268cU,
  0xe7234f014ce5e6e1U, 0x17e208eb181248f3U, 0xcc3ed72d10eedeeeU, 0xc60eea212041b214U,
  0x812e0409cfeeefd7U, 0x2a2c9caedfcc104U, 0xf1f41ca8eb1c03e7U, 0x51edfb2071c282fU,
  0xd911182ec4eb3060U, 0xc307f23492dd6af0U, 0xf2c47f0feda004acU, 0xedbdf557531c17cfU,
  0xc2f60e21edfae95cU, 0x5cb43e26dc2ec9f4U, 0x28eebec01524b874U, 0xbde01828f8b0e617U,
  0xfb0c03cf06d9cc16U, 0xcbc7fbf2f06e049U, 0xc9e81fd63f1f30c6U, 0xdf4f26ece500216cU,
  0x3d695a001137aa14U, 0x4d0ce1b22e635b1U, 0x1124f3e6a06a23faU, 0x41e5dedee945b6ebU,
  0xd701fa01e00733eeU, 0xb9fb13270202f9d9U, 0x61507ebf4dfcf44U, 0xe218e0312a10370dU,
  0xe700ed811122ffU, 0x44d4d507cf214bfbU, 0x11d0012115f33419U, 0xfadbe30bf49c5dc1U,
  0x116ebe6161ba838U, 0xbc08a926460853e4U, 0xf3a01e1aeafe2933U, 0xc0cfaef087f2a1cU,
  0xb9093cdad0fde7e0U, 0xf61276401ed3260fU, 0x122f4acc2f49f4caU, 0xa23023ef3fb0624U,
  0xe431ec0bf05a419cU, 0xb9e828ea0e3dcee0U, 0x1bf77fe9cf1c23edU, 0x16e90d220f1a02ebU,
  0x3c9145fdbb25548U, 0x3de6f6e02a04d76bU, 0xe4d92af31d37f5d9U, 0xd9f53620191001d1U,
  0x19f6e41c3f3940d4U, 0x10eec24f121e181U, 0xe5d15707cea71f5fU, 0x838eda3364f436c4U,
  0x1a925ee60d23dcedU, 0xd9f20b1ab051f912U, 0x24a5042ee2e9bbdcU, 0xe9a9de20d860ede6U,
  0x81a53bb415f3c4e5U, 0x8dcce2bf70dccecU, 0x3f704f4c0230408U, 0x141625c5cbf2c6daU,
  0x151722d806ef110dU, 0x4e52513020f07d2U, 0xeb053010ba203174U, 0x1404f3ef3d32f31eU,
  0xc4e7120ceae6fc3cU, 0x10af2be12908616U, 0xcc4024f90b1a09dfU, 0xf9e7fcb4dbdd810aU,
  0xf26ad316f747e3e1U, 0xbf3ea28e9b358dcU, 0xdfc0481d2006a4a5U, 0x4f150c0e2908e23aU,
  0x182519ade4b6f322U, 0xb0219e634f518cbU, 0x41e4c07e62da187U, 0xb6700af1f42f00fU,
  0xd7fee081d11e2b2bU, 0xb1ed1f14ed08e010U, 0x2f08fee40ed3f8aaU, 0xfffbe0c2430ecf3U,
  0xe92ca7caf967e8eaU, 0xecc1c7f0df3913bbU, 0x34b83b5524f5f267U, 0x131fe16a4209e53aU,
  0x21c3d7cf7f1f015fU, 0x45dcc101abebc3e2U, 0xe7e4e2055ffdc132U, 0xe2deee24fac346daU,
  0x412ea2c260c21e3U, 0xf444bdff103fe923U, 0x3c28f32703cdfadfU, 0xcb07c409daf50ce1U,
  0xf81016d5f610f97fU, 0x7ff06f6f751fbefU, 0x21151e1c2825fffeU, 0xfafbfb1bff0715daU,
  0x4bcc420764cb9121U, 0xfacc17a73404c54fU, 0xd52b29b2e2e0eaddU, 0x6237ecfa40c89401U,
  0xd0ddede547ec08e9U, 0xb70babcc7ff253beU, 0x52112465931b18e4U, 0x7d90b4823b2e95bU,
  0xcfc009f9e3f11afdU, 0xf262a41ceeecdfbU, 0xe708bfdd2c1023efU, 0xb34116db4ccaf661U,
  0xe96cfdc929c53c18U, 0xa646cde5efceedd6U, 0xffe9e616dd6b559cU, 0x8483af35fcf8174U,
  0xcfcbade961bc06beU, 0xa1cd8e3c9812e2cU, 0xf0ffce8152ad303U, 0x175b1e941b09ffcbU,
  0x2a4ada2d3aff00eaU, 0x5d919c122e325d4U, 0x2ed708dae6310fafU, 0xb8f0100daa18fd02U,
  0xc127a563e80ff2f5U, 0x1bec72f15df2103U, 0x91110cdf82b0a24U, 0x3df99736de3b053fU,
  0x9d067f20ae231927U, 0xa1cff13edb48abf4U, 0xf00bec68ede9e511U, 0xb1bfea4fc71efbf2U,
  0x93253faef9ca1f35U, 0x11e917c80eaa8de1U, 0xf73fc417131eedfbU, 0x29135034e4dd180eU,
  0x814129ec3fe6d1a0U, 0xe849e4d26d01a3aeU, 0x5e022fe1f01621c4U, 0x90ef223d91df0dbU,
  0x157f3002edd934d3U, 0x13f1212df311dffaU, 0x19d41af226024740U, 0x12ece2ecbec677ecU,
  0x5be703ec25673729U, 0xefcf7b950d0127e9U, 0xc8b9fc3eddefce03U, 0xbefc053a41e85349U,
  0x2e0821f50436edffU, 0xa7f162aba13e9baU, 0xdb3e1f5604e14d27U, 0x56d2bb07381c2e02U,
  0x2b45dcefd50e4d2cU, 0xc6e0e0251ae5e021U, 0xf4ff19e4c91ec73aU, 0xe6f4de1bb1eb44b5U,
  0x9b7c7cd3e16e319U, 0xd534051014eab7e2U, 0xd45dd900f3e7b381U, 0xe92a2e0eb44ffa41U,
  0x954247366b4f3dbbU, 0xfcf70fc401b42a0fU, 0xe055de00eb1128f6U, 0x22b900ed1a27095eU,
  0xf7ffc3d0f219ce3U, 0x9f00759e5ed34afU, 0x100b2319e5d0bafaU, 0x2e191aa736df32fbU,
  0xfdc93825dd1cf521U, 0x3754d906a630d52bU, 0xdff61b530732f623U, 0x12fe0b06c2f3fafaU,
  0xed2e21a6cee0b17U, 0xb5cd45aa8c11f5abU, 0x950c03e3284709c7U, 0xf03c41f681bee510U,
  0xbf33add30dcdadd3U, 0x8d0758b6c9cd44daU, 0x1a636129d6151d07U, 0x2e254acafaebccbbU,
  0x16c245120d765e0eU, 0x9bb0132e1125bfdU, 0x1a0fef4d1a1454c4U, 0x5250ea0d1323f9e3U,
  0x810434160b18e333U, 0x4d0a06df07e4e09U, 0xe5a5dcb728bff5e0U, 0x3f5c054689001701U,
  0x5150eff000441f9U, 0xd5dbfe2afd17e11aU, 0x12dd19e4ead9b014U, 0xdc1549f7271322e9U,
  0x2d7fee253d48e4deU, 0x968d4e2351fff34bU, 0xee213c691fbc102cU, 0x1355fc55e9220816U,
  0xc0fef2d61925d92cU, 0xecf1e432ee1613e4U, 0xcf900b67a05370bU, 0xea010cd12e1beaf1U,
  0x8fceae0e3fae31aU, 0x5cfdbc5bf6f124U, 0x1bf2ef3f16dcec0aU, 0x24bf24812318f9f4U,
  0x19e82164fd0b0a14U, 0xdff0e711f5512dd3U, 0xef81fa1dd211e932U, 0x19e91e11db2a3212U,
  0x3c6d1bf4fdb92119U, 0x47150c210341da36U, 0x43dbc5740afa95dfU, 0xd6aa00ff17fb65ebU,
  0xb93c142cbc3249deU, 0xffd0e2f5035064a7U, 0x27b3dd2bb7ac322bU, 0x421abd55473c1295U,
  0x3a45f31e05326cfbU, 0xfa3b24f2c62e630aU, 0xe75f31f61ae8e5d2U, 0xe781aadde4f59904U,
  0xccc3fb1b49e2397bU, 0xf4007ad238d61545U, 0x374d71191b2eae74U, 0x27b40bbfbc16cf08U,
  0x83503c931042bdbU, 0xea26d281eb14e8d6U, 0xfe47e902dc3b26ffU, 0x5f67eebb0e08c335U,
  0xcbd702edabf28125U, 0xdb313fd5f91a2348U, 0x1b1add08d1c2e024U, 0xf5283fb5d1cf083eU,
  0xe4ee3a2c4a093114U, 0xd2ad0bccff15fbd7U, 0x3ed648c9cca4cfb5U, 0x111b278519e8ceb8U,
  0x46e6c229811cfdf2U, 0xe9eabd200d447686U, 0x6de85329182e05c4U, 0xd2b4a91c0d28b02eU,
  0xf03231091738e9cfU, 0x1e2b241209130817U, 0x26944bff9bfe5b0dU, 0x9729c80cf2e834cfU,
  0xf2eef4dd0417fd2fU, 0x2b1416382becf50eU, 0xdfee080ce93208ffU, 0xeef11316f7a6e208U,
  0x3200f30af7fd031fU, 0xf8cf3fa1f6151537U, 0xed17f37ff2de0cdaU, 0xf0e10144d6f301f9U,
  0xa29eec0abb17d0f6U, 0x270629d2e0abcf33U, 0xa8d415b817ea04a2U, 0x3105eeeadeec26e9U,
  0x55ef19032130c3e9U, 0xad11e6ae0ce8e508U, 0x707748f700104db5U, 0x4153c9e0230e7f6bU,
  0x411643bdf7081afbU, 0xcf1bf02150a7fb30U, 0xe0ed6cb2a3a04efU, 0x25f62809e707e302U,
  0x242cec1c3be709f8U, 0xc7e8fce49ed9eadeU, 0x7feb40ffd60f3712U, 0x77c958dc000fe828U,
  0xfcf334cd2ec80f40U, 0xa44bbd2efcaf2edU, 0xf0fdd981ce16fafeU, 0x23531123d414bd4bU,
  0x26fb201a2c31dac9U, 0xb9fefac31f0c1727U, 0xfa0feb0eec4ff2ecU, 0x255a07c73af1cad1U,
  0xf3a21d8164e8d632U, 0x3c2d17c30812db23U, 0x1aeb2db954eff6fbU, 0x1e4bd1e29a085006U,
  0xb23fb2490ae1b3cdU, 0x1d16a72fad08d82cU, 0x16f23dd0afe116c4U, 0x1216de244de8b34bU,
  0x3cefff07fe1d0c07U, 0x1bcbe252e30b813fU, 0x3894244ef1d0f911U, 0x22ca2ae458370a16U,
  0x3e2bf06f500f3f9U, 0x4e95a16fa46fb14U, 0xdf090aff072f2fdbU, 0xd8bee09305b80bbaU,
  0xe1df2fa760a9f642U, 0x2bd9111d22c80919U, 0xe03d0e11faf624b6U, 0xdfa2013c2fb020fU,
  0x3f1dfa1121410be4U, 0xf52fc0fc0ad921d2U, 0x1e2e233209f340bcU, 0xc52e7fd84129f6dfU,
  0x88db211f5c81d937U, 0x3c44228f53faece7U, 0x1afe08e1164f14b2U, 0x4121bf42ab01a36U,
  0xe61aed136aeefee9U, 0xae131b2b14de321aU, 0xfcec16e71a165004U, 0x6ee83daff3f3332bU,
  0xd803f8de302529e9U, 0xd40f1d131c0f022eU, 0xe8eaf9f81fbdd2d4U, 0x43eff30fe5d9eb1dU,
  0x2d031af1f6fd0af1U, 0xd315411301e7fdfcU, 0xeebd03240aedeffaU, 0xde10b87fe3f6f903U,
  0xf936c40d0b26f437U, 0xf3dcc33eddbbdfU, 0x211e0b18f7cd1216U, 0xa4031fc28d50301U,
  0x313eee0ee5bec011U, 0xfc5541bfebfd2617U, 0x2306b9e1a0bd1335U, 0xdd2c7f95480b0f36U,
  0xfb0de50e41fd4c3fU, 0x6abcfd2e00ed0f1eU, 0xd539d681d7d2feeaU, 0x1c0013db01c5ec47U,
  0xd520c61d4de42023U, 0x1f020c14fbc712d4U, 0xd0b36dfb3210db9U, 0x5a43c5111f394cdaU,
  0x11dc16045bf42b47U, 0x53fae100b135be2cU, 0x251d10ca7f719bb6U, 0x11102ec61a94f352U,
  0x562e5d4bce2b3e82U, 0xdbff00bd1eed1da1U, 0x265050910ad4ce13U, 0x3ce51b3c55fee410U,
  0x1e38e4d6c7da8114U, 0xf57fd21e3f305894U, 0x7faf1b0528122323U, 0x936e817086ff73d4U,
  0x1b2dcfc8ae84e3eeU, 0xfecfdfaf7f64ec47U, 0x23e4eaad7fe42de1U, 0xc5f230fa107f173aU,
  0x3ead81c1e9f13eedU, 0x2704008102eae701U, 0x7df04b972c7fec33U, 0x24704aab06815ccdU,
  0xdc388151df70c498U, 0xec7151812f4f2447U, 0x97c71316faf549cfU, 0xf315054c7f59e5d9U,
  0x19323a7f1eba2346U, 0x32ca9bf97fde00a9U, 0x217f790b8a4ee726U, 0xe5f81c7f4bb59ac6U,
  0x81a3fa3bfb9aa751U, 0x379edbcd7c1d0a1dU, 0xd1ba32ca7f280663U, 0x170b521281f8a926U,
  0xe53d65b97f083525U, 0xea5f0ce7c6812127U, 0x357f35b3510dde08U, 0xd5358116102666fdU,
  0xa17fbd0441acf41fU, 0x4c7f1118be1adbU, 0xac08a543e9008810U, 0x1b513df9454bfe81U,
  0xf522d9de2f0c2081U, 0xe1c046402ff48101U, 0xf54115224f087f57U, 0x15ca857812c2d52U,
  0xdf7feae4151c00f8U, 0xfcb8637fd4f6240aU, 0x3eb18139e3433432U, 0x58177f054d25fda1U,
  0x85cf7faa3ab5ff23U, 0x1b100c0453e62f1cU, 0xc8e8c9a61a1c81fcU, 0x1b208135e7500f46U,
  0x971c90d081dfe1a5U, 0xde07815ee1262137U, 0xb61181c5834451e2U, 0xbbe97fe63e764bcbU,
  0x2081b551fc11afdaU, 0x66f3007ff9beab57U, 0xa2fb59bda672324dU, 0x61ee0f6e43d7487fU,
  0xe55c3c81a10c02f3U, 0xe37ff1820122c504U, 0xc67987f36c9c4cdU, 0xd345660f01538b6bU,
  0xaaaaea2aebef8103U, 0xf58c1081de72815cU, 0x452fbeb052642b2U, 0xd96d00fa812a8508U,
  0x34cecf3e10abf57fU, 0x5f0c2f118108161aU, 0x4516be4a81dbfb3fU, 0xd1b8811fc701d87aU,
  0x3c3eb75d3c947f21U, 0x42f1330c298165baU, 0x7ffe1be7cfa8447fU, 0x3fa4e67fcbf708d0U,
  0x83bfd08c758bdf8U, 0xc81e9681c44755edU, 0x654a30f810adb2fU, 0x2081af6afedddea6U,
  0xffffffa3000000a6U, 0xa4ffffffb8U, 0x2effffff5dU, 0x39ffffffedU,
  0xffffff9600000026U, 0xffffffaf00000096U, 0x8e00000058U, 0x30ffffff96U,
  0x2dffffff96U, 0xffffffc30000004eU, 0xffffffcb00000051U, 0xffffffcaffffffe4U,
  0xffffffefffffffcaU, 0xffffffd90000000aU, 0x33ffffffc2U, 0xffffffb000000028U,
  0x61ffffffbfU, 0xffffff92ffffffcdU, 0xffffffe9ffffffdbU, 0x87ffffffd2U,
  0x400000047U, 0xffffffc400000016U, 0x4c000000eaU, 0xffffff92ffffffa1U,
  0x19ffffff61U, 0xffffffdfffffff27U, 0x8ffffffbcU, 0xdbffffffc3U,
  0x12f0000009bU, 0x4ffffffa2U, 0xb5ffffff95U, 0x680000007aU,
  0xf6ea5f35fa10ec4fU, 0xc75bfef610bfc958U, 0x2205c8bd5b1f9d48U, 0xcbb7a8ec062181d5U,
  0xde92013df101f8acU, 0xe8b894d1080cef3aU, 0x14420f01e9dd1aabU, 0x2645a0c1c959bd00U,
  0x79c5f113fb928115U, 0x23c7ddeeb62e0dd0U, 0xc63e3a24cf0b2518U, 0x9fbca5f61835db5dU,
  0xbf33da07b9da198dU, 0xe542c7e308061e7cU, 0x915fd376d7e3d700U, 0xbd692429791b0070U,
  0xac79b8e7d8ad57a2U, 0x9bb8ce2b2469cf17U, 0x6d6ad3fbff9e59a6U, 0x39b001c22647d4f0U,
  0x571eb9ac66b5405eU, 0x66304e3825d62cd9U, 0x13bacf1d89fed971U, 0xbdb540bc30fecc81U,
  0xc59b7452f9f2c060U, 0x15e3d4f0ffc1a704U, 0x87ab07ca6878e4a1U, 0xfcb36953acf56e05U,
  0xc25b0335dc6681a1U, 0x2dd08741f6fbf74bU, 0x693d3f910e1e9997U, 0xc60710c42e40986cU,
  0x86c523c278cc4cfdU, 0xc6c4e4113aec9055U, 0xbbde2badd55d02c1U, 0xfde3eaa66eeaa53eU,
  0x2a02b3df5356b463U, 0xb3a4717fd32449daU, 0x8cb56e70caf9ef01U, 0xdaec50389267522dU,
  0xf6cb184b519e8126U, 0x223de9529eaadc16U, 0xd64bb2064cb45c9fU, 0xab1819cea5c44e0cU,
  0x1038d72ceb60f51bU, 0x817d1d24ccca66fbU, 0x68f4c2e8b22430b6U, 0x14c29abce59d5154U,
  0xd78bbe33fc8d90aU, 0xd049901e42bd42f8U, 0x4d045fccd416fb98U, 0xf80b1265773e7107U,
  0x5038c7a92a8d4e3cU, 0x75b65032c8d30065U, 0x427fca42f2fbc3d2U, 0x1cb9f66967e1c1b7U,
  0xbd00cd3dc3690450U, 0xa5504bcd43065117U, 0x345341c2a5cf65deU, 0xace7b208d5bca347U,
  0xf04003113ea1c83cU, 0x7e497fe99b373803U, 0xfc0f724ac1acbcc0U, 0x9ea4fc52565507f7U,
  0x3b99e1cb30ddeae9U, 0x9c7b5d11af1eebeU, 0x8125de0aea0ce9f2U, 0xcb03dcd617f33b10U,
  0x1bd85b16e22416e2U, 0x2f1201ead4ff0214U, 0x21fc0e1904f6d7f3U, 0x431138f6ebd40a30U,
  0x2fedd415e0f1c8f4U, 0x2dbaef54e2fcf807U, 0x14e6041031be2ae4U, 0x16e181e1b8d958f2U,
  0x82430ef1511625e0U, 0x22e20efafc05e018U, 0xfb1ef9cac4ce04ceU, 0x1fd6f0f46f3f0f1cU,
  0x1e19bae600c84822U, 0x3b486154503fb9cfU, 0x5cad3dc54859e4f0U, 0x5d52cfeef67fe041U,
  0x9a50472d1eeadef5U, 0x34a5652c3763cd46U, 0xc9d729c7359b6149U, 0x97a935b8e7d93de1U,
  0xfd9aeb03b532b36fU, 0xd216abfdf20f3d5bU, 0xf4a0e562d94dc747U, 0x37b8baeddca05537U,
  0x9cb45a26ca59200dU, 0x81d8130f0e96c318U, 0x51adbf053d5aae43U, 0x64172c992bab35e6U,
  0xe5a1d0e24cce2b4U, 0xc9e8169de1d19ff8U, 0xfb3842c9f1a161ceU, 0x9c46fffa453caacU,
  0xd60c2d72c812df3U, 0xd6e2ce331ec2db38U, 0x85af5f70bf2e762U, 0xa4cf33df2cec2a88U,
  0xe9c26dd2e8165826U, 0x58ee50a9fc306455U, 0x53cb0b7f57ffda69U, 0x36ad5603a5b2ad34U,
  0xdee2e136940cbdffU, 0xa01c95b51749362cU, 0xe2ea3034034a232U, 0xa541a2bb4eacfdU,
  0x2fc708fc28bc03eeU, 0x4adeb1d826fa0cfaU, 0xd84af4feceb63026U, 0xc9e9ce22d20d4c15U,
  0x20e32d401148bce3U, 0x9a330217fcbbc530U, 0xf06c8b211cd810eU, 0x5147fefcf38b12faU,
  0x249de60ee9cdb36aU, 0xad0dc2b1cc86931U, 0xf027aaf9c847c33dU, 0xe910f4f9acb0fbe1U,
  0xa2fb32e2664941f9U, 0xd9caf6b8084ed8c5U, 0x7fd3d8c0333119afU, 0x1733f296afe0464bU,
  0xa8dde7db5ae0cea8U, 0xd02ffd516d12c9d0U, 0x97f76c1fa1d1641U, 0xcc16cac12b4115dfU,
  0xea4b130a4c2cbfefU, 0x1f510bb5a1024af0U, 0x24dc25dcd7c34affU, 0xc8194a0e93f1ec22U,
  0x98d8a14c3054b516U, 0x55f6196f459f5a4U, 0x3e29070528f41113U, 0x49ccc92c35eb92f8U,
  0xf6145812e606c0e3U, 0x3d41c50d6019fb4U, 0xbed73a28a9937f3dU, 0x35c14d4716c7faaeU,
  0x31e4c2f21e9e3047U, 0xfeae450b24d8e336U, 0xfc3ced6676b056aU, 0xa01449ca09ccba21U,
  0xd8e4da20d4f48153U, 0xc769a4fbfbad1ff4U, 0xfb9d18127817c6b3U, 0x5ac2361ad6d1b06aU,
  0xd9c9ff90af49eec1U, 0xf9fdc0c0f7a038e2U, 0xe7ceecc0d8d6810cU, 0xea2143bcb107505eU,
  0xc8b505b3ac5dd522U, 0x32dac548f9f2b6f1U, 0x342d0ec54cba45b1U, 0xcec43f9437d0a536U,
  0xcc52fed6122abb32U, 0x1f51f9e05b3522d1U, 0x3829f0c02ebcc700U, 0xb15c41c2e3f6f04bU,
  0xef103bc23914c709U, 0xebd43b3d073449c3U, 0xab7fef2917e96110U, 0xf211fbefe6fb7eefU,
  0xfe63c4e9140d07d4U, 0x20bccaf8c7de0737U, 0xffe352934eae014U, 0xd9c53e4a231d59d2U,
  0xec551b3e17eafb4bU, 0x10192fcfbe2616e6U, 0xbe373af7bcaa0e7fU, 0xc4dd30de01bc5100U,
  0x46f5dff1eff616c4U, 0x31babbd900fc12a2U, 0xef06dc09dfc21fd3U, 0x89dc9ec6ef29d53fU,
  0xec1202d1550611fbU, 0xc70200d318d7eb7fU, 0xe3e528cd27dd1122U, 0x4cce1fecf9e5cf2eU,
  0x2646d8bff61c380cU, 0xf0d9d32f13d61abfU, 0x2dced2e0c1cb2d19U, 0xdf432fd01b54d2e9U,
  0x28cbd711c9d648ccU, 0x7fc02af0e4d02ae2U, 0x184052dc090ff069U, 0xa3f147cf6608e8ffU,
  0xc33b009325009d4dU, 0xafadd51787044c37U, 0xcbd9002728faf015U, 0xd1d2eb2fd896bc4cU,
  0x3c0bf07597621e19U, 0xe05ecbc9649ffebdU, 0xcf06e91420b98adcU, 0xc1e4710c481282eU,
  0x17309fe9740276d8U, 0xc268e08eeb420d60U, 0xe5445fbcee2a7f16U, 0x22becadc0eb5e4c7U,
  0x986f31f60550b3ebU, 0x290ec635b5ccfd32U, 0x3e10622596d2f4beU, 0x462d236c0927dce6U,
  0xd4ed141a0a2f0ef1U, 0x3efffaf6f2f4f30dU, 0x7f02ffeae7d10508U, 0x2613fbfadae0c9efU,
  0xec12e0250207fa09U, 0x805ebf801f3ebf2U, 0xdcfdfce91309fe0aU, 0xe8f3dbfc2af013d7U,
  0x9c7fd3bb2920549eU, 0x2252b50f3ad7f8d5U, 0x59bfd2e9c5b5eb31U, 0xc2fdcf4c583acb16U,
  0xc760a7d70e3bfae9U, 0xd0b2322b4d5a463cU, 0x16cb32e310bf1d1bU, 0xc4ec306644aef48aU,
  0x8e4e4602c46aacaaU, 0x36abede57f7299bdU, 0x5633e9251020333eU, 0xbfd4d619fd394934U,
  0x5961401941df100bU, 0xb6216924962ad1b1U, 0x12ba41e341fdeed4U, 0x39dfe7f44ce530a1U,
  0x1bdbd598e0f9b534U, 0xdda3e1a9d9b4f621U, 0xc09996cdeac8cb33U, 0x49eeb9183d042481U,
  0xc6b1dc05de6af3f5U, 0xe70032a43206d128U, 0x5227f13841f627e4U, 0xaefcee90ea3fb9bcU,
  0x25ffd6dccea3f10dU, 0x545371c94bdb33acU, 0x81ad1346ba1da50aU, 0x14214affffde6f61U,
  0xa602c1412f6dd32aU, 0xdd11a1fe36cbbc27U, 0x17f7870139bdc5b5U, 0xd6f3eef945b00122U,
  0x46cb2af9fa14ddfbU, 0x20f10d2f0ad5cfe4U, 0xd350deec5ae9acd1U, 0xb3440a0f2c0b31ebU,
  0xc3233dd60ac7264bU, 0xaa02f7e00cf7e21dU, 0x54cab2ba1a2181daU, 0x544acde2e7ade846U,
  0x502481b0ea2d73c2U, 0xa66a0430ef2fa51eU, 0x6bcd4995e04c5298U, 0x22f9ea4def0f4859U,
  0xab5d43fb77222f5cU, 0xc2e436fbd52095d0U, 0xed3677451bfa5764U, 0x210abbf037b7f83dU,
  0x1644e902f5befff7U, 0xe2c034d8574ce8d6U, 0x4acfdef613f547c9U, 0x4b49f017411bb8ccU,
  0x5723ede5332d3ad4U, 0x7f0fe141e8d02fc9U, 0x95e0151119a74842U, 0xded0e646280beab4U,
  0x4b0f02e8f6a548d2U, 0x22f01ae1b4a0ebedU, 0xe8eb11d03032f754U, 0x48badcff4807fd20U,
  0xe137f7d62fffead2U, 0xb1718dd25222df1U, 0xf819d5544628e62dU, 0x2f3011e0a78100ecU,
  0x43cc0e03dfc60c16U, 0x91007de81d9de46U, 0x99d09840f0610033U, 0x7c005b5eafb36f6U,
  0xcd2dea253618f3d4U, 0x3899eeea3f40c6U, 0xb90d0a565757c19aU, 0x15d5e0dc02b8d856U,
  0x5985319ca74d506cU, 0x53a0bf11948c4fd2U, 0xd9099fa371b93391U, 0x81f979d261dfeec4U,
  0x7da559bbea5db737U, 0xa34e43afffb2273aU, 0xe414939dd70d1313U, 0xb606a03000c02cd5U,
  0x142deee217f3ed06U, 0xf0edfaf3f0160602U, 0x50050c000320defbU, 0xd1f8c7e10d2ecd64U,
  0xe3ecf8f90614e6f1U, 0x161303f40c0ff815U, 0xca1efe0c0a17fe7fU, 0xadf8e406f825dd16U,
  0x3e5b4655504ed1dcU, 0xb4446f603c1059f0U, 0x219dadd529692e2dU, 0x3ed368a0dba238e4U,
  0x496459514e67e9a7U, 0xb25302a4aade4c67U, 0x2c88fb1c607e81f6U, 0xb0b7b1a4c3168a18U,
  0x1ffe60ae6e7020eU, 0x81100e09f10bf9f4U, 0x591b1a03e45d13e2U, 0x103273c11f91b0dU,
  0x7d71af4ec000609U, 0xb0911fdfef0f3ccU, 0x1b5e0e23eee00e22U, 0xcd2112eec7f00223U,
  0xcf1ff9c4192330ccU, 0x1e2a16092a24e1b8U, 0xd9db5afd18e1daebU, 0xc0f7badddfeae64dU,
  0x17c8cf363e1e3916U, 0xeafc06411a3620d1U, 0xe153c20cef2057fU, 0xcf172b270dd3d429U,
  0xf5b932afd8b89fd7U, 0xbdc5e1e2ae12332aU, 0x5cfa0b27fdea7baU, 0x8f3fb29d9b2b143dU,
  0x12c136fb261294c2U, 0x4d48de9be4c52c25U, 0x2f4384ddc3c62f9bU, 0xffd5c8db2ebd023dU,
  0x32379d19580032b1U, 0xcf1f3fe00c5aad11U, 0x443dff44d69fba3dU, 0x4e3fec1b3ed5b45bU,
  0xb462b2b8b9bd7f2aU, 0xde3258befc2b05f9U, 0xbfdbef4d23962e68U, 0xf3fa634cc7d6633eU,
  0xc208090fd2013320U, 0xe2d513fbeebdc0c8U, 0x281bfc700abf131U, 0xb04f05f32400072eU,
  0x4f01594ae511f1fdU, 0x41f4d4e56d0e3319U, 0x1ac3ae36c040d5a7U, 0x532ae7bbb8a103c8U,
  0xe250ee1ebc4fa29U, 0x1dd7d7fb2adaf1f2U, 0xe5dceff0f3c72ff7U, 0xcf509bb94df181aU,
  0xe86ebdfb6a231a08U, 0x3f40b02fc0a211bU, 0xf0bc00213406160fU, 0xef013f57f2402f1U,
  0xf5e51361e3f1ea08U, 0xe01324e3f9e9020bU, 0x7fe40b160d0ce803U, 0x1aff13273d03b81eU,
  0xfcee0beedffcfa1fU, 0xfce50fe1f5e7f705U, 0xb41215261d02ff46U, 0xdfe29be4be08eaedU,
  0xf0180cdfeb3724e7U, 0xf0091ad90602107fU, 0xf31c2709000128eaU, 0x3ee0443703fd3cbfU,
  0x46f906f40d190feaU, 0x12f60c1513eb20e5U, 0x3223f5ca16e71af1U, 0x1c0e1df8d4f408daU,
  0xef0f0cf117e6c4e0U, 0xe1113b271103dfc8U, 0x3b28e9d42cf6e216U, 0xff02d6353e0bfe02U,
  0x17d108f7db1a1a1fU, 0x582a1133172908bdU, 0xda40feeb1fce7fc5U, 0xfccb1f0bfe3500abU,
  0x8441ccf54e9fa06U, 0xb73e300217cf1144U, 0xef27f929fd00e3c6U, 0xd5d8c32d467881b6U,
  0x1fded2d12f0a48efU, 0x4c134363bc1ac835U, 0x93dce0a3211975f6U, 0x12f428ead4772da2U,
  0x18d83902bc5f9022U, 0x55f8f2b02e44b1e9U, 0xdb34f13c7ff9f9e1U, 0xe21c4f284dc2d1eeU,
  0x3ccd7953bfe8affbU, 0xbede83b945fc392aU, 0xb0e242ac432dac12U, 0x26b01af5fbae2e03U,
  0xdab47ea1a9d63bfaU, 0x32deed483122c057U, 0x9b99f2644a6486f9U, 0xaa94460ac593ef81U,
  0x20e05dba0909a332U, 0x3e748fb2dec517cfU, 0xc7c6976707d4263eU, 0xbb0093c0bd93dfd2U,
  0x337fdfe2d8320411U, 0x26d5a4cdf5e2a9d9U, 0x54464d0fc72ef8e6U, 0xe248af30bde22dd2U,
  0xdadad5c9ecef4816U, 0x43dee5c7d83ff7cbU, 0x223034f0d0df3159U, 0x341b0ff43f270d19U,
  0x20fef3251e08fed3U, 0xd40ff60012fdf6e8U, 0x27e9ef1d3a0f14U, 0xe50e146ff4fe01U,
  0x1fcee600cd0f16e9U, 0x11e1f9151307fbU, 0x137ff11fe516ee14U, 0xa3f2f21bc91af00cU,
  0xe2d6c48c23264f1cU, 0x6a31b26b5129f0eaU, 0xd91dcc3f7f32d802U, 0xb954e6092fb3bb18U,
  0xf9d20c1f67e18d13U, 0x52ce84a656b9d945U, 0x353d8d420be5bf46U, 0x5c41d299059a42f4U,
  0xe5a621c436cfdc10U, 0x21bedef6c5c0d946U, 0xc6b8f1f722ccbf36U, 0x3df157c231f3f14cU,
  0x1ac97f0c14232d38U, 0x96e0c53c5c3a2dc4U, 0xdc1c2f10d517bcf4U, 0x1cee29caf4270bbeU,
  0xfe37741444a92924U, 0x1bbf624192b51b7U, 0xcf8feebe40539701U, 0xd0b87f1690cf310cU,
  0x571faf4c0ef2189fU, 0x20224b965f32ae73U, 0xdc47b44da214b6faU, 0x624908f354d3bea7U,
  0x539eed08c6b20b54U, 0xe33b4d54d9e85bf6U, 0xc1b11b4ada40a921U, 0xe1ceea44142aa32bU,
  0xce9563bb8669ab6U, 0x812b8ef5c9e30f5fU, 0xc00de1c85252f865U, 0xe3222c0f15a68806U,
  0x3350a5cd23b7df2bU, 0x1a7f13f3db0ed798U, 0x3d61618c8e392fb5U, 0x2cfff8ef3cffbb76U,
  0xd9a4294023ca5559U, 0x5a372644b3434659U, 0xd5237cbabff76a30U, 0x5395542b0e6ae6e7U,
  0x3fcbdff9d4cc94bcU, 0xf0dfda71c12b5c04U, 0xfe3a813fcf2ed60aU, 0xfcd6c50729c133f0U,
  0x70129ed30d31dbfU, 0x347fc91856a23505U, 0xddb5faaed731bf46U, 0x54bd2a9442379139U,
  0x28b9fcc3d8fba8d2U, 0x4626df37ff9753e0U, 0xf42fcad2baf181c3U, 0xaa386c1a019ae203U,
  0xdbf4f4c499d3ecf4U, 0xd04799ee5df4d5fdU, 0xe401fa3fd722dd35U, 0xe3d0e1b714a8054bU,
  0xfa2f040a12cefc0eU, 0xd1f681411e06e504U, 0x302014fe0c300500U, 0xe11d25dbe2ed1662U,
  0xd7f8e6142c0e0febU, 0x31240c23f909f802U, 0xd51bf700f4fce136U, 0xea24f0fd05da1124U,
  0xd214e8e90e13eae5U, 0xfaf27ffae702e06bU, 0xc5bcd7e427ed191eU, 0x3a0b0ed51503fbedU,
  0x1ebde312f5011d02U, 0xc02d160d14fdded9U, 0x5cc615d4e3fee0cfU, 0xe4dbc7e8b81aed24U,
  0xedb259a314c24ac5U, 0xa10224181f3f36aU, 0xef0aa266900d03dU, 0x42116a2cedd5a527U,
  0xd799751d923e8e14U, 0xd81a273d50c43d35U, 0x3fa83ddc1e08a3aaU, 0xb820071fe1b2c9caU,
  0x59d278a9524b3fefU, 0xf229c943fe90d4faU, 0xcb8d2240d249d8c2U, 0xf8210eadcae13ef2U,
  0xd4ba4def04412e24U, 0x8871e7fbc3ac0443U, 0x659aa551787fd996U, 0xc1f13fe2cfeeda41U,
  0xfffff759fffff7c2U, 0xfffff54400000bd1U, 0xfffff4f200000799U, 0xd6800000b82U,
  0x1b5000001caU, 0xfffff3aa00000b34U, 0xfffff6e000000b8eU, 0xfffff23cfffff953U,
  0x93400000c89U, 0xfffff330fffff2c8U, 0x92300000a97U, 0x9e3fffffb78U,
  0xa2efffff4ceU, 0xc82fffffe87U, 0xfffff73500000a16U, 0xfffff8fcfffff5deU,
  0x99100000c16U, 0xfffff0c5fffff59cU, 0x19cfffff598U, 0x5cffffff7baU,
  0xfffff3c5000006dfU, 0xfffff4c000000d48U, 0xfffffeddffffffefU, 0x4c6000000d9U,
  0xfffff33c00000d33U, 0x8d2fffff250U, 0xfffff241000002c6U, 0xfffff663fffff75dU,
  0xae4fffff6bdU, 0xfffff2baffffee03U, 0xfffffd5a00000130U, 0xfffff0e9fffff288U,
  0x10efea4bfc2a49d9U, 0x893aca5dbd51cffbU, 0x23060a588dcad870U, 0xe9cee2f60e34d994U,
  0xe0b553fd81a7e653U, 0xcdb651d7b14ac118U, 0xe0f3ad7e738aa02cU, 0x9b92d82885d52eacU,
  0xbb4523aa5c0f8945U, 0x1e8afcaf3af65a7fU, 0xf21c9804db11fd74U, 0xad618cbbc5463e5dU,
  0x3cf54f1bf517dcb9U, 0xffbdfb9a8074fb6U, 0xcc1af1b88f8c9d90U, 0x4e5ce1e36042c23dU,
  0xf46aad7fc303e0e3U, 0xa59af5019d60141eU, 0xf106190aa2b158efU, 0x92db24297c5f0c8bU,
  0xae3f7fccfad0b63U, 0xb0c2bd59404f0e6U, 0xc8d4ec5843fed32bU, 0xb7ae2f77eabf5fdeU,
  0x7b15b602194ef8deU, 0x8271079192ff7e6U, 0xdd184372f2bd7a5cU, 0xf608f9e4172f4f99U,
  0xfde22d9ed894ea0bU, 0x1583f74c0e7ffb70U, 0xeaa5d12c529da4f0U, 0x9eb08d62da896206U,
  0xce24ae35dc30b8c0U, 0xec345ad7a7a71c74U, 0xff69bba5ad722d30U, 0x591a67cbc4292c1dU,
  0xe044b9973d3e9481U, 0x8db44dcdef9f0a5aU, 0x7c95657f323dbd38U, 0x2bdcd84ce9a03926U,
  0x83813db1b1d65352U, 0x31ac6ea35430d999U, 0x52ee1243d03ae9faU, 0x6d3393ce58939278U,
  0x39922b00071bd646U, 0x4f09e9b305e74a5fU, 0xc87a27b1e39d5954U, 0x93c0a84f683f89faU,
  0xf6f9defed613a4dcU, 0x5e1eb031fecbecbU, 0x2edeff16f3fb1d1dU, 0x20f0d130b49f0dbU,
  0x6cfc53dc04140d04U, 0xed2b64d5fd2801deU, 0xe2ea077fecfbecf5U, 0xf6ead4fb15dbf7e4U,
  0xea48ea36c23770b8U, 0xb7e29e64e517ffefU, 0x621434200bc16e04U, 0xdf16bb6f402f099aU,
  0x339b5095070d2b29U, 0x64ae0147f137d513U, 0xa7e3fbece7e1a524U, 0x9e15815aee01f0c2U,
  0x693dbd1ab31b1f97U, 0xce1a9c26a605e6b8U, 0xe2f7492499e4e45fU, 0xc3c58b750ce15decU,
  0xe9700171db86029U, 0xf8d5f2b8f905ca61U, 0x90b6ae1f71e6132dU, 0xccf19d7fd69521bfU,
  0x176fe77f073b75adU, 0xec4e9e6aefdd334U, 0x4d6f75ddc9e32c5aU, 0x26c1bcefe2613403U,
  0xfc91f08385926af9U, 0xef82e1ab9554aaf7U, 0xfb94cb0739170361U, 0xd8e28d57b28a4d97U,
  0xd2d65d587f053dceU, 0xdeea93ab12fde665U, 0x37f4b2fd613309b5U, 0xb0d2ab0cfa0415f6U,
  0x1c50c4b7a8f2e36aU, 0x3f98c5b7f553ba0aU, 0x465839c5256b2ef3U, 0x676bceb370020a24U,
  0x7656cbfe85dd60d1U, 0xb9eaae1dae222f8U, 0xe7e8e7e9dc8efe63U, 0x1497da5c0f06e989U,
  0x7c23f593be096154U, 0x258140e49c00f4d6U, 0xa4ab979b3623890eU, 0x83b2ab662ac448f3U,
  0x130ef33192070f8U, 0xb8b2cae6f3301dc8U, 0x48d514eec2d11d0aU, 0x2eadd4320000116U,
  0x54e80ef507dc2533U, 0x2922f931c2efc109U, 0xdcb8ead916c10328U, 0xc3c1427fd0d621ebU,
  0x7689a03917c65e2U, 0x8c01b5ec212909e5U, 0x1cd66013afa3547bU, 0x8ff30c6a64482e87U,
  0xd5f9488184aa070bU, 0x71b7000d126bf556U, 0xab94d91b40aa9703U, 0xe881df4e8bc70fc7U,
  0x8113ecad30689be4U, 0x61d9c157832e59U, 0x60b2c982f6a2a750U, 0xa7de7e3d9285bf2dU,
  0xa6f96bd5505b7e36U, 0x11baa05ff2e00191U, 0x68e75e0534b05dacU, 0x2a067113859fb843U,
  0x2b29c723f936f5f9U, 0xe5aedf66ed6765a9U, 0x5c971d08a3e05b10U, 0xc19cad1b6a39f89aU,
  0x36a93be3b6bc5e36U, 0x50c67f53bd5da658U, 0xf8a30028edbcc657U, 0xd6e6eb60edb860c3U,
  0xe7a7de4b2fd82994U, 0x3bd4cee778267643U, 0x1be8fafe0699ea7fU, 0x18a21ab49e6fbbb0U,
  0xfcfbb67d23741886U, 0xa1defcdaee2ae8a8U, 0xfb32f715e957633fU, 0xb24ee51fb8138b54U,
  0x5d06addf87767f03U, 0x8dc88459ebf74116U, 0x720ff36008bf6a09U, 0x24e6862a32fe1fdeU,
  0xf0a026008b953e0fU, 0xdd0f612d67d94fcU, 0x1ec91a6037b6b614U, 0xeea9db1c17b9010bU,
  0xf71ad412b3f2febbU, 0x98e4b665ba10d70eU, 0x11f41c73101b6b3bU, 0xe121a2f95a1041c5U,
  0xd5a4e9b81fbe5274U, 0x67880759fd7cefecU, 0xecca9eabe8e7855aU, 0xe4818617049811a3U,
  0x1c02ef07ece9ea06U, 0xe5cee3ec09e9bbd8U, 0x2eb2f918d6f2f703U, 0xd6f6f827f54418e1U,
  0x7f0600090301e600U, 0x14307ed611f4d924U, 0xe621f65130de080fU, 0x1adc3f5104fb2edbU,
  0xcbedb18e5d945d13U, 0x1200eaa6a89b46efU, 0x97f630818ef184f3U, 0x5b5263182c69c477U,
  0x47765de110fde8b8U, 0x579d6a8c4deddc45U, 0x750c25d74a8d76a7U, 0x5b434106e6069d22U,
  0x5833abfcef54fef2U, 0xa9d9050ddc1a0a1eU, 0xe61a2f32cee10427U, 0xc7ffaaf1210807e6U,
  0x2ce33ecabd0b3f47U, 0x36ba4fc6bc07c744U, 0x100bb60a58d5e717U, 0xc2fc813cd3d0f2d0U,
  0x7f5b8f5794f442c1U, 0xc01b1b42a2603db3U, 0x6f06e432cd9ee359U, 0x27a7cd20733c1fdeU,
  0x46ebe21c97c84367U, 0xff193857ce4feaffU, 0xddde4313c1fcb4dU, 0x9cd79243e41c1094U,
  0x1ef3ea1913f10c09U, 0xf5ebf520eaf21506U, 0xfaef0e160ee2ec0aU, 0xdb0ce1ee0fe718e0U,
  0xcfe0eff00407f9fbU, 0x4f79b33ebeaf917U, 0x15080e8114e50601U, 0xfea1701e5e3fc05U,
  0x4501ee3b1d6561edU, 0x861f1bed091871fcU, 0x14c2e224f1d84253U, 0xaab1b5503c51281fU,
  0x2ad246e8d7b8e6efU, 0x30125514bee90300U, 0xc9a7bfd2e3868148U, 0xafb3f55e23f62e0eU,
  0x3f01b4a711a1d27dU, 0x1768271d7f7a897dU, 0xd4b9c52b314e812fU, 0x33c390d719783df8U,
  0xc24b92c5ece2d972U, 0x5f3b660835bb73d8U, 0x43e3529dfc2ff056U, 0x7ff4765041cbca15U,
  0x1505fffef5149ae9U, 0xe10004040cf73e0bU, 0xfb0a0ae8faeef916U, 0xfdf8e3f6f92911f9U,
  0x810b17edf5f5050cU, 0xf27c70d0cfde217U, 0x14fb17e518120dfcU, 0xf6fc2794fb10f2ebU,
  0x2b50822c0f61f6c7U, 0x160fff06c72840aeU, 0x6dad184dd7c53f01U, 0x5f9057b76677c92U,
  0x18f7470ea62018feU, 0x539752fea51fcc3aU, 0x7c296537ac08170U, 0xee94aaddd9232990U,
  0x85c2761729bbd3b4U, 0x1dff76b76fb6521U, 0x545f5d0e033f86a3U, 0x29bc6ee6b5ec33ddU,
  0xcede41aecc3185f7U, 0x18ac0761aba24cf9U, 0x38e15ab01a7f5026U, 0xc86fb550a943d57fU,
  0xe8fde94db477dca4U, 0xc59b8115a0e2ca9bU, 0xf204595789a73e48U, 0xe420962b5ff4fce2U,
  0x6a1540edebbc2549U, 0xe35561cad66d2500U, 0xd7bada215df2ae0eU, 0xdf910c070295f6f4U,
  0x4a4ff449eb2c2305U, 0xf0fe0d0d0d074d07U, 0xec29431ecbb50a1eU, 0xce02c2fd3e181dc1U,
  0xf3fc33f5f3d74a2aU, 0x28baf732bf43c108U, 0xb0bfe97f21c5b710U, 0xdb7f422dc16edf4U,
  0x4733b816b3227d14U, 0xc2c80b3c16f57ff0U, 0xd06032beedefa3fU, 0xcbebc9103be739c6U,
  0x1d0f21bfe5ef01e7U, 0x93af5ffb054b143U, 0xc9dd061bf4db1425U, 0xa5cc2a62e5e902ecU,
  0xeec555499fcbc318U, 0xcead9fe2a2d6d2f5U, 0x711fe6b04ba36bdaU, 0x451e38a8c9e98f99U,
  0xb6a3d85dc2f98182U, 0x50c6614e9c8d40d3U, 0x4e332e0627a7e5bU, 0x6cf32082dc959ae2U,
  0x53eaaf2aad3913bfU, 0xdd14170a1745cec8U, 0x5381414dd11a3103U, 0xd0c202f10ce05413U,
  0x15c7d2e2c2ec0008U, 0xea301437cb55befbU, 0x6d31afaeb0add40U, 0xb3d60535ebf32ad6U,
  0x886ab09dc9e1f30aU, 0xdea776ffd0275037U, 0xb32e3732a4c3a93cU, 0x3a6221a9ec46ca0dU,
  0xeb7454fe253e651eU, 0xf2418c097330b29U, 0xf39f0f43c57f504dU, 0x767373f7c9cbb755U,
  0x104923721a44fddfU, 0xaba2b42fb1de0eb5U, 0x37a3324825e0fd23U, 0xdbea13350163f885U,
  0x12cbc28625c75b08U, 0x5f6b51f3942b2369U, 0xa4a8e0bd1bec8e6fU, 0xf61ce96a90dc7fc6U,
  0x494d77e3753d680aU, 0x5d0345c520e77663U, 0xe5d5f7d3231fa26dU, 0x54f73324a3d0d57aU,
  0x4ca0d0d36f7665e7U, 0x21552cffb62cafd7U, 0x5dfd56350691770cU, 0x322dde83358167fdU,
  0x25baecdb0914811eU, 0x2c05093ad8b6bf53U, 0xc9c4eb980f6bd3bdU, 0x6ff54598396d62e5U,
  0xa6d526c2d5e40a36U, 0x27b85d1d4cbcb691U, 0xa39b4e2efc1e0f5bU, 0xd452bcb6cf61bf70U,
  0x464eee77e5e90199U, 0xee8e876deff75f21U, 0x2dc00f7f068a1533U, 0x95890338212531feU,
  0xd013490df3de3d4bU, 0x33212e24d76aa84eU, 0xa81f91297ebabae2U, 0xbc049f0cf1c16a81U,
  0x9e24b412b2f4836bU, 0x3797d308f72aa6faU, 0x25709b56101aed6aU, 0x54c84f6981df87e3U,
  0xb2b536a34626aec4U, 0x61bb453a1d0f6aefU, 0x9f184fbc93fef3e6U, 0xf541be0c5e89f44U,
  0x8ab323fa22f2c8f5U, 0xd118053b4e4fe434U, 0x5e07d4096ae52ea2U, 0xf550fa333a0f14bU,
  0x3cb90ca3e5464c04U, 0x81cba15848c009cbU, 0xcd70caf402f35cd3U, 0x65bc3b8b311de3fU,
  0xfa06a64f917109aeU, 0xd19bcd62981348baU, 0x502cf174bbc72265U, 0x94c513391c3af5b8U,
  0x3ab27fc5bef30d09U, 0x51c72408f34db36fU, 0xecf8c82528e21437U, 0xe5f289ebe7bc7a15U,
  0x62bddf1e6189cdcU, 0xfed001ecf606debaU, 0xfd9cf224f0ec2720U, 0xd5e3e9f6ec35faefU,
  0x1d0101e6da04f81aU, 0x1a7f77f00f25070eU, 0xec08d6fc2c10f604U, 0xf5115fdd08eb0fedU,
  0x32efd0de7020616U, 0xeffac20409f53ae6U, 0x4d104effc4c6193eU, 0xecc321e70e283dc1U,
  0xa202b04fce92f17U, 0x21cf3544ce4ae02dU, 0x231aab7f36cf212aU, 0xd8d8b70cbbbc15d3U,
  0x1b01a22ddb142024U, 0xd8fbb6e2cd2041f8U, 0x2b2a0a3da5d7ed37U, 0xdf2ee11c2c1ad7dcU,
  0xf8a1ffe00dbb6145U, 0xdad34e7fd4ccf62U, 0xbd27bb3f05171553U, 0xfca1814caf9949b9U,
  0x607eb3319f32169eU, 0xb7d5c50eb0474883U, 0x2cee6257b30b3dd4U, 0x101ad14108247fcaU,
  0x3fba4dfb918dec0fU, 0x56d62a78c2f6c925U, 0xa82ca2f57a819772U, 0xfa91cf47a389e0b3U,
  0x81f8dc973540fdb7U, 0x3655105e5ca8d588U, 0x11fa6a575fac9dU, 0x50b4b7e286398671U,
  0x8ecbb0e032a0295aU, 0x7556323b8bf67782U, 0xf841564aa7bffd0dU, 0xa91309f3ecab45bcU,
  0x36d2bc946405b95eU, 0x7d9fd992a00d612eU, 0xccd73acc9dbc06e7U, 0x1423f6b6af62e86dU,
  0x6abab3e163423cbbU, 0xada371c28dd4233bU, 0x148f4ed6815975cdU, 0x991c0d1bf32aca61U,
  0x5801f343ee5dac9fU, 0xd0abd328cffc6eb6U, 0xe7ec454fa0e43064U, 0xcb9a045c602b3ce6U,
  0xc9ac30a3cde53458U, 0x610c7f5cf4e51752U, 0xece4f0d101b1af12U, 0x211d02ddf6f716f7U,
  0xea964ace40a2d8aeU, 0xd356089e18371a18U, 0x5242e0322af85359U, 0xe474b28525e7c319U,
  0xa16bbb21a9095203U, 0x12133bb6c0f118d0U, 0x136bb3c78a117ac0U, 0xf51428c51dbb817eU,
  0x13180af109ee0509U, 0xf6fa0e071105a0afU, 0xffcbe7eb19f5020aU, 0xef06ea1807fadd11U,
  0xe81781f6f0030706U, 0xfb181e66fce401efU, 0xe712f69204f31101U, 0xfdf125ea0d0decffU,
  0x4b4c2d41c66403aaU, 0x8494e6decbdd55faU, 0x12de6f0ba2fc6036U, 0xf59db865071f6dc5U,
  0x76bb4d9ff8f46ce9U, 0x21ecf9a6cc570c0dU, 0xe7959c1158f6f47bU, 0xc20a1f7b8dbd7f08U,
  0xfc1de4f2e7e1b407U, 0x1ff0edfcf2014fc9U, 0x14c408e21c1ee716U, 0xf0c1217073fe501U,
  0x8c08e0ee1bee18f3U, 0x858b57f18f60100U, 0x1b1cf7a8080b1303U, 0xe50168b3f31e1100U,
  0x90ba04bc439ebba3U, 0xd9be4be55721171aU, 0x23044e45b408f417U, 0x11dd5ba89783b2a3U,
  0x422d0af40e5bfd24U, 0x55095f276dd8f194U, 0xb8f0e051c0400048U, 0xe6c77f405b1a20a4U,
  0x4a13c5eddd11f3ffU, 0xb7bfb725f917413fU, 0x52491140b7b4ec00U, 0xe0c7ca2621364eebU,
  0xdbdd55caae0d0f04U, 0xebac59feb9e216f7U, 0x25efc642331ac656U, 0x21e081f0d80b2ed2U,
  0xd06000ff408e609U, 0x4df03eedaf042e9U, 0x1109f908ef04f103U, 0xe0e30827eff707e5U,
  0x8116e017faf2f819U, 0x2311c657f20f0b1aU, 0xf5e105a7f509ddf5U, 0xf4e3f2be11fdec0bU,
  0xb62be6cf42bebafU, 0x13b3af5aa13641f6U, 0x64bc2a12b8143437U, 0x2d8ba67a5966e226U,
  0x320955a6b0b07f2bU, 0x4ba7726bc3c9a21U, 0xcab096e01aa6d072U, 0x940ac67acfca5593U,
  0x4fe60ee9a40dd59aU, 0x9bf5a9e7042f67ffU, 0x762044fddbf123e1U, 0xa9e1323fe1e6ca1U,
  0xb4f747c901afe45eU, 0x6b87f63ecb08047bU, 0xc8f41f19ec9cd96cU, 0xd00794e800857881U,
  0x731aba3453aea89eU, 0xc576e586fd9d04efU, 0x4d233cc8322f1741U, 0xfd634dd4e3dc2a7fU,
  0x8de5b15a414346dbU, 0x2eeee75efb586496U, 0x4e71f758e0eb4f2U, 0x53e3e69f2c6af917U,
  0x5df140baf6a79fcdU, 0xa73ee729e2096dc7U, 0x2f1ca593dac341beU, 0xa0617434b8bddf48U,
  0x197f89aa18f949a6U, 0x2dca1493b3f243bbU, 0xa23837060c2221bbU, 0x367b0eb6a3e0a335U,
  0x812026c4c2289337U, 0xe4263abfc4f919a6U, 0xd51f50f837d95437U, 0x94f14b5caf5cba2dU,
  0xbf120d41301b2485U, 0x495c60324c23eee4U, 0x3747e3fa17697f20U, 0xc6fce0bb4037b025U,
  0x8b2bd2c257e128ebU, 0x9d56a423bf31d750U, 0xbf1b47407f18122bU, 0x76fbbbde8e2226bU,
  0xee410456e749b601U, 0x56266bc2b3daed88U, 0x57ef56a1250ef62bU, 0xab5db55c231079U,
  0xef25ae5da2217089U, 0x9195d82be94847beU, 0xfd856d2885f6f114U, 0xa6f2fffa6f212fd2U,
  0x41b1b8edb6022c4eU, 0x3ad363d49e55d70aU, 0xc50df3082a96044dU, 0x97adc77fcecd7ae1U,
  0xf10a170dfbec3e00U, 0x12e719f6fdfee455U, 0xfdd6020cea08eb0dU, 0x41007fdec81f6feU,
  0x59fa200df1f7ec06U, 0x18b3273b06e9fd09U, 0xee010f7d011402fcU, 0x9fde829eaf3f709U,
  0x156dU, 0x198600001844U, 0xfffffb8afffffbcaU, 0x139100000192U,
  0x154f000015bbU, 0x14cbfffffb4dU, 0x177400000b7cU, 0x117afffffd00U,
  0x15e8fffffc4cU, 0x32c0000181fU, 0x1051fffffdbaU, 0x28c00001815U,
  0xfffffe29000015e3U, 0x1700000002beU, 0x1620fffffb21U, 0x108800000ed6U,
  0xee7fffff84fU, 0x15edfffffbafU, 0xfffffbbefffffdf5U, 0xfffffaea0000177cU,
  0x1804fffffab2U, 0x96c00000574U, 0x134a00000c9eU, 0xfffffbbcfffffb65U,
  0xfffff7fd0000112cU, 0x1203fffffe0cU, 0xfffff898fffffffeU, 0x43900000a84U,
  0x187f0000155cU, 0xfffffb22fffffda3U, 0xfffffba6fffffae4U, 0xfffffe56000015eeU,
  0x1328e514f829ed24U, 0x14040103f2e82915U, 0xd9e91bf60f17fee6U, 0x21253105f212fc23U,
  0x221bf206291be70eU, 0xf20b210e145306f4U, 0xe7f6eedb2a0b18f6U, 0x810511e90ef7f62aU,
  0xf16beee91b05ff26U, 0x1ed9e805f8eb281fU, 0xf12c2a0e2ae31703U, 0xf12728031c0bebfeU,
  0xe313ef1c37f83017U, 0x2dc0304fb2df8e4U, 0xef2d2aef21f10a28U, 0x8138d9f9e0dffa1aU,
  0x1b6df909ed231f2cU, 0xf3c747f419f1ff2aU, 0xa9def50c7f4ae2f0U, 0xefa2bc83327d839U,
  0xebe60ed953e33be7U, 0xf0f14817ec1d44fbU, 0xb441d61b2cf903ffU, 0x824f1c3d1be74726U,
  0x497ff311373c2944U, 0x510b38d32d1a31e5U, 0xad1e24d274160ec5U, 0xdc3431d4e01c142eU,
  0xfa21dfe418e84823U, 0xe23f44494a7326fbU, 0xf6e6c7ce0312d45fU, 0x1de3e63a02c0dce6U,
  0xe27f1df539ef113cU, 0x4738e8091dea3744U, 0xb033170b420223deU, 0x1fdc4ae149fbd833U,
  0xd8010ecf18d22b27U, 0x26d241143243d1f8U, 0x6eb172ef41d16U, 0x6b07d2d240082b39U,
  0xea28fcdb44f2effbU, 0x4606ec2a2b0ef0e7U, 0xcb3142e026001706U, 0xe5fd170b43f22debU,
  0x1a122dfc02fa45eaU, 0xd3111f17f73c281eU, 0xc6e6f71b26d62e2bU, 0x7f3dde3713e03847U,
  0x29f70d0ffb2d0df1U, 0x2424f2181407ed12U, 0xdef5fc183113f110U, 0x2afe171934f1fe15U,
  0xe31df41724172322U, 0xfe1116f2322519e7U, 0xde0ffd03fef417f5U, 0x7f22f7120bfa2923U,
  0xa31e8e6fe06f8f7U, 0xe001e220eddf32fU, 0x22008111c150e04U, 0x3d2e2cea1cd6f339U,
  0x933e605fd0002edU, 0x9020decf1fffce8U, 0xca17f72d1803e401U, 0x7f3af7e223e8ef1fU,
  0xe18e4ed1622fd05U, 0x2e052a4409f41d0cU, 0xf1c0900450e331dU, 0x42fa200906b0fff2U,
  0xf41feaeb0a0e4006U, 0x2024fe2b07e42f04U, 0xdd2be8240205e3efU, 0x7f36ecf71b26ff21U,
  0x4ef31510f6200648U, 0x45d23c6261355352U, 0xa8014729091b2ec1U, 0x5e0c111cf2bf2e54U,
  0x25e028194cd745c1U, 0xccf84a201cabfbfeU, 0xe7c54ef0633dbefcU, 0x7f664f4fda39ca5cU,
  0x16c72fcc530eed46U, 0xc36e8081f04582bU, 0x5320dd93c165f0eU, 0x2e4ee8f1df813257U,
  0x3b05401f5645590bU, 0xf6e8522c24c33716U, 0xffdbc7ac3f2dea2cU, 0x1930e5f2cbfdf43aU,
  0x40cb2cd54a3eefeeU, 0x505260843e5303fU, 0x242c4a22ed26501aU, 0x313139fd2181cf1fU,
  0xf3ecd9fd09fbf21bU, 0x2bd0070003c91e00U, 0xa9f633e21a3c143cU, 0xb42bcad5d7f7342cU,
  0x3be43ddb1f06e947U, 0x16081f3f23cd2e3cU, 0x333b07ec071d01ebU, 0x331504e8f9a4071eU,
  0xff27e9f2eee230cbU, 0x13f0336008c9343cU, 0x1d671681e730dce4U, 0x925b26ccfed95400U,
  0x4ddb07e35625f926U, 0x15ce4f182d1c53edU, 0xfb114820ba5902f5U, 0xf03c34e6f2f4e721U,
  0xff41d410fe110902U, 0xe3d9ff00fcbf2a0dU, 0xd616f4a3262b03efU, 0x812cfa0adbfc3b11U,
  0x27fadaff022e1150U, 0xd1c41e819d7571bU, 0x1b4e13e13534f8U, 0x2fb08e33ef804eaU,
  0xec4d26ed0fda1601U, 0xf707f8f9368118cfU, 0x2cf6ffbb3d01e10fU, 0x81fdd7d7e9d53e3cU,
  0x2ef4eefa231ee304U, 0x5bea1cfc53bc474fU, 0x22f053ee9a234603U, 0x20090905466313f0U,
  0x186306c1f6c025c4U, 0xfa35124e13b22dbcU, 0xf74f48eeebf3c1bU, 0x81fe2ef1f5245c39U,
  0x31df21385130ed19U, 0x4a2bdce4d30b4aU, 0x3c177634a2ff5fecU, 0xff7ffd29583beb10U,
  0x44fa44ca1dc3e41cU, 0x2609f64f57ea5522U, 0x7e3fccce37810a57U, 0xc80f27cfe714101aU,
  0xf4e2ec1e092dc601U, 0x41d82b1952011316U, 0xf53119dcb8172adfU, 0x570c13e70e6c172fU,
  0xf931cf1c0edc1b12U, 0xd0e729fb1eb15e2fU, 0x1d401938ed81f542U, 0xcdf5f6020d393d21U,
  0xcc1f000fa0a2828U, 0x14073b2ffbcf350dU, 0xf42f411b31831d4U, 0x4551dded0b58f13fU,
  0xdf2e3311f027fd08U, 0x29d82b355027141aU, 0x531be5450381ca2cU, 0x2ea37f8f8d0394dU,
  0x4fb71834ed57de21U, 0x430d3a41db3bf0e7U, 0x6f7f0dca6271be1U, 0xf95051412349de38U,
  0xce3aca1e3ae8d9ceU, 0xedf351ef0ae231caU, 0x7feae57a1a9c164eU, 0x292de908f4345028U,
  0xfee16f13017ff08U, 0x24e836f4f90919e3U, 0x5c3ce5f3f5f437e5U, 0x18261e033538080aU,
  0xe13124e8382b0d17U, 0xe1dc2b24f0f01809U, 0x4c31147ffd061437U, 0x3216dde8fef80ee5U,
  0xfcbedbda3a3a1e0fU, 0x34e12f16f7f2091bU, 0x442502edcefaed23U, 0x1a0a32f82041d91cU,
  0xd9f4121233e01a01U, 0xdfd6f1013912332cU, 0x60fb017f022cf2f4U, 0x3619ebe0e0242d30U,
  0xf9afdfe515f4e5faU, 0x2d1324530a02191bU, 0x340a0eded73d42f9U, 0xefed052d0029dc0cU,
  0x1a332dea14d929f5U, 0xd40f2600f43df4f3U, 0x5f3015731e7f122fU, 0x23151407eee43b1cU,
  0x23cce3f1df31e200U, 0x1b08f0023ce92225U, 0x7b021e29c628e7efU, 0x15e50b04273b122bU,
  0xf1aeaf63b172ef0U, 0x25ff1c1ee92622e9U, 0x42dc293ef77f0c3cU, 0x273a00da232bfd2cU,
  0x1270000010bU, 0x16400000193U, 0x1ab00000104U, 0x19600000142U,
  0x1c50000019aU, 0x1b70000026cU, 0x23e00000299U, 0x20000000234U,
  0x2720000033dU, 0x1bf00000142U, 0x23b00000174U, 0x17b00000220U,
};


ai_handle g_forecast_temp_ml_model_weights_table[1 + 2] = {
  AI_HANDLE_PTR(AI_MAGIC_MARKER),
  AI_HANDLE_PTR(s_forecast_temp_ml_model_weights_array_u64),
  AI_HANDLE_PTR(AI_MAGIC_MARKER),
};

