/**
  ******************************************************************************
  * @file    forecast_temp_ml_model_data_params.c
  * @author  AST Embedded Analytics Research Platform
  * @date    2026-03-18T09:07:59-0400
  * @brief   AI Tool Automatic Code Generator for Embedded NN computing
  ******************************************************************************
  * Copyright (c) 2026 STMicroelectronics.
  * All rights reserved.
  *
  * This software is licensed under terms that can be found in the LICENSE file
  * in the root directory of this software component.
  * If no LICENSE file comes with this software, it is provided AS-IS.
  ******************************************************************************
  */

#include "forecast_temp_ml_model_data_params.h"


/**  Activations Section  ****************************************************/
ai_handle g_forecast_temp_ml_model_activations_table[1 + 2] = {
  AI_HANDLE_PTR(AI_MAGIC_MARKER),
  AI_HANDLE_PTR(NULL),
  AI_HANDLE_PTR(AI_MAGIC_MARKER),
};




/**  Weights Section  ********************************************************/
AI_ALIGNED(32)
const ai_u64 s_forecast_temp_ml_model_weights_array_u64[1935] = {
  0x7f0000007fU, 0x100000000U, 0x300000002U, 0x500000004U,
  0x700000006U, 0x900000008U, 0xb0000000aU, 0xd0000000cU,
  0xf0000000eU, 0x1100000010U, 0x1300000012U, 0x1500000014U,
  0x1700000016U, 0x2f00000000U, 0xbd1b63c21e5bb0edU, 0xbd00f61001cde6e5U,
  0xfcdbf2d5cb3c0f81U, 0x373e47b047ec87c2U, 0x546da9172e8feb12U, 0xe841440b89385726U,
  0x553cfa0dd4ac462aU, 0xed0609dbaa32c60eU, 0x46efc3d91b163042U, 0xf5bec7071e267266U,
  0xd2be2904d47ff425U, 0x1f69082652123205U, 0x1cea217de5ddece2U, 0x43047617aad300dfU,
  0x2f22cafdd035f7d5U, 0x7f06d1a2def6cf18U, 0xe2ebc5db0109d431U, 0x694b9ac2cbad36edU,
  0x5aa0f2d3f3e88111U, 0x3a0845ec4fa42406U, 0x3bf9c2dd8ae51649U, 0xad35d8cd3eb2d1bcU,
  0x360037be2d863fddU, 0x3828fa87040fe03aU, 0x11d581c933fa08d7U, 0xe8a9e83a05e3113bU,
  0xe5c32209fe04fb32U, 0x1a0a4cfec22e3012U, 0x2cb80deeae0fc1U, 0xa03fc33d56f37d2U,
  0x243727ca796a00adU, 0x3523a50104bfe309U, 0xde3623fca534177fU, 0xc5ba3de0153ec437U,
  0x11d320e100ce2645U, 0x863ae0bfa4520cfU, 0xdcdd86d67ad11bd5U, 0xd12b24f1e811c2b2U,
  0xf327fee2d3dbb00dU, 0x81d12ee618bd4781U, 0x1ee7fdea03c5d5b0U, 0xceba21fb91dd1596U,
  0xebee33a53f271fe5U, 0x32d093df0d144547U, 0xd483d7f7932e351bU, 0x32a22e3ef902ef60U,
  0xaf264ef012e74c09U, 0x36ec9cdde237f13U, 0x6ce3b907142e3bd5U, 0xa9ce464c371dccc2U,
  0xf50fd177320eef77U, 0x289eee0d57f61d40U, 0x90e9040408dd3421U, 0xed091805aaf71269U,
  0xfa23ffcbffe15881U, 0x2160e2de1f20911U, 0xd81502e6da3d1a3bU, 0x1a3cd3840100d6f2U,
  0x36eebdfc68d4e3e9U, 0x3a051826ce5dd3e2U, 0xb2dfea8141b941d0U, 0xafb83231a61a14U,
  0x1440000014fU, 0x66f00000312U, 0x740000061bU, 0x1d60000004eU,
  0x9900000605U, 0x1786ab0cfffffda7U, 0x60d7bb15e451e537U, 0x305837e9f6e60a88U,
  0x34f4d4be81315bd5U, 0x380b141f22b9ca1cU, 0xb6713813fedb488dU, 0xecd6ff4086fc3f2dU,
  0x232bdf05eabc7ffcU, 0x3eb0026a1886c70fU, 0xce0f49a00ddde310U, 0xc8fb08d95614af60U,
  0xb1767fef2b2c55f9U, 0xb43863d912b7014eU, 0xfcd119e97af703d4U, 0xd750d634ea5bc562U,
  0xea008cd01da10328U, 0x811302bc24069ebbU, 0xe8e739ca029ae146U, 0xaa43ee42e614a24aU,
  0xd4fd0881544a3a20U, 0x99ff40e13bcf0dc7U, 0x3408f4eaf430dfe7U, 0x4f29360ed6ff6efdU,
  0xed34deff81bc3899U, 0x7190ad4a0e35c41fU, 0x4bc7befc384635f2U, 0xfffdd50fb501cb7fU,
  0x41be54016c5a0b0eU, 0x10503adbeda3d444U, 0x66de7df4e3c4aa54U, 0x48ea1e0a211433f3U,
  0xe6db3e3bf723047fU, 0x2dcb56ae3965f204U, 0x27c2e740bbd9fdcdU, 0x4416d07f1b1024f0U,
  0x774107522153abe9U, 0xe62ef0fec4012dbcU, 0x58401b3c03e730efU, 0x31cf19f7d4091818U,
  0xcc30a06fe6f0addbU, 0x568b70f4aedc5983U, 0xbf17c881bdbeU, 0xfffffee900000460U,
  0x1fb00000734U, 0x5bc0000012cU, 0x34200000307U, 0xfffffe0a0000050aU,
  0x8181bb395981413bU, 0x811f052d7ed907e7U, 0x7fb8817f7f7fd68bU, 0x215aae11ef7fU,
  0x0U, 0x0U, 0x0U, 0x0U,
  0x0U, 0x75c7dc0e8140e16dU, 0xfd5c290a685db845U, 0xc339efc0a83a7fd6U,
  0x70130a0f7fbaed58U, 0x81166ae2a7c9b60dU, 0x56202c53f1c97ffbU, 0x192baa8f7ff76e9cU,
  0x7feacc1da600f9efU, 0xebe1611ffdda11c2U, 0xcb0f3752811c84d0U, 0xfd0e49da4e9b7f66U,
  0x372d075881ab3de2U, 0x2dc5cb26d91b4eeaU, 0x7fc837c9cb64d081U, 0x2fd4507552266c86U,
  0xc6d6810e23b95717U, 0xc9b68ee10c0338edU, 0x36c8ab636081d105U, 0x474138e3db81be89U,
  0xa06f4cb69413781U, 0x5dd0815a942949fcU, 0xa6123c2c38d8bbd6U, 0x86fc600e946b7fb0U,
  0x133df834fed5917fU, 0xc17fc7b1947a2d67U, 0xa4ef210c208f382dU, 0x81ebaad206d57fdcU,
  0xc569cd42b139f4caU, 0x81cb9354e8ce81f0U, 0x95c8c6616b5a395fU, 0xcc66c5cada0fdc10U,
  0xda63abbf7f424081U, 0x52fba1b36f9U, 0x2e4000003f1U, 0x890000032dU,
  0x1310000027fU, 0x244000001a0U, 0x127000002aaU, 0x19cffffff87U,
  0x36100000023U, 0x82ffffff8fU, 0x2a3000004a5U, 0x119000004a5U,
  0x16c0000036aU, 0xfffffeaffffffe8bU, 0xaf0457a30000018eU, 0xcdf59c837f85ae37U,
  0x8181ff7f076d73f8U, 0x7f817f307f818115U, 0x8181f5647b7f817fU, 0x7f20937f7f3ba4bcU,
  0xe191fbb8bc2dbb2eU, 0x2c7f81bd1716fc8bU, 0x7fb75c817f81e337U, 0x7bcda3811cb0d563U,
  0xbb81U, 0x0U, 0x0U, 0x0U,
  0x0U, 0x0U, 0x0U, 0x0U,
  0x0U, 0x0U, 0x0U, 0x0U,
  0x0U, 0x9a7f3cbc00000000U, 0x8606bc14475589e2U, 0x7ec2620d7e8bde2U,
  0x21017606212197c8U, 0xdc48f26d16b4cde1U, 0x32f04a28eb0b7ffdU, 0x243cd23b4cc90c31U,
  0xd16503c2edcba30eU, 0x5e299c297fd3c640U, 0xd3fa4eb00303e3eaU, 0x7f1ac0e526f7d675U,
  0xfe2a133a61abe3b8U, 0xd65184be5d9df0dU, 0xc539a3e7320905eaU, 0x5c06147f122227bcU,
  0xf359d9a85fe383f0U, 0xf01e3c3668403b95U, 0x45c8109e7f1c1ed3U, 0xf7a89c221940ec3dU,
  0xb3309f1432ec62bU, 0xf809270af00d5640U, 0x48f37fbfdbfc65c0U, 0xf53d91aa2724bf39U,
  0x7f4d062a2f0c6f99U, 0x2531b9fc01e6fabdU, 0x1bf9e54705239de0U, 0x2bd4c67f2148fdebU,
  0x7ad4a634331811c9U, 0x7cbe12e63f13eeeU, 0x30bfdff547f6cd36U, 0xed2216e9e44c0348U,
  0x5648362d9527f77fU, 0x6772d6be0306a1d5U, 0xaec43a263bd6f42aU, 0x815044d5e118dfa5U,
  0xff3b6c23d5523eabU, 0xcedc5bf0ebe10df8U, 0x5af07f97d0602565U, 0x28b4b55eae85e39U,
  0xf6f8dadbfde338bbU, 0xfe132eb8ea814f23U, 0xca3af1b0c43d220cU, 0x36c1be3414de2668U,
  0x17df2ea9627f021fU, 0xa12a4c43b2fa2deU, 0x50ffd2fbbf44e70eU, 0xfe2ca433b1532db6U,
  0x45dfece8ac811d36U, 0x2995c5ecfab7d012U, 0xd5e61fcfc22a48c5U, 0xaebc5ae4d77fc756U,
  0x31d6c9140dd0420bU, 0xfbf018f10654e625U, 0x3ceed00ff70c40f9U, 0x2f02f0e85930c7f3U,
  0xeef58112f41103ddU, 0x2fb6c0907f0930e9U, 0xfacde8233a3cb43bU, 0xd905eaf41637df27U,
  0xf53ae23c51745acU, 0xfbb5da2bfb33ad0dU, 0xfaf512eaa0a65902U, 0xfc3cb24ff9bc7f02U,
  0xf62c3f9bf40f7f76U, 0xae93dba2fe13200dU, 0xb1d7c58c64ff3acdU, 0x4818aeab7fc8bce1U,
  0x7e22bc3f64911eefU, 0x477fcd0ad13d83d4U, 0xb92cfb77d4991feU, 0xc5e9d19c0a1784f9U,
  0xed11534de10e4b25U, 0x1000000934U, 0xfffffff3fffffed8U, 0xffffffcc000003f7U,
  0xffffff3a00000519U, 0x87000000261U, 0x32b000002ceU, 0x59700000186U,
  0x21e000004d4U, 0x96000001e7U, 0x700000008cfU, 0xffffff3d0000052eU,
  0xf52ddf31e0483734U, 0x7f27f7f62c22e203U, 0x5c3513103115cd00U, 0xb6f2c3505136a57fU,
  0x8611f21fe68f8e4U, 0xe23e49d9d45440c6U, 0x152bb2502de5e164U, 0x1df231457f2d0508U,
  0x6d61092b0f2c619U, 0x4104c9ca5ecb51f7U, 0xca815a04eafe86e8U, 0x64f95d1f5e3d2ef0U,
  0x33d1597f2844971cU, 0xc8743ef4caf47cfaU, 0xd6ed6910bfb8f54dU, 0x5d0a3cfcab8bd65aU,
  0x32bea181ceb4d5U, 0xd979ad4ea13eceaU, 0x81978be941a3f31bU, 0xef1949722dface34U,
  0x499808c6c1e6ef43U, 0x205738f200e67f3fU, 0x260f95b5f8c4af3dU, 0x9f899fed60d6b3baU,
  0xc8179113c8811d01U, 0x34e53de4cceb06bbU, 0x207fb0bd29ca12ddU, 0xa8f5fa701549f4f7U,
  0x3a1c701313e5f1feU, 0x727feddfe77524f3U, 0xe89eb3ddf202f716U, 0x66a0bea62d1e4781U,
  0xbe1905349a08bfc1U, 0x77000002f5U, 0xffffffc0ffffff7cU, 0xfffffbff00000052U,
  0xfffffec3fffffe11U, 0x388fffffd1dU, 0x3bf0000093fU, 0x9d54cd85e7f852e3U,
  0xbbc42521fb6cbc70U, 0xe83031753becc6b7U, 0x62a012036291b00fU, 0x8326adc4734adf56U,
  0x32a154ccc14cb5e1U, 0x36ba0e1afb01906dU, 0x9314541f22723081U, 0x3e17c0268128b50bU,
  0x4bbd3135835f07c8U, 0xc56029a0df3d9315U, 0xeee4c3d2b92ff3cU, 0x5dcf4a8cfb96c01cU,
  0xf860fd1a84a10437U, 0x2bedecfda2e4adbcU, 0xe2298b67e35e37f6U, 0x6c5d4ff3990d0cf4U,
  0x5e75832d64c1537U, 0x672f20815859abd8U, 0xc9e3bbd3b3e98d5cU, 0x1deee48b6acdc862U,
  0xee242cf34706930cU, 0x4c3ddeed311b3e9U, 0xa0e57921698a527cU, 0xda9b8b0fc617f3feU,
  0x877f8903cf172450U, 0x95ee3e84773c62e6U, 0x50d467df87ac88f0U, 0x82f2e3baeab1bf47U,
  0x59716d326183921aU, 0x92e64431589313b2U, 0xeccfe2dcf8eba90cU, 0xb0c36ab0031716dbU,
  0x818726d47028afd2U, 0x11a8559dde0a4ffU, 0x76f89591ca8825c4U, 0xad24ae45da67de90U,
  0xc19ccaaaf2519be8U, 0x832bb3a21a6308d3U, 0x3829db72cf7fa0bfU, 0x4f107cf6bda4352U,
  0x700dce545159dc49U, 0xab810aa7b126826cU, 0xa04af7cd33264372U, 0xe6ba0555d6d59fb9U,
  0x4ddb00403107194eU, 0x5750ef3b4bb68e60U, 0x81aaad95dc0143ddU, 0x1633a1fc10e106c0U,
  0x1fdd52fed295bc00U, 0xad3e110fc1d44635U, 0xfc02dd1bdf19c031U, 0xed14f304ac1a9cfeU,
  0x46b1e7f73fa6a29fU, 0x46b7aa08e5fa81beU, 0xe18ab1bb3bf225adU, 0x5a9145abbed52adfU,
  0xfa251614a7f3df04U, 0xa75cbb11f82a1381U, 0x45d5bf2ddb2120fcU, 0x2724f0038253c444U,
  0xbc38cbc4c4f2c9b7U, 0xc3b598fc4e1dc781U, 0x8af23013e95e97fU, 0x39280221fa5c1524U,
  0x2508bffc41c3a521U, 0xfd29edf732a228c4U, 0x39c33dd13f27b4d8U, 0xbbf738ee5af199a0U,
  0x6cb4dd55b3cbee6U, 0xe8902bfa9c26a15aU, 0x1ad5445c03d13426U, 0xf99e139f4c0da5eeU,
  0xf7fcac98d838c94aU, 0x94221178143d339U, 0xe3bf9a5e8e81a864U, 0x8ad881eed9b837e7U,
  0x1acbb43491103ac5U, 0xed6a21de2333efedU, 0x55d79345407136ffU, 0xd351a02cdbcdda2eU,
  0x8fe09d8a0a68e10eU, 0x7f5f7953b20c4363U, 0x7003402062bbab71U, 0x6fc03b55270c69f7U,
  0x5c6374dad6aa2777U, 0xb01704fd8caff039U, 0x7a59ab115a09a89bU, 0xe671f506aa5483a7U,
  0x57ddb5a08fd60d3dU, 0xa47fd36fca076650U, 0x463b79a55de98ceU, 0xbd9ef9f469efce98U,
  0x7294745408b8b1eeU, 0x6cb0eed5e37d2b05U, 0x887d18bae9e39c9fU, 0xf9b5d3aecaac017dU,
  0x27371288f0c93a75U, 0x56db13b2aa9ab226U, 0xd815d05723c256e2U, 0xdcdbb0a242922f9aU,
  0xc124b942db0faeddU, 0xc6fdf3e14103cf26U, 0xdf813728dc87f32eU, 0x2205222729299537U,
  0xeb8122f97cd8f31aU, 0x4dfb99d7068bffb5U, 0x6fe0ff557fb3343fU, 0x698f7625853aa7d0U,
  0x56fcd34a343b2e6eU, 0x12bf54f9a5be8614U, 0x5caebfc3f8a1ac4fU, 0xbcad5320c02e49aaU,
  0x8bdda959590f4659U, 0x319e09f7e6f40f89U, 0xe5d8e95a43e48a62U, 0x1213bbf164c01333U,
  0x44a646923e81e7fcU, 0x62c178fdd2ecda9U, 0x5f35a1534f3ed8aU, 0x78dbf061ac0afe36U,
  0x3e0eae549142cb4aU, 0x9f4072839c5c83bbU, 0xefd1b569f8884c3dU, 0xa52311d682749783U,
  0x58f3c4ab6607e7d8U, 0x9a4ec4d412bb2f44U, 0x2a5533bb7ae181fcU, 0x2c3b3ba5015e4fb4U,
  0x1381df16de3a529cU, 0x8b3e485c8ecc9c23U, 0x82beaf25c22a5829U, 0xc01305123c02fe46U,
  0xab09d685cb1fe790U, 0xf0f52e6ed1255d8U, 0xd4600ac3556999a1U, 0x14b4c14940e829b8U,
  0xbb28faa91f3e29e2U, 0x6f3ae44c779c2340U, 0xf64fcd53af61d9c6U, 0x312abd6db07fab3eU,
  0x23c3a0d1cff6c59dU, 0x1305e122a7691accU, 0x7d80e2004c8dacaU, 0xcd152f5110c9d5e6U,
  0xbdb43cb4cd0181adU, 0xa8babaa9ff04c4bdU, 0x222312fa112935ecU, 0x99b1c0e10326fef6U,
  0x960615e62b08ed32U, 0x48e58d7c84416527U, 0x58f2fa91df3bd5aeU, 0x21868d51701b09b0U,
  0xf5c6d33d19db76ebU, 0xad7fdbbf7d491bbfU, 0xa5930d44f7afa319U, 0x33a55ba751f5b178U,
  0xdf61dfa931c723beU, 0x89aeb1cd790db890U, 0xe05be74c658f1059U, 0xd06d3669cafdca17U,
  0xce2c3cf1b8636058U, 0xd2b89afe81ddd808U, 0x5721ae057efad3f1U, 0xbe5d29dd559f1ebbU,
  0x814055b933e77998U, 0x42dc11c955715e95U, 0x54dc441989232dbcU, 0xb859e167f9a9f4b1U,
  0x15946bb057c37367U, 0xd1d76fd78c4c592aU, 0xb6f0f1f4863b8f65U, 0xc0eac7810a0def46U,
  0x139dba2317c2dc41U, 0x540fecb525c7ed19U, 0x53e040ba48a8d5edU, 0xb5440a2a33eee326U,
  0x361610f147e34835U, 0xe3dc8f2700d5c631U, 0xde09ea4ab9d839b6U, 0xabeb5729d22706d4U,
  0x5fc740582282836aU, 0x7bb4f30c68980dfcU, 0xd0455df81aa23681U, 0xf719a0fd2b6398a1U,
  0x3fd626fff376e1e1U, 0x8389e50187f48994U, 0x204cddba728d317eU, 0xfa561e33945be750U,
  0x40316bf929b6e35dU, 0x45b3e7d1bdbb54d2U, 0x97d7db9ac12feaaaU, 0x8105b55465de8a1eU,
  0xad4d9118f3a4318bU, 0x3bab5e384e88a962U, 0xbd66e7d9f75ec610U, 0x34f1bbd1cf3416a8U,
  0xae811dd4d55ab40eU, 0x5521f671c5adf24U, 0xe0b8e0ee19dafb61U, 0xe4c2aad18a42cdaU,
  0xee45f4a1dffdbadeU, 0x2b5a00bc49310b3dU, 0x92f934a06da024a9U, 0x710bcd4832fd1afbU,
  0x4236912f0e64af1cU, 0x443ab71a4cbfc4f8U, 0xc4a9db023a8c813fU, 0x1c2c99f46bb86f08U,
  0xb8c155859846da95U, 0xd933f4e57901ded5U, 0xa0998d454683beaaU, 0x7e6d6ca25556fafcU,
  0x525790d3497d0f43U, 0xd4e4f42e83b07f2bU, 0xaec10f964618a7c7U, 0x9aeee9b3f4c7f178U,
  0x2379c2dd2d472733U, 0xc370f7f189f57213U, 0xe34eb9f24d81ab26U, 0x2be2ace46d77105cU,
  0x15f631b55247acafU, 0xcf3e87c30440a68bU, 0x910aaf0f92f398adU, 0xc8a38c2fd35e869cU,
  0xfe06cdd933bdbc06U, 0x2ba1c81830f7901dU, 0x549f5b1a6025d06U, 0xabade10b89d0e0b4U,
  0x83f0ffdb3c6b4a7U, 0xecad0f8eb4b981e8U, 0xf52f05baef92f726U, 0x55a2e52d08d42a6U,
  0xc69030c01312f8e4U, 0xeaee06d623d10551U, 0x9f13400c54178145U, 0x259e0e2d32235d51U,
  0x2e2fb25757baefc4U, 0x2ca9ab2a99fbd261U, 0x280edadec90cbf5bU, 0xc38dcd33fb0436aaU,
  0x1cfa2b50d6ccb3a2U, 0x46a7718d1d978f8fU, 0x57e5a507987f32eeU, 0xa4a83c0d0a513127U,
  0x5ea20b02c67898c7U, 0x843e2c061fa2127fU, 0xeeb6945504cd49e0U, 0x996cee39ee8634U,
  0x673a97ff7220c381U, 0x71c99311a4c4e44dU, 0xc965b617e8d7e4d4U, 0x10a46d90920e716cU,
  0x2da27745302841dbU, 0x188c67a095c5c5b4U, 0xd68ffbf407e88ce1U, 0xc42795bd3c2cef45U,
  0x59eb90f2f359474fU, 0x61149dcdccfa8bc6U, 0x23b6ff271513814eU, 0x1ef6d5cb204d830cU,
  0x1527a6e114201489U, 0xfd8747e331174eeeU, 0xfd8e8999114936c8U, 0xec41a7506903352aU,
  0xa156814fa4baaba9U, 0x8806549f77a8fb20U, 0xbd96aeea783b24ffU, 0x1d159372d71782a3U,
  0x431f9a53754e9f89U, 0x5803f6d22c27e5ccU, 0xc7f73528548cc638U, 0xfb332c5f670bae18U,
  0x6c41a204b7eb2d5bU, 0x1e023201f54790f5U, 0x2d32bd862d281c81U, 0xb93c29a389b0efe7U,
  0x82577ff62cb546f3U, 0xfc60c68fb38e2f7aU, 0x8c0461a4671ab03U, 0xb101f7bda8e0d4e6U,
  0xfeb01daacae16789U, 0x59f6cb84b6810596U, 0x4db309f4022bc0a2U, 0x782f87ca14a1134eU,
  0xebaac3aaf4325024U, 0xf926bbc7878107bcU, 0x49bd5bcbdbdc043U, 0xf3e0a3ed5429d41eU,
  0xe5e4bcd3d150f93fU, 0x9eb026c71f1efff7U, 0x42cb2b254543dc3aU, 0xe0b4596fd35cc2aU,
  0x72ab5616b01fa57fU, 0x1edb55f0777411a0U, 0xd109119af69c4c17U, 0x729e4f30a37d06e4U,
  0x90aac12a66eaaf44U, 0x404730b0f730f903U, 0x69abd514409c1607U, 0x34f21799180bba8fU,
  0xf19c3d46ffac3dccU, 0x20c1dcaa3a330352U, 0xb0dd8ed6e6d9f818U, 0x41cc361fde0259c5U,
  0xbd84854dfb523dbU, 0xd0eaedd213bc2be3U, 0x2d27d509fa81ed36U, 0x6364ac15aefb5785U,
  0x9b2cc18aed9b66caU, 0xf05f8a2dd3d07015U, 0xf97b4f6a9e0fd6ffU, 0xb0f319b537e3817bU,
  0xb9c5ea5fb69be56U, 0x8f324becb8cafff5U, 0x8ad0fa8fc1f9abbfU, 0x3e1ab439469c26daU,
  0x8ae68679e281a69aU, 0xa8718a5c7b9c180eU, 0x59489abe02604a0U, 0xc87b6acf2d85fbaU,
  0x4aec90ce0459295fU, 0x268e9349a79dc29eU, 0xbdc9320a6cb6ee9dU, 0x6c620a0df1f18a40U,
  0xef5d00136491dac9U, 0x338370c5e51e5baeU, 0x834f63e9c07f60b8U, 0x34a66cdc988af5fbU,
  0xba6fa9e83239d8e1U, 0x900faa8b77d5529cU, 0x9b9cfdea9ebd2229U, 0x292abd54f467da4bU,
  0x9ea56a75e42df6f6U, 0x45aa4185378d7f05U, 0xf478a03633860378U, 0xddfc5a85e7929f65U,
  0x5e89e352b7b3d5a9U, 0xf25bf0db4353655eU, 0xbcc1931f5718999dU, 0x59d0da304781fb4eU,
  0xca96ecbffaec4906U, 0x3bff2054949a10cU, 0x3155b73ee80da9f7U, 0x29b01bdd515dcbdU,
  0xfdc6d14782839204U, 0x3889997c3f244cf1U, 0xacf887c1d4bcb6b1U, 0xd31f964cd15ce3dbU,
  0xfa5e9468bab1aaaU, 0xb18fdf355050007fU, 0xf18a4bb8ff853b48U, 0xcba2c4cdbfc43cf0U,
  0xf34aed2c1a42814U, 0x2cb3301619644594U, 0xe1a4d351b5568df3U, 0x508ab952b55228f8U,
  0x36495c88811eae48U, 0xe4ba835e975601c6U, 0xa0cab1235e3d17b3U, 0xc2f49a0c3d52c24fU,
  0x95f648fffbadbedeU, 0xb3425ff3c1e6c18U, 0x17d3838ea7164bd7U, 0x81d9df4a6a5105beU,
  0x3c813ab08863450dU, 0xd0873fc313fdc602U, 0xd7c3fd8117b5440fU, 0xec8ddbcb8e09c82aU,
  0x3f5b1045543b05ccU, 0xa420c831a7aa5332U, 0x2a2543844b69122U, 0xf7272690f0c14342U,
  0xb5e848fd3b0a9915U, 0x3b8453271ba437a9U, 0xcb62c28fbdfac0d1U, 0xceefcdff15b5b5e2U,
  0xc0269f90d6b229bfU, 0xad39f00014c82fd0U, 0xd33733e118168b25U, 0xc9fc8114b490258bU,
  0x58fd133d5938da12U, 0x1096b63121c050adU, 0xd094401d8a0ad5a7U, 0x34d3e388ed176328U,
  0xf4d6e29a46e2491dU, 0xdd5cbeb1491296eaU, 0x2cf83e99207f41adU, 0x63179da08f98a0eaU,
  0x1e62fa83255335faU, 0xb1cc4bfd0429d42aU, 0x960255e6c5685e81U, 0x208abd6d76fce438U,
  0x4843a04a96c11905U, 0x1646d9446fa25fcbU, 0xbed90aa7088ea33aU, 0xccb2721cb495e119U,
  0xd94d824624a37864U, 0x2dffbde7b365ace1U, 0x2936dbc3dac874e4U, 0xfea81cac1f00be25U,
  0x3acad5cba8197673U, 0xa4c3fe87595e6b43U, 0xf07e38263f58881U, 0xd284a47c03b08376U,
  0xb26e149d389035efU, 0x7968b6b2de7f29a2U, 0x4ed0d15a76e30ce5U, 0x6c8f377a0534d047U,
  0xd5ab9288e004cbfU, 0xffef38f7d6f73a43U, 0x972a8b441ae0d7cbU, 0x256b8bc382ed57d5U,
  0x1d4a40aa300be058U, 0x118b7dbd517fc997U, 0xc9c54cfe61f832e1U, 0xb75c8ad9909a05ebU,
  0xd3cf94a481c969a9U, 0x9bac8f8966db6efdU, 0x6761b5b2383fb6d4U, 0x3bcea0be401b396cU,
  0x9a6937c148a59bfbU, 0xb4ed530ba60dedd4U, 0xdf241cde21edc4f8U, 0xd1681ab66d3d706U,
  0xf0348c45c6f23034U, 0x8b53f2083a108862U, 0xa8c529d429b8208dU, 0xbd45e9b52e1fdfeeU,
  0x1444b9acffac4fd3U, 0x883cc7fad5b8132bU, 0xf9a9d7904cc3831fU, 0xe510308faff255f9U,
  0x2081a7f046530a61U, 0x5a9796ac4d623ba1U, 0xeb972351aa1a6abdU, 0x43a381334314edb9U,
  0xa418cdfd0a19f7b4U, 0x6a8c048274d552e1U, 0x2c1288057b20a92aU, 0x3c69f2df0e8e2cbU,
  0x504ee25eb8bc52d7U, 0x470fc4e9829b8baeU, 0x24069204fa1ce515U, 0xac4dc9a1af885dd5U,
  0x63458fe5be848ac5U, 0xcaf3291b5ceab1a7U, 0xa4d6b7a981d4ed4aU, 0x51392c8c09162e0dU,
  0x342357cea92756eaU, 0xa0f7ea0ac3a8b22fU, 0x470645dd053f3e50U, 0xcf9118ef12c73e9eU,
  0x44fe1d14f7a466b7U, 0x59a03bf283eef3c0U, 0xcf07f53a812d262eU, 0x18f52e55921abfceU,
  0xbdc7a70cdd50378fU, 0xe64d58d42cfdc73cU, 0x23753350f73a0d34U, 0x101869a4eae9a5eeU,
  0xec96c0094bebd81eU, 0xce42c431d35ae121U, 0x1181d3ad5d304588U, 0x9911bf3a0f23a15eU,
  0xbc450d84aceaa12U, 0x7e8cd94acff7854aU, 0x8188a7eef524686cU, 0xcbfaac487bbd9637U,
  0xaaebe79d2bb073d6U, 0xd59faa3e46a42eceU, 0x49b5698a30ac3a2aU, 0x3edb1034a69e42b8U,
  0x3ef6c21c07d9bdb2U, 0xf238dce821bf81ecU, 0x13fcc1cc42c4cdaeU, 0x2cdcdcbba61dfb09U,
  0xcff3e6f5d10a3a2bU, 0x33a2204103d73840U, 0x36c8ceeeb301df29U, 0xd8140b3452440a19U,
  0xc500afb060883b05U, 0xc6f54c271a05e654U, 0x5c74e1e937c32ce0U, 0xa0e82304edeeb395U,
  0x8445393e11c96b96U, 0x55edd1925aa98134U, 0x44315f50e7dfc155U, 0x5f2c99e6ffb90eb7U,
  0x108c1fda9bd86e49U, 0x7dc265fed2f48cd6U, 0x261aaeae5f85961cU, 0x5a866acb82bc9181U,
  0x9df6a3156888e0f7U, 0xd30fea618cce4b6fU, 0xf4ada2a0c807cf0bU, 0x167c2ec7be81f4a0U,
  0x239e35e49e560e07U, 0x202eb1a9eca0dc27U, 0xf4cafbe82534e05aU, 0x2dd24cc1be3edfadU,
  0x421f42c265c12fdaU, 0xce06e99ea154a42aU, 0xe7e091b1b7fdd2c8U, 0x2659b40ddb5837efU,
  0x151849ebf4e39bf3U, 0xb8b230dcf5c8fe3fU, 0x8746f91e35d000a4U, 0xd0e227c5e8b7ff20U,
  0xd83f271c00813e4fU, 0xfcf7042dc53b0444U, 0xf6f21ddd9c5085a1U, 0x815634053d86f198U,
  0xbb72e8b550e2b2dU, 0xde02e08fb0c1fc87U, 0x8c5145930a38d7caU, 0xe3519bf92ed4a3e0U,
  0x3f4f0a224bb1535bU, 0x98ad3f42fec7a49bU, 0x5f1bf212fa9756d5U, 0x17a6ddfa59e0952bU,
  0x30f18c57def10bd9U, 0x30499f81162dedcfU, 0x9e18b11ea4a8e02fU, 0xe73bd4ea4248f246U,
  0xf9d2d138bffffdaeU, 0xda16c5f5f4e9ffd4U, 0x39d027d9ff12077fU, 0x2c0328500afdeff0U,
  0x160f1f091dd11f35U, 0x14c7312c10fd1f11U, 0xc7c7d3fe13fcf910U, 0x8eb57b68f5cb2e00U,
  0x56bfbf974d7f51adU, 0xe843b9b39f0c0e0U, 0x5e16640d456b2e68U, 0x65e353a10ce725d2U,
  0x7ab669405ce9a52dU, 0xceccc496aefc8468U, 0x709ee0cea299a090U, 0xfae4e6b4f9ee47c4U,
  0x36f70db5b8a92932U, 0xa0a3f0c60430b5abU, 0x3b64ad0d3d1eeb48U, 0x62dc064517685ce8U,
  0x81ce19c2e7ee285aU, 0x9a50a3fe0127152cU, 0x1d40967181c893e8U, 0x140c95737045b49dU,
  0xcff9af07092619b4U, 0xb0b1c77fcafd3d85U, 0x4e6b371ff2c6fbf1U, 0xce46f0e3dd5af41cU,
  0x3753a0fa0fa05a1dU, 0xd82f2e9f884d54aU, 0xb17f37afbef9a0faU, 0x9113cd1a0cee909aU,
  0x8e7c57dd89c14dbbU, 0x9d458def634520d6U, 0x84258bfe1184087fU, 0x3568d6d582b99798U,
  0x659154f4b2f4c98bU, 0xf54d5adc5d452e95U, 0x913eb5b05c51c2eeU, 0x3081cff6c8eeb608U,
  0x56030e9c5d0b108cU, 0xff4be64b660bd5f2U, 0xcfe236130f5494beU, 0xd42dbaf41f3e16d0U,
  0xc6d1b803a75d210dU, 0x60cbef25ba85d36bU, 0xa746a2adbfbfbf81U, 0x50a2005d0696137eU,
  0xe49178f6deecd37bU, 0xaa375c76d0d465a8U, 0x2fd95bcf0201e283U, 0x164511941cab0859U,
  0x6955c9c887b4f9a7U, 0x3a7f47e352533e70U, 0xfe6d88c9ab942e4aU, 0x52281cabe75ad9b6U,
  0x4aa3b67ab27b0fccU, 0xd47decd49c389810U, 0x9dd5623cf73a9d77U, 0xbdb0b4b80b89f0adU,
  0x94aad2d488772effU, 0xe803b0821864e430U, 0x22a965dcf3fbc756U, 0x62158558df5ac1deU,
  0x32268dad692e8668U, 0x1cbeb49abe9694f1U, 0x3c195f81690d347aU, 0x56c6d3fd1558e3c5U,
  0x6016ddd20881a775U, 0x8d462a11db27c6aaU, 0x47fed034f636c8a7U, 0x912e1b87c7b4adeU,
  0xd83df008b17b0088U, 0xc4b1bc5b56b5b4dcU, 0xc59b2e9e2d27bbb6U, 0xc5f870f9a6f45e01U,
  0x19e016a855911940U, 0x24e342515f2aa287U, 0x2f813c9a198d521cU, 0xc10bab971a44ab7fU,
  0x63862e67d9d81ec8U, 0xd164ad8a44f09d34U, 0x43b483fd54bb6579U, 0x4a6a1147848552cdU,
  0xf5a5bda49e169ac7U, 0xdfba17a2e31cbd5aU, 0x7a88dc316c76da6cU, 0xa7165c6732a9b403U,
  0x24192fc96ae794b0U, 0x1181eadc8e880e93U, 0x8f1cf6a8bcdb1766U, 0x41e309a211d0076cU,
  0x3622fedaf2f93fbfU, 0x8e697f7ac7e0991aU, 0x1eef3ffbeafc8e06U, 0xd6299c6945c49309U,
  0x34c1b35789999ee3U, 0x147fcdefd25b082U, 0x2fd103ed3ad74defU, 0xc9e1a30bd6a10f33U,
  0xfcb3b6e381c89521U, 0x5130f7c1bd3c2421U, 0x3a45e2fff29b824cU, 0xbc0718110ee24804U,
  0xb583c2172e235229U, 0x1deae69c2ded210bU, 0x3148c381f7a3b7afU, 0xdef9c58aa410e3bU,
  0xabf7b70cdd4ee115U, 0x343804c251bc2ec1U, 0x3cbf2ab72a1bd847U, 0xce33292e30f5dba8U,
  0x9bb4d0518fad20f0U, 0xbdf8935deec6fe83U, 0xaac491d9caa6c202U, 0xae773bc90f02d770U,
  0x30a3815e198be986U, 0xe923019d49e47789U, 0xa0f926f98517b9fcU, 0x1496b37fcd1b19fdU,
  0x139870b3cb9e2397U, 0x7a007d4c2ba28ec4U, 0x6d282dcc4bb414edU, 0x4a373c6b30060a16U,
  0x743beda7f1f3334dU, 0x4795b6853355b5b9U, 0xffaca681c0c7b8b1U, 0xafde25bd1eecf452U,
  0x1246c56f24425d9U, 0x596c849c3d146c75U, 0x90af0475b237108aU, 0x986cde1c94bb1670U,
  0xa8228a845dcb2184U, 0x33937197810ec055U, 0xc1cedafdb2d587f9U, 0x7c427fb063e32fe0U,
  0x2ca9441bc6829bbfU, 0x5509c8c54813eff2U, 0x3233c3c3352356e7U, 0x43e88e355ef9b3e2U,
  0xfb4ed899944657d8U, 0x18300948bb1a31c0U, 0x9181f0a7b21b04c9U, 0xa4a860ded55f3fe2U,
  0x38033c1afbb73a37U, 0x942616ac8fa21ec0U, 0xc5899359972eea3dU, 0x350246f4000518fcU,
  0xab2752b5edddb0e3U, 0xc3d1494edc07fdffU, 0x41d90c610e4b1f4bU, 0x1e5a43d5ba6abebU,
  0xf81fcc20fab31ccU, 0xdd04d0b525cc3441U, 0xfb1800d347922f9eU, 0x43a7c04416f14843U,
  0x99ddd2e92e3d8d37U, 0x626406ccfcfac536U, 0xa7f31f57f152993cU, 0xd8f9c9a15fa5fdc5U,
  0x75d4dbba4c21357aU, 0x7692d80d7f6f87bbU, 0xce4981fdc20863e4U, 0x571581bea8b7382bU,
  0xcebcdda99cd48a24U, 0xb36124e9a6ce9fdcU, 0xf9f5323f652e01f9U, 0x4c812b523907d658U,
  0xfd7ace80ab463e8U, 0xc84b5e945ea0265dU, 0x431e40f9b0b943ceU, 0xd0aaa0e21cb3a646U,
  0x5ab624f51e060e43U, 0xdaa1a6e0bc600436U, 0xb5cbb3d6cd7fe485U, 0x3da155f3a0fd64a3U,
  0xa81cd14c1a6dc93eU, 0x46def12ebe06d626U, 0xac07fda5dde24357U, 0x5d4ed1a2a40d60a9U,
  0x93e3d612f6f5d9d0U, 0x4a4cb51c1a3e8c9bU, 0x19e0eb27d9e9994aU, 0x8e9edb029c2ef8f8U,
  0xeec0d510ea0ba4dbU, 0x5016deb7ed03c3c6U, 0x81e1270cb8ed2fadU, 0xb7ba302aa3b7259bU,
  0x1c1ecc9bae67e6ebU, 0xcf81deb73f54e523U, 0xdbfae62c030cf53bU, 0x9aaaadf8278bea60U,
  0xba48ed4b274b03d6U, 0xdbae9590e40d2946U, 0x9b2fa4382ee20cfcU, 0xffffff7700000000U,
  0xffffff81U, 0x0U, 0xffffff59ffffffb7U, 0xffffff36ffffff5fU,
  0xffffffa9U, 0xfffffefa00000000U, 0xffffff7100000000U, 0xffffff2e00000000U,
  0xfffffefd00000000U, 0x0U, 0xffffff24ffffffe0U, 0xffffffa700000000U,
  0xffffff5bU, 0x0U, 0xffffffd8ffffff35U, 0x0U,
  0xfffffef1U, 0xffffff62U, 0xffffffefffffff8bU, 0xffffff59U,
  0x0U, 0xffffff5e00000000U, 0xffffff6300000000U, 0xffffff7100000000U,
  0xffffff85U, 0x0U, 0x0U, 0xffffffa4ffffffacU,
  0xffffff3900000000U, 0xffffffadffffff69U, 0xffffff9f00000000U, 0xffffff9aU,
  0xffffff43ffffffb2U, 0xffffff3fffffff75U, 0xffffffd1U, 0xffffff8fU,
  0xffffff5a00000000U, 0x0U, 0x0U, 0x0U,
  0xffffff6100000000U, 0xffffff5bU, 0x0U, 0xffffff51ffffffb5U,
  0xffffff27U, 0xffffff93ffffffaeU, 0xffffff90ffffff31U, 0xf16dcb84496d3235U,
  0x2bd1e65fedddd70bU, 0xc877775c5e387032U, 0x1d514e085ff1505fU, 0xf2fda0a1730c85b7U,
  0x4fabd529d342aff5U, 0x4881228b4a6b4d9fU, 0x7d11a6eb637b76b6U, 0xd8a25cd7d1af7ea6U,
  0xb284cd8d106fc3d7U, 0x484426030ffd0459U, 0x70170e8caaffebebU, 0xdd0357086a28d144U,
  0x5de525605ef45343U, 0x59967fdaa6ef4debU, 0x49d1daf068ce65cbU, 0xba35a6e0c9d7ea0eU,
  0x486eb3125dbc83c9U, 0x67d1294b2ba64fd2U, 0x9ceb08020efa0b71U, 0x1e9f5ef54840d8dfU,
  0xa83cc89f1ac7b159U, 0xb9efec51152bb994U, 0x3c4febfaaaf84a3fU, 0x3f727b8334195U,
  0x673fdd2f4f416144U, 0xb05a3ccc67429a30U, 0xb1cc61c5359a21e0U, 0xfae548404768f0aeU,
  0xf1c1ad35edc49cbdU, 0xba33d1da0171b4acU, 0xc79c61bc52d7622eU, 0x4ef4147e96e3cd07U,
  0x4bf770bfef37bc2eU, 0x40b205045e8164f5U, 0x6d9ee8d00e78d0b5U, 0x2cf0dbc50e570858U,
  0xc33f2b31122c0e00U, 0x586ba0ace4b8793eU, 0x31956330bd8de29U, 0xc64230fac9a0b524U,
  0xe7456008b0dc6120U, 0x685094a1ae1fa3faU, 0x6112719a72d752d3U, 0xf7c3ad984f1d4deaU,
  0xc6bf2863656b5feaU, 0x66f8e7aba871bf0dU, 0x5d81dc69523c9c20U, 0xcad3b13ed91da009U,
  0xe66c652d0ce5537U, 0xe5e069ff4bf772ddU, 0xc2b6fa2e32fe6a47U, 0xd2e333f8b8f50ae9U,
  0x1ce46647a004ea29U, 0xfc6efd06c1ef5463U, 0xb8a8f3ff1053fbbeU, 0x37195041aa6efd17U,
  0xdba3a4cd1be3c2aU, 0xa89f3b6dd8db2905U, 0x7981ac0fdbc04cc6U, 0xd3a5a94a13125266U,
  0xeb6353776c11d772U, 0x3a6f29f05bb3164fU, 0xa64a3ffbdbb34923U, 0xbc4d7629850b1f76U,
  0x615640ea93366027U, 0x564c555696a178U, 0x2b80d5222bf93d2U, 0x1e6aa3c54f7d643U,
  0xf6c933280bc29e09U, 0xcf92de4500cc30d3U, 0x994581a0559d3409U, 0xa326d63be3b781c9U,
  0x28e851a74bbdaeb6U, 0xc59f0918135fac2cU, 0x542c20f4efc8196eU, 0xd96020a38d1fb8cU,
  0x858e1cfcc70b4a58U, 0x5d8b147745a617a7U, 0x9f792cecf7e34775U, 0xc3c4972f2e694adeU,
  0x476ebd6858576ad5U, 0x880868eb62895591U, 0xc3d0c5fe64c64081U, 0xc073748d5239a467U,
  0xf90724bdcc49dc4fU, 0xf560d215c2b01009U, 0xf108b05c39f0955fU, 0xf394b5d03c45021U,
  0x1687e573cd5e5960U, 0x393f697a2ad552bdU, 0x3d5be3c8a5d1399bU, 0x3d29b258797fb0d3U,
  0x6c0e1f185cca8a52U, 0x4829fd7659b93a03U, 0xbd1e6a2f54464afeU, 0x5051c448d2025a64U,
  0x579c8922991d8f56U, 0x5b18b4f6a7b3b52bU, 0xc4f906d2bb8cb6baU, 0xef561cf64fcbb9dbU,
  0x4dae6b3df7cb0631U, 0x4d21f62381676611U, 0x838adb5e2d394cefU, 0x8d46df0360b25607U,
  0x18258c4b3786086dU, 0xe1cc9d56309eecb3U, 0x6d2115ec2c5a1232U, 0xfa188a13f86266dcU,
  0x2a7204a940543c14U, 0x1d6bbde62185b68U, 0xf5d80b314de1ce10U, 0x151a163b39bcc284U,
  0xd4efd891126e8185U, 0x483e57c0ee4b8ed7U, 0x77391d1bfa6aaf14U, 0x3923efcff4ac969eU,
  0xdfe9f65cd03ce2c5U, 0xe273d99f14e40223U, 0x9a5022a3ae70c339U, 0xec2ecc9eccdd2ff7U,
  0xb835c03da6b5f7b5U, 0xe74d2da9a6ffc0bdU, 0x6f2be72f43f24c4U, 0x176242050813dcU,
  0xcc5a690ec46057e5U, 0xee58005afec3346aU, 0xa0632442632f0f3dU, 0x61f222f6beda68e5U,
  0x71b731b8bf407fU, 0xa6ba0d2f6d8fd517U, 0x708f15b4e457d7e3U, 0x9de54daf5d78490bU,
  0x2c4fec11f2396ffU, 0xfa9ced05c7e5e8deU, 0x5af8f08d7c62ec5U, 0xff09ade51efd9c3aU,
  0x4b4ffdab340f66dcU, 0xf3f36070463e2796U, 0x5a6339b700b9f75cU, 0x6c33fa3bf4f5d0aeU,
  0x2427d7fc7fc71a17U, 0x339e91e942c3724fU, 0x5035702ce8bd0e45U, 0x95ccbbdc4770b2e1U,
  0x60d6b8b1df5d4534U, 0x6101c65cb8e94fd9U, 0x142b546a2fcd56fdU, 0x77f79fe1c102ae0cU,
  0xfdb130689d5c9f75U, 0xdd63e471a244fe6cU, 0xfb02de6dbad5fee3U, 0x7f187ddabf07f4c1U,
  0xc55c41a91154bde5U, 0x23bbc47a7db8cd78U, 0x9a2208f57dfe1338U, 0x4d6101d8cfd86e4dU,
  0x6830e563b6cbd364U, 0xde6f6256ef3f00a4U, 0x5f7fd403e9e26f4bU, 0x1cf60020af02ec56U,
  0x4a69e3b3b90101b0U, 0x68de2c4598d8eaafU, 0xd7ebd0e9dec00db6U, 0x28290bb54d14c240U,
  0x47fd610600200d1aU, 0x12310210d7a8041fU, 0xe2e9b5a60109ee3cU, 0xfa87344abd592e67U,
  0x58394b3214a261eeU, 0x499ceb64f559182U, 0xc3efa7649950c32aU, 0x1176616d0b26cafdU,
  0xa37073fa8a8a3ea7U, 0x9dda2fc28482795U, 0x4e4fecea27560f41U, 0x52ac375690e9a7fbU,
  0xf17f2ebd683d953dU, 0xb99d048667a07d33U, 0xe6959ce16c2cd1b5U, 0xfb7425a9297f275U,
  0x193694e70cac2312U, 0xd5988d152e3e15b2U, 0xe4624366ea39178cU, 0x812562eda3b05797U,
  0xa429440bd3a9bf53U, 0x19621fcdfcd4a3e1U, 0x994d90baa6c1c70aU, 0x4a1839bdb95f7732U,
  0x920c60d603b5d51dU, 0xde916206e8bc9ac0U, 0x23cd068840dc9c59U, 0x74d680531fa015aU,
  0x769f3e732cf36d6fU, 0xc195a70935ffbc33U, 0x405bb9e1ee9d7300U, 0x99270f38db3698a1U,
  0xa640a07fca2dd062U, 0xc08d541ebe4021f5U, 0x9ddba6c5fbfc27feU, 0x44934545dd3bdbdU,
  0x216a08e90d5d89f5U, 0x66097bb4bc38063cU, 0x7ba40bdac65617b9U, 0xfd53c8b4d2df39e7U,
  0xceacc42015a62844U, 0x2e1f9c4031731108U, 0x4619b5e3e6d33df9U, 0x2be2cbc8b9135dabU,
  0x2547f4ec6bce8d5aU, 0x1870054d9350a3bbU, 0xd5381d258dec3d94U, 0xd6e5fdd3b6d55e3aU,
  0xd993486bf2f430b3U, 0x51cd6bf7ffe1e259U, 0x1d8113615053705cU, 0xe01cfcb6aa383df0U,
  0x1aaef0a3aa32d3a8U, 0xc25902baa115bd84U, 0x64e5a0d3033f56c2U, 0x4f7327ee57cb4484U,
  0xe5a638c047b8f357U, 0xd84de9c4a24c34c9U, 0x15681c47a57d63d3U, 0xafd715adfeceeb37U,
  0xa2df8f0b076aefdcU, 0xb989348b75774952U, 0x8d3c810a510a53d5U, 0x89c939129c152270U,
  0x5e650d6df7a1e6a6U, 0xd0cf21879964250U, 0xa702ce1cd15c0c71U, 0x585056246b9c9df5U,
  0x5a2b95e4e7cb040aU, 0x19bf999dfb551a06U, 0x24d8c5623d2eca2aU, 0xcc93354f9c0625b1U,
  0x35d32fb4407c24c5U, 0x18c3cdec2ba9919U, 0xa09968aa202381eeU, 0xccc3426c90c04495U,
  0x8642208ea558b538U, 0x3f2c321c20a418bU, 0xf8616be5f2a623bbU, 0x727ad3d264f0c26U,
  0xb398f744ad5f61eeU, 0x62a17b5b64c2434U, 0xe2cb07d08f0afc88U, 0x28c80c84ebb6a961U,
  0xf8d6b99242bf1e81U, 0x272617206843454fU, 0xc83a9a6dbbdf42e9U, 0x73009693b60528b8U,
  0x2d4974cd34012db6U, 0x2c64f5d439f7e213U, 0xa456986e1c91008cU, 0x4e765dbce63fa260U,
  0xc1b6559c4dfb3aa2U, 0x42b3e372c17f013cU, 0x56bbeb0df20e227aU, 0x69042d0f700d1d23U,
  0x4bb7de19cde4091cU, 0x8c3c46fdb775d798U, 0xb6f0def0cdaa49dbU, 0x62beb7a6a11a2001U,
  0xfb09572acecdcc8eU, 0x2e2016a2f691eb57U, 0xb762f3feeab190U, 0xc336954e3df8fa93U,
  0xcffdd328da1e12f7U, 0xd55fd10ac1e7d7fcU, 0xdd9d6cd5adc889f7U, 0x4faa1757b2a123e1U,
  0xd216acbac12f5357U, 0x1a6eb28a4b79deaU, 0x8113eea9dd0cbbcfU, 0x0U,
  0x0U, 0x0U, 0x0U, 0x0U,
  0x0U, 0x0U, 0x0U, 0x0U,
  0x0U, 0x0U, 0x0U, 0x1f5000003adU,
  0x26c00000453U, 0x1190000011aU, 0x64ffffffc27U, 0x157ffffff54U,
  0x397ffffff20U, 0x2670000014aU, 0x110000021aU, 0x4cf000002edU,
  0xffffffbaffffff62U, 0x444fffffdcbU, 0x28U, 0x658ecaf2ac493aeaU,
  0xbd9ac52bbd2d341bU, 0x5bc3cf6020bf9132U, 0xd371bf35d5582d3fU, 0x841e8cdf39b7f6f7U,
  0x5311b0037f8cba6fU, 0x27deac13bfdaaebaU, 0x10ede2d15cb9bd43U, 0x71007fad223df05U,
  0xfa110e640abff7f2U, 0xb2d5fd9c160e20dbU, 0x9bb40cda7f1ae643U, 0x21f9181d0c151811U,
  0x24ebfa1bfbe9d9feU, 0xf913f7f5f3f21ad7U, 0xa10382b99dbc4bdfU, 0x2231962aefff11dfU,
  0x2ba0a52b242b61a9U, 0x5c1f819a3ac0bad3U, 0x2992c833102683e2U, 0x17515ad38b2a888dU,
  0x8f162bd8cdc5aa32U, 0x51d435d9634cc162U, 0xeae0f84e9ce1f10cU, 0x62c807ae5a4de18eU,
  0xb13647ee49272738U, 0x263a2c91eeeb482cU, 0xf79d59ac554c2311U, 0x36a6dc321e52aa83U,
  0xfa48e9b1813cd398U, 0xcd30f3fbd273394bU, 0xdc49f4a09f076132U, 0xed38db6aa9ed1e6dU,
  0x1119eb60d6944e1fU, 0x139b24dfd6678141U, 0x15bbe9f2c8a27441U, 0x9b16e369d8816e3aU,
  0x982e5cf7d4d65ae7U, 0xd0933c0981febdf0U, 0x911258c1c34dc1b4U, 0x91c710472e0730f1U,
  0xe04c5feeabe8f196U, 0x175202aa0ef23badU, 0x545fe63fcffeaaafU, 0x9b86ef0424ff4356U,
  0x50a051424ffd2c2U, 0x7d0d1c341dc2024U, 0x21131e24b6f0c146U, 0x1538397f03444dafU,
  0xdc1c0c11b4900319U, 0xdbd8fbfc180d091eU, 0x14e100f7262dd52cU, 0xfcbcafc282cd5f3U,
  0x3fd901150a2cc916U, 0xf9fd073d2714bcc0U, 0x811d15961e1f1affU, 0x8e8fe8f421c2c44dU,
  0xeeba300701182cd4U, 0xc71d22c235371121U, 0x13f5bd32301a16d0U, 0xcd0397fc2678ee39U,
  0x55c376df8ec61a12U, 0x53475248f72c18ebU, 0x4e46d6620f41759fU, 0xf21113caf317c6a4U,
  0xb6c9def0bd21be33U, 0xfb7fef908b92851dU, 0xf6d2d5f64375a6fbU, 0x460fdad62012e73aU,
  0xd7f6367f29edf316U, 0xf8dcf4dadece09d1U, 0xd98622f137e50701U, 0x1c2efe121a26c13aU,
  0xe529e0fbc50509c3U, 0x19f5d0d92f1b2c30U, 0x220e49050334bcb5U, 0x2f1bb136566b0025U,
  0xcbc7862114109fd5U, 0x4b4bdefa1f81e027U, 0xdea70b0abf07effdU, 0xfc3c3d02e261b36U,
  0xac1ab6eff547022cU, 0x4ab51dca0a0e4f4aU, 0x735c9272f24c20ceU, 0x4458f4e7b9d2ba7fU,
  0x4e3fc68b65883cbbU, 0x5db0059d1512b195U, 0x2e4724b88d0af987U, 0x5434c1cfe6c182e0U,
  0x40a59d53edf14a89U, 0x5dca0d53b191a1e0U, 0x86c064a12d4fb50fU, 0x6fb257a41e8311e9U,
  0xcedd0e92b88e4a1cU, 0x4a4a3f797eff5eeU, 0xccc5efa3be408b52U, 0x5beecb1cad78d77fU,
  0x1bdc074388162cc8U, 0x210d24b0384df610U, 0x50cc1db2ec5fcbf2U, 0xdc93d8feb1e6bbbbU,
  0x793e79157fdff2d3U, 0x4dd7de1b0df0e2ebU, 0x9d8d6533e3910c0U, 0x2aeff2d4befd4deeU,
  0x359ebdce9936d69eU, 0xa462aba0dffad10U, 0xe056fe5476633feU, 0x9d39f816210d7f2cU,
  0xbda547d0d8a59611U, 0xbaf60d3544be66f4U, 0xc0112bc35e16ca59U, 0x7709e211d71e5c2fU,
  0x683a76295fc81d87U, 0xb38f814b39b27debU, 0x4b5cbe44295a9474U, 0xb2b75702f60d4651U,
  0xdc09ef46dc0ed9afU, 0xbc93fbf5ccc1f19aU, 0xa551af59b1d6d72eU, 0x6ca2da6e3ea383U,
  0xf0d061f96481348fU, 0xdc698761e836b0b3U, 0x23089a5b6a9c1711U, 0xda135f5b86c69aa3U,
  0x95bf75e6ac9131ddU, 0x4165e6db4ddfb0bfU, 0xd5a10c4f3ccc88c4U, 0xcf53ec9b815dceccU,
  0xad49e3eff23f431fU, 0xc77b825b5cb1cae0U, 0x42dd0d12fed593b3U, 0x84b917df9740505U,
  0xe33793ee84a12098U, 0x34c870bf97383943U, 0x5449d7be87daa573U, 0xfa1602e6a7c8a1cfU,
  0xf28fe39757aee547U, 0xebb08908fd5b05aeU, 0x88d35b0d36df132aU, 0x1de10ec1252ee3c9U,
  0x8da003aa5afe266U, 0x2dae0f3fe42814dU, 0xd2c381afb203aae2U, 0xc94edb21c8cd4e0cU,
  0xb2f904eb443fc454U, 0xd6a5ff0c1c5e0043U, 0xa9fd24510efe9a37U, 0x561eb086c7c0f046U,
  0xd184158300d9e99cU, 0x3a33f439a4f982cfU, 0x5be60a55e934ec73U, 0x9242b7d2e938628cU,
  0x56bf26ccb78c9a4cU, 0x544d92a60fcc2296U, 0xb54940cf44f6157fU, 0x6a8a11cdbf19408fU,
  0x1f43653a9db2b401U, 0x9ae31e3e2b042581U, 0x513200f3be360e38U, 0x5ed0051dacaeceebU,
  0x3849c435ebc4f590U, 0x2b13db24e00feed7U, 0x26b1d2b71aec17c7U, 0x3a430d03c43f2b48U,
  0xa16bb07d96d7f5bU, 0xde5305211e13f7bdU, 0xbbc8e7304f30c2e6U, 0xccf33c9127bdbc4dU,
  0xc81cfdf8485518e0U, 0xc1debc05ca013dfeU, 0x21ca1f3e06113731U, 0xccb60daec7113713U,
  0x7f7258cd09fe7588U, 0x3c7c918b6c94c8cU, 0xc4e61e5617a13c1dU, 0xff5dbe07e1735520U,
  0x62102c4b078b0482U, 0x5bdb8336a94ad4a7U, 0x68f206bb148ac086U, 0x3836407ed6be04ffU,
  0xef2e81ec09e51fb3U, 0xbfc908b4c7b7f90cU, 0x124c22789e0181aU, 0x4eedf6a7009bfabcU,
  0x1030d31bee0fd546U, 0x243cf41ab8dd20e5U, 0xa00dcc1f39341bf0U, 0x27dcf4b15b47a545U,
  0xc51b146154509efdU, 0x9845073d8c5b48e1U, 0x9d929b81da7c852aU, 0x54c0a0ad0804a752U,
  0x9cacda3ef7325156U, 0x51e6daf14ac1d0d0U, 0xe057cefa2b0a22b4U, 0x48a607aac2fed7b1U,
  0x5f0381e9283bb127U, 0x9d00a6f42f58d49eU, 0xd132fb0d00e5c8efU, 0x133d990a4bd7f393U,
  0x50ad92495cc55cfeU, 0xc71d9c3f9b4c4130U, 0xf000888dc57ec4f6U, 0x95e37f6c98f29effU,
  0xdf0ee5157a364112U, 0x7e141bb26f184c8U, 0xfc6fa088170c98caU, 0xf194ea0b1a3c739fU,
  0xf56821fe6634bfc5U, 0xfbcc164f72f9400U, 0xd2e1c4eedd349de5U, 0xece3f9a72ad3e4f2U,
  0xa0c7af5bd299e0bbU, 0xe41115923015dffcU, 0x4ea38121db1d413cU, 0x391c05ee0555411aU,
  0x999ef23b5dc2cce7U, 0xec73d9a4ffd4ee3U, 0x463af4cd07123127U, 0x817e14cce1beed30U,
  0x58415bdfd162ec2U, 0x24b6b321fdce3ad1U, 0xc0e3d5dd46db475aU, 0xd32cea09eb271311U,
  0xd760d02f6d7454c2U, 0x2814c0551a891cdeU, 0xf48e51a32f2bd4eU, 0x290599201b44fec2U,
  0xefa1815538c35760U, 0x4d229b3884334492U, 0x27e3598f4e02ba0fU, 0x6a4875bb5ae4c2a6U,
  0x7cba4fb7f3eafcaU, 0x2c9fd98f6bf891fbU, 0x4ebbd79ae88a1fe3U, 0xd7cff40cf04c762cU,
  0x6b62bba5f29913aU, 0x28ca59509885db6aU, 0x3d3a1fc0c0ade516U, 0x413e934e266aa62dU,
  0xfd2dc7879203b948U, 0x54a4ed1939116d1bU, 0x4259cf0151e05706U, 0xfe15ee4693893021U,
  0x24a639588e84e7efU, 0x5a0c16d7edd5d432U, 0xa8da66ef4281cceaU, 0x2fcdc4a9af964975U,
  0xc65a69392ffa58d4U, 0x323a4502f90072aU, 0x435a15a9d53f2f3bU, 0xdc4a408f8c0f159eU,
  0xb5fdf0c673c181c2U, 0xa06d8aa78383c962U, 0x472c350ecc141c25U, 0x103f04df1e1ec3edU,
  0xd3c3dece4d13cfaeU, 0xa50cfbb27fdfd26cU, 0x14c62ec55525da00U, 0x39f7c0031603e3d8U,
  0x362acf2e062732cfU, 0x578f45a7d50c0a31U, 0x1050c62eb8c21f21U, 0xa162f68a629740cdU,
  0xd74cd10651c39f15U, 0x2f543e9dd1bec10U, 0x5314e7472eef092aU, 0xcc9cad4890550d51U,
  0xee9d28b3ac571081U, 0xfe27e93c2aa2bf61U, 0x2cbb98afe7f6f55eU, 0x4f813bf1c3c5aa20U,
  0x28b72d7124f907e5U, 0xd4978927c5daccf3U, 0x3d945fa05ac804f8U, 0x4c34973d4add1894U,
  0x11557f0bffcb1f30U, 0xe9eb27b942f6d030U, 0x1443c396dc6746dcU, 0x32bccf27ebb3ff26U,
  0x4621f1453e0601d3U, 0xd8c63adfb2373ec4U, 0x610f437f2ac2e31U, 0xd2211ef0c2207e1U,
  0x7612e036c69a1303U, 0x7f1d66c884948f5cU, 0x11b41202fbdbbbacU, 0xc5fef0491085e70aU,
  0xd87fccf5eca14187U, 0x880ac3b646d6cf9cU, 0xa4134282a236f748U, 0x871597a3c1452dbbU,
  0x81ba9f8da20e140aU, 0x4bf7371fa1b319b7U, 0xe2ff03c41bc3b12eU, 0x4ce63099b5ecc9f5U,
  0x84bd03874822265bU, 0x59463a265cc91ab3U, 0xb3f6ba0c96074e81U, 0x636d418cd9141894U,
  0x48d14540f64c2f56U, 0xd23531100ea2265U, 0x8114a4f8a7d8bf07U, 0xa1fae59545eeaa0dU,
  0xa35027a7c1eb2a23U, 0xd3b4066739dd14ceU, 0xcd1c18e56031951bU, 0xe2c5fc1b44e305b8U,
  0xd5c8390af118e63dU, 0x544703ce2ff30112U, 0x3158d2b810d37afU, 0xbe61a310fcbc4daU,
  0x2f0a1afc3231bafcU, 0xf4f4fcea1730e215U, 0xf64fa6ec63141a81U, 0x9e23faec48cff8d6U,
  0xa53afbe5091af066U, 0x12b720ffdd65f4ddU, 0x18c468b6e6ae8a5aU, 0xcb32da303a2603dcU,
  0x5c135499c2562fe3U, 0x65d56df039d1b3c8U, 0x1042cdbac4a9d308U, 0x38ad65618c4b9a3eU,
  0x53321db8a2ccc406U, 0xa4f25f402ab2020U, 0x9c54109b1b4efac9U, 0xa50b53fb43cfb43cU,
  0x3dd0a28117541216U, 0x646ad4a16381a836U, 0x63584b20a5601732U, 0x2789e0404f77e577U,
  0x6bf76551fac8fab2U, 0xfea3728109e4352aU, 0xea82cd839d39df19U, 0xc5e1cb50e3135f79U,
  0xd8454eee99792205U, 0x1fdb32e0bfbdc4bfU, 0x47eeb2ae9fe9f810U, 0x4ed44aece7f59eecU,
  0x71ceafd1b523718U, 0x38c4d8bf27f2ef1fU, 0x22a7813cc93626ccU, 0x9df2bca63cd0dbffU,
  0xb878128ba58c86ceU, 0xcdd0bb5dca1d7fd3U, 0xbcd7342056595f05U, 0xe18e09c9de8cdfa9U,
  0x715f1a95ef1e3b7dU, 0x8f4a7fa4f584b899U, 0x31d35160f50cb058U, 0xba98ca81d4dcb6dbU,
  0xf0638e6f566ec5a9U, 0xc1377e3979f7f8beU, 0x453e3b41932eae88U, 0xe87e29cd2485c2cU,
  0x14f1ce0af8c0f84eU, 0x1e333277ac5897ffU, 0xec9ce8f4fdc8b9a6U, 0xffffffe400000000U,
  0xffffff67ffffff81U, 0xffffff9e00000000U, 0xffffffb3ffffffa8U, 0xffffffdc00000000U,
  0xffffffbeU, 0xfffffff000000000U, 0xfffffffdU, 0xffffffb1U,
  0xffffff5bffffffa9U, 0xfffffffa00000000U, 0x11U, 0xffffffebU,
  0xffffff69U, 0xffffffd600000000U, 0xffffffd8ffffff96U, 0xffffffb6U,
  0xffffff77fffffffbU, 0xfffffffcffffff90U, 0xffffff8f00000000U, 0xffffffc6ffffff93U,
  0xffffff5fffffffd2U, 0xffffff71ffffffe9U, 0x0U, 0x0U,
  0x0U, 0x0U, 0x0U, 0x0U,
  0x0U, 0xb890f310afe5fb0aU, 0xd4c07f28d62dea24U, 0x2c4f36c920db0a29U,
  0x11efb53654ddb114U, 0xb00e671fcf69bbcaU, 0xfedef12ba18ad93bU, 0xc38112dddd179508U,
  0xf5c05f391b2b2c06U, 0x454af8d332bffe44U, 0xd33f15c43d07be17U, 0x3bc0c031579e90cU,
  0xeff5c0ef5ee56f7U, 0xb3f001ccefcacb52U, 0x14e6e844ede0a513U, 0xf76b10c3eb0c3b1fU,
  0x1f48bbdbfe0d4340U, 0xf8b85a32cb7f29eeU, 0xafe0efb02729df3cU, 0xe7bd2e33d12081fdU,
  0xc83eeff0431de0c1U, 0xed29492bc1ebdd11U, 0x4f2e946c310d2e5U, 0x1914dcdc08321cd5U,
  0x42d1bdb6bdb40239U, 0xb0ef4141ead39662U, 0x53171e06a3bbe1c5U, 0x7a5e4939261672a7U,
  0xccd9134a7be510a3U, 0x972bc171b36e5469U, 0x1f46acb981362d50U, 0x1e81260bf1c4bf48U,
  0x522252f5f1d01d5bU, 0xa8e96ac9a1f3c817U, 0x28fa05bb1f1ca3e9U, 0xe8ba32b042004bc0U,
  0x2dbd4531d3270ffaU, 0xd30ecddf5930a114U, 0x99fee54db54fbc5bU, 0x617f6a5e1d5ccef5U,
  0xc437b457463797d4U, 0x6ec7bbf231f65bdeU, 0xd7c6859c08c6d6cbU, 0x33c7f7e90c9a181fU,
  0x1b8a3ccfe26b81a5U, 0x9b527da789f47eccU, 0x8f1395672b54d7a7U, 0xb731fe685c210e6fU,
  0x558850d40e94cb47U, 0xbc37b6f1b671accaU, 0xd82eb87445daaca4U, 0x39513cf10f81d8ddU,
  0xe7397977dfd941a5U, 0x760e34b50a1feaedU, 0xaf5d5014a01d0781U, 0xcea037ccf0b908b7U,
  0x46be230001704d16U, 0x3a7fbe48d2b7a71aU, 0x604c9fdd354c5e07U, 0x35374b11b5e62703U,
  0x9fd94028a710ccc7U, 0x9bd1cc1e3d35e94fU, 0x2a01dedc8c553ac5U, 0xfe39c68cc10481e9U,
  0x43cc5d00f0e84e21U, 0x34395d06c0f9329bU, 0x4ea329f72bb937b1U, 0xcf6efdc6917e0a89U,
  0x6adbfa81321fa51fU, 0x32d46ddfa0a965cdU, 0x5227d3eb449c33afU, 0x2fc42ecc1e79b78fU,
  0x3764ceabbf4ef6bcU, 0xe6fed3e2e18eb9c4U, 0xf66b12e3f5e11a76U, 0x24be7f907b09f9e5U,
  0xb50b5921eda051d6U, 0xa5d3e001fadfe072U, 0x7a5135bb098e301dU, 0x29880e66d3682792U,
  0x1d09c998683bc45bU, 0x6c65a6f8e3f9ec6cU, 0x43e80c6b6d8ad138U, 0xf2ee7fb1b1d38932U,
  0x156c4e09219fd720U, 0xddd53f4ea7e00e2fU, 0x66d35e63e0c91307U, 0xeb35df1db7e2ebd8U,
  0x3c29e8f1430c2b50U, 0x1774067f272c7fc9U, 0xa5ee10b50ca6be49U, 0x2088273d0652d810U,
  0x3e07b7971abc067dU, 0xd8b95c145c18f57fU, 0x2047fe4b00b3dcefU, 0xfb20bcdbda7ebc8fU,
  0xd4dd49cefb5ba071U, 0xc8915abef8877f95U, 0x16b614b0d013e6deU, 0xda0c7396952fdb63U,
  0x443b5e99943de029U, 0xb63ab6995071567U, 0x26cac998d7225505U, 0xd0c4a82ffc3c357fU,
  0xc9d8270ba56a54a9U, 0x8bad44455d256814U, 0xe9d0be3053de48baU, 0xa81604b35d3eb7a7U,
  0x344843a436b2e0d6U, 0xda9e41550c0a57c1U, 0xb1ab657f9f43e8f8U, 0xfa5edb5a25ec8d6fU,
  0x41b2f53363ff1767U, 0x3700dc4c491e20bU, 0x6c400b03b2b345d8U, 0xb807bc44c7812306U,
  0x310873121f4925e8U, 0x6a46d74a48cb3db8U, 0xc538cccc384ebeedU, 0x3306591211944853U,
  0x16d62c6d13cafc6dU, 0x3bd49cece099bf84U, 0x23b852ea6af33d13U, 0x240bcf16fd424a29U,
  0xedeeecda331737ffU, 0xedb848e4c612d8f9U, 0x20d4b97fe3569b42U, 0x213132d5b94cb91cU,
  0x24ea6aa656dd47ddU, 0x4203c255c83fc094U, 0xbfb343c83fc7000eU, 0x36a44b4a2e0ccae1U,
  0x9fbb42c7ebb9cd81U, 0x9663a68aa6fcccfeU, 0x1d2b4c9cd39fd60eU, 0xb62c85432b5a5f7U,
  0xd1efc9e0ac1cfc46U, 0x40004233b4a67fcdU, 0xa9b6d005086de299U, 0x7e00000000U,
  0x8b000000d6U, 0x5a0000003cU, 0x1b7ffffff0eU, 0x74ffffffccU,
  0x13affffffc3U, 0xe900000064U, 0x6000000a5U, 0x1a9000000e7U,
  0xffffffeaffffffd0U, 0x170ffffff4aU, 0xd30000000dU,
};


ai_handle g_forecast_temp_ml_model_weights_table[1 + 2] = {
  AI_HANDLE_PTR(AI_MAGIC_MARKER),
  AI_HANDLE_PTR(s_forecast_temp_ml_model_weights_array_u64),
  AI_HANDLE_PTR(AI_MAGIC_MARKER),
};

