/**
  ******************************************************************************
  * @file    forecast_temp_ml_model_data_params.c
  * @author  AST Embedded Analytics Research Platform
  * @date    2025-12-07T19:33:56-0400
  * @brief   AI Tool Automatic Code Generator for Embedded NN computing
  ******************************************************************************
  * Copyright (c) 2025 STMicroelectronics.
  * All rights reserved.
  *
  * This software is licensed under terms that can be found in the LICENSE file
  * in the root directory of this software component.
  * If no LICENSE file comes with this software, it is provided AS-IS.
  ******************************************************************************
  */

#include "forecast_temp_ml_model_data_params.h"


/**  Activations Section  ****************************************************/
ai_handle g_forecast_temp_ml_model_activations_table[1 + 2] = {
  AI_HANDLE_PTR(AI_MAGIC_MARKER),
  AI_HANDLE_PTR(NULL),
  AI_HANDLE_PTR(AI_MAGIC_MARKER),
};




/**  Weights Section  ********************************************************/
AI_ALIGNED(32)
const ai_u64 s_forecast_temp_ml_model_weights_array_u64[2468] = {
  0x0U, 0x0U, 0x0U, 0x0U,
  0x0U, 0x0U, 0x0U, 0x0U,
  0x14f6ebdad5ef201aU, 0x29f1efdaeb64e4dfU, 0xcfebaab412b44a03U, 0x140cdd58ebf29eecU,
  0x220e3b0cc417b581U, 0x31dfd6c75fd347dbU, 0xcf5ae1f3022dfc37U, 0x31a85ae8e1dcce14U,
  0xf224aec21e7023cU, 0x100f8c6ec12caf4U, 0x14f0ccbd4338763fU, 0x38d8fdeaf9eb7fcfU,
  0x5533c20eba25d92fU, 0x2dec1ac0f4dec8d6U, 0x3ffd28552b323f0bU, 0x418e2dae53533b8U,
  0xfb3ac1f4ebe0d6f2U, 0x39f4df41fad720b9U, 0xfe5bf31e580d46a9U, 0xbd905e845a00e41U,
  0xf331355bb419810cU, 0xf17614f3290ba8fcU, 0xf521229398ad482eU, 0x20ada304f0a44ca5U,
  0x7f8805b5ce14beddU, 0x37aec0c8f9a3fefbU, 0x4cf41320080b5239U, 0x69cade0601258fc6U,
  0xa11a557c50940dfU, 0xe8f1c911fe45f112U, 0x6329173ce4c0dfe0U, 0xeecfc0602b06d02aU,
  0x71cf4a017fb273fU, 0x5925e60d01f24001U, 0xd5eb1402e201ba63U, 0x5ceecabfbf45122aU,
  0x8107f803f3ff9d12U, 0xf5fed2db5219ede0U, 0x25a3ab0009133ccaU, 0xc9e3380e0bb63919U,
  0xbc0ed90adef3e7f5U, 0xe928f02437a117ebU, 0x2430fedbbed7e6ffU, 0x4300f536d420dec2U,
  0xef04322a273816fcU, 0xbb0d2bdd06be43caU, 0x7f371e2ac543f5bdU, 0xef2afbe5d82fe397U,
  0xd3dffbf3b501dd31U, 0x2c430181c94015f4U, 0xd71327f5b304c2edU, 0x42baf48c8ceeecc4U,
  0xdb26391225ae4013U, 0xe7d7cef8caabdbefU, 0x9fee5ba00816ff23U, 0x50a1cde3484b390cU,
  0x1c813bbad7fe0715U, 0xac815f1b061adcf0U, 0x49c409f6aadfbcb1U, 0x12f726ec1f26f3f2U,
  0xde551d3cc21dfde9U, 0xf75e33ee133dd9e9U, 0x3dfc220c333d6622U, 0x2b0920a0d4e22f4eU,
  0xd2d5412652b78915U, 0x212012aae4e728f2U, 0xd5e6f50374ca811cU, 0xfbce2a1b24ef2307U,
  0xd3efd815c42713eeU, 0xa7f1f6f5faae1b40U, 0xd6dc5527f0f1e0faU, 0xddc0469cc2aad709U,
  0x1ee20b37fa1e0b2dU, 0xbdfffecffbf30b81U, 0x280ed7d3e8280de9U, 0xc7ece30d3e22eff0U,
  0xdf0c03240256f115U, 0x1aabe4d5e913f5U, 0xd9f1d0c424fe01c5U, 0xb6d70b24ee0d15ebU,
  0x17dbeb189be1d44eU, 0xb0fb31312be5bd17U, 0x85fcc7195314cc7fU, 0x2fe251b3209bc20U,
  0xdb1ff09af6e1f228U, 0x54be0701efff41afU, 0x19383ade1600fba3U, 0x17fa93d71ea94833U,
  0xeaeff31a15abe804U, 0x1c956277627e4aeU, 0xcaf2d0dfdfce5ffU, 0xe0e9b0aed4b40af2U,
  0x1bd6f8e116e5e129U, 0x1508bf5613ae2bf4U, 0x7feafdd0a830d73dU, 0xf6032e45f1fe0351U,
  0xf8042d1a41acf01eU, 0xdadb6e701c5f141U, 0x1527c900893613d2U, 0xe40294dfd3d30406U,
  0xd00c05cf100e2401U, 0x7f172a2045123bdaU, 0xecd73e0fd501efbbU, 0xd305e3f1ddc71fU,
  0xe0d8f7280ec64aa7U, 0xf92cef103bf4c9bdU, 0xf7eefe7ffce51608U, 0xe2c820f0deeb04e1U,
  0xebfb1903172ffdd6U, 0x1ae2fa141b2cddbfU, 0xeed2d3130b144fcU, 0x12eb19d42b0a1404U,
  0xa01a11eceee2f1cdU, 0xca5f714177f5c3bU, 0x212dee19deedf41cU, 0x2b1be63b311d62f7U,
  0x1afbdaed141ab9daU, 0xf2eb0202a6052b27U, 0x14111ef813b0f2aaU, 0x14d416102907672dU,
  0x44d836608b391797U, 0x2b19ed922514e0dfU, 0xe050f209e49fd712U, 0x180ef7e52ee7357fU,
  0x626df0ff0070a2cU, 0x3eff3f222119310eU, 0x27d9160af132d512U, 0x4005639120d45e8U,
  0xf2cddc15d1db18f9U, 0x4b22c3fa2d752720U, 0x14d0e114fd7fbff2U, 0xf40029c70ef6c644U,
  0x45eee7221b35e4f4U, 0xe503f4d707cdf002U, 0xee1d4214ee3015d1U, 0xe911d011cffef013U,
  0x9f035a8eadd7f1b5U, 0xbb7fd2ef68e4170cU, 0x4cf49ebe2e19294dU, 0xf5dcc4f32028233bU,
  0x93eaedd0a0f0fedfU, 0x9790965133dc83dU, 0xbb7808d4cd5afffeU, 0x2d5af9ed2e539ef2U,
  0xd417b4dcf25f07ebU, 0x2f1fef8ecc89f02U, 0x7da8103190dd721U, 0xe356f4def3e621edU,
  0x174fc8f0ff23099cU, 0xd0df07020dc7f519U, 0xe8c510cdaef8280eU, 0xd1ea02e51b373021U,
  0x332204ddc3b330f1U, 0xac3ca1e03c35c24U, 0xbb24a40932122c05U, 0x3de07f02ffd9d7a7U,
  0xd10bdd4bfc23160aU, 0x353f0d13afbd291dU, 0xf9b4d4cb122bf40bU, 0x28433b050c20fce8U,
  0xbecf1931ebfcd649U, 0xb04bfa2ab80b2d0cU, 0xe4c35a62ebe2233dU, 0xe601dd10ff11cb2cU,
  0xfefd5d678199e2c3U, 0x5b253b26d8ff32e0U, 0x2fd933f505e92d18U, 0x93ef3057ef53140fU,
  0x22fc7f06f5f129f7U, 0xcb01f9471506f409U, 0xdb3407de0c160db0U, 0x2ffeed58c907eb42U,
  0x32ebd6e402bc2908U, 0xa223d3101dd60ed4U, 0xdc047d1e7e370fcU, 0xc2d8131d3002e82dU,
  0x1e0d0be0e216d30dU, 0x161fe60b0a1f03ffU, 0xfcd5fcddea151920U, 0x81e63123f11449e4U,
  0x5f722fd0227eedbU, 0xda12e8f601272ff0U, 0x21a83ff1031cf110U, 0x4aebe2363edddef8U,
  0xfd0707082fd0f981U, 0xf91be1c5d20b07bdU, 0xd1ebe3dd0175c4f8U, 0xee170634041c04ddU,
  0x3311d06edb416f6U, 0xeed6201e1727120dU, 0x4af8aff607ed23ecU, 0x220df015d0ec25f6U,
  0x64dfe8fa6ea502f4U, 0x2207401f23208ffcU, 0xf53b2d26c229df74U, 0x51c7985b2eebdfc5U,
  0xc65e31be1ffefba9U, 0xd63a12e3a3170d2aU, 0x81e863d2f535204bU, 0xcd69175ae0181cbcU,
  0xbea3caddd2ce3010U, 0x297542f91ff4c671U, 0xf1e132c4e41cecb8U, 0x1f022f4174f72ed1U,
  0x47060112e60d280fU, 0x5f1f8134362d09c0U, 0xb1c5c5348fc7fccdU, 0xf00218ef0ee77dd8U,
  0xed65fe4ca1301348U, 0x290f0e38e12f0e8dU, 0xe38b0e17355a0db3U, 0x24e5af4bf80a22a9U,
  0xc7b8c13d47166cd1U, 0x53157ff61d594d64U, 0xdc42335ab5562d1eU, 0xcbe2e6fc67bc7626U,
  0xa1dd0d7930ed320cU, 0xff07defcc2382a08U, 0x3a18ddbe0388255aU, 0x2f0f02d63f02dbc0U,
  0xf9b1c230e81f1bf4U, 0xd9dd2b1f120b228bU, 0xd2d3cedabe143829U, 0x2e60811106a6fe38U,
  0x2fd3cdfc321012ecU, 0xf414132403f60411U, 0xe6efe33fd709c907U, 0xe4d8c422db3b1ecbU,
  0x5c3edde5ac55117fU, 0x1b254302318b06ebU, 0xd465c2f91c034626U, 0x39cd053f46e20033U,
  0x28bbe32215d94bd5U, 0xfae0cc2bcfe230d4U, 0xf7e9bb913cb0d309U, 0xf103fcc0ea0707baU,
  0x622a49e402c9812aU, 0xe23a06080e441b62U, 0xd2ea254e0129bcc3U, 0xd7eca0df4e3408ecU,
  0x1af138f6bdea0ff8U, 0xd911e316962afb2eU, 0xedf8c8543dc8b6e5U, 0x5f4811702281ae3U,
  0x1723f6187b2cfce4U, 0x18f8c44005f28dd8U, 0x8e80c26ee04e208U, 0xe5380317f699ebc1U,
  0x27bffacc45f92831U, 0x6eb81fac70f04faU, 0xc8243fbe29db2d04U, 0xaac4050e0048042eU,
  0xe0ee1ecf355d3304U, 0x704131de40ef220U, 0x4a4408d797de1d12U, 0x113428d4ee4a5d31U,
  0xc03d92f00e263e5U, 0x1cda0dcef604bb2aU, 0xeafbfe04ddf9d1c4U, 0xc3eff669e2f6fd01U,
  0xc2babb0081f7c0e4U, 0x8fddcc9f1d49b20U, 0x4aeb00eff31dc8f6U, 0xa1baaf0271b1a01U,
  0x1af1cbe6351224e5U, 0xff2424b828c903U, 0xedcf24e925f920e8U, 0x2b0823171cfa1fffU,
  0xac00ba341b1de51eU, 0xdff751782029feb4U, 0xe80836cb1a21e681U, 0x23bb1a31da55d0d5U,
  0xc032e54f360c6edU, 0xef9ebc1f391c3754U, 0xe50918b8063da925U, 0xd8ad102b0ac9f688U,
  0xc729d61e06f5bf09U, 0x3dcec187f41cdbcU, 0xe231e5050ddcff60U, 0xc2fe23e2066a0ff0U,
  0x134846b724fe404fU, 0xe961ebcd4f0545f9U, 0xd5040708d8a9c3bfU, 0xdd7f3ae714d3cc9dU,
  0x251a2c3035be3e5U, 0x2ec703421c391355U, 0x1c184b0b1fdc312eU, 0xdee1875aa30804ffU,
  0xb2adc41cc8d3ae67U, 0x70ab2970101da03U, 0xdd3e132a32d223cdU, 0xc938ee2e1cac1fc6U,
  0xdf2ccbe275a0a316U, 0xd041f1a022fdf60eU, 0x1410f63e231c7fbcU, 0x1f39396e1202d36aU,
  0x3a04c6bc9dedcae7U, 0x1d12b92cfefc13a2U, 0xefe71e108cedbc4U, 0x2bcf99e861dd45d2U,
  0x1e810d9cbb1222b4U, 0x35d72617f6dc22ebU, 0xf8dde4d37d104de2U, 0xcc0dd3c2e844b12aU,
  0xa2ffa1b1ae0fb36U, 0xd315ea14d5f4c3e6U, 0xe26e302150e962aU, 0x67dd142d8c9d2f38U,
  0x290b013cda5d23fcU, 0xf237bbd2f47f2805U, 0xd23c9ed1ae9c60aU, 0x1e09f710f254d862U,
  0xeae77e0af420fcd7U, 0xe8eeddfe482fac4fU, 0x98d65f3119e61de0U, 0xf6fcbfaa1ae11bd7U,
  0xef360a43ef2cf104U, 0xe0041b81b9143930U, 0xf6fb8ebeb11f04c4U, 0xadabce013d7b3eaU,
  0x18d40042e5a5f81eU, 0xc4f338f7ded31854U, 0x295926ce4e4acce3U, 0xdd39f297e0fb1206U,
  0xbcd0de8d645f881U, 0xcfac0df91206e618U, 0x913e4fd081b1efeU, 0x42ca2a6843fc43b6U,
  0x42fdaceced10cfcU, 0x8ae62a041ee71f1fU, 0x96e6db08adbf31f4U, 0xd9a2dbfc12ee5433U,
  0xe7db3f4b11e93cf4U, 0xb7c6112c44bcee0bU, 0xcafafb650417d30aU, 0xfaf69b5b810c3752U,
  0x154d11d7061c561eU, 0x11dc24a844faf610U, 0x5de7eb007fefb4fcU, 0xdfb5d4160f0dc506U,
  0xfdf94a15fce90008U, 0xd1b4602ccf328d3U, 0xf6e1ea3ce6cb2fe3U, 0x31e4f432f64aec07U,
  0xbcc458b33a101a02U, 0x7a1e1b4d05c6c825U, 0xc4fc81d2ed00f6b8U, 0xc50eace7399ddb08U,
  0xedc6393d1e020e2eU, 0xe9b7f21da53018dcU, 0x374c190f7c201336U, 0xe900fe163a0e1a0eU,
  0xfde367a7e0b0f721U, 0x2307e53933f69ea6U, 0x1e390826fefded20U, 0xcd5bf414f34af5dbU,
  0xfa4d75a1cf0f436U, 0xfcdb5dd87fe40a01U, 0xaaedf2f308be98fdU, 0x223aecf8e04452e1U,
  0x24432dd72016c6ccU, 0xd62e47ff9b0a39daU, 0xe0340d74f6211dc5U, 0x11fcead2751fb5f4U,
  0xfde306dee31c9515U, 0xe6e7b6f41cfe6dddU, 0xf6d81151a944e014U, 0x532e06cc247f0c5cU,
  0xcdd21bf605fe63e5U, 0x6094733c3f825faU, 0x15f81ed5440b1b31U, 0x2c05dd363be5cd0aU,
  0xa9500dd5443f7003U, 0x2b680e8e7fdedf1cU, 0x58e009f051ded027U, 0x1ecfc7f80f46e0efU,
  0x181f0e63099fadc6U, 0x4509cc57618a3e11U, 0x188941f41bbc1ef3U, 0xff19c249ea37c05cU,
  0x1474e6fc110d180dU, 0xbabf9abbd3facbfU, 0xb4b7f9f9f07f1311U, 0x25c82322d5323478U,
  0xbc7eaf0f30a5c24U, 0x3db62a35141d60b7U, 0xf93a002838070de3U, 0xef44d918e2196907U,
  0xb17f292296e87422U, 0xba0bdf2172826cdU, 0xdd282f02cee30cf4U, 0xfe60e7ec024696d8U,
  0x2d04d0be20110db4U, 0xdefc4ed706f13808U, 0xda5e22f40f03e05bU, 0xbc16dc111ee109e5U,
  0x56bdec7f30fa040fU, 0x691c0da20041aae5U, 0x19054ebac6465de0U, 0xdfcc10e306dde63bU,
  0xebaffa031c23ea1bU, 0xe61a30d251f11705U, 0x2408dd0d0a1f2fbdU, 0x4bc10a36df1812f2U,
  0x26e862f50f12b411U, 0x21814305171bf449U, 0x12c60babf414dd22U, 0xec0cfc1e00efd658U,
  0xc4061ed5f8104815U, 0xfee0e6db01b208c4U, 0xe8133cf01033fbe8U, 0x150319071e3128f8U,
  0xa33fdf00c04d3bbU, 0xa1d1f0dd2f40181U, 0xe64010032413903eU, 0xf6fdef0713e5dd40U,
  0xf5c4e2174a5be817U, 0xce1fc7645b2502cdU, 0xc041ebbbfb06d7f4U, 0x37fee6e41c0ffe1fU,
  0xf3edbd4615daefb3U, 0x5dfbf8f8d1b9ca34U, 0x2c90150d8fa14e7U, 0x7f02000910e8e8f3U,
  0x7fb5340422c9fc1eU, 0xfdf5fef8fef936efU, 0x139fe326c7f8d644U, 0x3a5e5535369a4752U,
  0xc6e83a175c08e4d4U, 0x1ff132e002c1ddd3U, 0xf82cbb2bac0d4c15U, 0xd602d3f15f29d2e8U,
  0x2143f3ef54c7c72bU, 0x17191a292155db13U, 0x3e51db0a10dafbb9U, 0xc49a3ee51836f418U,
  0xa7feb3005e835b1U, 0x31e622153ded04dfU, 0x3b06d1e34045d8e3U, 0x9c1dd4e56f0ef733U,
  0xaefef6d021f51e02U, 0xb9a58e16fcfdc9f6U, 0x362821380a13e821U, 0x7f836222cf1e915U,
  0xaf220f8f4f11c39U, 0x6bed218120a033aU, 0x8e2f128f77f1724U, 0xfdabf41a0a0be6cbU,
  0x10f12ef86c77f24aU, 0xecc30eac6ede75d7U, 0xd0b1387b0bd610deU, 0xccca39d79fd12dU,
  0x79de1aeedafa1ba7U, 0xec40d60f4f230ce6U, 0xef110d9b487ff296U, 0x494d17fc34ea6fd6U,
  0x423c2b7ff32935eeU, 0x2916fb1408deb64dU, 0x19fe250a0a26fc42U, 0xfc2ffedb1a0d30eeU,
  0xfa1454491d08c6deU, 0x18e99430379a0356U, 0xf02e41ee2c0142bdU, 0x3b1c01ddd5be2868U,
  0x19f112e122280cafU, 0xdd12e53ddaf1fd01U, 0x42e6e3031be6e6d1U, 0x13d53bd8e9f52ae9U,
  0xbfd8f9cfe9ca1206U, 0x35f9e7810bef1ed8U, 0xf63230f3dd06e4f2U, 0xec1c1f5ecbed2bf4U,
  0x22b9cafe210d02ecU, 0xf3f2f6e124fb013eU, 0x209db1e380710d5U, 0xfd1ad40adf5c3f24U,
  0xe5e3cc1b43eaeedfU, 0x1d44df0808257fd0U, 0xe0104ed3b102071U, 0x5d599c2c32b1bc7U,
  0xc9ed3209dedb051aU, 0x27d22a2ba68efce7U, 0x23c71312adf2c00dU, 0xe0811821f809fe4cU,
  0x46189d163bbebbf9U, 0x3c9ff2050e092449U, 0xa05f4bbd8e34ef2U, 0x4a2d1223d51dcac3U,
  0xb7012ae5072281b0U, 0x22a62bdbe206e6dbU, 0xd90b2fd027e8fcf9U, 0x1a0731138409cc39U,
  0xf30340f70755ef03U, 0x581dcf1205dcfcf9U, 0xc5e3ea11121d3ad4U, 0xd24bd14b06120619U,
  0xac36b0ff23b0e18U, 0x7120453f0c0e18cbU, 0x3079c6380be92b20U, 0xd5dd3925b8fa2999U,
  0xf5eb06970bd125c6U, 0x53d0b4ac60bd3f4U, 0x4248f1aca65eacdU, 0xa86cbe981381d31U,
  0xbcef2caeb1b34c4U, 0xe02df803000c1c14U, 0x3d264fd51122261bU, 0xbbe4e71dc481f71cU,
  0x52bbb210e0bc5f9U, 0xe8d90f13dfc2431bU, 0xe5ebf1250309fdffU, 0xe80befcc12ab3901U,
  0x0U, 0x0U, 0x0U, 0x0U,
  0x0U, 0x0U, 0x0U, 0x0U,
  0x0U, 0x0U, 0x0U, 0x0U,
  0x0U, 0x0U, 0x0U, 0x0U,
  0x0U, 0x0U, 0x0U, 0x0U,
  0x0U, 0x0U, 0x0U, 0x0U,
  0x0U, 0x0U, 0x0U, 0x0U,
  0x0U, 0x0U, 0x0U, 0x0U,
  0x0U, 0x0U, 0x0U, 0x0U,
  0x0U, 0x0U, 0x0U, 0x0U,
  0x36d70edbdd5ce6d8U, 0xbf13f881136999bdU, 0x33eb90c1eacca924U, 0x7d6e1729fc6f7e6U,
  0x4e970c4c87a2c39U, 0x59eec7e1f4f32300U, 0x130bd309c81514d8U, 0x62e13c807490f11U,
  0xfbc0e857373a62f4U, 0x81b5fbd7ff161315U, 0x3efd31bd14f76a16U, 0xe44a4128531efb16U,
  0xe2906c2f11f6081fU, 0xc32d11fdc1aa2c11U, 0xe9c043ddab26c4bfU, 0xbeb3293288f304b6U,
  0xdd18501613f949bbU, 0x15d94c18043ef5b2U, 0xd05c83a03180d25U, 0xee224df13a3d2812U,
  0xfdf422fe201c4a0eU, 0x1b4cfe10c84bee39U, 0xc5e7f611217fe1f3U, 0xf222c61fbaed0233U,
  0xb6b257f7cfbf25dcU, 0xfc6dc929d9d917d3U, 0x97f42d4289401acU, 0xd41e476737f5deb6U,
  0xece7ade0b211a024U, 0x2be15309740b16e0U, 0x4b890ff6d20be5eeU, 0x685c23e5d0a41548U,
  0xc015267fbf3d33e9U, 0x113c0cc9004d252aU, 0xfa0049ec02dfdd01U, 0x60e00b404360709U,
  0x4fe23d43cfedef9U, 0x1e06141048b60b08U, 0xc61c1302f92738f2U, 0xb3d3e4acfdcd11f2U,
  0xce39250d3a1c3df4U, 0x16dd23b0e939f933U, 0x2a9fda097ff43f07U, 0xfe42f40bbce4f695U,
  0xc914dcff2018ebdeU, 0xefee27230b33fbc6U, 0x5be3df0031e281cU, 0x2b30f5251fbefabdU,
  0x44eebb0585a315fcU, 0xbe041b97080009d8U, 0x2cd5d87f03cf1529U, 0x66e4f7f8324634ccU,
  0x60dbe416d8091e39U, 0xf4d139a4fa58d8c6U, 0x620f8bbd8e839f7U, 0xb6dbef2504a5eb35U,
  0x1b58f13fd8dbda23U, 0x3bd727331145ab9eU, 0xef23f1f4d0c31b29U, 0x1a03bb24f4e01afaU,
  0x21dec826ce81ba2dU, 0xb55ca0d01f205f6U, 0x14a61657e6364a10U, 0xe1e7d81dce1638adU,
  0x63502eafad646e8U, 0xe451e0dcccc0f607U, 0xc92fcc2281cb1913U, 0xcd0b159bb526f606U,
  0xf6651ce8eb5931eeU, 0xce1ff43b2a10ef30U, 0xc075eedaadee09U, 0xfa390e11da2406e8U,
  0x3edd2af21fe8ed3fU, 0x2932db0b36e8c63eU, 0xbf0fe923f30c1e20U, 0xfa05302dae0ebc08U,
  0xfcf02f1c47d0ff14U, 0x1f14eb0be5f7dfc7U, 0x2fee0981ee18ffe0U, 0x118e3edffcb2f26U,
  0x130a0be4f932fecbU, 0xd9e8e3eff20e1304U, 0x1bef1425bd1be923U, 0x5fccc0458fdb0fbU,
  0x1120bc4fbebd8ccU, 0x11d122bcff681ebU, 0xeab1d0e80808d8f4U, 0x3f4e1d4dfc6ffb4U,
  0xcf0c16b9c342dfc2U, 0x56214706fa85f40cU, 0x4dd2d0333cf24ae9U, 0xc06e51eb117124bU,
  0xeeffe9e081f01791U, 0x38ecb50137ea172bU, 0x6b1403c01df407b0U, 0xd18bcf25cfd84b1eU,
  0xfe08e09a5281dfffU, 0x2edd330133f63a53U, 0x523b7841bd14dcfbU, 0x5fe0ce22d3e9f81fU,
  0xeed411d9105642e8U, 0xd25f2f13d0527eeU, 0x631df40ebbec302cU, 0x3257f6b8b7524c35U,
  0x4046e1334f02d4e6U, 0xeb0e18f41c81e0fbU, 0xa050e1a20ff0403U, 0xfef3d14f61a03U,
  0xfdf5eadef40f3f04U, 0x4d310d1a061d040dU, 0xfbba1d2200ee28c7U, 0xffca14c17af52f2fU,
  0xb41af5bde92ac2f7U, 0xfde01dffd09e114bU, 0x3531cf609ce9c1c8U, 0x1cda564ac144fdddU,
  0xacfeef7f0a22ddfaU, 0x1e640dadd89fee2U, 0xf6d933295441302eU, 0xaf635d052b1525f9U,
  0x10f41eb2ce805fdU, 0xc300eee049f4dee4U, 0x13cb3bc1116bcff1U, 0x906b8fa13068f16U,
  0xefdfb52911e1222U, 0x220e92242f5384fU, 0xcfdb06c82fec317fU, 0x8f43c951fbbaf22bU,
  0x3016070281f3ed4fU, 0x6bcef3620472308U, 0x26260f052c15bda2U, 0xee3d1220edd91be5U,
  0x34012ed5292945f7U, 0x8fd9a716b82ded24U, 0x239a131a30d414e6U, 0xaeb7ebcf02c90829U,
  0xf127e13207e5e5d2U, 0xe943e41addeef5c5U, 0x14fd072d0704e4d5U, 0xe251e2a0db814f1U,
  0xc9da25ec23def0caU, 0xb3ee07072c08f92cU, 0xcb17e281f53bf222U, 0x1f04f71b1c1a3adcU,
  0x26cc6631d6127f18U, 0x90213f31ee1d90fU, 0x30dee1d12ecb105U, 0xfd24e5e8ed900828U,
  0xd9ceb8d1cee5481cU, 0xf6212499b6efe1edU, 0xe8f9eb131cdee05dU, 0xc8c9eae6061f03b6U,
  0x1b0a150f2ad3fceeU, 0xbdf1c9f1232d5e9U, 0xe430d3d500ec12d2U, 0xfc50ddd170642f0dU,
  0x9beb2ae6c4dbfc12U, 0xbd0bf9f21d03fde7U, 0x642e27ef7f2bdd1dU, 0x2df007ae4fc016caU,
  0xb9e4c3eca91d3956U, 0xa3ef22410f8dc12bU, 0x3e2bc5ef22d7fce4U, 0x7f40daf5492adf35U,
  0xa8479b1a1b3b1903U, 0x9ed8656fd240dd8U, 0xac41e4ec9f29f3d6U, 0xa6cd4cafc1e19e9U,
  0xed5c06c00e7e219U, 0xdcccf318c53e10f7U, 0xbff3908bbe80401U, 0x51193708813d8e1bU,
  0xba39f5f493e0b9ffU, 0xbf3061dda520112U, 0x9eed8ef13cdad30U, 0xf9c703e511771e6bU,
  0x81f9b917c2f43800U, 0xf1bba6f110d60fc9U, 0xc0ff26dec6112218U, 0x15c5eb30e00a002eU,
  0x8dc08ac31ed3401U, 0x3abfe2d4f10afbebU, 0x3ce540f40b1ce921U, 0xb1ec6123b180cfcU,
  0x271384e3fa7105e2U, 0xf3d0183b4a350ae7U, 0xcc0efa14551cf21aU, 0xc50551ba12bff8ecU,
  0xcb820f0581e30504U, 0xf80f391624f79c15U, 0xfb022af1fdf427d2U, 0xd756a8c2fb2ce01fU,
  0xaed8fe310097cff9U, 0x161127d20afe814cU, 0x50fdf935a75551f9U, 0xe2932dd005a822eaU,
  0xf3b20badc9eda93aU, 0xbabb9c1bb0bbfa17U, 0x9821094bd1ade522U, 0xef2eb2da2fcd0668U,
  0x3d96e3611a0411fdU, 0xe71d1639d40814eaU, 0x1a1cd6fa24fe1dfaU, 0x208100e0fbceefebU,
  0xd84031fce2d159d3U, 0xf207dd0005fd01f4U, 0x3f90e2c1e57371dU, 0xea03000301bcf3d2U,
  0xe62056ee2ef71d44U, 0x9422fdf0f30f1106U, 0xbe150032fe02d7cfU, 0x10dbd4e9fd0708f6U,
  0xcff4f3f815009581U, 0x70f0cc1c5125b22U, 0xaf11ae60719479eU, 0x3614d306f721ec20U,
  0xc8420debe6a4e8d4U, 0xd704a1527b192819U, 0x7fddacb410d7fbf5U, 0xbbe80cf2e82a2f34U,
  0x893830fafbae303dU, 0xfa415befb9e6e10bU, 0xd10bd1f1bbea2dfdU, 0x7e1ca1c2209e80cU,
  0x1a46d300e808fc67U, 0xd9235e203d45011fU, 0x2636f71702096628U, 0x1bfc0e331df30353U,
  0x5162dfc9ca223111U, 0x26c25ce8268112f8U, 0xe6baddab5af2f413U, 0x3824e901233e5e39U,
  0x29f417c9071f1cfbU, 0xf9e3b1181fe3ea0aU, 0xeefe6cedba3321faU, 0xeb3757c9ed3b7fe5U,
  0x43f4edbcb9bb23e7U, 0x18a2caefe3352cafU, 0xaaf889f7bf651b3dU, 0xcf0b03d31b1f16ebU,
  0xbf2e52000b6b301dU, 0xc2f92af53bfcdccaU, 0xfff1063c09b9469cU, 0x100deecd3fe5ff30U,
  0x1f17f0aefb5f6f7U, 0xeae30847e623c2d2U, 0x2910e70ee1ef4216U, 0xe006f1ff70fda29U,
  0xabe9c9b30dbeb348U, 0xb7161cfe12defe00U, 0x91a5c47557d10bedU, 0xfad103dadd36e34eU,
  0xf5e3ea810433ed21U, 0xcdda3c3b1b165a37U, 0x1bbae10df39ca11U, 0x14f162bccfd6499eU,
  0xdf1404bf322ceb10U, 0xd862dd14fc421e31U, 0x9ce0f0ec1c50029U, 0x1f07f7100ce3db08U,
  0x18f7d439f3ef4037U, 0xdac3c9dffb2de334U, 0xfc1c263802f8e9e0U, 0xe4fdec092eff7f12U,
  0x7b37c713c610ff43U, 0x23cc1da21e92c04U, 0x2602f3a10e13f70bU, 0x74200bc8c8dc633bU,
  0xe68f41a1ea1ebb27U, 0x66230012c63f9003U, 0xc92c01687f10ee1eU, 0xfe0d12799aa54924U,
  0x39b1d496e5dd1a17U, 0xf1033d24f611eb52U, 0x9b53029caa981a8U, 0x89b0bf1fee18342eU,
  0x18fef510ef10d104U, 0x3045e577420927adU, 0xf8fb49d60524a317U, 0xe90bdd6266292c3cU,
  0xf7db56c70533d90eU, 0xdb0fb1d9c8112af0U, 0x1413fc526039e90dU, 0x4ce925ee09333af7U,
  0xd53de20d3bcce826U, 0x300be03932b9fe33U, 0xcdd7ff4a706d364U, 0x3ee313e00919d905U,
  0x1f154b4f021e1d72U, 0x170cfb4a19fa17e3U, 0x73a6a702c74232cdU, 0x8efd7abfdfe24a2U,
  0xf4a41068f52821d7U, 0x510c512255e6f45cU, 0x7fe1d9f8d1069ad4U, 0xeb6309fa5df8ecc9U,
  0xeecedbef013510ecU, 0xb236ef2d5517ffa5U, 0x4a10a0fbe246442cU, 0xaa23f7cf1114dfabU,
  0xeeadacd66b08deb9U, 0xdd5baded44032b81U, 0xf20bfe0b4ec30f44U, 0xdfbf36e7e822234dU,
  0xda00ef153b27304aU, 0x42f8e9f91af44234U, 0x2608a70edaf9d8d3U, 0xe0eebb15f658c0bfU,
  0xbd2ee04b8df2407U, 0xf3e6e9f51c0cfa3eU, 0x90eb47c9dd2f18f4U, 0x7fde30f1c1fed10bU,
  0xf6000fe802f83427U, 0x9fe0e0bbcfce141U, 0xfa2aebf612f8f725U, 0x3be72f5b0d3cf92cU,
  0x3dbb2e8128940cf2U, 0xdf29f9e14354f20cU, 0xd30bc9340a8cebffU, 0xa72e0d141d25ee03U,
  0xa99df0c451c37d19U, 0xd6e8f768de05f1b8U, 0x6991955c10b0e0cU, 0x187ff212b2d53eccU,
  0xb73f122b170ad474U, 0x4f28fa11679ed465U, 0xe00707c879f77ea6U, 0x31d12abdfcc4aaedU,
  0xb116ee2e29f2e1ecU, 0xed04c0f6df13eb10U, 0x60efc413a28f981U, 0xcaf9d3e4f20ffe06U,
  0x3043f906feecfe24U, 0x5d15eab20c22f0d1U, 0xf91c1ee513e2c4c9U, 0xd04933d3c3131ce3U,
  0xc4cbfa6dae25bf2fU, 0x951a74ff7d05523fU, 0xc2421240e76ead71U, 0xd61f0c7fbf1264eaU,
  0x1340f0a199cd1104U, 0xf934b509db54fcf5U, 0x4a741120dac00600U, 0xc254b52fed0269aU,
  0xb98110f3c39ebe0bU, 0x5337f114ebf41a13U, 0xf691ea073efae45bU, 0xff44e0d170d9f1dbU,
  0xdce37b4fb9fe43b7U, 0x7200f331c9e327e0U, 0xbeb0620647b23efaU, 0x233119ee146c4bf7U,
  0x36d40d3e1523b3dcU, 0xd9211c141cc9b109U, 0x13a4b9f8cff8c9f1U, 0xf376c7fd2e06fde1U,
  0xe2ed4a35b9729eaU, 0xf496691adeea3f41U, 0x3f287f2607320323U, 0xe348f1fd8703c02bU,
  0xbecb494d7adbc50bU, 0xfee8adbb22ee3ab2U, 0xbdab31220e2e3f5U, 0x403945ede9da267fU,
  0x5ff1cb1cd724fcbdU, 0x9041fa025593c589U, 0x4d40c110156eca0U, 0x2028ea0e24f5c31cU,
  0x25243508ddf2ca74U, 0xaadf46a3add612b4U, 0x21a93dde1aa122d6U, 0x813649e9e213c9c0U,
  0x9e4201514a155c5U, 0x1c6bfff40ec2c5faU, 0xf440f133fe06021cU, 0x6307a7c9e5c2dcebU,
  0xe408d8ce72190a3fU, 0x52fa231a25af7fa8U, 0xeccae8fafe93fde6U, 0x35ee213732ee20c1U,
  0x96819bce53f940eU, 0x1216d0ccbee4380bU, 0x102706b4dfc8c13dU, 0xa148dec313013627U,
  0x6fecc0123f3cf28U, 0xdfd3c20cc2b030bU, 0x12f4ffe7bc0db60cU, 0xdbf951ef29020a7fU,
  0xc708dce21d10e003U, 0x4e9c9b89271ff5e1U, 0x14aeefe0bfbc201bU, 0xfa1411390ae2e8f6U,
  0xe9fd4728e535c207U, 0xfceb5208c6d3da16U, 0xf3c544810b22e016U, 0x159deab8090f45acU,
  0xeff0e1ce06fc3f78U, 0x993be80ff411a1e3U, 0xcc3f3a8570313c5U, 0x1d020d2bd8590b1cU,
  0xded61bf514f849f9U, 0xd9a22e9c1cf906d1U, 0x34ffc18cf533d505U, 0xf4ac60d60b81331eU,
  0x1121c2663796e5d4U, 0x1fff6a5113600623U, 0xfa0843c811090ddeU, 0x5c82488c1c670e8U,
  0xc934bce71e20d567U, 0x3956dab9b87fb0d6U, 0xe93d40e1bb1304ceU, 0x3d0d3cfc3ad515d5U,
  0xaed0b0c9d20d72faU, 0x165b626c9b103ba6U, 0x11220fddf6d300c3U, 0xa0a3fe20f0b484d1U,
  0xb0d102bc348be0cU, 0xa81b5f4011bed17U, 0x21b231fdaad2738U, 0xd6f916de2dc70d20U,
  0xf9d6cedc08172bf5U, 0x74aebe0eb202e45U, 0xea42d7d329e81014U, 0x1c273502cb051aU,
  0xe7f3060e0ad91c0bU, 0x120f9062127bb06U, 0xe0bf15e41d0714e7U, 0xef000a2f1e2e11efU,
  0xe40fcc2803360b97U, 0x21a07f7fdde8148U, 0xc101e07e0250d22U, 0xfeee35f6e717001cU,
  0x2d2e5858f205e4e8U, 0xd3efc41fe019471eU, 0xc6c2be0cdffa3be9U, 0xf3b7227f2315263dU,
  0xeabed900fa442336U, 0x12bad16c094415ccU, 0xfc3fde0749bf464bU, 0xc8e4babe9f1fe0b3U,
  0xcfcfe60a1319fbf7U, 0xe9f8f7e981f01825U, 0xd230afe20c25fdc8U, 0xec44fdd409220b0cU,
  0x67e5f3f30a13e50eU, 0xd4d3213cc05ee13U, 0x4411d4f5cb10624dU, 0x1bece41527ea4309U,
  0x34bf6d3ad14e8eeU, 0x1d23237fe7f6eb05U, 0xde9610e7cd3fdf01U, 0x43f1fc30ddffdd45U,
  0x16f42725d730ed10U, 0xd9441e94022058b9U, 0xf30648f7cddeda27U, 0x3c13319d26bf1744U,
  0xe2f93ece36c1abe2U, 0xcee0457f080ce4e9U, 0x2b5b03e41badff23U, 0x42faeff2a315f411U,
  0x6bc5f9ccf53beed3U, 0x41af0912d40ee3f4U, 0xd74072a50ce3d813U, 0xfef118df49ececbcU,
  0x59b266cecd05e13bU, 0x4dca0b2c090232b0U, 0x30ee1e0dcf715fe8U, 0xac04c62614dc833aU,
  0x832cf6a5db3f0647U, 0xe4f55100261bc5ebU, 0x8f597f39bc2d4f9cU, 0xc726283b50446b08U,
  0xd9e108cb0ef081f4U, 0xf8e3581d29e61b24U, 0x8f26d2e7c6ef26c0U, 0x4020bc0cdcaa1fd1U,
  0xc4112725081f35f2U, 0x3fee21c2670ce3daU, 0xc0d3fd0bdef2d52bU, 0xe6c1be17fbfa1345U,
  0xda21f004fd08db5dU, 0x3290109ddda0c10U, 0x2f32210207fbfe7fU, 0xab00bf11efdf1636U,
  0xf8f62412e91ef227U, 0xefe605f4f559e4e7U, 0x140ced09093ce82aU, 0xbdedf9d5e709cc2cU,
  0xdf8af7e6f637ba1fU, 0x74dedf06cd2bf60U, 0x52d31415e3f453a8U, 0x18f275ea33f6e2fcU,
  0x333f31061d40b01aU, 0x46a1ab7467f0f46U, 0xedb621d313e3910U, 0x38db96f61668a885U,
  0xffcfe7c7e3ebf3c2U, 0x226048ab020a6df8U, 0xfbf4f4ddf3056daeU, 0x28c713d0caf551U,
  0xfd01c82f20c30af1U, 0x1b30d91fe2eefd5aU, 0xd7bc25b710340603U, 0x47357c24c1e810aU,
  0xe781eb013449e300U, 0x3328f3f70d01e795U, 0x2016391708e70ee0U, 0xf4edc209ba694d34U,
  0xd90cee45330cfadfU, 0xcfe24702f1060017U, 0xd3bef3f2f2a81103U, 0x3850d5e4f3fa27d8U,
  0x1d370c2e5e7b6670U, 0x813218e8cd5d7381U, 0xf5267fd2414b7228U, 0xf1d13ab2db11e11fU,
  0x6c0ead7f68818bf3U, 0x7506428c84f90e23U, 0x170f26813393bb8bU, 0x7f03d9f7087f518cU,
  0x91c33b22dd6f16b1U, 0xeccd6eae0c38da63U, 0x67b87f6cee009481U, 0xd37f5c099d169944U,
  0x6c13ef98ca939fe4U, 0xea456f818fa38103U, 0xd481d97a66b51a09U, 0x486f52710bb42d26U,
  0x6cca73a8eeaa7f64U, 0x66ea81240b4e24e8U, 0xe703d7e87f105668U, 0x3b7f73a59a3dc8c0U,
  0x57f07fb9fda50ffdU, 0x387653c84852c145U, 0xb216abe90ae47f69U, 0xb681167247027fadU,
  0x5d9a3073caefa599U, 0x9dcd131d68c94d81U, 0xb47f0a913bb548ddU, 0x2d3c81b0cca0e2eaU,
  0x427f3cd4338d8ec7U, 0xaa6f46a77f32f7abU, 0x4b81c354796fad97U, 0xea1d8da1f9722865U,
  0xa0251f814b015623U, 0xa5092fe2b721287fU, 0xb6c38190edf0c45eU, 0x70193881cbf8274cU,
  0x7f011a51cf2971a9U, 0x81cf3893286bc19bU, 0xcbfc7f24952951e7U, 0x928db07ff39e4e7aU,
  0x3b709399b7dce5edU, 0x5cda14427fac33deU, 0xd80c7b3e2481cef6U, 0x1601ba7f5d2c0411U,
  0x58cb0c56cbadd581U, 0x1ce5a3818ad2b6a5U, 0xb48179efc5940d33U, 0x4a0773a61a81aa27U,
  0xef6c8f7f23209c65U, 0x819aa812660da850U, 0x7f52b5739a9c5733U, 0x9f756125dd7b652bU,
  0x348c7fa9b5e724e8U, 0xc57ffe5844073cd6U, 0x8a0f7f6b7c25a063U, 0xaf3ff646a38132daU,
  0xb6991f3581e106fdU, 0x7f3fd82034bd6706U, 0xbf816168e9dbd256U, 0x81fb7e2fd13a4cb6U,
  0xbcb6e389ad0c34c8U, 0x29f8242bfb7f6a4bU, 0x1048da1571067fbeU, 0xeac33a9e7f3fbd9fU,
  0x81692b28baa00b6aU, 0xea7f31151f95b69dU, 0xd642a28e7f410175U, 0xf0b7e238d611dcb8U,
  0x987f1c7fb6a00f27U, 0x7f9e24fdbdb099d4U, 0x8f3aebd809ce6b86U, 0xe6dc547e7fff73d2U,
  0xfffffdcfffffff32U, 0x2ffffff91U, 0xfffffe610000048aU, 0x61fffffb75U,
  0xfffffdd0000001d6U, 0x10dfffffd09U, 0xfffffe6700000407U, 0x3f1fffffca6U,
  0xfffffbc000000355U, 0x34a000003a7U, 0x19cfffffe3dU, 0xfffffd6600000059U,
  0xfffffe9e00000351U, 0xfffffdbbfffffd31U, 0x20800000033U, 0xc4fffffec8U,
  0xfffffbed0000039bU, 0xfffffbad000000f4U, 0xffffff08ffffff3cU, 0xc00000009U,
  0xfffffd40000003dcU, 0x24fffffd7fU, 0xfffffdd9fffffc9eU, 0x4400000159U,
  0xffffff6efffffebfU, 0xfffffd6e0000006cU, 0xfffff93b000001adU, 0xffffff27fffffe02U,
  0xffffff4e00000105U, 0xfffffc14ffffff00U, 0x45dffffffefU, 0xffffffb8000009edU,
  0x185053fc692231b4U, 0x453f5132ed8d9c66U, 0x6c155de97a80eb0U, 0x83c9a6393f65f9c8U,
  0x623750358a723f94U, 0x7f7f43f3649affe9U, 0x2743bafaf527041aU, 0x50bf1a71b4274e50U,
  0xf0154f60aeaff63U, 0xd10e4947776cdba9U, 0xc9550698ff4a6409U, 0x452a69655dd933ebU,
  0x30c10eb27fa4dfe1U, 0x57dd07450367d738U, 0x2cf5f81bd6d04168U, 0x5c20360026cf1a56U,
  0xc207ceeacf2f9ee6U, 0xfa3af9cda4127b4U, 0xf9ab58b79c1c0394U, 0x9302b2c68f3863bbU,
  0x53cc7fe518c61659U, 0xffc69cdd23191b87U, 0xdd171c1e6943f232U, 0x22d7e7de44c708c8U,
  0xa6513bceeab7e947U, 0xb56596f8a95529f4U, 0xcdd8b71f340fbf27U, 0x4e5c2de3aed4e6bdU,
  0xdeddbec145de6923U, 0x2348c7e3a60696d9U, 0x49c581c38ee18ce9U, 0xe054c15a0e350867U,
  0xe13b71a32c5e29a1U, 0x4328e0d57d9d08cU, 0x55ae380a15e44503U, 0x54f5e8197f0a67daU,
  0x69faba196bab0a2cU, 0x1f1a905e4ac66b06U, 0x6b485fb36cf409baU, 0xe9a0f54960674f40U,
  0x8a35f60cc0bf2974U, 0x42b2c95d2c32460fU, 0x1b9344df4832d027U, 0x264ca4812031474bU,
  0xd20eadcafafcc616U, 0x3b02cb524bac72f7U, 0xeccef6450008eeeaU, 0xda16e7a6d6e6a0fcU,
  0x5910daa8f56a47b2U, 0x73fff7d6fe2c2224U, 0xab3fdd359eaee2fcU, 0xc481b26a63e43727U,
  0xf38a8cf6f50b4ea6U, 0xa35eff45cb3cd59cU, 0x6f0d95e99f9034cU, 0xf7b0bc5e172c5e3eU,
  0xc0f3a62ad041fb00U, 0xb5b9663e3a46b3f2U, 0x5242c624cfd6434cU, 0xa7a839dfe5081b13U,
  0x8f963fdf143d5b08U, 0x533ef226c90dfa81U, 0xa5081758ff98464bU, 0x539e99505b09491bU,
  0x1e088c19df353c36U, 0xebee5beedb0f65e0U, 0xfe53da261b4749dcU, 0xf601e30083a6f02eU,
  0xeca9d979fe61d238U, 0x2affcf7baff5bbbU, 0x97cb32350a7f34f1U, 0x2613025fa7279c32U,
  0xdd585c2d47b2f848U, 0x4248b6a1e73ea103U, 0xd01d4e45de13c36fU, 0x981ea540fa2f535U,
  0x6f71fcc526b1c640U, 0xf6d2ceae2f939269U, 0x55363593e5ed9136U, 0xcf31ef18fce8949eU,
  0x4ec9f4c6b1de1d41U, 0x4fb2311d0ac406e9U, 0xea4eca9a2008fac7U, 0xe3e430be4d31dee2U,
  0xfac120dce5290ff8U, 0xc9e11803f416d125U, 0xf42c49eb3d2df449U, 0xdc2e8104f80a02a1U,
  0xf823f812453f12adU, 0x72dffb018ab2b81aU, 0x63cfa36d30fbc5fU, 0x981e06561df62558U,
  0x75e51210bca784fcU, 0x76010c06c4a13e72U, 0xa5813ad012b765a1U, 0x359c76f0f2dda2fbU,
  0x949ca7b6b86a5ad4U, 0xb0fad8045a163ee0U, 0x72b904e4f70beab1U, 0x3827ca494ca9a86bU,
  0x4794cc43812b9e2dU, 0x47f0cfdc19bd1b51U, 0x97c4f54f3164c566U, 0xc9bf25073d6370bU,
  0x90edeee6e422e711U, 0x64717fc38fd817dbU, 0x946260c897f8ac3aU, 0xea20ac28cde72450U,
  0x2bb2218126e0e0f4U, 0xd33a50c8ae47bd68U, 0xd8d2599f22b4dd0aU, 0xad56deea5e9518e4U,
  0x62663103a2ddf597U, 0x58f7e50de35a6945U, 0xc6eb24306f0cbb7dU, 0xabce3ef00c9dc579U,
  0xc70c97a930e8810bU, 0xe3dfbaab4e66290aU, 0x532240514422a511U, 0x20b3cbda8f370274U,
  0xab4b0c092a3babc2U, 0x492b25a309c70f3bU, 0xef1d9de9d2482026U, 0xb6b82ac83f63be13U,
  0x4c20c4d206309fcaU, 0x18f3220d0e7faab9U, 0x2abce13e57483ec0U, 0x25f7b7d0db2fe00eU,
  0x7264b2b09dc4c04cU, 0x4e0ecf160c03a0d1U, 0xa5c968d160f912bdU, 0x316a4e7f481221d0U,
  0x3bbf29190947eb5cU, 0x46ccb9bd02cd47e8U, 0x232a1e1d41c06ef7U, 0xef134df778302121U,
  0x3f25559534c7f445U, 0x8626f850a8305be1U, 0x52c3fcb3b9bf7f1eU, 0x1deaafb7e8b1d333U,
  0x5bb3d3c7442f69ebU, 0xe4e509de3b0d4b3dU, 0x6524c1af34b3b7d6U, 0xf2eadafd97b855c1U,
  0xf1030d5c01dfadbeU, 0xcc470f1926b01cb9U, 0xcf2a722e248e2dd7U, 0xc63b26a4cf2c52d6U,
  0x32a2ccd9220c5be4U, 0xb7bd2e3d51d50c3eU, 0xd6f8d0e52c1d1aedU, 0x1215f6dec9812f67U,
  0xe4da26de131c224eU, 0x2420e82032253bcdU, 0x10f9b05991350b27U, 0xf03653bab4db4d1fU,
  0xb701b83f2e20a007U, 0xad234caa40e21ca2U, 0xc8f29a17d98adcf3U, 0x559ebe3cce382a81U,
  0x9412faa9a5e9c56eU, 0xef599b407ff2a20aU, 0xcf450613ce36db27U, 0x1e2fe4d0353be064U,
  0x73be42bf730e1deU, 0xd0233b07e9162928U, 0x1506212ec8794d0aU, 0x26f92466110b08abU,
  0x754cdfbbf966750bU, 0x1faa62c9ea51fd27U, 0x5124df30b3392411U, 0x23e353c5704705c0U,
  0x2d46b7382b1a4952U, 0x59675b6227c3574bU, 0x7fb85b43afac620aU, 0x55eac72d9af1149dU,
  0xb6820412ac3209beU, 0x6b37e878465c9ff0U, 0xb9048bdbec389432U, 0xb60e551b1dd9edeaU,
  0x3f94fad8dbe668ffU, 0xf2caaa66d9934e94U, 0xb0a7f04181b1670fU, 0xe40e25e3bbc35b8fU,
  0xc9c32cbb16b4eaffU, 0x37dbd498d3ad3cd8U, 0x1e3c1b2ae5b0e405U, 0xecd924aeef17f0bfU,
  0x1f1acc0df2816ffdU, 0x2ece9e7dcfb82b51U, 0x1ad52501b2343ddcU, 0xffe4aa5bea134231U,
  0x3c91c2a444e4499dU, 0x1339659ff74a91ceU, 0xdb25257f23b39074U, 0xcca996e041c04db3U,
  0x92c363ad080b8df2U, 0x3e465799fc89db3fU, 0xaed5476dd5666394U, 0xe4ebb16d56d7df0dU,
  0xf13e102cd8a2d1d9U, 0xd2bb0eee1f45bbfcU, 0xaebd361bd0beb2cfU, 0x2dda9e1bd12c41beU,
  0x541b0ccd33815dfcU, 0x43b2163bb96c44bU, 0xe296bad62b09c201U, 0xb9bd0933f2c9f5edU,
  0x99932e2fcbca1239U, 0xef77702dd7161c99U, 0x6b0a0a0ad3379159U, 0xd51b11d02e69ef3U,
  0x46c21ff8247fad70U, 0x2629199a91311e2bU, 0xc50aaf5eba4df449U, 0x3e607d69b69a1e25U,
  0x14bf8bceed2093U, 0x63999ab96b44964cU, 0xb3ecb9af9baa3334U, 0xcd73e2225ced4d86U,
  0x2787a513e228a74bU, 0x10be967ec3cb7f57U, 0xc859301bf424232eU, 0x99b3cb2d9e4471e7U,
  0x9d9cfc1cf2b9b3c2U, 0x4a561dbee5b9927fU, 0x3639024a362de7c7U, 0xf965bcc6c93eb22dU,
  0xa7eb9c73a6ecaca6U, 0x55de1aab11e7b601U, 0xfbd7b0a24ad4e3f0U, 0xef6539432dcd01c0U,
  0xf284a649ff157a1fU, 0x3ec7e5311d24d87cU, 0x9c40dbdad4f89742U, 0xa2a1c5fd61c5dc61U,
  0xc5ce8dc6ae065bbfU, 0xc3c500bc0132ebffU, 0x6be1dfd0a0f7071dU, 0x25cbabfbdbb3a81U,
  0xc7f10de58e9fc27U, 0xb554e6bed76916bfU, 0xf329fd4ac9ffa8e6U, 0xb20959d9a3f2df3eU,
  0x12d162e1fc95e786U, 0x90324117402f1d2aU, 0xe469dc13f53988baU, 0xf6edc737364ed453U,
  0x3e041369bdfdf049U, 0xaa27ab1fc250eb3cU, 0xc6a6c03dc6c4fa14U, 0x4951289f54d20b46U,
  0xb5974454cd58c9c3U, 0x20d6b3c314c1186fU, 0x421a6b6881bc1ee2U, 0xd141114959f04230U,
  0x3d92c25dcdc65282U, 0x112f731cf4c262f1U, 0x467f1a0edd079bc7U, 0x31fe8cd3981d420cU,
  0xa01791ece899d010U, 0xb597c6c34b2ff7dcU, 0x5aa40e60d709be25U, 0x1502474720b658f2U,
  0x5d23ca5ee193c84aU, 0xd3964e162a2453a9U, 0x2a5f7f3ccf940a23U, 0x4410f2e4f2df7a10U,
  0x38ab2343dfb52445U, 0xf5dc440e130bdc58U, 0x2a122f35e832d228U, 0xaacfb04719d2ea2eU,
  0xdae3987f49103b32U, 0xbe0bb82cce96371dU, 0x2fe4ea3edb4acb2dU, 0xacff1824cbd3140bU,
  0x42ad5a4e9cf4ddc1U, 0xf2d251f0a33ffd24U, 0x270f3102912865eeU, 0xf828dc12c84e5264U,
  0x1c2562fce29a2a4eU, 0x1977e5edb6d0e45eU, 0x305a7ee72fec2d2U, 0x1a5e647fcfe8489U,
  0x7015056fd208135U, 0x19d259f79e269800U, 0xb249c80fffc8f22eU, 0xea259f8e83839b3U,
  0xc636cbf9d5531309U, 0xe19a15bce3b06718U, 0x2b56120f387a9770U, 0x7009c8cbddabf7afU,
  0xeed27f8f08b3d7a8U, 0xb0edfccd4c30c526U, 0xd112b7dd658b2ab6U, 0xa2c09efcabf530f7U,
  0xc9eac3f85f25ccd7U, 0xbfd34c5325faecc4U, 0x442bd5119ddaf9bdU, 0xc62835f441dc0806U,
  0xcf87f3e223f146adU, 0x39cbf85133b03f03U, 0xb72a6de3da1b4219U, 0x23a9dc4f5afe7f56U,
  0x3dda1bbabfae8175U, 0x44e0dd2738fb4629U, 0xe5dab84057b5efadU, 0x10553e4533448922U,
  0xf44c8b5fbf4b3ccU, 0x1b0b209cc24dd62bU, 0xd06589d32dfdd0e0U, 0xf0cb211accdaea70U,
  0x71d1a6025328d7caU, 0x71eef7e42dda95f7U, 0x3766cf39e251f739U, 0x58f2363413dfead0U,
  0xdd2481f1a625241cU, 0xc462ae8bf59242aU, 0x40313852b836100bU, 0x5cc136ed61a87ac5U,
  0xde9b79e109b5ecbdU, 0x814c9272570cf18fU, 0xcb06105d990f673bU, 0xa7b33bd5f323b850U,
  0xc3872607eedef745U, 0x32012d55f8bbffcaU, 0x536849f49f0b5a4U, 0xfab5b7ef46e11230U,
  0x2ba5b8d1ba075976U, 0x6c58de5d3c5f4c51U, 0xd0fd51e2e047cb6bU, 0x632e2037cc07297eU,
  0xbbcca1c6d61481efU, 0x72e7cad75e58fafaU, 0xdb1fa0ec854d64afU, 0x8dd82f228d714248U,
  0x7807e8c261c4bf29U, 0x6ce6d72ab53881adU, 0xb20562dd252799acU, 0x4519264ea5b63ca9U,
  0x315bd10de318c530U, 0x28efaa2cbe57f837U, 0x36fc62a000600ee1U, 0xfeaa441643c43000U,
  0xc2a0289181115066U, 0xb527bc3ac118c191U, 0x93e628df6f94e8e5U, 0x4eaa30ce177190b5U,
  0x9e6150e1b90ae091U, 0xa95eb7140f2ab73fU, 0x4e0458d418fc1774U, 0xc74539de3e9856cU,
  0x4a0eb9a9b1da111fU, 0x3f3df0e8dbec29c0U, 0xb4e63666959acea0U, 0x99f6e06602ca1352U,
  0x46de46e6fa43a7c4U, 0x4409da0015815934U, 0x5dfd0f3c2a00d4e0U, 0x1eb20b4c434ff452U,
  0xd52416d72631dc02U, 0x482b3cc5c5e6cbf9U, 0xc5bfbebdbc4448d6U, 0x3deffd18f52356afU,
  0x57bdc0ef23400aafU, 0x81fd13f3ffc73c1cU, 0x214bfaf6170df7e9U, 0x4e06f622ed59ac9eU,
  0xcfcff1cf29202345U, 0x33fb39e9ee2f5988U, 0xae90169e36291736U, 0xeb903fe52c7d4fffU,
  0x4577163bd534021fU, 0x8f033f31924a7f45U, 0xe74fa5936059bfc4U, 0x584c19f6ebae9fc8U,
  0xa1d6fa77952acdc6U, 0x487feb412a020d76U, 0x5e68b9d72f6e09d7U, 0x265f8b8ce391138U,
  0xcc4fe73f955688c7U, 0xb3b9d58497febf2eU, 0x32ce4827df242607U, 0xbc69542b2749c617U,
  0x25c708a76345662bU, 0x1ff1840f2af5be1U, 0x65615cf74804aad7U, 0xdd25914866aaf412U,
  0xe1ba81dd9b38b132U, 0x7077996403e5cb31U, 0x46700c6c1e2f208cU, 0xef1a0922e44b3c5cU,
  0xe902570205fc5315U, 0x18b3bf0c199f2229U, 0x78d0652dc3113bbdU, 0xdeab403d503cd9fU,
  0xab22e0c1504734c3U, 0x3e0d94179b159eb8U, 0x195525e1614fb51fU, 0x4358c39c7f94abf5U,
  0x9a0742215613acfdU, 0xa1c3ca9ce01064a7U, 0x1fe1f245ebd35423U, 0x59c7fd1144e5db9bU,
  0x21a21892c5e3455cU, 0xc49c25bfa9d817b3U, 0x54ee2ef2e8b1810cU, 0xd3b8b6e72723d61cU,
  0x1329e83fcdd52766U, 0x1b40edb9e343de9U, 0x505f3332eeaf0e2bU, 0x563444f6323c0017U,
  0xab11dc95675362e3U, 0xad3e0332fdcc1d81U, 0xa92a5d07c0d60968U, 0xd919cff638c4d394U,
  0x1706e53bade6dde8U, 0xcb9f4301a23106daU, 0xe294e58798127e7U, 0xde8624697dd3cb7fU,
  0x1a31f437041cd32fU, 0xfb307457bffc7f9bU, 0x873bc85909d03c5cU, 0xae2052f0798176e3U,
  0xbec1e64649f82b0aU, 0xeca755df039a18abU, 0x5f089eb4d3e3e8fdU, 0x5240ee859f9cdd35U,
  0x9941d0b0f2f24608U, 0x1fbc25f1d4f2d76cU, 0x8b2241cada2a3093U, 0xabe4b2b207681eeU,
  0xb7efa2667eebf0e5U, 0x60cbb8aff005aadfU, 0x8ea47fcdebe7c7acU, 0xb64427522cc24b67U,
  0x230bc651a906acd0U, 0x7ad204a69cd30ed7U, 0x6f5cddd439b5d8a3U, 0xbaf52a3473c7d63dU,
  0x29d14042b302433aU, 0x26160a56c811eeddU, 0x55c130106e01f8bdU, 0xcfbd17f142e2c31dU,
  0xe644a637966d2714U, 0xd17fbb05ee5decf2U, 0xaf2323ec27bd214cU, 0xad4069a1c677d316U,
  0x183539c39f16cc6bU, 0x57f9057f24c544ecU, 0x36ee1dec0068f73fU, 0x58269cdcba3a3f5aU,
  0x163899eae945d077U, 0xb1227111bfe7ea14U, 0xc5c70151c5572732U, 0xa9764f4d00de00d3U,
  0xbcfb10dc541bd41cU, 0x5a5520b6d132227fU, 0x1fe6c709e3d42e56U, 0xf9194c4320202b22U,
  0x4125b8b4d8a55741U, 0x2a3acac43cf417e2U, 0xd1c2df50cfeed5c1U, 0xe74fe04428c905d1U,
  0x1745373750cd2601U, 0x4b26362cda32d339U, 0x32454a3fb3c6ddd8U, 0xc843addb09ddb4e2U,
  0xddf42ee4e4222231U, 0xd5cd2ad8e703f37fU, 0x23bee1e8cb3524caU, 0x3819f00dc2264751U,
  0x422bd61eac30e14eU, 0xe5908da1cd90751U, 0x19ed385bc37f40cfU, 0x2b1fbb4ee0ac1e1bU,
  0xaddb9ecd98f23b5bU, 0xfd61a92ffef1b938U, 0xbfa89a5319d4f714U, 0xcb642554ecbab2b8U,
  0xf0e181ccf763cdfbU, 0xf6ea1bdf4efabcbcU, 0x2a4b211826e32cc5U, 0xfa984ec40ce92ac8U,
  0xbac02f6e342fc15eU, 0x3f43b9b57262a33cU, 0xb8145ff6bb1d415cU, 0x3312d9de363be25dU,
  0xfb106cff00e7e173U, 0xd4a2e065c8b7d8eeU, 0x36e685adb1fefa5fU, 0x558a1a4e97e59e0fU,
  0x57041a43f37fba8dU, 0x67c2b0a4e7754bfcU, 0x4db9909e0af3a40dU, 0xdefeb3d212043c55U,
  0xa24eadd8c2db12fcU, 0xa4e21ee6d48b440U, 0xee2a5c5092563209U, 0x53b7a336ce20a5f3U,
  0x65474b62dbc1f692U, 0xca09d0f296e9577fU, 0x8fc18e1f77e6891U, 0x8fb24f638c0d0dc2U,
  0xc943125228535250U, 0x2e9af4368cda10d2U, 0xc7c4110c2abd5708U, 0xbee1ac178dbf36d1U,
  0xe757c5a30ce468f1U, 0x5b002d9cd6a151c9U, 0xc4d2e35dcde9094U, 0xc2723c2981cbdce5U,
  0x6f5ffffff9fU, 0xfffffe57fffff825U, 0xe8efffffaabU, 0xfffff50dfffff3efU,
  0x1b96fffffaefU, 0xffffefe3000001b5U, 0xffffe8f9fffffb16U, 0xfffffdf9fffff895U,
  0xffffefaf000000f1U, 0x4200000053aU, 0xfffff962fffff347U, 0xffffede500000ed3U,
  0xfffffadafffffeadU, 0x1c7fffffd70U, 0x544fffff9b9U, 0xfffff93afffff6daU,
  0x33efffff976U, 0x1098000005beU, 0x3b3fffffbd7U, 0xfffff602fffffd0dU,
  0x22fffff4a9U, 0xfffff29b00000522U, 0xfffff998fffff512U, 0xc97fffffe3fU,
  0xfffff76c00000e39U, 0xfffff3ef00000c48U, 0xfffffa89fffff233U, 0x106500000652U,
  0x584fffffc41U, 0xfffff9c5fffffdccU, 0xfffffcd1fffffb10U, 0xffffffadfffffdbcU,
  0xe7da05944fe97899U, 0x15091252b507657U, 0x914cb5f894d6092fU, 0x194b8709c630c918U,
  0x3e669bf4d4eea820U, 0xca57bc7fb108f1d0U, 0xc69a5d6c00d966b6U, 0x72d5c5aa3c32dfb7U,
  0x6b3f4fdd607f3287U, 0xd1369533e26503d9U, 0x49f4bb9ab3d47e90U, 0x2ca371455f223ba8U,
  0x391b4fbe9c26ef32U, 0x2e4bd4e1b04f0533U, 0xf8f8e59e41b220d0U, 0xc63d8c0cafebcec9U,
  0xe46f55469ec13791U, 0x3b9cb1046c7f6245U, 0x47128206042c357fU, 0x72f812c38df8266aU,
  0xf6c8e492721de0f4U, 0xeff014366b2cd192U, 0x453f9c3e48f8fd2dU, 0x68caa40f06fbd9cfU,
  0x3cf933b8d9e3afbeU, 0x62fbba51f7dc5cc7U, 0xeddc2559290f7f75U, 0xd5681ddddb1b5704U,
  0x16626a2baf31ba4cU, 0x1daca2e029d38ae3U, 0x24d03bc3d6c4eeadU, 0xf724145b9f3f2184U,
  0x861f1c620ef8dd8aU, 0x429a1182810beeaeU, 0x9e2d08b36da7fc30U, 0xb19df80b96a9a9d5U,
  0x218b11a0069292cdU, 0x27d69fcbde2fbc1U, 0xb1ae96b523f5c80fU, 0x2f9aed06ad4fd941U,
  0xdacedfae5d631334U, 0x5ee996d7491db71aU, 0x1ade95214bc87093U, 0xee44db376647336U,
  0x5d28573a0df34f3fU, 0xfb46523bc2ad812dU, 0x4ff939f23eccffc8U, 0xf516f214d0b2f900U,
  0x21aa9d4b213254b0U, 0x1439b51eb3082351U, 0x4700b6b3c7eb7f29U, 0x4bd9eeeb094b27f5U,
  0xd519e46846b79d58U, 0xd377bde7242f33caU, 0x8ae754d9c3f7fa30U, 0xc2513c29c815c462U,
  0x56d7360be7f54b3eU, 0x191781d2d5d7f226U, 0xe1d9cd01b64dfd23U, 0xe4da71c5ffefba06U,
  0x7afde13a6c41617U, 0x97a5dad997bf51c7U, 0xb20ab5b71fd2cddeU, 0xa646ebf3262b573bU,
  0x3c671ac62b1376b6U, 0xf226449b7610d661U, 0xd813732d2b9928fbU, 0x9692ade0b0ad6455U,
  0x7c7649c3db7f3cddU, 0x54c26adb3e266105U, 0xd2199e0cbb2a32b4U, 0xf5bfac2338dfd922U,
  0x5a35e07fcd3c4f0aU, 0x30ddc1504107cb39U, 0x1ae044baf53f7c32U, 0x203fc3b3becb5b39U,
  0x2476221748125e36U, 0xfb9c5f204b4011d4U, 0xb4d0abb42febfe75U, 0xc959f5e826c76113U,
  0x581e4b1acf1430d1U, 0x7f5f0b60abb55227U, 0x16a0a9f25a24323aU, 0xb81a399cc8e713c0U,
  0xcf62ecc123b7c6fbU, 0x29e55b081baf1c43U, 0x1ae6ad2f61621231U, 0x2ed3e2959c1f4bdcU,
  0x9b4585d0216536bcU, 0xa6b121de4b111833U, 0xdc17f1f58f56e36U, 0x62dc4554cb5f5b2fU,
  0x6510b567beb3224dU, 0xb76cd86e1bcaea1fU, 0xecb1bf323834e00U, 0xf9532dcb8f33db98U,
  0xd7bd226681d25f08U, 0x26aa7c9411de0520U, 0x73f4c28d46dd1b17U, 0xdf4c1602f2f82c8fU,
  0x298912d0d58e7fd3U, 0x54a8d0e147f7a663U, 0x40d4b71ab2bab122U, 0x1ee423cad02e9d06U,
  0x9d1ac2d3162652c9U, 0xdb1ed13c59894cdfU, 0x2e2be12e4652306U, 0xd2973afb555f4b2bU,
  0xd22552b856370862U, 0xbc561ff20b174b32U, 0x970dd8c100be2442U, 0xf420fbc47fc62169U,
  0x3742cf3414471039U, 0x1144d413f9175a41U, 0xe7b6231053d5e2e0U, 0xea45043adaed694fU,
  0x65a8f31b26cc28bcU, 0x1366eec881e0399bU, 0x32e21e211427e849U, 0x15cdcc27b2bd1b8fU,
  0x1f18a41be2ceb3acU, 0x46bb3de27fa704feU, 0x38a1d46732b6b344U, 0x41c4f9dbecbe92d6U,
  0xaf30b3d456d223d0U, 0x2ad902e5b84febb4U, 0xfbe3a6d8beb02d56U, 0xafbc20bbe6315cf6U,
  0x41eeb5d918653667U, 0x1ff643df45ba4235U, 0x1eb47e7cfbee8b4U, 0xb6afa8ba11339cf9U,
  0xeb5f1a31f1d5a6d5U, 0xabc74fbc5e81ce55U, 0xeea1295b19471a45U, 0xa73c57e90bad9f06U,
  0x2274dd9d9626989eU, 0xe730b6ea14b047dcU, 0x5881730dc73df43aU, 0xe102e0e20ee5a32fU,
  0x1620d2104d4095cdU, 0x2edf36ef3e1e980cU, 0x72170bb8bae80854U, 0xb6df583e690fd1aeU,
  0x9927c3485c67b33bU, 0x2539710c450221c2U, 0x133a971a085b1c59U, 0xd5ecbd2afd5cb568U,
  0x49cb7558cc7ff5c4U, 0x70124024aefe3f29U, 0x22e619405dcf635U, 0xae4d159d1c462df1U,
  0x5723a708a93de834U, 0xaac5339306603352U, 0x3e9d8e3ada2d35e7U, 0x3319a6fda8c2b744U,
  0x2348cc66c7b5b53cU, 0x11315f2e5afae177U, 0xbf893b1d7fa05717U, 0xb5e899b9e353d7efU,
  0x3156f55b5cd6b6caU, 0xe5ad3e7fc5b40fc9U, 0xb5d0684e734b0ceaU, 0x19e89aca9b9135d8U,
  0xeb93c64634e6195dU, 0xc22762b6020dc41aU, 0xc8425462d2441736U, 0x9a1de0ff4c31dac2U,
  0x77073f24cc2f11dcU, 0x8d3fea7de722042U, 0x5a86090c3d16f7e8U, 0x541a169a1db81dc5U,
  0x4013c7c5d2f49fe8U, 0xa9ad65f797bfb139U, 0xa6b62850f679fb81U, 0xa3a8c013c5969bU,
  0x59e7e5e4b605e8f6U, 0x35156bc4c34fbdfdU, 0xe531d5bcd463335cU, 0xa9b80b463b0d55faU,
  0x1b2fe155f4302750U, 0x182a145ea8a53d37U, 0xc7d75df96d1bac81U, 0xe8dc2ed6530fe3b7U,
  0xbe65a30085cb569aU, 0xdae7f04dc5768fc4U, 0x314935c5bb2fa1a9U, 0x905e9464de03cc41U,
  0xfacb6146ac32bf59U, 0xd811b17fccc0f0bU, 0xc45cceaff3a4c123U, 0xee214749cf5be407U,
  0x1657937b85c3940aU, 0x33b81c19c330fba0U, 0x1fba6a41d5c9b7edU, 0xb3e42f20d8eac9abU,
  0x737f321aeab59fbfU, 0xffddea302a58cc90U, 0xf2d3c3e0a583150U, 0xb878dfc7e579b0b3U,
  0xfa072579e7fa34f3U, 0x2e1ccdb3b875bf3fU, 0xbcb25c35e87c6e09U, 0xa3f569a3ff928a3U,
  0x9bea185420b13d8cU, 0x8132246fe48dbf01U, 0xa73546cf205e5ed7U, 0xd3e23b9c463ec197U,
  0x18328d744850e014U, 0x471a1b2e1578fff5U, 0x3b84eb5c071d52d1U, 0xe9a551a8bc2031f1U,
  0x2f29f7427fcca896U, 0xf70ffc2e441a571dU, 0xf05064ca07e23554U, 0x3ccae52c3bf9c670U,
  0x30b75cc5f112810eU, 0xcd151d0aafbef349U, 0x495521f8fa263305U, 0x8ae506e93e092e37U,
  0xc341c51306220b30U, 0xe84ed84e03111324U, 0x171bb1e098f42ddcU, 0xec3d13c113fac4a3U,
  0xb444ec25fd0f4c0fU, 0xd13d2bf9bdec1d21U, 0x1c9cab0039bb45d4U, 0x9121ae50319ccf4bU,
  0x3730207399e1faeU, 0xbd76adc0e6c8e6e7U, 0x4d67fade131238aU, 0xd07117db132b52b8U,
  0x57f6f85a219cf5eeU, 0x42e7552a093305e1U, 0x4e413a10f3ae07e9U, 0x42bbe9d6815fb59aU,
  0x313987ca784015dbU, 0x167bf11e01492f26U, 0xc04e3a9eeecc1b5cU, 0x3aae49ffe8dc5f4U,
  0x1a0e9e3f4de965e5U, 0x54cc39b9ed78e53fU, 0x2388e2a835d4e08eU, 0x7f1ebd55f4f4174aU,
  0xeca1c0b5daee49caU, 0x68bb79f2cc524f4cU, 0x2ab53be764bf4940U, 0x635e7e4bc1ef026U,
  0xe5b2df551ae36221U, 0xb319f1d4d14d252U, 0x2c9c1653edc5aae9U, 0x3ffe5bdf8ec4258aU,
  0xf25825efdd3b40f4U, 0x6d4cab0c4cbd26feU, 0x481063a05b9a839U, 0xd1cde4fdae8d9feU,
  0xaad0e65901d5dc58U, 0x819cc8205397bd47U, 0x66f8cc6d63a26055U, 0xcc0bab45c2a0e8beU,
  0xd19a7d48c42a212bU, 0x46c8c224a362617fU, 0xe6da1b1edba6b5f1U, 0x9fb8f68ea9396c51U,
  0xc75ef656b1421bf7U, 0xbabe28dc2baf22b0U, 0x4a2df8cc0d0ce775U, 0xb502e4a6daf7b5deU,
  0x7f24a849fb052fbaU, 0xc71ece0dadd62ab2U, 0xfc02df76ce70e647U, 0xea924ecdeadda6aaU,
  0xb50b937afb7065cdU, 0x332c2dd394a4ea1aU, 0x5fbeab0921a438a7U, 0x914d72ac911bc1bU,
  0x4f68d14aa4e5552aU, 0xd5fdcd1524c1e29eU, 0x38e9f31f03689098U, 0x2deb22a7fb7f1bddU,
  0xccc8a9f70b220801U, 0x5d059cde29fbbf12U, 0xb7c6efb9acc0ce0aU, 0xc5e4440b3842281dU,
  0xee12f7d5f04eeb13U, 0xd1e3c2d2ed4423dfU, 0xa111bd2009122a7fU, 0xfed6bf32eb34b7c1U,
  0x1ef32d454ffcb3cU, 0x14e513832d1e49fU, 0x642b532523d923a5U, 0xce08e0fd5f926715U,
  0x43b70e9ec4c338b6U, 0xd52051baa1d70713U, 0x53b029fa5659e39aU, 0x6b00e660e81c0caU,
  0x57c1fb46c7fb0b2aU, 0xd0fc4dc29944eae7U, 0x461e3f11f64ae72aU, 0x338facd4dcafcf54U,
  0x7f1347c37deedcafU, 0xee4ef73182baaf40U, 0xe39ee621d5515ce5U, 0xdb2d403196e12d06U,
  0xdd0c090b0dc57f36U, 0xe55343e821e7bc91U, 0xd09fff0c3cc76369U, 0x4915793f4d099fb9U,
  0x302a68b7cf964afbU, 0xd079c03c26daffe1U, 0xe603eff93b4456efU, 0xd1da99c4408402feU,
  0x8c5a60afb3ea29fU, 0x3f41dbeec8be3dfU, 0x4e7fc1ef8a515513U, 0x5ceb7e9bdffcbc57U,
  0xe93a70ab04542004U, 0x9c61aa573e62a2ccU, 0x664618d31490bf70U, 0x309de7448d1386c6U,
  0xa2e0b657e7257399U, 0xdfc58c11d95c98caU, 0xf3250d213edf6c40U, 0x9694ffea6ac1cb7fU,
  0xfdf561ce3be1aec4U, 0x8ec343e630dedd13U, 0xf827d3bd0a0a59fcU, 0xc953d5aa38fdffb6U,
  0xe91c9f1c93ef32b2U, 0x2b90329838202cd7U, 0x4a24c2e1e0032d0U, 0xf41906e2ffcbff35U,
  0x3ea4e53a66fc3600U, 0x94da1dc75d548118U, 0x39f2fbd843e5c9baU, 0x326cdb423c2fd6a5U,
  0xfdfbc13cb59fef8aU, 0xdbe4d5a2c2f927cbU, 0x49612ca851e9eaddU, 0xe515afe2000d98c6U,
  0xd534c227d7bd1f44U, 0x150e220c4af8c401U, 0x9370a35fb3d3f7fU, 0x9a4cdc4f618f229U,
  0x94aa66e6f994423bU, 0x6a42dd9da2dd2888U, 0x3f5786c72f391be2U, 0xc5160d97ba19525fU,
  0x3f70a8ab3d2b6964U, 0xe344596bd7183c7fU, 0x255c7cb2573f2369U, 0x5472920d0addafc8U,
  0xd47ccec7a8cc825U, 0xfed6649ed0ef2d0eU, 0xd490ca04541a0c11U, 0x181c39c718540ee2U,
  0xeef1940e2e02cf7fU, 0x6dd60749e9556949U, 0xd70053318c9de80bU, 0xec706030bbaa1bd8U,
  0xae231dc4fe014bc5U, 0xe5239e22bcf90124U, 0x1281a8b8c1b62e18U, 0x16e299591b421f01U,
  0xadbfd0eee7ccd353U, 0x3150d20427ad5572U, 0x49e9fe2da4ce00a4U, 0x9f437913d03ab828U,
  0x42f079b985627c3aU, 0xf81bdccb4daa3f68U, 0x77bd812d4b5b4650U, 0xc5b9bcfa42d87529U,
  0xce1df2dde5ae432dU, 0xc07c03b90b0c98efU, 0xc15099003c225926U, 0x85d3fd12a7c9ca61U,
  0x1e0045052412b11dU, 0xff4312b5f2236140U, 0x711cc43dd64d12ecU, 0xac01dd2ae5b2d716U,
  0xc16b5cd43cc015f6U, 0xcd9b3927a83d8153U, 0xf42b405687e40afdU, 0x370c3dc22ddbd536U,
  0xb147d34e4aa5ae2bU, 0xed5969544b16acf1U, 0xfd1be8be05215f98U, 0x4fd9f4c3dd0afe3bU,
  0xbc168135b6a719c7U, 0x1f21ffbd183cd41fU, 0xa3483a95434730a1U, 0xea49c7437bf2bdc1U,
  0x1e5bb261ca1f102aU, 0xec9aa2d9ca314c3U, 0x41fedc674c303fa7U, 0x1cd8b4e234b5d0d8U,
  0x7f3237db064c0768U, 0x72fd563caeea5f08U, 0xedbdc7f9402761ddU, 0x22c1e05f11dd2af4U,
  0x28ba0a40f9e8ddc6U, 0x650a32369be5d5f5U, 0xb6f52cadb3a7bc13U, 0x3bfa188ac777034eU,
  0xb9d8dbad8ff8c9deU, 0x6d0b7f8d4a539dd9U, 0x549c3f6cdd5ae319U, 0xec2d56282b2db87eU,
  0xb51c0ec1bcda32aaU, 0x3c4c5659b0a75a17U, 0x467b5db1a1fca24dU, 0xfeb9281b4668c9edU,
  0x354e9cf34a49161bU, 0xe0d7f1587299d824U, 0xfa44c97ff401b283U, 0x29bcdd587a560acbU,
  0xdb3c09d2a8661552U, 0xc3e804795029820cU, 0x5e016905c1be8ea3U, 0xf2bf0aadcf32855bU,
  0xdf602bc205602a44U, 0x353807ec08346a81U, 0x9dc660336236d601U, 0xafee080f1ce7c662U,
  0xfc536ca33e1e6410U, 0xf10c4ad8def9f3a7U, 0xc2eddcd8b676b0ebU, 0xb53abb7f089e5ad0U,
  0xcecff926aeb332c8U, 0x1f14cb3157b7025cU, 0x9a2006474229cbe3U, 0xb55b17e2e6b131faU,
  0x72583726ef7c042bU, 0x78eb4767aafbce3bU, 0xde5a0932ea36513U, 0x2f5c5603f0c77353U,
  0x316052dd1f37baeeU, 0x5178be2b499dc77fU, 0xe10cbe6a3bca87d7U, 0x4c329a8ca04671c3U,
  0xb5b40456f62259fdU, 0x771530294938fdf2U, 0x23bf1354460cb5bbU, 0x5009b48bd12e8138U,
  0xfbbcbe192df2c8e8U, 0xad42f8131b3a6113U, 0x57b5ae120af6ee29U, 0xbe3bc8a2f7b32627U,
  0xb1ffe5edf134bb9U, 0xde96f33cfcf4a305U, 0x6e1e2cf9bb7f50ffU, 0xf30fc444aff0302bU,
  0x621a6a5f9e3feae2U, 0x38aa466a4b67e55bU, 0x3e1261fea7743aa5U, 0xfd7607dbd93adc57U,
  0xe70a926e3545c8d7U, 0x11976e55a05144b3U, 0xada6d9a4c5e1b8c2U, 0x236ee30fed546df3U,
  0xd2007faec1addf31U, 0xb77059cbda5659eeU, 0xb8f9bd23ee3355b2U, 0x44e4e9358fa13f0eU,
  0xfa28d308dd78b84cU, 0xbd73e5b29639967cU, 0x1431906cff919e16U, 0xc601b0dc871994b0U,
  0xd423fb7b037f57e3U, 0xd0bbce26cf18fb0bU, 0x3638621a2cd39bc9U, 0x58646ca94f8cc074U,
  0x62a1f6db5d552411U, 0x23d936105d2c3b1dU, 0xe8e0b22c4a4b38fdU, 0xf71c391f720ee662U,
  0xc37269c4f839bdd9U, 0x22e511f5cee1ffbeU, 0x81095c2b15d658b7U, 0xb83f2aa43d2aafc5U,
  0xf112f00af9d447d3U, 0xd1c7f1a2c007ee22U, 0x7db66c5c09654dcbU, 0xf5cee428beb9764fU,
  0x8e77cdc06c5c459dU, 0xbf9e7f7b32fc256eU, 0xd7d386194cb5837U, 0xeb02eda3d0fb4047U,
  0x2cfc2bfaf13ac021U, 0x673cd4337f33f16U, 0xaa96bdd1332dbbc9U, 0x5d434f1f8fc51145U,
  0x453434695e2747edU, 0x7fc1d2af52f01115U, 0x633201fd1635293dU, 0xbd4c01124805cf7cU,
  0xd753bebbc3632927U, 0x444068f34995e2e4U, 0x1b06ba51deb6b8d7U, 0xe0ea246b2157c461U,
  0xe7df69dd445578c7U, 0x6d12fda14b3ab9a4U, 0x99fb3da521a9d4a0U, 0x9a0ab03f7fcfebbcU,
  0x4f25e8c15093cc88U, 0x7f3ae8bf9c65c248U, 0x12d34a6de3f23520U, 0xe94258262d47cbabU,
  0xa3ec28e727ab3feeU, 0x202c672a4922fc96U, 0xbafa5db41f63ffefU, 0x71fce3eb030fa6b4U,
  0xfffffe9100000357U, 0xfffffa3efffff4f4U, 0x73900000617U, 0xfffff70afffff504U,
  0xfffffe76fffff41cU, 0xfffff996000003a5U, 0xfffff6d5fffffaf4U, 0xfffffb62fffff215U,
  0xffffecd9fffffd07U, 0xffffeb950000045fU, 0x806ffffe5dbU, 0xfffffbbdfffff815U,
  0x6bffffff330U, 0xffffff26fffff3d5U, 0xfffffa7d000004b3U, 0x27bffffe920U,
  0xffffeee4ffffff0aU, 0x6e3fffff8dbU, 0x68afffffa77U, 0x4befffff1bdU,
  0xffffefeb00000168U, 0x52d000009d5U, 0x4ce00000ae1U, 0xfffff9ae000009afU,
  0xffffefa5ffffde88U, 0xfffffe07000002f3U, 0xfffff65f00000828U, 0x7cbffffec4bU,
  0xffffff84fffffff0U, 0xfffff33100000367U, 0x82bfffff93cU, 0xfffffb75fffffd61U,
  0xf7efdc2dc51195e0U, 0xd712c0ec20613f2fU, 0xbb0af0913abc5551U, 0xd0f961962a30dbe3U,
  0xe341121814f2feedU, 0xea52613fc2120d9U, 0x52fa03575b7efe36U, 0x30ce69810438bfe5U,
  0x9f9b7f400c08bf49U, 0x3dc8e4a2f35f215dU, 0x1f4bccacc0e318b9U, 0x3e43e362a453abaaU,
  0xf1367ca9d8bc599eU, 0x9dc858276e1c6ae7U, 0x19f0cad41f6c9bb7U, 0x2104eb9af79b0d2U,
  0xf42cee38b0f0402eU, 0xa22c881cc1326feU, 0xc92ba23223c9fe5fU, 0x66610f430ac82dd5U,
  0x47508e91c60053c8U, 0xceb1d45fbc093db6U, 0x51aa06f131513110U, 0x6518fd141945f59fU,
  0x45533835ef318bf7U, 0x192644325b3ca53dU, 0x3302444fa282af60U, 0x6dd8f5729a2597faU,
  0x31fca920cbecf59eU, 0x3b81ac60c24898d3U, 0x5ec51ddd15ccd2e5U, 0x74c94938fe6bfdb6U,
  0xa2a71f0502b1e36fU, 0x97f8f5e70b09a8f1U, 0x9ab33900a0c847edU, 0xf241ffc09c5e3607U,
  0x1eafa8e9336ecff1U, 0x26f97f4943a50b4fU, 0x65d9d04db760259eU, 0x72b179d492ef3aeU,
  0xdee70507dfd9de48U, 0x5ab9258fe3af8faeU, 0xbb256a7198adeb28U, 0x6be3465a5b2487f7U,
  0xfd20f963475a1fb4U, 0xc9987f067e9aa14fU, 0x77d9cfe5dfaa11ddU, 0x7a01c754d82ddd58U,
  0x4b6b3222cbf2f811U, 0xe618b7f1553fe70aU, 0xb981a8d01a433becU, 0xfcc1f9443b7002efU,
  0xf0cc3d3fd7ecb3a8U, 0x23e12029d129bf9eU, 0x3242abf03d2c44abU, 0x36cbcb02345e204aU,
  0x536632d4751e919U, 0xc83a23c5a1b3d130U, 0xf7bfc7922bc7f145U, 0x3e2afd66e919ff0eU,
  0xc1b0baeccd3124d9U, 0x54813033af169758U, 0xf21bf3caf03cc32bU, 0x1533ab6b3b595168U,
  0xca622b68fed0bc4aU, 0x250c09e84bc9c54eU, 0xa69fd7ec35d1f225U, 0xbad6d2e17d791c30U,
  0xabd471be2971ce19U, 0xb5a561c61b1f4d00U, 0x41d358409fcadf2eU, 0xc7ca26d93f279e7fU,
  0xb06dd1a9c638c014U, 0x2006af1cb422d0e0U, 0xfa57ba33f44d2a6aU, 0x5ef22c5d4ddd68c0U,
  0xcb0723115e698124U, 0x5708bac132ecfc25U, 0xe1cda4dbb25c4032U, 0x1b1e41624ecd3c9U,
  0x81a9256a5c831fb8U, 0xbe0246bc117c35c3U, 0x9f51c4e112f7570aU, 0x3623cb1eda593b21U,
  0xfab3d1ab0dc6339fU, 0x70837fa0ebd4de32U, 0xc3de6b57ebe1d76aU, 0x6ee03b3f482dc773U,
  0xc6563aa42c8cca81U, 0xaea8cd0f3e102f10U, 0xdc7a54064cfa290cU, 0x4067060379ceef5U,
  0x220ebfed12c7a906U, 0x79d02ab4596b5a28U, 0x513c5bf40555b31bU, 0x11d0b2e0170bf6a0U,
  0x3a43d10116b9e6b7U, 0x3297aa62de1141d6U, 0xcdcd77494bc92659U, 0xa3f15d6acaace4cdU,
  0xd615c109a4e4b9b9U, 0xe215294d167fd9bdU, 0xa94d1766b5e1a4b5U, 0x42e0b7eb483a1d4fU,
  0xa54bb621bdc45100U, 0xefac90c7c0c7c5f5U, 0x36e26f0f45c52369U, 0xa9e7eb09aeab4eb9U,
  0x81c1290adc6c0e51U, 0xd9490130393bd7baU, 0x315462d10148cedbU, 0x8091702ed8bdbe7U,
  0x1dd0730b3846073fU, 0xd6b9efd0d071fbabU, 0xb057c22e20c440f0U, 0xebc3de04f74364b8U,
  0xb3d0e458fdc0001aU, 0xc3e51a01ab4750bdU, 0x33032902bdd9cb2eU, 0x1d28eeb4d2c5637fU,
  0xef246d550733096bU, 0x1130903ebae1eeebU, 0xe256d7d77333321eU, 0xf3f344be5e75ee2U,
  0xc572a37fa6d2cb0cU, 0x19f1e7e9f6baa6f5U, 0xcae33d1fc43844e7U, 0x14d8ac9eb8b4ad54U,
  0xec52f553b7a757cdU, 0xed3ff16305738c3cU, 0xe36762a43f83ff0U, 0x162019aeea1921dbU,
  0x2c3a17d081eaffccU, 0xebc9f0ce079218acU, 0xf29a45904423794bU, 0xdc8ae2605e4391aU,
  0x9a5867fdbe38ed4aU, 0xe753ad4a366cfcc8U, 0x887338f5bce7fca3U, 0xd59827a0a04ade4fU,
  0x811d1967a8262919U, 0x8deb6383184eab59U, 0xce5dcc180bb02b8fU, 0x2c352b9840cd312bU,
  0x121c470727d730f9U, 0x77b11ea1eafc9b4U, 0xc03574e3bdc40947U, 0xcf4ed52caf205c8cU,
  0x14701a6102145e0dU, 0x4fb295b9e7357fe5U, 0xf01ddff2ebc8be39U, 0x1ca9efbe1b28e1cdU,
  0x3bad51540fb31d0dU, 0x4402c4e46413f925U, 0xc2e15c90ef2704cdU, 0x4459caf08231cd1U,
  0x539a5964c4f8ffaeU, 0x360b381cdc3c466fU, 0xfef20d9ac043bd0dU, 0xb6d881b025172aeaU,
  0xeb62f6c8125e96bU, 0xe36ec956213f5ddcU, 0xc2f2e73d13114cf5U, 0xc494fbc6c7cf1537U,
  0x6a16267c00de97baU, 0xacfc27f79c0ea079U, 0xcd0c5b6a9c0d5a5U, 0x6bc3eb5462b63f5fU,
  0x595abd0a3a7372fcU, 0xe1c7add3101d28f6U, 0xc1d9d7238c38c0d5U, 0x36373e1719c2202eU,
  0x994723e154f30e99U, 0xf45fd8bcbd5a287eU, 0xe24a94bb29cb16ceU, 0x6e81f64000ac6ccfU,
  0xf01ceb2935e647e4U, 0xdf78ea070c19d5b7U, 0x7f52ecd1b1b3a34bU, 0xc70725c8a6e649ccU,
  0x67444ae1dce40b7U, 0x51e8f50aa035b555U, 0x1aa2ee43c8ec0db0U, 0xee8dd73744ccd5fcU,
  0x4225db7892326158U, 0xb2e4a50df22dfa03U, 0x652ace3242930302U, 0xdedb3e143033e9cbU,
  0xa0ac7fca26ca0f18U, 0xcc6bd55097cb1269U, 0x1f29d830cabc0db9U, 0xcda6b42312904ebeU,
  0x2fbfffffd3dU, 0xffffffb1fffffd3fU, 0xfffffdedffffffe3U, 0xfffffbdafffffd41U,
  0x1d00000116U, 0xffffffcdfffffe75U, 0xfffffdbc00000365U, 0x4700000490U,
  0xfffffd41fffffe14U, 0xfffffdc1fffffc31U, 0xe700000256U, 0xffffffda000005f2U,
};


ai_handle g_forecast_temp_ml_model_weights_table[1 + 2] = {
  AI_HANDLE_PTR(AI_MAGIC_MARKER),
  AI_HANDLE_PTR(s_forecast_temp_ml_model_weights_array_u64),
  AI_HANDLE_PTR(AI_MAGIC_MARKER),
};

