/**
  ******************************************************************************
  * @file    forecast_temp_ml_model_data_params.c
  * @author  AST Embedded Analytics Research Platform
  * @date    2026-03-16T20:26:31-0400
  * @brief   AI Tool Automatic Code Generator for Embedded NN computing
  ******************************************************************************
  * Copyright (c) 2026 STMicroelectronics.
  * All rights reserved.
  *
  * This software is licensed under terms that can be found in the LICENSE file
  * in the root directory of this software component.
  * If no LICENSE file comes with this software, it is provided AS-IS.
  ******************************************************************************
  */

#include "forecast_temp_ml_model_data_params.h"


/**  Activations Section  ****************************************************/
ai_handle g_forecast_temp_ml_model_activations_table[1 + 2] = {
  AI_HANDLE_PTR(AI_MAGIC_MARKER),
  AI_HANDLE_PTR(NULL),
  AI_HANDLE_PTR(AI_MAGIC_MARKER),
};




/**  Weights Section  ********************************************************/
AI_ALIGNED(32)
const ai_u64 s_forecast_temp_ml_model_weights_array_u64[2018] = {
  0x7f0000007fU, 0x100000000U, 0x300000002U, 0x500000004U,
  0x700000006U, 0x900000008U, 0xb0000000aU, 0xd0000000cU,
  0xf0000000eU, 0x1100000010U, 0x1300000012U, 0x1500000014U,
  0x1700000016U, 0x2f00000000U, 0xaa811f169ca51302U, 0xccf5f29216fe109U,
  0x4c0b221ff9d768ebU, 0xc3963638f0541ac6U, 0x170f0ab43cc5e65cU, 0x18441a520dd0bb29U,
  0x2fe3e28ca76c07c4U, 0xaf66cd0fbc4d2105U, 0x14d985fddf2f8148U, 0x9db63530cf946429U,
  0xe2ccf4d02427c430U, 0x32895f836bd433bU, 0x1efc0543ad62ccbcU, 0xcaf950040f82f379U,
  0x14e6924400e0d25fU, 0x23027fcb9d2dbfa5U, 0xf53fc71037ce992aU, 0x7b0aecff42e81fcU,
  0xc3b36b0ea5d24a33U, 0xd2effbad890ab876U, 0x62be0b845ee73b25U, 0xfdb8ca5bef7fc038U,
  0xecf95cb25e96d05cU, 0x8142fbe900f74308U, 0x190810092e50fabeU, 0xa72899d72e32d3b6U,
  0x2627d35de0e5b772U, 0xbff134d4f9b5f415U, 0xf9ce3f471f120e6fU, 0xa4b55f744221e202U,
  0x25c7ecce55c8d026U, 0x2dc516562abb81f7U, 0xae43799743c2df96U, 0xc6a4813d0b3405ebU,
  0xe52228cc2326eac0U, 0x5c4c43009517c440U, 0x570381852253220cU, 0x50d7d2d74654a551U,
  0x43c6dcefce1fd949U, 0xd7ae1efa39aa5cd9U, 0x324ce1e719d049e4U, 0x1ce5b02bfd0b3c89U,
  0xc7eac9c33fdda1a6U, 0xb6f2e53211ca3f17U, 0x45c27f43c70ff1d5U, 0xc6f5dcdcde9a0ad1U,
  0xdb311acae618ea4dU, 0xdffa8bd54e4f89aU, 0x2ef0e458a4fcc2dcU, 0xb51a14b20bf500feU,
  0xc57f902bb88101dcU, 0xe91eb0beafa552aU, 0xc16fc3a230f6cae0U, 0xe1b1956c261e022eU,
  0x9489ecc9f7025ca8U, 0xdbd13be74fe72521U, 0xde041fbb930b2de7U, 0x3fd93a1b12df71deU,
  0x9aaa66535601dc0U, 0xeac62f175ce1db36U, 0xb7dbd7d3142f7f49U, 0xa9233d27ea34cfd2U,
  0xbdc5f3c5ff368172U, 0x86aae90c01287f05U, 0xc9c366ecd9fe435bU, 0x3054be8ae1f93441U,
  0x6e29996a0fedc196U, 0xefe9fe5b238d0705U, 0xc9c5e0e55deb070cU, 0xa6f8d467e0fa7f43U,
  0x32ba63ed2d29313cU, 0x16d91e26253fd2e2U, 0xdec7fdfefcd4c0f4U, 0x56613ba09ad94ccaU,
  0xfe3cc6d83d66debcU, 0xfe47812de3b550d2U, 0x48142719bd4a0fdbU, 0xacb72ebb08d1fd20U,
  0x450565ad98d51035U, 0xee3aae02312381daU, 0x43ff472a3026c7e9U, 0xacbadfbba3e41b0bU,
  0x507b0fdd89248d39U, 0x6af6f5e342d7d24cU, 0xfd2bc45faa5acdb5U, 0x1cf9e7f44d95ee25U,
  0x14f7df01d68f3750U, 0x5db7d1c59858cee3U, 0xe42ea6fb1ecacea7U, 0x569c81f01df81fedU,
  0x694d5a4f1a2e8fcU, 0xca43531aaf0fa252U, 0x21421a420b8cbb8U, 0x54a410dbca3aa181U,
  0x8f192ed4cd0a0bc3U, 0x78e9d24039U, 0x560000013fU, 0x12000000178U,
  0xffffffb2000000feU, 0xe0fffffeeaU, 0x1ba000000edU, 0x12d0000007aU,
  0xd0000000a7U, 0xe2000000e2U, 0x3575dfc000000baU, 0x46eac8ebc626fc78U,
  0x743dfb0dfbdebcf1U, 0xf06aeac332130af1U, 0x7f76122c3443121bU, 0xfc1a8c28e3435321U,
  0x5b04436510f91bdfU, 0x1141e8af5e1e3a41U, 0xd618ff1e0d02dca3U, 0x3d251f35bfa1bda5U,
  0xd71d00ed267f5dc1U, 0x9d342aecb8a6b7a0U, 0x160877c16161ca92U, 0x12cf47c73d66e73bU,
  0x6a62061fc6cf0a27U, 0x35e5630f224e1433U, 0x1b684571bb48fa65U, 0x570afb263d4328adU,
  0x2b02212a8103c542U, 0x473baffcc06e762eU, 0xadfb36fe600c1fdcU, 0x4fb19a2d8e1430e9U,
  0xadb160f9650c6507U, 0x46f1674e9d1c04c8U, 0xc57f5c63d5d4a60fU, 0x4de3252f378da633U,
  0xa08d729ec4358725U, 0x515361188d629feeU, 0x81c229b1fb3b114eU, 0x8741b34c6b2862faU,
  0xe981eab5dce5c0b1U, 0xfd485bf3e6e70736U, 0x6563f66b05ae14a0U, 0x567f0c445a9dfb13U,
  0x68fd794e5c667563U, 0x45fb7479d6474bfdU, 0x4b5353eafef534f6U, 0x366722b1c2f5f90eU,
  0x6962134be6f9ecf5U, 0xd543703bf05de6fU, 0x6a5eeecab611dfe3U, 0x6de028d76df2e1ceU,
  0x2c0abc6bbd34ef30U, 0x29acd32a447f1a6dU, 0xddf60487272f7c01U, 0xe5e84e2763c56109U,
  0xb71b6366dcad3cbbU, 0xdddc7fd13349e108U, 0xc3f754b343074433U, 0x39277a25580561ccU,
  0xae0c02b17e080b53U, 0xcc203334d6672f1fU, 0xb163b8adc1230bcbU, 0x443bae12c4fcb38U,
  0x3eb4bdf2bfbf48b2U, 0x934f382df9437f30U, 0x1c1241b05fb9e4d8U, 0xc8d6ba40f1fbba29U,
  0x10af143158e66831U, 0x94428092c013b43U, 0x139fc641eed04d55U, 0xfe43677d207a3cdcU,
  0xd1f3d16c6e1b417fU, 0xc8f1523e39516c98U, 0xed4405b19bbb3565U, 0xb3673d22ec19aa1cU,
  0xf9e20ffb4cc8aa12U, 0xdb74e701119f3a69U, 0x1bf76c0878f8675dU, 0x7c7f96ab924217bcU,
  0x99ffc1399cf0eff3U, 0x49770b0291eb3f50U, 0x7a4de351fd0c816bU, 0x32a9e890cdbcf7a9U,
  0x71b6e322ce92b9e5U, 0x2100a1f960604f59U, 0x2efbcc1cee7f5800U, 0x3ca110504763ebccU,
  0x5b6a609c13de082cU, 0xabe5527c6b2e5a33U, 0x305e3631122bef47U, 0xf33695617465522U,
  0xc2e91bd37f78a0b9U, 0xc05cc65361ce0a69U, 0x24735b1063adcd5fU, 0x442adf5dfefe3c4bU,
  0xc91c195fca23d9c4U, 0x57f796e5ed055d0U, 0x2c5348e258a0065fU, 0xa22fc9b3eec5U,
  0x8bffffff88U, 0x11e0000009eU, 0x2be0000025fU, 0xe600000157U,
  0x37c000002c6U, 0xfffffeba0000021eU, 0x13f00000313U, 0x8111fc7f81d07fdcU,
  0xbce7edb281f27f81U, 0x59abe87f9c4793fcU, 0x3081607fcb813f81U, 0x9f9476bcc6388174U,
  0x7fbaU, 0x0U, 0x0U, 0x0U,
  0x0U, 0x0U, 0x0U, 0xfcbb688100000000U,
  0xfa3f6474d072e4fbU, 0x8165f891f528174bU, 0x38896a63647aaffU, 0xf941555a55b627d5U,
  0xa7d9a2729be27f51U, 0x729313e33978c565U, 0x7a89be5d3c81cc06U, 0xc461a815595fe53U,
  0x32e1fe86295ccb4eU, 0x50a838ec4c8134e1U, 0x1ae004724745c5acU, 0x42c67f3b38554981U,
  0x81052403b15a8c32U, 0x70351690da219a13U, 0x8189c3b531304f0cU, 0xa44226c6cfed811bU,
  0x7d810139a10eba30U, 0x527b19e040e36f33U, 0x60e6c4f6bb1a7f15U, 0x4e9bd59a3de87fd3U,
  0x25bd1d4ab9281ca6U, 0x22b4323d0d6681d5U, 0xa4ac51718a630f19U, 0xc8127f1d983343cbU,
  0x71bd256945f029c7U, 0x7ca1e4b45ce7ffbU, 0x44ee604abddf2c9cU, 0x41ad6252ef099981U,
  0xb7b2bdf8ef81350fU, 0x81da5b2d5276ea73U, 0x3cf2b30a5c9bc4e0U, 0xde2091692e84e700U,
  0xa50fd81348e7e09U, 0xc5d03f98aa634396U, 0x7f0ec0b3077f6f87U, 0xb705d6302b502ba3U,
  0x815ee2e04de1d29eU, 0x46f9feb1ddea1a6dU, 0xef8cb140ce31c081U, 0x89a2321f0f2f74a5U,
  0xa25d5d8d7f04f446U, 0x55a3250f49204b33U, 0x93cf1131b16fcc28U, 0xcbe71100abeffe81U,
  0xea7ab3c46f8115a8U, 0x2fb89fe557454d68U, 0x3d971a1ace147f8cU, 0x7f48e32b8bc5efabU,
  0x4d15dc9530e5ecd9U, 0x87170d0e7f5c97bcU, 0x9768008d0d5a8ba6U, 0xe05447b51f81ecc1U,
  0x9cdd142e4ac9b0ffU, 0x7be642252dba7fe5U, 0xb0709028ddd9ae2dU, 0x52071d517b9ce581U,
  0xcf8cc8c981bb019cU, 0xbfdbf3238fc9345aU, 0xc47f0d47a0c94f98U, 0xd166584a815e7245U,
  0xbb13e513dc58b143U, 0xa46b999fbbcc813aU, 0x3719a560cb6a89ffU, 0x8db17f0da53b2bacU,
  0xf6cf5181916714c7U, 0x75607406b9cce48fU, 0x57090d927f316e5dU, 0xe79da4c6b093619cU,
  0x3ab4fd81e71648c6U, 0x55e7ba955134d7c5U, 0xb9cb18163c6ec3cfU, 0x81243ea8e81c81bbU,
  0xe28e092b171cd53cU, 0x7fdfe5441d29bf5dU, 0x4b950d61fa9d7e2bU, 0x40e75bb6504b7f6bU,
  0x7fcc25f4a2ffe399U, 0xaf29555ce8379be5U, 0xe16036409d2276b0U, 0x662085af7f122e35U,
  0x7fd1bd204734a369U, 0xa6abf62f9252ca2cU, 0xd07f42bf74de8f53U, 0x7e81ee89430f4e9eU,
  0x95a9e8a39ba3b393U, 0xbd7fb1df58b338c9U, 0x5323313079a6d018U, 0x228e4469169dddbaU,
  0x294dc72f54247d81U, 0x38b8243cdf1d06feU, 0x4bf2a55b52cc81adU, 0x59247f2138ffac0fU,
  0x200004b64U, 0x490000013eU, 0x57000000afU, 0x80000000c2U,
  0xffffffbb00000082U, 0xfd000000b2U, 0xba000000beU, 0x16500000041U,
  0xffffffb70000005eU, 0xb000000194U, 0x10400000065U, 0x65000000f5U,
  0xef000000baU, 0xda00000079U, 0xffffffea00000082U, 0x7000000045U,
  0xe00000083U, 0x13fffffffcfU, 0xac0000012fU, 0x29000000b2U,
  0xffffffe7ffffff23U, 0x5c00000197U, 0xffffffa9000000e4U, 0xffffffc40000000fU,
  0x50ffffff46U, 0x3d00000132U, 0xfffffffd00000041U, 0x8181813e81450d7fU,
  0xaabe81c881e16681U, 0x811827abbf9e7f81U, 0x3e7f8181cda17fa6U, 0x9ffd0d2c2e32ad63U,
  0x81c0392c7f7f0282U, 0x6c816182098130cbU, 0x817f3d9ae8863cc4U, 0x816dc48181a0818cU,
  0x8159ae3b7f6c6d81U, 0x8181accb5d9f845aU, 0x7436ddedba35081U, 0x817ff6357f3c7f6fU,
  0xcb7f907fb16f818eU, 0x2c9603856c9c95e4U, 0x7f81afa71b26d3dbU, 0xb6207f2be1812ab5U,
  0x7f7fbce0307f8126U, 0x7fd59f537f7f7f81U, 0xd681ad747f4076U, 0x0U,
  0x0U, 0x0U, 0x0U, 0x0U,
  0x0U, 0x0U, 0x0U, 0x0U,
  0x0U, 0x0U, 0x0U, 0x0U,
  0x0U, 0x0U, 0x0U, 0x0U,
  0x0U, 0x0U, 0x0U, 0x0U,
  0x0U, 0x0U, 0x0U, 0x0U,
  0x0U, 0xdf4e38a800000000U, 0xd8b2216cb6fb223fU, 0x6b584dd3c2aad20fU,
  0xa376752990be18d2U, 0xe69143c46dabc2ccU, 0xcd9e508deb7ba1aaU, 0x7fcb8a243c9d0e5dU,
  0xd544acc921153fedU, 0x7a2fbdabf9b2dffU, 0xaec639a831aa9ca0U, 0xc130aee2116a1ff2U,
  0xbd33f4b031e0c7afU, 0x4bcc8159fd3e4c4dU, 0x3bc222d46fdc95fcU, 0xbbb123c0b1e4e759U,
  0x2e248f8ddb1eafebU, 0x195bf03158ca9bebU, 0xd8c61264da7f43a1U, 0xce5ae226b5c14129U,
  0x654a36ced208dfffU, 0x6197e5af2dae33ccU, 0xde919348ff3d00c2U, 0x507f375aca287bdU,
  0xa26fb5f7eb312759U, 0x47bd40c452ad34abU, 0x83a7f4027feb1ecU, 0xffad8515bc3e05aU,
  0x27423c3acab06eddU, 0x58d0353ca8a89972U, 0x12d0dbd1d64d48acU, 0xae712b458ebd7fd9U,
  0xf865509811433cd5U, 0x5ef24843c41b56d2U, 0x243cce99488d4538U, 0xb798fcc3b0a5dfdcU,
  0xffcafc99e807b19eU, 0x8e2b4d3f4d24b7eaU, 0x4fbd36353fb9e59fU, 0x22affa03353fdd28U,
  0x81f1bf3c38f50e47U, 0x19bb77f9de299fa4U, 0xc2545b7387df6455U, 0xf6261a789b59ad09U,
  0x97155e7e53a74dfeU, 0x2acc77a11982a221U, 0x2cf1dbb2306046b8U, 0xdf467fb7cc51ca09U,
  0xee3af8db55c2f29dU, 0x1fae9314babfa02aU, 0xc8ac24ed9e339975U, 0xd0d44ded10ea81fbU,
  0x2283acc5d0fffe5U, 0x70420a712e273128U, 0x97c4dbe9c1bca423U, 0x1bc41bfc2bf7a1aaU,
  0x49f47ff5cf3de7c9U, 0x42c10aea49ea5c26U, 0x13babd38f438ddfcU, 0xd7e36bfdf7d7f447U,
  0x8b325d35f6166e20U, 0xede8fd9ae67dadabU, 0xb59aa68cd8816b60U, 0x6f4af2a80b6e8aaeU,
  0x58025a9706a86cf4U, 0x53722ec0d6c45c0cU, 0xe765c052b8ae529fU, 0x9e4109564592aabdU,
  0xd54a02cb90000d63U, 0x7b29adcffe9ae801U, 0x2995d721e4f100a8U, 0xd5fb3c4c09bc4ce6U,
  0x68d1d4a9df165821U, 0x30dd9fd7f7b2652U, 0x323ac0f6bfe71824U, 0xc64178acaf5f9767U,
  0x63a378af30cba936U, 0xbf4b9cb069b53323U, 0xd1175c635ea781ceU, 0xfd4ab2671e4bb2baU,
  0xc2536594d5043a94U, 0x67b5e3d5d2de9b94U, 0xa5950d7f6cf7d040U, 0x14b963ee951a8b5U,
  0x14d56fe95d12021U, 0x539e60a160ecafaeU, 0x6e76d16e60aded95U, 0x51cf1c55521f13d8U,
  0xde011023c5e423bdU, 0xba33fde28133a512U, 0xe30be935c02dec2aU, 0x240542b943fefee7U,
  0xef684caff117e718U, 0xf3fe59f71128262aU, 0x2fcdff05b5c3caceU, 0x25e855b5f1a4ce41U,
  0x5aecb73b5bf6a34cU, 0xa43b45a30ddee410U, 0xc84324385302c02bU, 0xd05481c4bd0c48e2U,
  0x4ae5514bc44b26abU, 0xdd4c85d0fbd1689dU, 0x55a1c5f40397a5b3U, 0xb025bc25e1db05eaU,
  0xc2b41deeddcadb7dU, 0x5edad255061bf655U, 0xf3ed6068c9717f29U, 0xf4e5c6c2daafa86eU,
  0x325ab154f50138c9U, 0xa1fdb3b63afd3ae0U, 0x347ba267ddca6ceaU, 0x81eba300710bffb7U,
  0x39b4c7ccf43eb905U, 0x59623428fa4cd3b2U, 0x12212f54fb1e5dc6U, 0xc6573e69abd6a8eeU,
  0x59afbc7718ffa83aU, 0x81996fb960924cfeU, 0x488d6a64f8343bdfU, 0x7e6eb60d82cf7d1aU,
  0xbbb037d7d2dd9e71U, 0x3a3df6a32e47ccadU, 0xdafb116f0fe04af9U, 0xa494dd4030586c77U,
  0x6785af4ad08b48f2U, 0xe32f6d3e28ba5364U, 0x97b72543fcccaa62U, 0xe045a434cb727f99U,
  0xed2ae2217741a52cU, 0xcab074ed4c3ae9a7U, 0x54966242572b06ccU, 0x8ebfd6a9a9eb81bbU,
  0x1e20dd5f4f7255b8U, 0x6eaff785ed313333U, 0xb296b63656529eebU, 0xeffc5859d5a6326fU,
  0x20660c6214e5a33U, 0xa6e156086a9c2381U, 0xb4cebfc60700b349U, 0xd96093b19125355cU,
  0xdebf53010f9ea60U, 0xcb55da333cf76156U, 0x6c8aafd0acc67350U, 0x654f53771c8ed689U,
  0xd2aa5db7f2566fabU, 0x782a5a673d92289U, 0x2b1f16da869b391U, 0x38a1cfb64f33815bU,
  0xcd041bcade4e7e1aU, 0x86eab025d7f3c403U, 0x21c661576d6239abU, 0x87e9b01b41e1b0ccU,
  0xcaec7fe1af5f146cU, 0x581b2214828c3004U, 0x85d410400e81009U, 0xd55a4f307f525b45U,
  0x430c5af93a40ed07U, 0xbb3db85da595ed50U, 0xcfe803d2b58c21d6U, 0x53a4c5b10ab13aabU,
  0x82e5cad212e63eacU, 0xd3977f1ad731b90dU, 0x9b91e43faebd09caU, 0x4bd3d49790232889U,
  0x99f5c2f6a334e0b3U, 0xa5bcf63af9900e5eU, 0xfb0027f137633553U, 0xcadfefdfe9bf1b44U,
  0xad186e5ccfde924U, 0xec73e9f0c72436e0U, 0x22aaf39b2fdb9c5U, 0xabe6ffe31310d0cdU,
  0xde59f8dc19574c22U, 0xd8338107d065e619U, 0x1627d5f8fc3c97cbU, 0x7fb1fd7155b2fbe1U,
  0x96a417e7dfa21c94U, 0x119c291275210620U, 0xb595e12bd1dfba4U, 0x5aea43b64f71d90dU,
  0xe87fc1f7ecc0c949U, 0x5be041a032999d2bU, 0xbed37ca4b7e949b2U, 0xaecf4d2751d08e36U,
  0x6f1f3cdfb526a445U, 0x9bf19129f12072a4U, 0x2f97e44454bd8999U, 0x552c25ff0eafe6ebU,
  0x1cf8470ccd0957d0U, 0x20b62e813dba5524U, 0x941867ee61ddea97U, 0xf4ebb541c9f7c9d3U,
  0xefbeb5debf8e5c21U, 0x51544e661233140dU, 0x33a8a0f258153740U, 0xb76c6a35b9aefff3U,
  0x6a94b0f629a1fc1bU, 0x2823812698dddebbU, 0x22de24ac0787fb24U, 0x66a632500131f08cU,
  0x7fa44b0cd4edbcddU, 0x1c1b549da8395a81U, 0xf2bd7f7fb70aea35U, 0x8bd497b293daf309U,
  0xc8eb96498b12f466U, 0x59d393ac453e69c4U, 0xcb59b239366989e1U, 0x5eb2bd62b6bfd5c4U,
  0xc47496b9f13cdf20U, 0xeb46f4bbe4bf5cc8U, 0x4d5fc9680fa138cdU, 0x36ae7f1ccc4ff9fcU,
  0x34bcf9aceabca310U, 0xfaf1f5c4ee36b1f6U, 0x30bd47e8cc32a7acU, 0x3990233aebda3c89U,
  0xecf1a7b11b2144e2U, 0x9f32f1bedd10f5a6U, 0x9ef97f70db05cd2cU, 0x31fde843a50812U,
  0xb53cfa919fa4f631U, 0x66c17b96c2a0f7eU, 0x4a9236dc6b17867fU, 0xbb144bbc226b9b05U,
  0x7ecc884c9d7167ddU, 0x5541b220cbde147U, 0x2bd55f6938628859U, 0xc925075b3da69c74U,
  0x77110c840e30adcfU, 0x5945decb0bdcae5dU, 0x6ab308d0c32c165bU, 0xb00b43a55d230071U,
  0x209145f8f698117fU, 0xcf2cb22bd68164c0U, 0xa235064d2daa0007U, 0x2c9ef9512d4a9345U,
  0x3810156c818df85cU, 0x6a90ddd73ba59630U, 0xb4ef453339bd4b18U, 0x15ba8956ed4cf4f3U,
  0xfcc0cc0712e60a40U, 0xcf81db38ddeaf80aU, 0xc444b6f7d00437c3U, 0xd346e53535b6613dU,
  0x1e14b4e444ec130fU, 0x34f007ea55481a2dU, 0x3d7ad2c4e4fe0df0U, 0xffb02c8e8144b260U,
  0x435e23b9edcf2528U, 0x3e759d6a3e5378c3U, 0x9f4e711ac98ab248U, 0xc6331eff46a49261U,
  0x2a4e345237eb1020U, 0x13d9719b49dc62dU, 0x37c1e3d15fdfe618U, 0x391403ee3e009d98U,
  0xb137381e4f5ea04U, 0x3b5627ddef220efbU, 0xfe69ace37c4c1f12U, 0xca2da1015c743ef8U,
  0xb1a90e002baeecc0U, 0x9dda146f577aeb86U, 0x25f8fcd55f455ebbU, 0x8a40234dc7f26c87U,
  0x6ca2578bbe5b8520U, 0x5a7fecac005b6917U, 0xc5edbb2ca1c5ad3aU, 0xf8b022d80570689fU,
  0x23b55a32fbf75a2bU, 0xa91cd14cd97fe2fdU, 0x1dad54bd3bd3fd89U, 0x17b5f016d9713c16U,
  0x30d7d8efdcc08ebdU, 0xd41d44a64d850a68U, 0x81011ef511e4bbd2U, 0x38382edc9b6a3f18U,
  0x3aa1f524c1edaeecU, 0xeb10e4015f1a4fd5U, 0xfbebe5395e483da6U, 0x7cace92ef16f1ceU,
  0xafb3e32b7ee2da15U, 0xe691bac791653de5U, 0xa05a5471b9a09fc7U, 0x7fab9ff5e2d25cb3U,
  0x2b047237510a033cU, 0x898a324ea3ba05aeU, 0x2f9004544eeU, 0x178fffffebcU,
  0x17800000246U, 0xfffffede0000019dU, 0x238000001abU, 0x2e0fffffff4U,
  0x1ffffffec7U, 0x41f000000ffU, 0xffffffc6000000d7U, 0xfffffe66fffffebeU,
  0xffffff97fffffe71U, 0xffffffed00000000U, 0x1a1ffffff34U, 0x12000000fcU,
  0x118fffffea6U, 0xffffffcdfffffee3U, 0x16ffffffe78U, 0x65fffffe9bU,
  0xba000000aaU, 0x162ffffff82U, 0x88fffffea3U, 0xfffffeb9000002cbU,
  0x20b554b37167ced5U, 0x2ff47eb63019957fU, 0xd216d80fd15aff21U, 0x27b95f36c1755436U,
  0xe5214396b2fca77U, 0x557c38ffe45510d6U, 0x42ff73df5e6a2ddfU, 0x684e15dadd4d4e51U,
  0x7f082e335ef53626U, 0x3f15ce432e361c19U, 0xf441bd40bff45eceU, 0x12079016fb99b1ecU,
  0xd4cd81e8ecbda01aU, 0xa0d489248db844eeU, 0x8cd3a587c7a0a366U, 0x663e0efd15d8883bU,
  0xed0f8158b224daf8U, 0x5ee52ac05bdc133aU, 0xd146dcd00605e4ebU, 0x4ad360d31b083154U,
  0x4cffbc58aff25c41U, 0xcae94c40c035fb2dU, 0xc0ea0f3a813a2ef3U, 0x43cd4667d79ad05eU,
  0x9ee20fbe32a62a4bU, 0xed256db52d38e88fU, 0x2a3dcea957a43d6cU, 0xda2311453c61f42aU,
  0xe12900a50663fd84U, 0x922a37e58103db73U, 0xb68fcc2b4dea00eU, 0x2894c53cb6d1ffacU,
  0x9a38fa1895591904U, 0x8daa5e8d9b190aaaU, 0xdc98b85265ca66aaU, 0xa0813a2de861b841U,
  0x82f5c87d74040ad6U, 0xbe00814648c60802U, 0xda970401600a94b9U, 0x93bd1cc3b4e0569aU,
  0xfdbc37324fcee0ccU, 0x302233cf4c0b624U, 0xb78dbc5242b804eaU, 0x31bb2ec95732eb8fU,
  0x6312263e07ea13afU, 0xe2fe896ed00ae1cU, 0x9fbd4498f6d91c0aU, 0x1152325dde7207c3U,
  0xf45c604a7f081981U, 0x4afc40234572f055U, 0xd2d0590911ecdf1fU, 0xba18f5372d4b51e9U,
  0x6a2301ae310d48abU, 0xb51ba76eac173b23U, 0xbaa85cd817ffae5dU, 0xfd34e13cf66a37acU,
  0xb82a3e99be6262dfU, 0x643d22f204430ecU, 0x8103b9531ae7ea57U, 0x2eb9d4ceded830d4U,
  0x6a20f5fdcf291c25U, 0x4ad1dfe9e81ce320U, 0x114c0643315e1f30U, 0x4bf481bb38cc300bU,
  0x8d8de12efd34591bU, 0xabfe09954bcb26fU, 0x81ebaaf9f6b54c94U, 0xb6f9545b34c65c1cU,
  0xdefa09590ce56d8cU, 0x84ec1aa897e35543U, 0x162dacc11ee7dc2dU, 0x7fe835c8d4dbf51aU,
  0x620abd06c6fbbe4aU, 0xa108eec3c71847f7U, 0xea3553d9e261deefU, 0x8ab3dfe13a0ad009U,
  0x22bfa40009b305a3U, 0xbd6d28d3ba92d014U, 0xd00411a7ecde8dedU, 0xdb1343c4d744005eU,
  0x1acae2fb81762844U, 0x5d813629208ba056U, 0x3137edb56315dee1U, 0x2e1762f712e8b1aeU,
  0xf005109344ffdb52U, 0x22ac7cb1b327229eU, 0x31d0000021cU, 0xeffffffe82U,
  0xfffffea4ffffff8fU, 0xfffffe92fffffd68U, 0x1f300000132U, 0xf30000013bU,
  0x23bfffffe78U, 0xffffff2effffff0eU, 0x5902baa5814cc213U, 0xeb1f8ed6373ad92dU,
  0xfd5c9c3d836938eU, 0x192dc820e2458cd3U, 0x14abc6b0271ead38U, 0x211fc2523c9713f2U,
  0x15fae2f7c43df354U, 0xac43cd38d90649dcU, 0xbafc0fb0f54e49baU, 0xde93b21d8f06f3d6U,
  0xa0d481d65f19123dU, 0xbb27b40702fb5a96U, 0xceda9445a4bc1f5U, 0xaf50e59fa1e24436U,
  0x50a8d6f6974c462dU, 0x58fb37c11a104ea8U, 0x296014ef2e8f4e98U, 0x9fd2a6e01d2905ceU,
  0x57d9df551bc24f99U, 0x95abc98bf63981b5U, 0xd2b5cb4f203f8206U, 0xd4378efbba53ecefU,
  0x3efed3d2970a0c00U, 0xd4f419f39824abcaU, 0x42fb222df3ae3fceU, 0xc24207a9d2b72eb1U,
  0x2bf79e3bd51dbefeU, 0xc7bbab99d1f29618U, 0x47789121f8c08762U, 0x352e8f36bf9132d5U,
  0x13ad7000cdcdb006U, 0x52f40eb0bcf432b1U, 0x5bcbfe3632796e07U, 0x79c29a55f9ed93eaU,
  0x8d11f5bcb670acdbU, 0xe515cb7f41f264a9U, 0xa1ca27894af5e081U, 0x301ab23248949ae4U,
  0x319bd5e8d73eaeU, 0xfd3c9297a443358eU, 0x48a5fe0121ef13beU, 0xf52007b0fcaddd33U,
  0x103784b22bf904cfU, 0xdadb1723e5ec49d4U, 0xb2350bf3ee431540U, 0xb6954847cb0bca0fU,
  0x92f5313dcd9d21b5U, 0x4769f0be04cfeed5U, 0x88068bc4ef0be0e9U, 0xd0a3b58d58d93022U,
  0x1c284b5da3ac8109U, 0x29ab14a6168f3397U, 0x5bbf4500601e5ffeU, 0x25b5bded2df72aafU,
  0xcf1d1ddeba8faa6fU, 0x5915e099af5721aaU, 0x8fe655dab0f8ed51U, 0xa409a5e64f2bfb22U,
  0x68f57a49f8c1c3e0U, 0xab281965c0cae934U, 0x8409fcf92b54c981U, 0xa3bd1f920b9b1f2fU,
  0x96789048d90ec6a2U, 0xb599e9fa754a450bU, 0x8dcd0481b0abfdcU, 0x6433522a4b46f986U,
  0xeda5488b9a8783bdU, 0x25ac4f9d349d18b1U, 0xbd63a872a911bdf3U, 0x617fd93b59b5f9fdU,
  0xbdb0df9820334cacU, 0xb21136b17826b6a0U, 0x9723b195b334b8bbU, 0xd57471afac6ee2eU,
  0xd147f831b0f1bac3U, 0x1fa4e802da9cdc81U, 0x19b2b0fffd42c79bU, 0x23ca5340d14cd00bU,
  0x22cefa18b6b1ffa9U, 0x132dc4233180aa7U, 0xb2e645c82c3c0f1aU, 0x94bee060175dfa4dU,
  0xf722d76f2ae3c89eU, 0x47e1a312e9fc848cU, 0xf665e05bbdee5a4aU, 0x7a82cf3706b8017fU,
  0xc5e5f79e78716fd5U, 0x1898dafb4ed7645U, 0x1afdc16f2ada0a56U, 0xcc9f76ed18f0abU,
  0x5fe82bb8413a9f2U, 0x3726594e562efd46U, 0x27920cc18146cdf6U, 0x973a0e452f3d59b8U,
  0xe75705f1d3342db8U, 0x66da3342f01c28aeU, 0xe8573aba46ad81b7U, 0x24fc1f568ac9f81aU,
  0xb926f66551df9fa9U, 0xbdcfa8aa8161a8d5U, 0x6955640e6389f2c2U, 0xa71d69f82003db64U,
  0x124a20e9d1fa627bU, 0x6ac4c934c2c8f52aU, 0x62aaf66ff4d777d0U, 0x30f9ffa4ce6dd202U,
  0x24e6a2ee23857ba1U, 0x1e19a8b357b329e2U, 0xa7bd24ed86352026U, 0xc2c7b2b3a22abd0dU,
  0x3f37fa4eef4b2125U, 0xd0cc0b2d19148126U, 0x440ab82636c5dcc1U, 0x4b91e01bd2a0b8d1U,
  0x3fce4034cbcc9945U, 0x144345dab0041233U, 0xbc1dbc470ca41d9eU, 0x58cc3d33c8177db4U,
  0x1ef5265fc58e58b1U, 0xbbb44c5aba15cfd5U, 0x13d569d2e9e19c1dU, 0xe644e9cf63c0faf5U,
  0xa4748fd523ef817eU, 0xc446e2e931ab6774U, 0x92b9d4e3aceecb3aU, 0x982a97f55e8b460dU,
  0xcae1e3ed2cf8113U, 0x894702281f361b8eU, 0xe4002c212f339ebcU, 0xcdbf28092b25a7abU,
  0x27690eb3510fe80bU, 0x77262424433e9da2U, 0x2a2421f802ee211cU, 0x24f0fd3a46ad54cfU,
  0xb24f15b28bd7dd5dU, 0x20a53ceabb32a479U, 0x481a090111d1244cU, 0xfb26a451e6387f67U,
  0xc27cbc20221c6944U, 0x681e65d65b902b8fU, 0xd2456b826e33b1adU, 0xa1890dd4818294e9U,
  0x7a38b54cf31b37eU, 0xa7823e36ba7de942U, 0x519c072bd0c9f9d2U, 0x8c3bd7d61f91c1a2U,
  0xd8eab48897f48cdaU, 0x5e84a33e3122ec81U, 0x369732f4cf356cf0U, 0x52543ad99f0d8ffaU,
  0x2a0418ecd8a52a3fU, 0x44e4d913fe9d3a06U, 0xb3e691f44451da42U, 0xcf69ee603c2ea99cU,
  0x455c5d3c6a02696U, 0xdc62b5e02ecfd8cdU, 0x88b392a28fc0b9c4U, 0x33b759ad4b3bddecU,
  0xb8623b4c4be6821dU, 0xfa44241c81272319U, 0x2815475329f69bafU, 0x51c0128dffe79cceU,
  0x350e031796eab1ffU, 0xcda6cf1289bd9dfdU, 0x3b54d0351d2dc081U, 0x11d72db1bf97a6c4U,
  0x1c43370fb21738deU, 0xb23aca4a319fdbe7U, 0xb3e3423d0c2bd037U, 0x15ea2d3ac6e934baU,
  0x1d9af0e8ebd3e215U, 0xf7d4338f56e4b63dU, 0x604edaf1786bc51fU, 0x1e7c3a4f168b9cdeU,
  0xba34ea4a16a96e9fU, 0xe1c08127dc1dea23U, 0x14153f2f81e0e2b7U, 0xc84e91993bab743cU,
  0x53c84f596a91f397U, 0xf055c22dc0a8d78bU, 0xd05910838a85e42aU, 0x455956a67e33e9daU,
  0x36e7df1a7a7051b5U, 0xf346ec3c697d92e7U, 0x84da492a3e95d25cU, 0x40c39463f61ffbd8U,
  0x2479655887e858f8U, 0xadcc8ec545c6a695U, 0x34d771a1a183811aU, 0x23f915a62517568aU,
  0x710953357588d291U, 0x324d32b4010a0fc3U, 0xd0be8d1142506261U, 0xb83e96a5b895814eU,
  0x43ffb26a9fc0e106U, 0x53c83ab3bff286beU, 0x69035db2dd0432deU, 0xa5d0f91db61a624cU,
  0xe61e9607969a2c20U, 0x48fd0e18f0915af3U, 0x3cfbb6c731188965U, 0xff8fb3d7ed22504bU,
  0x488ffb32ceaf33feU, 0x3e2bdab136170e34U, 0x272b0b22bb813015U, 0xaedff81c0e8d16d2U,
  0xd3ce295c1a05c7b5U, 0x1c97413c1a72059dU, 0x8f14a622c0076b6aU, 0x3f59ddbbd44b248bU,
  0xd556a1cfba31a336U, 0x5df87f55f988a839U, 0x8600d23fe08d0ce2U, 0x8f14d484e035bde0U,
  0x53b8f835db6dcbf4U, 0x1b49239b2de8f3beU, 0x5955329f0dd30d10U, 0xd15b1ac78db2b635U,
  0xb7d985dcbd66f2d4U, 0x290ce4b1b4c41e16U, 0xf6f58718e5af0d4bU, 0x8dfffe2a4d20ab23U,
  0x981a6092a5f3edcU, 0x59ba49e2a0fdf5c2U, 0x1c46c2e31bf6fbbbU, 0x1220d57b48753d8bU,
  0xa8191606910d6057U, 0xd3ffede5d8c7e6f4U, 0xd41929686ce059b6U, 0x39be22b9fe38d7e2U,
  0xd3018986423a3e83U, 0xbe4ee8d5d05eb383U, 0x7dd88eb46b70518dU, 0x8594a57488c96a7fU,
  0xbdf2c23c1f93c7e6U, 0xc1a80405c6edca56U, 0xc4e953f648118362U, 0x17894a40095d1a99U,
  0xa93e725ca332ce5U, 0xc28182e2b748cf77U, 0x4d0937cd594c6377U, 0xbf865cfaadb197e9U,
  0x1ea2bafc6bf698b6U, 0xa18afa7da6930eb4U, 0xe6501ba260e0e048U, 0x3f165a9b9419969aU,
  0xfb2b6a880ae12a6dU, 0xa2fdb5624d35bdb1U, 0xd6d1f5d1527978e1U, 0x41ed0922a3bd4a8bU,
  0xa032c6b00613b764U, 0x6acdcbf223568154U, 0xa7239104d2f1c823U, 0xab8d01228b3228b4U,
  0xa6b9e82305ff08edU, 0x507b2e215e068123U, 0xa89f49a0b8c73637U, 0x17d71b940e821f44U,
  0x1a1772e613e7857eU, 0x3553fbd8332cdf94U, 0xb09f549817262581U, 0x9295ec63ad19b9dU,
  0x951b901a5cc1e44eU, 0x1196cc3c4e251619U, 0x38cfd2c8858193a7U, 0x67365048df5b3ab2U,
  0x27f3c5f1ff945450U, 0xb74c3847415ffcc7U, 0x9398cac7429d8fe4U, 0x511cff2f8fb661d1U,
  0x4949a02abdeb88a1U, 0xec002ebcdc03d51aU, 0x7d38bd1ef8a5819dU, 0xf4bbb2a99259e33dU,
  0x68b2c46168b2aa20U, 0x9e8b10273d29d43cU, 0x852b45f1076c9d8aU, 0xb72172f912298227U,
  0xb05d167be816b1bU, 0x527e298b7234b55cU, 0xf3e2d05381e1b1e8U, 0x81551494d87b67c5U,
  0x60daeb934c059d36U, 0x7b754dc9b2939efbU, 0xe39bc2c98f111504U, 0x897a998a80c0f97U,
  0x1ad51e5211612697U, 0xd53d6ec03338f8a8U, 0xf1de2e42631e6b4U, 0xf3df34e5d6c2c9e8U,
  0x1826b59934c60953U, 0x5bd1cba4c8ed01ffU, 0x2bd44ad2c8b51028U, 0xc1991a46bbc5a892U,
  0x54348130a1393620U, 0x22ed2523e4a24fd4U, 0xe500b3d5d2e4e228U, 0x414dae9f0173d855U,
  0x6bc3f1dc58dfc9aeU, 0x799a2d031bfa4dd5U, 0x31cb7b7b8d611b8U, 0xdfa345c591e2a346U,
  0x2fcf81921ad1c017U, 0xf14c69fcac6741abU, 0x2eb8e18eb8e1910dU, 0xaa46dc6c96a61dcU,
  0x9ea3ee0004e800c0U, 0x2a6767a728dc8a2aU, 0x85e85fd778a62b8dU, 0x298bdc3b5385581cU,
  0x8c56f5ad3a889aabU, 0xb43b1bbcd9642598U, 0x3cdabf90a2588ce5U, 0x87d8fd29f5bfdd81U,
  0xdd9869589893eeb8U, 0xc3b11aaba531f356U, 0xd944817287ec4b58U, 0xb9bd3f99b59f01eU,
  0xc0f004f9b61e25c7U, 0x3e311118edc7e3bcU, 0x29fa8193efedfd2dU, 0xd1b32558c706e104U,
  0x90fcf154c1474542U, 0x4eed0d2ed8159598U, 0x155517acb1bfc031U, 0x584c440f5a97c883U,
  0xc0837f6ffb9d4a0bU, 0xc501742aafe1de4fU, 0x96fe6577fca13b5cU, 0xee3e12931f37906U,
  0xe6c2e73e7cd93784U, 0x18c8f48dc9ed2000U, 0xaed854cbecf1702dU, 0xb0e79729b894e97fU,
  0x207603bb027d6a5bU, 0x5d3cac7c8bfabdb2U, 0x81aba327350a5cc0U, 0x5d59f24ed0b7bf4U,
  0xfc798551bf78168U, 0x3434d48449658f39U, 0x8fddf9e2a65d9209U, 0x492901f0c9ba1a5U,
  0xdeb0a1e1b0973e2dU, 0x16e2b361b00aee2aU, 0x2a06d455298962cbU, 0x2b0ef55ab100b101U,
  0x92b78d84baf7816bU, 0x7d2d77e58dbfdf6dU, 0xe92b715609b5df89U, 0x59fce318c1468cf5U,
  0x1e9f55887944d8cbU, 0xf09590584f1d0406U, 0x2ec6ffebe4d4338bU, 0xfb19555a13e91a7U,
  0x49b495eef296ee04U, 0x4e24b12281d7f516U, 0x98044cea3b4d42d7U, 0xe6d6d8d21d0f3c54U,
  0x4db2b4e8f83642c7U, 0x1c4d22efe49ad72aU, 0x358d416600be8518U, 0x32c3231b55cee33dU,
  0x3ab5d06f44381a32U, 0xc4b1ab92c3783c7fU, 0x4dea5d51ee96f407U, 0x4db17dd0a135e47eU,
  0x22210a813a9ad40dU, 0xbc8a7123c517d136U, 0x822270d86758d18cU, 0x1422ab56f637a32cU,
  0x9b943eac9ee0d7a5U, 0xb33fb9a3bdd3ccddU, 0xb30bb6b01c81d29eU, 0xc4c14aeff85bea3eU,
  0xde6ee1c0581d2e3U, 0x86b2ef1f33da3bb9U, 0x199531f904b4c502U, 0x43f2c60d0125321cU,
  0x4a67f1705a19a4aU, 0x206075845167c56U, 0xbfa44596786f3047U, 0xbeefbe3a945d6944U,
  0x7db16a3353a8b442U, 0xf496f68aba93739aU, 0x99d4b59daeb257abU, 0xf04587b1cfb42ff0U,
  0x56e795b35ea09cf7U, 0xeecd0297a6419d8eU, 0xb1f989924d1ea0d0U, 0x954ea13d9820b80cU,
  0xe65196ef99c148bbU, 0x18d7d10f16c941f0U, 0x63d0d92b8f0e9481U, 0xa14115351442bd2dU,
  0x17ba17e41b51cfb6U, 0xcf8ae5ca3f812b03U, 0x7ef55de948313690U, 0xf32ca34484c0136dU,
  0xd33465dd0224855fU, 0x858aa25b32040988U, 0xcb6590d5dd56f288U, 0x249e8111ceff5dffU,
  0x7441deaff2c3c31U, 0x453bcc82c9d014d6U, 0x4fbadb2011b3b6f4U, 0x70e02d459a1d7145U,
  0x430ba9bd0d4871d8U, 0x81907d4b123fbf33U, 0x3bbe1bcfdaa41038U, 0x3f311a57ac5a7277U,
  0x4e90309575a11465U, 0xe69abdf19aa713c6U, 0x915ca9ba5565b947U, 0x82a18648f33e2ab9U,
  0x24fc54d623a3ae78U, 0xbb28021aeff411f9U, 0x7edb7781d79fecd9U, 0xbae66ff9a47c1b57U,
  0xba860ad6695dcfbcU, 0xefd0a8760354725fU, 0xc40519d11b042133U, 0x34498ae72eeb98b3U,
  0xb21de13dccbb3a25U, 0x19cc0e571afc488cU, 0xbdd5c90055294c09U, 0xf0f4aaaabd0849eU,
  0xf752143fcccac20bU, 0xa5eabd5842e0d80dU, 0x9352a856e5a4a2bbU, 0x40ffebf8f849482eU,
  0x135305bd1398e0d3U, 0x810e07f6ab09bf4cU, 0x354ab1b3f5242f81U, 0x17ba51c39421da8bU,
  0xb2c248c84cfdf855U, 0xbf1a0651a1094e07U, 0x64b616570f97ce2eU, 0xc21225f699d187aeU,
  0xe4980c27c09f9d29U, 0xef489c0e444b344dU, 0xf833da9949db0ae0U, 0x8ac25e8397e7c19fU,
  0x3593214d1223c268U, 0x511660214227a3c5U, 0xa21c41575dc6bb1fU, 0xe709b02a4c82bc3aU,
  0xf1669c726022e3edU, 0xa5b6e57fd1a6f1f9U, 0xa753928db43f8a16U, 0xaad584c2eb0e9282U,
  0x71f8bb9cd4aeb628U, 0xe9109c622707202cU, 0x26f0c58b230203e8U, 0x65cc99041621c44bU,
  0x6baad2a55fba7fd8U, 0x759df945505b2470U, 0x8e3f0f84b9fb56d5U, 0x9e79f6c30c2e81a8U,
  0xd1abbb46ac343ff8U, 0xf934db0311cf1040U, 0x4f58d96483e433b1U, 0xe48fe7ef3a75a67dU,
  0x2058fe793a5629dbU, 0x7d6ff0e1a09f6540U, 0x837f5ce7c4430811U, 0x528e52cce6937b28U,
  0x99d5c913efc5c39fU, 0xd9a40da886df5676U, 0x123b9ec8c1cb86cdU, 0x103b2729b8272eedU,
  0x31ec2a2361abf25dU, 0x98fe21f36029cf08U, 0xffc416550ab73150U, 0x111fb087be534ebbU,
  0x2e2fea07cfb047c5U, 0x810f1cf6013b410eU, 0x46575cb2939a8dedU, 0x37bcbd00f56c9c8aU,
  0x2943dadf72204279U, 0xbc6f48cb993e44e8U, 0x691bcf42acd703f1U, 0xb83597d4934ff55cU,
  0x3e29dc0d55f91b00U, 0x104aef8890f1a081U, 0x2331f61107602662U, 0x93b0f5f90943619bU,
  0xf5bb9fff2040e227U, 0x6002d8392f914f98U, 0x642c409cea4bd82eU, 0xa531ec2688ebe2abU,
  0xaa4f4cc842b1c354U, 0x3e96c7d64a56e992U, 0x8d10172d9640c042U, 0x548628372b29d88aU,
  0x3f14a8e1f818c24U, 0x2b8c0cfa4da530c3U, 0x261c001ceb15fe24U, 0xb550d003014095afU,
  0xe6e126a3c39ddcd0U, 0x3ff685251d0c149bU, 0xbf6568f161b686e5U, 0xfb6463bda9082817U,
  0xe62721bc930c81eaU, 0x2b431cad94473fafU, 0xab247789a5cd71a5U, 0x96846cfeb837c02cU,
  0x1197dbc57c180938U, 0xb8db440c069842f4U, 0xd30f88553d97d09aU, 0x31431b13845aeea0U,
  0xdea5bfc7eb8fa137U, 0xf7fe15420e45dbdU, 0x53d7bf095af4bbd8U, 0xb9321ca10392bd97U,
  0x56be45d13a112e09U, 0x7663e9a7afd046a4U, 0x1b54860696c33517U, 0x819503dc790b762bU,
  0x71a76972d352bea8U, 0xc9c8ff86c62de27aU, 0xe01429b458306f1U, 0xe27f26adb221d9f3U,
  0x7f976bf08c4f553dU, 0x24e19fab61445ee1U, 0xbd3422fd3b953d2dU, 0x7c170ba2cd6b35ecU,
  0x83055db70a7d627U, 0xe06076f3a970c2f8U, 0xb15982e2bcc54626U, 0xd77bdaebb0a89978U,
  0x8c7bb49a5eb15e11U, 0x24f2b855f1c8446cU, 0x504d5171d461b950U, 0xc03e3594110bb368U,
  0x8d1df1afde25ed10U, 0xe8c7ac612d726349U, 0xdbd2224fc61d7154U, 0x1b6bb7e681422ac2U,
  0x619fff0f0e9ab654U, 0x3083aabf2cd505ceU, 0x59efd18b31b981a3U, 0x15bb0fb20cde1276U,
  0x690ee244bee3b664U, 0xc15aaa5df63133f5U, 0xfd4549edaf777794U, 0x108f9e3455ef9adaU,
  0x7f949b9606d2be6aU, 0x33e01b7e6751be8dU, 0x9e61d8c22ab459f1U, 0x6ad018368dfe39a8U,
  0x7f7700d8b5d96000U, 0xb04e82b86cc406c8U, 0x2cbeeafaf187baU, 0xc052678abdaf71cbU,
  0x199b8b309d1152bfU, 0xa11c5ce128ec95b8U, 0xf4cb46f1e7151e8aU, 0x26ba93f65eee5937U,
  0xe834cb8c6b22f3a0U, 0xaae27b5a5c8b10b5U, 0x24274e9bc6dd1adbU, 0xfa11de208171e70cU,
  0x262d41c9536ee0daU, 0x2e9741de9d77c904U, 0xda0abaf1bcebfb6U, 0x6724498ea18677bU,
  0x9fc1bac83a10519aU, 0xdd90283ab948c703U, 0x31bbc6442a182d7cU, 0xf8e0c95418a296adU,
  0xa3c03c131c26a081U, 0xeaa9ea0e74c1720bU, 0x525b646e78f2256eU, 0xbd84fd911e2fa116U,
  0xc32e57dd791bbf74U, 0xc5442a93b68fdb23U, 0xffffffdaffffffefU, 0xffffff8dU,
  0xffffff90ffffff5aU, 0x0U, 0xffffff6eU, 0xffffffa0U,
  0xffffff8bU, 0xffffff9eU, 0xffffff7effffff9fU, 0xffffff8eU,
  0xffffffa100000000U, 0xffffffb8U, 0xffffff9fU, 0x0U,
  0xffffffb700000000U, 0x0U, 0xffffffcdffffff7dU, 0xffffffc100000000U,
  0x0U, 0xffffff7e00000000U, 0xffffff5500000000U, 0xffffff6b00000000U,
  0xffffffc1U, 0xffffff7400000000U, 0xffffff90U, 0x0U,
  0xffffffe2ffffffc0U, 0xffffff97ffffff84U, 0x0U, 0x0U,
  0x0U, 0x0U, 0x6445b6ec0aa4ee92U, 0x2301230f7c13c2beU,
  0xdc9ccabc6cf0a80eU, 0x812a28e39e16d54aU, 0x3b5e048d888ef621U, 0x17cb5d865a91e2a8U,
  0xbbcf1d645575286bU, 0x8a388ab1c42ebc30U, 0xdc0404e569cacb3aU, 0x20d54b0e5944e058U,
  0xb6aba451e9f811a8U, 0xf18d6c7698a2ba25U, 0xf5c37f983d1fd301U, 0xe05a446f5927400cU,
  0x89ecfd6c03d691dbU, 0xf207aa28d64538edU, 0x8d37fe35bd46b3a1U, 0xdfd95ba1de687321U,
  0x4408cd79cb99eb9bU, 0x2aec4c2f2f320660U, 0x2b16b87f619759b8U, 0x16bf1a036e946d6U,
  0x5345b608ccd9f634U, 0x8734b4aac25c2f5bU, 0x84343ae1364197b2U, 0xb96047654ba9e7U,
  0x8e21d1af734924cbU, 0xfddd2665a7fc86cU, 0x464956eb25382eb5U, 0x5ff1c710f25ab8c6U,
  0xd9eb3c7914412e94U, 0xbced259f2581ea9U, 0x5932e5622aeb35a3U, 0x31cfcb9a2753639cU,
  0x2013b087edfbc54dU, 0x23ff9425103da84U, 0x8a53ff44442da9aU, 0x3857d8e76b294e25U,
  0x8157cf58af9f3643U, 0x4307ac737219dafdU, 0xa73f45f3ec1eac11U, 0xd2bdfe2f14813049U,
  0x370b4833b79d2af9U, 0x60ca1399f472b111U, 0x19a3c99a1d9823eeU, 0x3e3fe00caeae40eeU,
  0xc951f588f4366247U, 0xb3bde1912dada338U, 0x5684f416e5e2e818U, 0x9acadfeb99fa92f8U,
  0x87380e16e2632290U, 0xf081690ab3a044b2U, 0xaad20dd959691698U, 0x3007cfa526f7930aU,
  0xcaf5904229c3e83aU, 0x7f1b4d24d928f016U, 0x103b351b036ca555U, 0xb2b3e4d3b96acd5fU,
  0x17b1214bb2f6f7d0U, 0xf4b5256adfb2685eU, 0x59e86405f6cae7e1U, 0xfb50a54fdf7daf8bU,
  0xf781105c9059b10cU, 0x33516dc32f31c644U, 0x688e490344b35af9U, 0x95b3cb5472be5025U,
  0x99f3cd02559e5b16U, 0xee058bb1d4553398U, 0x3f39d00519fedefbU, 0xb91aa59f18019e4fU,
  0x49678160d5aa6924U, 0x72d0e4d8abcc02cdU, 0xc871f762341d43bdU, 0x53923ac8091cc301U,
  0x823830353f194af4U, 0x9989ef8c2d7d181bU, 0x992d06ff97971898U, 0xf267bded98cbb710U,
  0xc904c529b44cd88fU, 0xe4e57fc077a40fd5U, 0xc27a5ab99d7fc133U, 0xbfc355ae63f64041U,
  0xed16c81610454ba0U, 0xc008caa65e9bc0beU, 0x9fbda337693b3ad5U, 0x9ed2191cf0f5af2aU,
  0xd6f2341e5b475787U, 0x2b32bf8ffe6204e8U, 0xafcda6ebcda9e095U, 0x15c839d92ca7a1dbU,
  0xfa24d899ed4cae8eU, 0x3631d28c5b6d8449U, 0xa9f993c9df0f9665U, 0x501d452fef29c7dfU,
  0x81d84ef46a59c81bU, 0x4107b76d6ba8a163U, 0xb15baad9f902ffb2U, 0x98f76bb68df7c021U,
  0x352db9386c2901fcU, 0x53eb91bee907624eU, 0x7d08713b1d31ff7U, 0x91420134dea90681U,
  0xbff0ba72917a0f02U, 0x17a85af1a924b1fcU, 0x2b069e2406f04c94U, 0x39fbd8aa05023ab7U,
  0xe5daaebee5b4029fU, 0x2a2d3c5b3e242b03U, 0xccc9d3620aa54cc0U, 0xfdd401d6fe466ab9U,
  0x95f404b5123067fU, 0x2ade8b3d75ac27a9U, 0xe6605e21e5a46720U, 0x5fa4a7261f707df0U,
  0x8153cf3251ae8e7bU, 0x4584a77da21ee01cU, 0xcb9360064324ffceU, 0xd1fc3f87d5c1e8b0U,
  0x314240338abc98fdU, 0x40e4081f5b5dd88dU, 0xde6fbdf0f529d1e7U, 0xad1ff95fbb9400f2U,
  0x836e1392c1aca3caU, 0x1fdea03a6a88fc02U, 0xb87ec9936c326167U, 0x846256d71d8ab0cU,
  0xaa531bf3fe5b81ebU, 0x1660aa98732eb653U, 0xe152d6c6c86e1d14U, 0x33381eacdf3fb354U,
  0x48b0d5eff64a90c5U, 0x907fe769dd03ddeaU, 0xd75b8f85b8b09fb9U, 0x59c6e125041cf21U,
  0x6e24bceeb674cd16U, 0x2cd5598f6290036eU, 0x17eebd0192250fabU, 0xe78dff2ad339653dU,
  0x4ee338ab97d56b41U, 0xc9d3c414aa0fc3f8U, 0x59f6c3435761578cU, 0x8500238d8af1445fU,
  0x89631e3aa1401f82U, 0xb747a157d17f66feU, 0x6ad0d9d8189a07e6U, 0xf8873e2cea3343a8U,
  0xcef97cfeddc12598U, 0x16fb7fd67252cb0cU, 0xb9691ade26384a2U, 0xc5b7e84bb0593fdbU,
  0x616078c764baaf27U, 0x6929813f734bc59U, 0x5b9bfa3cbc0c51ffU, 0x9b849ff289d18a43U,
  0x1712db2f535681ccU, 0xc0f743ebc26b06f2U, 0xc20a23455291840aU, 0x1afcfa4232409897U,
  0x395bbcbb9588d2a2U, 0x3f1dbfeef3d39ac2U, 0x17539ba0a0d8da2aU, 0x704a947f3a3d55ccU,
  0xf42b1cd5c0f7bcadU, 0xf557e48eebc92e6fU, 0xd330d7f509473f08U, 0xe0398bd1c4f70779U,
  0xd1f1c5ad318ef0eaU, 0xa51b6672e759f5f7U, 0x562f0ab77e8b73bfU, 0x7f1b5081c018354cU,
  0xe69b7dd2a7241eaU, 0xca43c78c98e99e9U, 0xd4305b82f821c96eU, 0x18a912c01de0228eU,
  0x64408b8e54d43930U, 0xe39d247572738e42U, 0x77b8eabdf1b6cdbaU, 0xc93b195d87f0febU,
  0xb7c04baa27d06d7aU, 0xe2d38f4a68b2ab2bU, 0x7b85ba43339aeabbU, 0x6f9058b248f929b8U,
  0x70e4c8d8c324e1ddU, 0xde4b9c464bd438e2U, 0x0U, 0x0U,
  0x0U, 0x0U, 0x0U, 0x0U,
  0x0U, 0x0U, 0x15bfffffed4U, 0x2ca00000109U,
  0x25200000177U, 0x23700000165U, 0x2fd00000213U, 0xfd0000013fU,
  0xffffffb2ffffffaeU, 0xffffff0c0000017bU, 0x152fffffec1U, 0x10100000145U,
  0xffffff94ffffff2bU, 0xffffffffU, 0xa2f2f00940607dbU, 0x1411fa8e8324c981U,
  0x5748bb1e11f4d69dU, 0x4ec9bf8b424a18d5U, 0x220e576a92f862dU, 0xd93b9a63e5f70e52U,
  0x3b6e8750ac105440U, 0x3b0e8a40a0a1c703U, 0xb40b4bf48cfdc8bcU, 0xf9e2081600b8f8c7U,
  0xa76a81b7f0934189U, 0xc843a5fc34d42707U, 0xfd04891cbe3dc6a8U, 0xc62d464bc492913dU,
  0x9ccc39984e24474eU, 0x650533d7d6608f4bU, 0x8b3a592fb68fabc1U, 0x28041e48d3e4a7dcU,
  0xde21d49791a25655U, 0x32e64e100a0e9f12U, 0x1d27d48bcb34b51dU, 0x4aabb9b3c62b1d8aU,
  0x72b9fd8635698a90U, 0x5b283ca3edaec057U, 0xab24301851feb309U, 0x9e3d9395d5881f7U,
  0xe49b3c2ce743af9fU, 0x55fb6f94f5144fd0U, 0x2aa90667229f620eU, 0x81d11ae2cd427d22U,
  0x93aad7a0cf0f5275U, 0xffc5fc6ea2381097U, 0x1a5060465d9c2519U, 0x97e581e21ef2f910U,
  0x9aef9124f781eee1U, 0xe94efb08da12b844U, 0x6bc7b0c9bb9ba599U, 0xee139115f83cd9acU,
  0x8dc09d4b89989a5U, 0x4abb864fecc696a0U, 0xd92ad0c93cec411eU, 0x5d23c0e9c743a663U,
  0x223ed6810df5f58dU, 0x3e45211e0bf393cU, 0x2f35ea038d9e4ad5U, 0x6ec7f8db555687e9U,
  0x37862997485f72b3U, 0xe59b27ffb99889c9U, 0x7709bb5a906e9e26U, 0x4e4dc8c4f6cc5ea6U,
  0x4b319bc614637fe3U, 0x4427aa6cc73486a1U, 0x7b3aa34086a8fa4U, 0x63d6063a1598b8ccU,
  0x85d33698fda77b79U, 0x2887a536149aba08U, 0x20aa9c7559b9f4fdU, 0xe7a516fffddb5455U,
  0xe4368daee581036fU, 0x1c4269cbb2e76effU, 0x2ec18b08e259cdedU, 0xff1bffcf11fd2ac8U,
  0xf8bbf9b83b9a1907U, 0x9c8cf8c5015d6d1bU, 0xf0345f4a8a1fdb97U, 0x644d267a35144391U,
  0x3f15ae64f05c1af9U, 0x518f545cfbb3e4c5U, 0xc716e0118de5f9f9U, 0x38a9283965e4fa89U,
  0x593ba0d5178b6c1dU, 0xe442a48149e51ea9U, 0xe84a4c25b10d4db2U, 0xbc1a2cbb85cea248U,
  0x3ade5c18be9622e0U, 0xdb3d39a14e0c2336U, 0xc62a22a342a143b0U, 0xf3564f96424c81f8U,
  0xf3bf4840f140f5ecU, 0xf2f1aad34ded57feU, 0xa6a746ca5b44c4ccU, 0x661a45381e2cdeaaU,
  0x1da142a9e94447feU, 0xda22d48b1a281a6U, 0x5e20e740902c214fU, 0x2ca728b2bd128b83U,
  0xc75e9cfb6733c3b6U, 0x40c12ed9cc30ffc6U, 0xc1b94d38493f5220U, 0xcde5fabce5e5d7dfU,
  0x5729f787f0aaa2c8U, 0x9911e656d63fc106U, 0xb587ce2ac05d9702U, 0x2dc845981ab2a81fU,
  0xa055605e981f4707U, 0x1efba33811cd5f6eU, 0xb29435ae575961c6U, 0x4338fe4b9861d581U,
  0xe3d4b6be25f86317U, 0x644ceb8171041e46U, 0xa84fc4d067aaf394U, 0xbe1d5d1d47ade8daU,
  0x5ac5a8fecbefa888U, 0xfdfa653ccc5989baU, 0x34a3cf131490beeU, 0x16a4071d52aa3617U,
  0xf1eec2c5c2dae55dU, 0xb8cb59904e354e11U, 0x34c06b675c9e81deU, 0x459bf7cfc3265a1eU,
  0x749649c9c0a65642U, 0x14b619c7cba5403eU, 0x90c5e54dccc8ae4eU, 0x83eecd5a2155bbdU,
  0x8e66cd1a8c923228U, 0x925e12f6d61632a8U, 0x4a52d813fbd6a30fU, 0x5a15a66c60cf176eU,
  0x1b50fbaa671a03b9U, 0x6da841fe3298e323U, 0x9b25c673ca343e8U, 0xd7509c79d0c32fd9U,
  0xdbd81444e04467f7U, 0x450abec427943507U, 0x823981ca10f7b6b2U, 0xd2cce87060d037bdU,
  0x4032f21dc7bcfd2cU, 0x91d2bd4e512f4f6cU, 0x410890484b3ece06U, 0xbe6781ce01cf4811U,
  0x43c41893b642fe5dU, 0x9de11423f375f099U, 0x5c899a9c6246a3c6U, 0xd9aef4889a5a93f5U,
  0x4e1562adbd5c99caU, 0x5ab0bea011511b96U, 0xcb2f75bc2a69c0bU, 0x51573c0ee0b4c5dbU,
  0xd08bbddb63a4cf5cU, 0x96f9ade0624a2f8aU, 0x1fff26911ea9c9d7U, 0x12853d2abf875881U,
  0x4f2b052e18c1de1cU, 0xfddb523e1ad0dd8eU, 0xe6ef8ebdc5398eadU, 0xb4ee4d7b833c7d16U,
  0xce19c7df1e5c7fc4U, 0xa5c0209e2a539a77U, 0x750506c33ed098baU, 0xb451496c210fd4bfU,
  0x92ce8e4322b07b5U, 0x555ccd00b1af1607U, 0x8eafa735f5c9bb1aU, 0x662a000c77e34109U,
  0x652c2dfcc9d23d7eU, 0x395cbdf787da9a31U, 0xbd9c5f7dcec339feU, 0xeb21ce897a84a2b1U,
  0x2de2022406cbf7f0U, 0xe8bd28708aa39287U, 0x4d81005800e4ff29U, 0xc670915e02cab34fU,
  0xaceae630c6ee179aU, 0xc18a23d6ca438d3cU, 0x363e31be1c51b4e5U, 0x2a1aa0c72186fcb0U,
  0x42450c1137f82315U, 0x37ca2197c006570dU, 0x60d52ff8815bf6c3U, 0xccddb18d1144f2c3U,
  0xcc10452d5235cdadU, 0xde6eb762bb094b57U, 0x6404e967022cd954U, 0x9c4ce6c69dcc819cU,
  0x5797d01198d5f09fU, 0x4c8ac9c9946d1582U, 0xda55b79fd1603dcfU, 0xad9a87f4cde5ea59U,
  0x965cf1181f7df29U, 0x36eae9c4116620e1U, 0x75474fe656d87b69U, 0x54aa34ffa1241fe7U,
  0x955358f722330ff1U, 0x7b3c29a2bfbfc0b8U, 0x2981f620337b2675U, 0xad3336e393be9efU,
  0xce689399910e71e7U, 0xc5049a20a9e6c2cU, 0xea9106d869e6ef83U, 0x4dc6e46bf464eed0U,
  0x33524e04e8f23e23U, 0xa8d1ac4e01d1e1b9U, 0xedc61717902f814dU, 0x4ba96afb2ac1d729U,
  0xb765cc1c02c0a63aU, 0xdf060996493e4fa5U, 0x389db6dcd1fb91faU, 0x3a2bd43c5a083d90U,
  0xdc38d81765c85446U, 0xd930ef75f1ca406eU, 0x5836fdfb548e71b2U, 0xc1871dd8af26005aU,
  0xa67c624f83887879U, 0xd8d6bd0c22f24c81U, 0x22d62b908d4fd5fbU, 0xe5c63455c4a31dc0U,
  0x19190b98b503716U, 0xf19f6101db34cfefU, 0x1e9f1bbc8d033538U, 0x693ff29a9c5791feU,
  0x384e10314cc5d626U, 0xe456ca0081bb15b9U, 0x52aa9709baebb1e2U, 0x223c25163ae715c1U,
  0x2eff0c1a87332b8eU, 0x47d6bad8d4a0d342U, 0xfbe3dfc8e28f665U, 0x6cb9622dec961610U,
  0x8f45e545e24f82ddU, 0x534081ff23df1345U, 0x4b1e070b1328164eU, 0xb01eac8e2f0abbeeU,
  0x534c8bde53afcf5U, 0x5ea21e33ac4d5e9dU, 0xc7ef37f828c8ff04U, 0x2ed72e6fe1065839U,
  0xdd76ea97826932ddU, 0xe85e6c4803f3c854U, 0xe4a2572fdea40623U, 0xd6d52e8168f3b1abU,
  0x5068a9c5e00a0c4dU, 0xac68c536976d3483U, 0x9f6dbfe8e0743f95U, 0xe8e53c594e8d8aa9U,
  0x5322e4c6e9b40aceU, 0x5399be14979581U, 0xea0291143e5599e8U, 0xc4dd1629b4a61e82U,
  0xef9644bd4d421ac0U, 0xacb19fdd95142a27U, 0xe30a9e49d431d8b9U, 0xd357a3e0450f2050U,
  0x38d191c9fe89f42U, 0x56df92bef4d697a2U, 0x6de70034382da163U, 0xc65f108c89f1b1f3U,
  0x905b50c102380d6cU, 0x9a2d7ffe383ee020U, 0xb34de01fa5f21774U, 0xe8491078e4c16697U,
  0x1aab3f8ba3b8e94aU, 0xffddd1ccad2fd611U, 0x390b6bebc42e81efU, 0x12ecd6bb3da982e7U,
  0x1fd65c19eb6ebff0U, 0x11c4bd4ff62950c6U, 0xa659baaa28e5368dU, 0xd8f1103d15209f2fU,
  0x31d18af309a4fa2eU, 0xbb396471a97601aU, 0x3a13d9fb47658a43U, 0x5cad3e0fb6f41c83U,
  0x722a46ae4325ea45U, 0xa536d649200e2a81U, 0x63faba1982272bdcU, 0xaeb7db4abb59dbabU,
  0x62b73ea0e1132897U, 0xfc5ebbf2b110de95U, 0xf43eb45d00b29f3aU, 0x5ee1cd430f35d849U,
  0xf8ffd8d8fe36cd45U, 0xdf8b995a404dfd2U, 0x965e6ba82a151bbfU, 0xe8fd29a41cbd5987U,
  0xc7ed8ab7466e90d5U, 0x160b3904e233ad15U, 0x25658133de132c89U, 0xab8147a44a1c8c89U,
  0x47e658ebb5bf4ecdU, 0x11d3d61f5e9439b4U, 0x9b004aa112279ce6U, 0x4fb7cb1c3de699e1U,
  0xbac2bf2532651eecU, 0xd596eb8a2545b61U, 0x301aa736b7e9b65aU, 0x79ae3de39d63038U,
  0x60e0f4a3c2811333U, 0x57003f21854d9a2eU, 0xffffffcdffffffceU, 0xffffffa9U,
  0xffffffb6U, 0xffffffd000000000U, 0xffffffc0ffffffc5U, 0xffffffd0ffffffbbU,
  0xffffffbbffffffcfU, 0xffffffa7ffffffcdU, 0x0U, 0xffffff9affffffafU,
  0xffffffb000000000U, 0xffffff8800000000U, 0xffffffc0ffffffb2U, 0xffffffb7U,
  0xffffffe8ffffff9dU, 0xffffffb7ffffffb4U, 0x0U, 0x0U,
  0x0U, 0x0U, 0xa092ef24c179e020U, 0x9a979bcc3720ccbfU,
  0xa07fb0683191f12dU, 0xdf4a448551e11fb4U, 0x2f1c001db28f1131U, 0xd2e6a5872156633bU,
  0x3a3489ce811d2111U, 0xb9efc6b75e00dd5fU, 0xad61298b8d2bd0e1U, 0x57777fcd3354f241U,
  0xbca253e658c430c0U, 0xcd8b5ed9291954f4U, 0xb5a20c38d08176c4U, 0xd1caebe3c265a68cU,
  0xc0f012e695efefb7U, 0xea6b9e529d233072U, 0xc6f0d0c2e078dd09U, 0xd0cd2a470f1dc3ecU,
  0xab7fcdb075e61613U, 0x19fb059319429208U, 0x1d84beae3f7ff9c2U, 0xaf5eadbb102ed7ebU,
  0x6a40fc944b7f0ed7U, 0xac4096b73cb8869fU, 0x52d5c5e16a986184U, 0xf26202088602ea04U,
  0x70ae9e3ca24091f5U, 0xc17f3e278416c0c5U, 0x99ef57717f90ada8U, 0xabb5cced84e66e87U,
  0x63bebe1a47d71260U, 0x4c62d89e40402800U, 0x1d5d15c492eb1746U, 0x337097faef844a55U,
  0x2d3b375060efb29fU, 0x42998164fae0b667U, 0x768405d6c7422a1eU, 0xcc1976c1edc05e13U,
  0xfe6915abc3ced188U, 0x1ba663c364248127U, 0xb7bef7a51961990fU, 0x92a723c551070607U,
  0x53afa761a6d88f60U, 0x1f48426547bc7fe7U, 0x77f957aac17feaadU, 0x707d320a1507e851U,
  0xc3a29e5ed358861aU, 0xc1bb395822630010U, 0xae14b2dd0beb94fdU, 0xec28da41d8dc9e7fU,
  0x420ab479c9ad8fdfU, 0xe3b7620525a2e34fU, 0x68c80cee9b2fdb27U, 0x62b4e57f2c844239U,
  0xf8bc0c69d386ed6dU, 0x98fc428b09791039U, 0xbe63dd01c6fd0f54U, 0xdda25560c0a93e93U,
  0xd04c9a8b402de981U, 0xbe2e0a272c675a77U, 0x9b20f288a2c91234U, 0xfce50476d662c29U,
  0x59bee1f820e3b681U, 0x9eba73b79baba384U, 0x29c0a530d7af9c81U, 0xf917ce879ae7eb02U,
  0x25c2bd570d5196a6U, 0xf2e31c66511c0429U, 0x417516543f8a612bU, 0xc02702ca5b52ddd8U,
  0x32b4f844727fce96U, 0x27eee39dc69a3057U, 0x5d0dcd3d49d190dU, 0xcb147b4ad742012bU,
  0x51621060233abadeU, 0x813d1448d8a154b7U, 0xc98186d6d1f05e0aU, 0xf9189cb4ad0ae7a2U,
  0x21a114afba3d3a5cU, 0x7514896a4ad4d10U, 0x7fa2f66b2770c174U, 0x36403f965953ecc6U,
  0xc7dfdde6b949f081U, 0x7e1ab5cdb0909918U, 0x6937e9b6269bd4ecU, 0xe9ef74d2e0f03fdeU,
  0x34f67fc2d3eee826U, 0x95edf1e995a5afb1U, 0x4292005e134884edU, 0x363ab88192969d37U,
  0x1cb44e4d3c5b9c65U, 0xe09f06efe3d41a1dU, 0x31700000000U, 0x6a70000025aU,
  0x6d4000003ccU, 0x5f800000374U, 0x71200000615U, 0x26300000365U,
  0xffffff37ffffff31U, 0xfffffd9b000003f6U, 0x3b2fffffcdeU, 0x28000000364U,
  0xfffffef9fffffdb2U, 0xffffff7a0000000bU,
};


ai_handle g_forecast_temp_ml_model_weights_table[1 + 2] = {
  AI_HANDLE_PTR(AI_MAGIC_MARKER),
  AI_HANDLE_PTR(s_forecast_temp_ml_model_weights_array_u64),
  AI_HANDLE_PTR(AI_MAGIC_MARKER),
};

