/**
  ******************************************************************************
  * @file    forecast_temp_ml_model_data_params.c
  * @author  AST Embedded Analytics Research Platform
  * @date    2025-11-03T20:24:15-0400
  * @brief   AI Tool Automatic Code Generator for Embedded NN computing
  ******************************************************************************
  * Copyright (c) 2025 STMicroelectronics.
  * All rights reserved.
  *
  * This software is licensed under terms that can be found in the LICENSE file
  * in the root directory of this software component.
  * If no LICENSE file comes with this software, it is provided AS-IS.
  ******************************************************************************
  */

#include "forecast_temp_ml_model_data_params.h"


/**  Activations Section  ****************************************************/
ai_handle g_forecast_temp_ml_model_activations_table[1 + 2] = {
  AI_HANDLE_PTR(AI_MAGIC_MARKER),
  AI_HANDLE_PTR(NULL),
  AI_HANDLE_PTR(AI_MAGIC_MARKER),
};




/**  Weights Section  ********************************************************/
AI_ALIGNED(32)
const ai_u64 s_forecast_temp_ml_model_weights_array_u64[1726] = {
  0x2b4831b60c5a03f0U, 0xc9b64afbcbcb6527U, 0x5d00f87cba24ca30U, 0x18d2fb0720e751d5U,
  0x37077930d01812cU, 0x9c13eec559382951U, 0x1b94b7ce56614b2dU, 0x205ac05f4ecec846U,
  0x75c3a846d7fec63U, 0x74aa48ff3ea91a4bU, 0xad7fe0b6d5c4ef08U, 0xd2980ef09d0d23c2U,
  0xdb01d2e4ef232c29U, 0x4606ddd00e0541f3U, 0x273b264f33c8c620U, 0xb0df3d144ad7c8f1U,
  0xd18352fbe2333b5U, 0x15660e5c7ad77f4aU, 0xbef411a764467f28U, 0xfeaf2747be324336U,
  0xf5ad3e43b6bed198U, 0xe2a088550404b657U, 0xde13cd0544660cafU, 0xf1450dabaea2b90aU,
  0x900fdbebb4a93283U, 0x3c54ebd81ad4cU, 0x5ff0322f0d14cfbdU, 0x22c4b908f651dd7fU,
  0x1037cd1bc29e35eeU, 0xfdca36d91309be58U, 0x29bcf75ac95a4fbaU, 0x9ab6f8d60f01b095U,
  0xc6e1aecfd15e7544U, 0x7ac8c604c6064b7fU, 0xbd514de422bd2706U, 0x3a681818d52a1d12U,
  0xa0d40e512e4969deU, 0xbeeafa4af4e34049U, 0xf65ee6357ff26544U, 0xec08e9ab396a8c79U,
  0xccee81f3aae5e4bcU, 0x1eef16c3f9d3f1c2U, 0xaddcfdebdde9c1b7U, 0xe6f1ec0c09b0dabbU,
  0x93807145fa381e9U, 0xd62e1835d309d48eU, 0x53c30e5d3bfa683dU, 0x4a3cf0ee39063a58U,
  0xb2d8076dd9d458ddU, 0xd3e8754a32184c13U, 0x23168b25860cce54U, 0x96dd40811b146af5U,
  0x303d172a875f3645U, 0x2cf221bae7de7fe2U, 0x24f200bccee0b9e1U, 0xaef5b39cbfc3c317U,
  0xeff5e8b39618ba43U, 0xefc80df0e502cb3aU, 0xd644adafc2f605c3U, 0xa21d34e415f702ceU,
  0x41db2334b030f0bcU, 0xe45df0e01392fc7fU, 0x393c66253816ae1fU, 0xd43c2150b32629c0U,
  0x7fd23a6ee8471e4aU, 0x613f48d572dfb5b3U, 0xf11841d7b2e2e417U, 0xecd8de0d20d72e37U,
  0xebface12242281cdU, 0xba1606ccad18f3fbU, 0xf681d02c9646c1d3U, 0x35d1c70127eb2da8U,
  0xc4e1ecdaaefd0ed5U, 0xd9b4c69c99d3da0aU, 0xde29dccb0bc8fad7U, 0x451c464ed93ffa67U,
  0xf034fb043b1f1af8U, 0x8f7de2b453cc74fU, 0x220bb181dc4d261cU, 0x6f1ed7370ccef832U,
  0x60414ea36dcdb854U, 0x4faebc0dd341022fU, 0x9f0ad80d7fac6c97U, 0xfadc1943c3fed167U,
  0xefc65312f7c3bf25U, 0xd7a282a3b18aa901U, 0xa1058e0998bb81adU, 0x812e9cfa1431219aU,
  0x2cb412d1b62a49a8U, 0x46cbc12c32d820f7U, 0x3cd438d0db179e68U, 0xbf6c064a10b7bfe8U,
  0x30047523e08108dbU, 0xc1e8ae25c6b1fcfaU, 0xf7d0eea0430b1ec0U, 0x6e1bf9aff66afe5fU,
  0xb0fecfdb23c456ebU, 0x108309e4694eb58U, 0x301c55c1163b03f6U, 0x99d8186fc7b8a4f6U,
  0x8b2484b7f5eded0U, 0x1f59f7be07cfc7abU, 0x149ef2abddf731a6U, 0x395b3fe32a538156U,
  0xc0dff7e030e8eb93U, 0xf2307db937ef00ddU, 0x17dc307d2b05bfc2U, 0x97fbc67f33113ed4U,
  0xe9ac3a08000869b9U, 0x99d118f42a5b43d6U, 0xc0a0edc73836a5bcU, 0x2a428c3bec32b29U,
  0x9514c41fbec9c1c2U, 0xdde0e0517fa15340U, 0x31dfd849d72def17U, 0xad059b15591201a7U,
  0x342ce6c2de7fcb55U, 0x4f070bf103fdcbU, 0x7fa49b138d91155U, 0xc82120414c182111U,
  0x3b495584aef4edd3U, 0xa4da6b7feee94ba1U, 0x3e361c3265875e1dU, 0xf964480e2eacf5faU,
  0x932ae9d35512970bU, 0xacdd7f1b08c7eeb3U, 0xa6ddd8d123b6215eU, 0x5918d3d15e4c464bU,
  0x6d294b4c200a8e69U, 0x166226c67c6df352U, 0x68766016cd2d3f7fU, 0x7540dd7f44596a02U,
  0x96cec3afe6e823b3U, 0xf1fd080f9f1628ebU, 0x28e8efffcdc4ccdfU, 0xfe084995b9f8bcacU,
  0x5115d14c166852efU, 0x3fb9c7fddac9570fU, 0x181cb6b4f45e9946U, 0x97f8d4aaffae4a81U,
  0xa2d8fd06e0ff0adbU, 0xc6fe3312583f5c9dU, 0x583cbf0b5019cd38U, 0xabb20506421158baU,
  0xd01b40542b7f14dcU, 0xae15a3e83049e969U, 0x81a219f9b84cd2d9U, 0xd4cb0825e7ac12a1U,
  0x56f4969d03ffbc19U, 0x20154d44de385246U, 0x26162503542334e7U, 0xa7ff1936cf4a4508U,
  0x81dd353a51f7d3bfU, 0xb27f9b2aebe5ea0eU, 0x46953dcfcd38132eU, 0x2a4fa5d039d1451bU,
  0xe8d8e6c0bf56f7f9U, 0xa74b1626df8ded27U, 0xdb9d25f83281edb5U, 0xf14adc43f046d3bfU,
  0xdcdf4a05ea313583U, 0x50e93fa2fbfae0e0U, 0xb5395d65f4012810U, 0x22233f302825053bU,
  0x581109e307150a2aU, 0xe3aaad62d290006U, 0xcbdcdb78e5f08192U, 0x91f41559081607c0U,
  0xf6cfa8dbf2c24054U, 0x215881e8c00cf631U, 0xb0a4d98fc1cfa08U, 0x3fe4d42b4d7f0865U,
  0xd4634c010f04152bU, 0xd6f5ec4fb64ec13bU, 0xb9d5db18c70a55ddU, 0x227d13e7525bb145U,
  0xbbea7d190f20e8e5U, 0xf4bbfd542dc2fe2fU, 0xcf2729617fa8511fU, 0xd9d530ebda7d1027U,
  0xc61526e92f32b702U, 0x8fd852aa28b138d6U, 0xcb9fdd158d27c104U, 0x27633b59de9b7fb6U,
  0x74a8c00e344a2756U, 0x1b28dc0e19ae335dU, 0xf6e4659bdec18b8bU, 0x811c9650ecdfdc8bU,
  0xc97ff13b222ef4acU, 0x6ac5ca9fa4b0113U, 0x412dc734e43f63c4U, 0xd9e4f9a8adcd07e9U,
  0xc2b03799d2bb4a00U, 0x272bd5dbaced369aU, 0x3e60f4fd54babd6fU, 0x9f7f3852eb38af97U,
  0xe8c6f0d7ec443213U, 0xe6c5332b4725efebU, 0xce0fef7fcb05b7b6U, 0xa2bbb2033de44c00U,
  0x4425f3b9396dc3e5U, 0x753e797f9e752839U, 0x2dc0dc6168f37621U, 0x3cce1b95202d1246U,
  0xe9f81d88b334141cU, 0xf4675d9a0f2b59c9U, 0x35350a2ab0519a4bU, 0x1c1fa7f129467982U,
  0xfe691417db2df43bU, 0x8e997905f4fd0481U, 0x4ecde5af17167703U, 0x7ec43b144431652U,
  0x5167f214c8b54a06U, 0x5db3fcfdc8d9cf5aU, 0xeea8461bf381e916U, 0x443581ec4bae7324U,
  0x1fec020ee733b01bU, 0xc4682fcaf1d51cffU, 0x418567d74e282061U, 0xd0be4638f057c9d1U,
  0x63764e55e25c034fU, 0x187362555a7fdc07U, 0xb3524ee4251f325aU, 0xb7ecd1e97227f828U,
  0x4e814319caeb0decU, 0xfd03d5b5f0c8d72bU, 0xf113bf84be2cf9c4U, 0x295436c88bba1ac3U,
  0x5d06f9bc8c62f11cU, 0xf139963222001cf7U, 0x3c3ff6d8b26cc003U, 0xe57f305cba2d69d4U,
  0x8f63407a44324f86U, 0xb1f0480d1e5dc95aU, 0x2ff8db0d07d70ab6U, 0x7f762b4013bc5844U,
  0x8c70000eed6U, 0xc3100000d28U, 0x8730000081aU, 0x7fc000007f3U,
  0xa3700000ad4U, 0x8d400000761U, 0x8fb00000a92U, 0x9c2000006f5U,
  0x7f20000077eU, 0xb010000078dU, 0x8d700000b29U, 0xa7a000009b8U,
  0xbe600000a59U, 0x697000008d7U, 0x7f50000083eU, 0x8bf00000c03U,
  0xa0600000a03U, 0x79500000a3dU, 0x94200000931U, 0x94000000860U,
  0xa9e0000093cU, 0xb6a000008cfU, 0x8d100000b59U, 0xaa3000006e4U,
  0x65d000008ceU, 0xb9600000925U, 0x8d6000008e6U, 0x38f2181900000bf7U,
  0x662dd81051756011U, 0x9ee305907401531U, 0x510a31e934ed2165U, 0x390f52280d282767U,
  0x42e425fd104828e8U, 0xf15bff1fdfe65c5dU, 0xf63a47343c764335U, 0x2f14314bd822e72fU,
  0x47491453ea0def52U, 0x5c4e2b64430e3502U, 0x622811e1df5ff75bU, 0x1f2554114d50fb5bU,
  0xd61c6a0443e31651U, 0x7b3368354ef9fc0eU, 0xf5304f5f65e74a66U, 0xfd680d3841574ef4U,
  0xe4672723ea7f5638U, 0x14450d3e67026703U, 0xf1f8756ae0d9125aU, 0x2a4d517247504ce5U,
  0x32e52465f5284be7U, 0xd9f5f824283ef0f4U, 0xd0e617013df05f16U, 0xf6e7353d15c35f21U,
  0x572728fce8eedc37U, 0xde1d49117fd40cbcU, 0xee21bce7bcfa03aaU, 0xd2ecb7250ed82af4U,
  0x210db4c740bc3700U, 0x571d4863e125db02U, 0x9e1fad600509b2cU, 0x8b32d27e8e8dfd0U,
  0x19da2508fece6e41U, 0x30d118f7204215f7U, 0xff540512b9e243d0U, 0x3f62284cef4f3844U,
  0xd7d5391fa9542021U, 0x29adcb1aae2650f2U, 0xeb1f1f030b47390aU, 0x22c101d07a4fb0bU,
  0x57442d1c28313c5bU, 0x501f001d593b4c05U, 0x1a6344e5e934f05aU, 0x184f1e60dc1d2e03U,
  0x631bf01071dcff3dU, 0x5a2806497f5a6e0eU, 0x3f7ff23f1cb1052U, 0xeaf9661f51e62114U,
  0x15da6f262d611071U, 0x686cec25e6fa4955U, 0x406a1e5a55205e29U, 0x1ff408eb1829f4ddU,
  0xf52d19e20931294dU, 0x33ecf4eb3d616952U, 0x3fafc5d6649dc46U, 0xfdfa2f1bf3061008U,
  0x1dfbcd320b141644U, 0xf9242ee459695a19U, 0xebf531543bfc5225U, 0x205e3d65e058edeaU,
  0x10e6e862ec362ef9U, 0x4ef42c48271c0923U, 0x40b024b2c255852U, 0xb3566f2347e3326U,
  0x13f4523815dc446eU, 0xf7302c42f9074166U, 0x55ae0363b3f350fU, 0x2a65fa15f135ec09U,
  0x4927fe1f1d0413dbU, 0x132335f2d5672f06U, 0x12a0f30fb40defdU, 0x4a3c032974e94204U,
  0x3c0f0b2f40f00be4U, 0xfc693e0bf4262d2dU, 0xc021a4058ce404eU, 0xfd4e5f496129e825U,
  0x283cf8513f02353fU, 0x6522393c182efb7fU, 0xcdd541de61ef302U, 0xf92a052e4768fed4U,
  0x3dfa7df066975e7U, 0xd1c71ddfb5272400U, 0x6301fb7bb1fefb13U, 0x19bf4c229ce50e31U,
  0xf71afbebd00c01f3U, 0xf542f804261cc4e6U, 0xddf92b23d80644d4U, 0x173aeb38eee3ba09U,
  0x4671b5fb29f41725U, 0xf51249daf739d046U, 0x110dcd21744304beU, 0xf6bfa3e71417c11dU,
  0x16de156bfe04e049U, 0x61dffb2342be140U, 0xc412ff28fe7bcfdcU, 0xf1241e25efdf7fb9U,
  0x2df6f7086de1ef3fU, 0xc3f1aedc09f43a29U, 0x1629e5efe1c45928U, 0xe20d11f81c51f03dU,
  0xbd1cc00022b6df34U, 0xe3f1555b40d623f9U, 0xe5c7b9511af54253U, 0x2812144d224f4603U,
  0xecf7f25efabf211eU, 0x6d33ef4631d5542cU, 0xbd60ef462dbb4b16U, 0x4d41a57e64517c7U,
  0x12e010f4710ad53bU, 0xbe31ef466ac01543U, 0xe13450543f2037f2U, 0xf5031813dfd852daU,
  0x7e2be25043ced152U, 0xebf75257e311353aU, 0x7ebbf62fc322e35U, 0x1af85e2a33cd7f0cU,
  0x2d3d10155ded1cd1U, 0xcd3f3964ed2a5bc5U, 0x10d4023fddfed533U, 0x38fb3a54e04549d9U,
  0x31c7691a27112f37U, 0xfa7afb020d2b4cf5U, 0xf0f05026113a604bU, 0xf5fb094d445416f3U,
  0x122be2f4ec4b5175U, 0xe90ce1325ffbef29U, 0x235c254e251a0257U, 0x53250621272bec4bU,
  0x204f3b15ece9574fU, 0xfb0330414c41644bU, 0xe46fef3d07fb1ff1U, 0x38f1e545f8fa4a32U,
  0x3e0d5bf4360f4113U, 0x4d5fe6f8516ff9U, 0xfffc546b1a2a5342U, 0x3524d61b410904e2U,
  0x343d18ef7fdf523cU, 0xff0b1f2f2c143635U, 0x253a5d26571e27fdU, 0x262032161c47dd3cU,
  0x2b370648442be800U, 0xe7393724e61f4a42U, 0x65030db93a1e364fU, 0xdb0f7f6437290efeU,
  0x2b5211571ef6dde1U, 0x636be43af2015070U, 0x7c145c6c33e6ce4fU, 0xfc0d1b02eff3264cU,
  0x5543fc534242ce09U, 0x51624c4d85d5234U, 0xeeec037144675f09U, 0xf357032f105de843U,
  0x1d73fb50643dd017U, 0x30553af44fe34303U, 0x3402c9fdfeed5057U, 0x1e63177cfc6af300U,
  0xf8297923f0c73767U, 0x87d67771dea2f14U, 0x1de9443cffdcd25eU, 0x6c542e50400ee765U,
  0x1b48d7ce51570ee6U, 0xfa4c0c783c215626U, 0x46c9cc113058d755U, 0xd3f811f86bccf04eU,
  0x1607fc7124411b24U, 0x6dae9ef0e64f4e1U, 0x10131353e8052d40U, 0xeed843dbe5437bd7U,
  0xcc1acc00ee0020fdU, 0xf4c9482c14d9706eU, 0xe9ef150cd5c9fdccU, 0xc5ec05ff4bfa1150U,
  0xe941eed1fb0d512eU, 0x6536351c2b2b0c41U, 0x41e93becec4c3151U, 0x53e9ef17ced540fdU,
  0x7f37f6d5eeccf5ccU, 0x9335f01ec6cc7ebU, 0xd84805e1f31f2c72U, 0x3a2ffcd1ef423563U,
  0x7d83e2a5109211bU, 0x3709d067f42ef041U, 0x6f405d4556225261U, 0xe7f41d236640f55cU,
  0x1a2af716e7e72837U, 0x66255537d93e6151U, 0xf841332df50d0c57U, 0x5164e0d6043a0a57U,
  0xd83bfff9fbdc7332U, 0x4e31401a126cdf35U, 0x2b623016745b0d4eU, 0xdc3316165cdf1d1eU,
  0x7a40e9061019c873U, 0x534a016f4bd8340fU, 0x8cf703f52fa4a06U, 0xf9def3fe623d611dU,
  0x553662323b18682eU, 0x7f3e342a023841d8U, 0x2ee93f744806625aU, 0x2b2af6100c07d84dU,
  0x2524304835011f55U, 0x3c694ff23d465ccdU, 0x5b60006172626528U, 0x455a33e4412e4231U,
  0x1d14f15c356a0a3fU, 0x33681ef216d51a56U, 0x1f696c413a06645cU, 0xd4d626b51100e68U,
  0x1deb50382d2840e0U, 0xfe50fe7cd84f1f1dU, 0x3f332935262eed3dU, 0x827de5046eed470U,
  0x7962383a0d1e0a5dU, 0xe5655f5718ed0154U, 0x74e3e5097d1a6ef1U, 0x61f80b08fa1e0040U,
  0xd21e243069363e70U, 0xf87f383d301bfd1dU, 0xf930251cd2586978U, 0x693248ff40382653U,
  0x5de96e54484bf46fU, 0x526def0508167672U, 0xd9fd3d40fd63635eU, 0x43f4533a1345e44cU,
  0xd5724a6a324bf3e2U, 0xf160d6e30bef57c8U, 0x3506142d5a3d1c10U, 0x634702f53af65b44U,
  0x1ffd240036093ef0U, 0xfe0329d3d16a674eU, 0x74f943450cf132cbU, 0x7e81f0030eb1d44U,
  0x5a2d400b55163809U, 0x2df93c6f190bfd27U, 0x5e272a1f611935f5U, 0x55e2b3f70551463U,
  0x4d326b080418d922U, 0x5c5f40520f322670U, 0x4c0a327f652b3504U, 0xf510066735fa1a60U,
  0xe8141138e9170344U, 0x271d9dcffddff5dU, 0xd04ae9404065f920U, 0x58e5f7f4262d2720U,
  0x9fff53601ff5010U, 0xd63861450b20c4cfU, 0x5dbb35ff30e919U, 0x724558eec6124cd5U,
  0xf205034a0c4f40caU, 0xffc257ea4f18e0ecU, 0x3ad31d44d452f5edU, 0x1ffd3616f2ee361aU,
  0x15281b612a4823f8U, 0xcce7f22e372df74aU, 0x27e611c2db3ed2dfU, 0xea11352a070222cfU,
  0x7f10d7ebfcf22564U, 0xd1ff41de014323aU, 0x1fea212f1a1ae0c9U, 0x39f74ff03d36c675U,
  0x3efa153645bc551cU, 0x17f1703d73220868U, 0x527d3e38f3560920U, 0x43431bf4d70fed23U,
  0x155464045b5e4edbU, 0x6b17604d6947643cU, 0xd36939d820224647U, 0x24f51a5a6d240cffU,
  0x6a0edb5b04176a42U, 0x29dadc271a706341U, 0x1529683a04f8340fU, 0xf07f4b3dfceb0e2aU,
  0x266dd05e79db0575U, 0xfbfffee914605e48U, 0x45f4f41243ef0112U, 0xad0fe4c73195126U,
  0x66353d150431dd68U, 0x7446284bee644978U, 0x1b25033e5965f40cU, 0x3d2c0a1b011cf227U,
  0x5412f8e3716de473U, 0x78da42d8e5666b18U, 0x43067e0664c5d0bU, 0x2337e5dae7695252U,
  0x57264602ebeb3d17U, 0x3f51f8031c671b43U, 0xfa4b200644f1e933U, 0x46d8e8cc1617dc3bU,
  0xca46f83b64d7d4d3U, 0x403fc0f55eddc934U, 0xd8ff3ee94243cad8U, 0x43e152ef49030b58U,
  0xd0e4f644ae6fb7fU, 0xe1faf92e5564ea37U, 0x36e45b62e85c30d3U, 0x210ff7eae212f91cU,
  0x57f4df6331304ef3U, 0xea383a184b0a5037U, 0x387c0b09474453e5U, 0x1f1d34cf1211ff7U,
  0x7239253f404d1336U, 0xed102a2ddd09534dU, 0x5f05392b5ded7914U, 0xf657400943faf245U,
  0x39ff1528c0d2592eU, 0x3d4919de29ecf4cfU, 0x20fa3d41c252b85aU, 0x46efeb0103400048U,
  0x60e41162c40d4f7U, 0x16133ced0b151900U, 0x35741bee7d3f117U, 0x45151724295ab748U,
  0x423b4332d4e9e154U, 0xe6296d3ec0433918U, 0x2e0c4aff4cc93f3bU, 0xc54bc748b01eae5eU,
  0xff2b10f62b453348U, 0xdf5222dbf6b7e997U, 0xe2f86f441ffd1448U, 0x1c5f1c4252da1415U,
  0x7f4ab421f2d5b35fU, 0xc5e2ddfaca3fefc2U, 0xedc0c8516758294U, 0x7f90c0a04280640U,
  0xe21beede39fd4f6bU, 0x6efc0954f80136ebU, 0x3b080f6afe2dda60U, 0x261cec2ad71d51e0U,
  0x7a6d1a47124c3245U, 0xf848df0a744e2960U, 0x2c4958e20b20496fU, 0xd2739e95224e91fU,
  0x1c6e3b4531565215U, 0xfa0b3d312b07ef59U, 0xcff30c474f5a35edU, 0x6f4245003a31cf57U,
  0xd1372938340f2c50U, 0xef364a04fff7f6fcU, 0x3117f67dc056324U, 0x561ef2474b720318U,
  0x3e42085f3d77fbecU, 0x13ec443b761a526aU, 0xf03c524b2d5807ffU, 0x3c09260666c91235U,
  0x682d476421646b3dU, 0xd6676e60141ef252U, 0x58602ee11c22116bU, 0x4425545c2dea2442U,
  0x71223d36525f076aU, 0x1a30eff523376c57U, 0xf645e22c683a36f7U, 0x2f121b131ee2dc10U,
  0xda3ae0f7dcd7d860U, 0xff1fff7e2916e47fU, 0x1c7933551ad832fdU, 0x32c6e823024f6328U,
  0xdadd6d0b011a35eaU, 0x4f5b18585cf15d03U, 0xe6cc5067f3defd79U, 0x3158bd375638f3f6U,
  0x3c6ebf0e3c4bfb5cU, 0x1e0b531559e5cd66U, 0xea5b1dcc1ae4f8dfU, 0xc83c62fc3e10d020U,
  0x2753ff614de4f13bU, 0xa041c0d69f05448U, 0x5d255f3108225110U, 0x6323e3ef0d66130fU,
  0x455d48ea0652f212U, 0xfb61771120254022U, 0xdd4c55480246f643U, 0x4b397f06466302f4U,
  0x4fdc1fd93461f70dU, 0xf31bf80816f8d768U, 0x14222f54e63a6437U, 0x680d044939f73ff0U,
  0x3a386e0f45252729U, 0xdd1f2e34202d38d4U, 0xdf151b1f732e5f54U, 0x4d4b175f7b202856U,
  0x2a5d5b2c37763425U, 0x1f012f750d2b0c42U, 0x22fa4fe13e6660feU, 0xf43de33d332fe646U,
  0xd40a4c2de836d4e3U, 0x5aea411dfdf17964U, 0xc66fd1bf9d3f42cU, 0x4c5e1d76ecf70bf0U,
  0x112075f1035033dcU, 0x27d66762320ef950U, 0x18f33852e8772b1fU, 0x5671152c072d206eU,
  0xed0ff14a4156ef48U, 0xf8234058fc0d5e05U, 0xf461de4e054cdf22U, 0x55e851fd5156204eU,
  0x5b3b7be75c51ec1aU, 0x36f591c47e0dcf8U, 0xe5237f0e1e5b082fU, 0x275d79f340d7175aU,
  0xb2256535649157cU, 0xd312cfdfb51fa56U, 0x2d312e5e59594c55U, 0xe222ea5c29f64adfU,
  0x5d235f304e663d0cU, 0xe9232cf6f0fa4728U, 0x353928f4165551dfU, 0x443d6a3d2f59ec72U,
  0x3126db0847634f2eU, 0xfb3df43d1b4f43eeU, 0xfa07350c5aef6516U, 0xf4f073e60fa1952U,
  0x351a5fed35454b4bU, 0xe36df77307231815U, 0xebe938ff005630dfU, 0x54fd1b34304430e8U,
  0x6e062b2a4c4d3137U, 0x53285bff392a0b50U, 0xb76563752ffff23U, 0x605c4dd0fb2150ddU,
  0x1e5b10f447eb4962U, 0x180af10aeef15b7fU, 0x312a115254ff142bU, 0x6029324c25334a31U,
  0x387f3b10641b6a70U, 0x53e42a5f1b4ef26dU, 0xef4b2bd909d73a60U, 0xef0132366c680cf9U,
  0x6912494e3a69ed60U, 0x361fe8460c622a10U, 0x10542807f3e03cdaU, 0x21580ff61f091b4cU,
  0x592dec2536046803U, 0x45fcf2f438462260U, 0x431b4f6c1bfc5459U, 0x72dc5d2e30392218U,
  0xfe271fe71341e519U, 0x3e04dc1f135d49f7U, 0x55de064e0b710af8U, 0x19ec5e275b5c4723U,
  0x213a35134ddf6519U, 0x34413c035e583814U, 0xf9f952f9762b01f1U, 0x29e33a12e25e1ce4U,
  0x2e483cf06d2d48e5U, 0x5254807310718fdU, 0x5f2e54105e0d461eU, 0xf70ef12bf1690155U,
  0x137ee025f603b2eU, 0xdd52e90a31180a21U, 0x114d5ad833f52738U, 0x544c3b216618482cU,
  0xf334341f27380209U, 0xfe13a5a15ec3f2eU, 0x405a2821f6355846U, 0x730e2082d3b3755U,
  0x1611d635006574f7U, 0x5340343725211706U, 0x50ed4e06f4e46d47U, 0x1b23321f6a7f52f5U,
  0x456f5041493c25d2U, 0xfb66f415540328f2U, 0x4fdf31055b462d50U, 0x4bef263c063f423cU,
  0x5f3747003805270fU, 0x38121a754242da06U, 0x33f86c523af2501eU, 0xec17e43e50532214U,
  0x38271b2256674cfeU, 0x3a49605949fc1354U, 0x78e1fa5d2d02133fU, 0x42add3508046460U,
  0x707f5a3f0724564dU, 0x7fcf40227fa4d29U, 0x7121f6532342e8e7U, 0x1465fc326759e70cU,
  0x11405170594d380dU, 0x230068310909ff3aU, 0x62ed54526813ed26U, 0x5d4b633ff8d4693bU,
  0x84c58305b13fa19U, 0x26623306ef214b79U, 0x27e3f31f00552d79U, 0xe71650e9204b430aU,
  0x40293949e84e6060U, 0xda6801014139666aU, 0x1902e954631cfcf4U, 0x2262103237de285cU,
  0xf34224d1cf1f219U, 0x422360061a4b1951U, 0x2c1ff2fa411b0039U, 0xff4c55312b44f2d7U,
  0xf1582cf1f9731b55U, 0xe432023e03b6c0aU, 0x5c21383619f7ed32U, 0xdc07e24fe22310fdU,
  0x5111513922404165U, 0x1a0116f4e7fa403fU, 0x49fb55153c58e0e3U, 0x2a60f44522344f4fU,
  0x7fec67585d601b00U, 0xdfee315d3e221a39U, 0x3e0f55281b284c08U, 0x1bfe0c0661416e11U,
  0x2a5b13e5e03a352dU, 0x16fefa205defff48U, 0x40e6377a67ee5c4fU, 0x401ae7dff712ea41U,
  0x6371572bf06b3e2bU, 0x45deda3e42eafb06U, 0xee68510333f53bfeU, 0x3367fc3b5b412e5aU,
  0x29eaee1c1efbdd55U, 0x6164600bea6f2e53U, 0x1360690707312904U, 0x1a714c7f45e9e326U,
  0x80a40325706626fU, 0xed37243e5f62f930U, 0x4dee66e72cfd4bedU, 0x9fff319477c33edU,
  0x59ddef7017336460U, 0x25681210cee7f7f5U, 0xe14de662a101ce8U, 0xe9553ce529142557U,
  0x6e5a50e710172d0aU, 0x2d7960d32562ec58U, 0x3712e8401c632a15U, 0x4ed52235e001f755U,
  0x62fc5b6f29053a5dU, 0xe07f5d0d35082207U, 0xef20d957fcfd5736U, 0xdd6619dd470bf033U,
  0xd45b54ee62ebd511U, 0x1ae15418462a224dU, 0x2965306347012942U, 0x671377e664fd6622U,
  0x3405272ded285644U, 0x5d251821f248fd22U, 0xa184e5b551f0d03U, 0x3e3b1313d4007242U,
  0xd8152ed7236a0045U, 0x5d7e56d10a065710U, 0x3772667dd9fc2478U, 0x14682c6755def95aU,
  0xe8445f1be46d295fU, 0xe673229dcde3123U, 0x134b2cf0670cf26eU, 0x17135a09f0093377U,
  0x5c495aef0921fe6aU, 0xdde94f3f66307844U, 0x3e57466c3b0c5403U, 0x510bf415601c683cU,
  0xe54b435034e3f8d8U, 0xeb094a3d06461d7fU, 0x1213602110130d4aU, 0x2d124b7118e96235U,
  0x19744e2fdf24582fU, 0x4d68547c0e242113U, 0x401726a70582568U, 0x12641629543be210U,
  0x4146f92bebf06007U, 0xd5227ffde90e430aU, 0xfb084bf16c68f677U, 0x1940e81d48f92d29U,
  0x5609f025db013400U, 0xff43f645e61c573eU, 0xdad6d66d60405315U, 0x1b28eccc59e02cd0U,
  0x55ee09ed21ec1605U, 0x37e83912deefecdfU, 0x32d2f30c31092d22U, 0x241548e60911dc38U,
  0x5109fa39594049e4U, 0x1323065313f12733U, 0x7cd944e4de0b7646U, 0x25722e7a3ed338feU,
  0x1a54fb334a7f305eU, 0x4e564ce8ef245664U, 0x305e525135e23be9U, 0xf06402103e10ef45U,
  0xf43406e9645c0940U, 0x2a43eae3f0281052U, 0x4d642d1d560a155aU, 0x4819ea243f513cf4U,
  0x3804f51df82605f8U, 0x114f031f7bf26b6aU, 0xc0a3a12e3e65fe9U, 0xaec0817f639d64bU,
  0x3345ab6162a05ccU, 0xec002ce1c639555dU, 0xd20a53ea1708c724U, 0x67eefc2133414243U,
  0xeda01c41e0941e5U, 0xce34f7e3cf31fff9U, 0xec08213737751d04U, 0x2e4e5145320dfaddU,
  0xfa3d3cf8e058f534U, 0x574a1bdaf55c0310U, 0xed3e2217ecfefc1dU, 0x47e813feed022fe7U,
  0xcd2922405b3d3b17U, 0x62cf5eeed266d2dU, 0x2d19121bf0221411U, 0x40e51e7ff65e2a5aU,
  0x235d0ed72eecfef1U, 0x17cff242e0f63c31U, 0x3012351542283644U, 0x7f435b3aeb213741U,
  0x63286c5342dc0b36U, 0x30ebf1585c301009U, 0xe924f1fd4a273c5aU, 0x4857653c62e73705U,
  0x705a42493f5bfb5cU, 0x4d6e49fb7032ffeaU, 0xecf309f228163336U, 0x48f72ff369332069U,
  0xda5959564df2ee6cU, 0x67033c0844dde948U, 0x4e142842f4f34be6U, 0x410b23061059f648U,
  0x622cd9efd5e7ff58U, 0xe76c1f5c58224fffU, 0x59f60b575347e6ceU, 0xe465006fe95969f8U,
  0x6c6110221903e265U, 0xcfc1a041c5c4a68U, 0x405035203216f45dU, 0xd80a274cdf5df4f0U,
  0x4f55173e5e230667U, 0x67408523f0c5128U, 0x671e282b13fb594fU, 0x57080b4cf40f6af3U,
  0x5fe0f03fef544c61U, 0x4c27e31122412f54U, 0x4d6128ec1e59f678U, 0xf5556af54b1b2d01U,
  0x606a2c1844333056U, 0x5a2263210806457fU, 0xd8fbe57818541454U, 0x654132fc3a39003dU,
  0x4806506b562b6b28U, 0xff1f815f023fc56U, 0xf2e40ef1f3def83cU, 0x105547300952e700U,
  0x651be1f41be6db1cU, 0x50e90719204d4f23U, 0xf80d1b2fe33d7821U, 0x4de5777e11b3e48U,
  0x55115beced2dfcd7U, 0x350dd41a5e590c20U, 0x637efbe9112ce366U, 0x22d30d1a217f3e04U,
  0x340d56d74e313c5fU, 0xdde566808490ee7U, 0xdd60db3312692f1dU, 0xff2a5219eb430e77U,
  0x1447477aef601622U, 0xe75955131e5e56dfU, 0xe11c2ecc252d5306U, 0x4ef156e8e5ff04f8U,
  0x3cea1eed4063384bU, 0xe6121551614bfd51U, 0x53f80a11673d04e7U, 0x4542dd64e5f138cdU,
  0x27e6fb100222fd37U, 0xfa31616b6e265958U, 0xfef24126e3141a5eU, 0x2cf62e2055003e37U,
  0xff1e1771363c341bU, 0x693bec14222414eaU, 0xe75e5226761bf463U, 0xdf62283a1e395405U,
  0x6067e36ef048fa5cU, 0x11e26af854280d4dU, 0x6a5e6e25405a6b46U, 0x39f654e96020f310U,
  0xfffd6740fc22514cU, 0x237f2a5a34f32f7aU, 0x838634a3c4c4847U, 0x47fb2448dc4343eeU,
  0xc6bf8fa6c3e52e8U, 0xdf01efdee606532U, 0xd9db6c4d03f27436U, 0x6c71d64f26ec050cU,
  0xf1543277da420405U, 0xf3de53362c45d651U, 0xe845eafc3de04bf8U, 0x53e95f19ecee0a00U,
  0x4cf336d54df762efU, 0xf7ee0d3a71485446U, 0x246de21d63edf12cU, 0x1c63603f53463e0cU,
  0xe248ec0462082349U, 0x4de67f2847511a3dU, 0x495201df20080468U, 0xfef7702005da1a6aU,
  0xa37331518ebf813U, 0x282ff20b6201f939U, 0x484e4363fb5b0e48U, 0x5d344e3b5f444915U,
  0x313ce207fd0af608U, 0x344cfb72e5574918U, 0x1b620f4b607056f5U, 0x903fc3e554f4ae0U,
  0xe626e87c4635fefeU, 0x2a100a033d3edd42U, 0x673ceb174dfd5b69U, 0xfd45083b6c601210U,
  0xdd2214fa6c3ef606U, 0x553635566b63296bU, 0x1cfb1c7832d9f843U, 0x41431b550bff3004U,
  0xedffe81b281a5ff1U, 0x7f676df13c27575bU, 0x1602f9452dfd5540U, 0x64b06d922fb2732U,
  0x7a0a3622214921daU, 0x57ec031df3033afdU, 0x1f42266f5829d920U, 0xf830102bebf4175cU,
  0xe718192dfa442029U, 0xf757324536527665U, 0x403d49155d30033fU, 0xe251075fee6402aU,
  0xf266ed640ef0f20cU, 0xff54115e37fb1e75U, 0x263555591245ee5aU, 0x6e2f834e94903eeU,
  0x1a46fb7f39f6315aU, 0x25f64ce85d7a5741U, 0x68242bd92fd5f320U, 0x41ef342065e3d235U,
  0x725b12f85b425432U, 0x730cf527e947d91cU, 0x275ff56e3c4b182dU, 0x7e70cf65d7adf54U,
  0x334d0bdff4d70641U, 0x56532a66f500f85dU, 0x2e6456e94b331a3fU, 0x426305cfcd24e72U,
  0xf2f254eaf827d030U, 0xda0268071b0bfc3dU, 0x4103dc27601c1415U, 0x632752052d04153cU,
  0x3e6af6006037ec28U, 0x64f33fea344f5f5aU, 0xf8531576f3dd0867U, 0xe2207e3c033b4040U,
  0xfd48dde1f4faf15fU, 0xed4d1fe9291a1b05U, 0xf4de623d4de46517U, 0x1261d908e85f5d4dU,
  0x42e1072f39fcf139U, 0xe457331636661b5fU, 0x53e95dd40cf86938U, 0xdfb0f5806e11dcfU,
  0x6145040333352051U, 0xf1e91939e9dd32f9U, 0x193f05f1256039e2U, 0x4f12e6612dfd2d41U,
  0x2af645d927eb0708U, 0x1722e72654155a34U, 0xe0f4ea1a1107cfc3U, 0x59b22566c3442ee7U,
  0x5c08f55f2fc71752U, 0x2b4cb852e17fe2f7U, 0xc2596fddea293925U, 0x6d3a28c702e4deeeU,
  0xc3f6391c2be7d327U, 0x334633204e4e1905U, 0x405f3f3656eb6848U, 0x2c275219150c2f56U,
  0x5c5933f0f62a397fU, 0x5644f8f5034d6612U, 0x32352e623b50535fU, 0xf15de82b3638f73aU,
  0x51501ef0f402f834U, 0xddda2e203ff7f248U, 0xea38574a564c5a3aU, 0xef05318f4231406U,
  0x5316353fe100484fU, 0xf69f7fc197c11U, 0x57d80d27315811feU, 0x49e1e820085d3753U,
  0x340de2636f1f69d9U, 0xfd46526f5d660a1eU, 0xf94af257e863565aU, 0x682c5ff3e6102017U,
  0x84b7028fce72713U, 0x5aea2e5f164b354bU, 0x1c5027da1ce95349U, 0xaebe02be8ea63f2U,
  0x7eae13640f9fe08U, 0x351c422a54472360U, 0x62fc5f4909233a24U, 0xe8fb4c21e769fb48U,
  0x2bef491423eb2e17U, 0x41f234d6f0ed2d2cU, 0x294b52480754d33bU, 0xfa4bcee2f41b2d4eU,
  0x3f3fe22273ff07e7U, 0xe10fbfaf8f55efeU, 0x2007d72a401b1af6U, 0xf62d337ff1d75adaU,
  0xa3d3c326f516ae5U, 0xff69fe50ee6bd767U, 0x661139322c5d6043U, 0x41df204103114fe4U,
  0xeef9f8344bd85135U, 0xde121469332df83cU, 0x38d4e1d2f005f401U, 0x6260fe543450745aU,
  0xef56da1d3033f33fU, 0xf4ddb053250344fU, 0xe91a621019de0308U, 0x47685359da3e7bccU,
  0x56ee57e85133451bU, 0x1a3141f0615f24ebU, 0x2f4616e1501d0850U, 0x84a0277527efb21U,
  0xd07fecd8e3455143U, 0x4fe43419df59dee5U, 0xfb66e73600fa47d1U, 0x2184a142ffa2ae2U,
  0x3a6bd807fe2b002aU, 0x4d0762075407163cU, 0x30f7021a330cd845U, 0x5d4ad233eb6179fcU,
  0x4ccd3b6771e607e0U, 0x5c0adb5018360e20U, 0x516e7c3d44e36ae6U, 0x6633efcbdb443333U,
  0x67c7ff5fc30677cU, 0x6a3264530250fde4U, 0x611605701f0a454dU, 0x6d4a580c6b541426U,
  0x1deb0ff007e75a4aU, 0x6e0ccdee7835d61fU, 0x485f570e68026163U, 0x5602472b7722696aU,
  0x66eedf67e4dfcd74U, 0x410a5f402d1aeb2aU, 0x6adb2a130ed0e56bU, 0xdbfcffd72d346524U,
  0x36042e5ee2683ff7U, 0x4c7f392b2c6dfa68U, 0xfafae21f6374e671U, 0x13080b29095101ebU,
  0xde2315f7166f75dU, 0x63543de5ed3e6cd9U, 0x6235181df449160dU, 0x183d491e51fd7ce4U,
  0x5340df323803663fU, 0x366827343f372648U, 0xa5f24ee3e344246U, 0xee5668eb33546668U,
  0xe5f4581a59e4d40bU, 0xe53640f008382429U, 0xe5ff6be656320748U, 0xf70e021d1aff221fU,
  0x2c5f06e002d91923U, 0x5feb323ee40f295dU, 0x19333dfc47414261U, 0x1ce7497f15e8630dU,
  0xee17e8e06c453c25U, 0x5721f63a02434731U, 0x310b3e3f032d68f5U, 0xff57ee3c50400228U,
  0x2e3d051a54ff2cfeU, 0x342f0710f41378f0U, 0x20022453635efb14U, 0x13f43826e24f63e2U,
  0x5f083bf20156575eU, 0x19ffdefc207f5055U, 0x24622759390cf400U, 0xea5c00d7ddde155eU,
  0xf2235f43f91c18e9U, 0x56f8e34febf21462U, 0x66f64adf3453eb45U, 0x7355fc42586af306U,
  0x560c61004bf6f65cU, 0x2c0326f77e63384aU, 0x81d31e04d03530bU, 0x1b7433f30c440d3eU,
  0xc5072a750e27ee66U, 0x47e355e317074452U, 0x336aef03714a264bU, 0x75d0861f9d61c44U,
  0x2f632edfcf392226U, 0x6de912e42e01efefU, 0xe0fd55155256eb26U, 0x1e5d14d67d62d129U,
  0xe00f443f771aebf8U, 0xfd1ee4195ff23041U, 0x1f526220a51e4ffU, 0x56f1f93b4613df24U,
  0xef2c68e71dcb191dU, 0x140f5f0c56663f14U, 0x2e1dd30338057f32U, 0x44100ce80011f13eU,
  0x214be52b2a5b43e7U, 0x505565373317fb05U, 0x2df5eaea1c5bc725U, 0xce6a0cfd484d5245U,
  0x515f12cc2f23455U, 0x6d510817300dcdf9U, 0x62534bff47000b0dU, 0xf566ebc9da5ce064U,
  0x746001f6f34f8ecU, 0x461de66610e419ecU, 0x346cddf9e4ede4f0U, 0x22196574e1f31915U,
  0xe1035d41252b3ae8U, 0xfa3d26e0194d2211U, 0x4044ff6351e73150U, 0x21f8e411e9f22449U,
  0x2f2ef121674403e1U, 0xdf10516e47234527U, 0x41182934661762f2U, 0x2056343c504d0c13U,
  0x25221314040a622bU, 0x910204f06142538U, 0x7f09e01e19f0470fU, 0x9dcf6442805125dU,
  0xe3e366272e35ed54U, 0x62e410ff1f310a74U, 0x3b12de4c57f26ee0U, 0x2ae3276f5c174b20U,
  0x311d4d42490d625cU, 0x6d2d48053659f038U, 0x3eed37fff76ae7f1U, 0x716237545c42f137U,
  0x4575f2de8eaf3e7U, 0x1b227932cd06e2deU, 0xf94e3628234b3870U, 0xf60950222ee817dbU,
  0x6a3b7c521c1422ecU, 0xf1131058151b24e5U, 0x44f62e3c360aef49U, 0x38f570e5e2c72178U,
  0x4955ea0e2d242175U, 0x6c1b1c5d3412227fU, 0x463d6015382a05e0U, 0xe148fe072f2d15ffU,
  0xe3d60f7b45406657U, 0x39f00f38e3ed49c2U, 0x453fd5516049d825U, 0xe765d4626e39dfe1U,
  0xae30b3a1c381c2fU, 0x53f01a32e217c421U, 0x513c482311d8b73aU, 0x23dad23bfc01f4e4U,
  0xeb043b2eceec77fdU, 0x32ddef2042609e8U, 0xf52be7240e653439U, 0xe326f1d8d6144aeaU,
  0x451033daf20a19f5U, 0xd5451dd41afc1eb8U, 0x3442e6dd20e6cb77U, 0x104f2d2518cd0508U,
  0x11313445344902beU, 0x1f19cbc82b593ef0U, 0xddba56422800120dU, 0xd2fa733bd328522dU,
  0xdb6bbbdf1a07deffU, 0xfcdb7f35c8352044U, 0x37e4ce486b2f02ceU, 0x18ffc746fb70451dU,
  0xf449f8d913c2436fU, 0x3006cf212d53e607U, 0x8c8351306e9481dU, 0xe3eca5b35e0U,
  0xd45000011ffU, 0xfffff4c400001032U, 0xd7800001148U, 0x124f00001074U,
  0xe4500000fc6U, 0x12ae000010b9U, 0x117a00001159U, 0xe81000000bcU,
  0xe5600001236U, 0xd32000012b9U, 0xe4a0000108dU, 0xdf300000e50U,
  0xe5f00000e81U, 0x102500000e58U, 0xf2700000d43U, 0x105200000e57U,
  0x107a00000e5bU, 0xef500000fc1U, 0xfc800000e8fU, 0xf2a0000108cU,
  0x105500001048U, 0xee10000108aU, 0x14b400000eb1U, 0xc1cf83c7000010f0U,
  0x7f609c1d7fdf7f4eU, 0x5511817f81f99681U, 0x60e914bb1a32563dU, 0xf42fe9d6c3d27f81U,
  0x817fa7337f81207fU, 0x81ad8abaa61e8102U, 0x2872f4814481f04fU, 0x7f818b42f27f8124U,
  0x6e7f368b7fc07f33U, 0xaa7f5035b67fd8eeU, 0xa2194817ea2817aU, 0x8881818181e8c702U,
  0x1c7f811dcfa8f17fU, 0x44a91f1b48ef0ed3U, 0x7fef7f817a81547fU, 0x81cb7f7f817c2af5U,
  0x81c181835ae800ceU, 0x227f1b81U, 0x0U, 0x0U,
  0x0U, 0x0U, 0x0U, 0x0U,
  0x0U, 0x0U, 0x0U, 0x0U,
  0x0U, 0x0U, 0x0U, 0x0U,
  0x0U, 0x0U, 0x0U, 0x0U,
  0x0U, 0x0U, 0x0U, 0x0U,
  0x0U, 0xa9e344100000000U, 0x5fd58fb04aae24e5U, 0xf4f5d85a3f5c1a35U,
  0x5a7d100666f47ff8U, 0xf91d0207af11cce4U, 0x39d1d332759cc719U, 0x822ef3099d2a7bbU,
  0xb5c7e0d11387e90eU, 0x7c8128ed5564b5bcU, 0x4ce62bb17493e062U, 0xa13e7629de33c938U,
  0xebe2b017eda0f7d8U, 0xac0fa44fb75fc13fU, 0x5d8a0ef7b63b2950U, 0x35f1c0b7c836ce17U,
  0xe96949e42333ab8U, 0xb7dfb1cc0ce594fdU, 0xcff55c1c4ab81d81U, 0xe4e3fdc06d5f3b4fU,
  0xf72dbdbd9c15dbe6U, 0x577b4518d535332fU, 0xf1141d5f3566d51cU, 0x51eca35fd1a99b60U,
  0x230815378d7f15f8U, 0x1e44b50d93fcce9U, 0x4beaec14fe3f09aeU, 0xa2ecb42d3a114c32U,
  0x449549e63615b546U, 0xec10eede7f1b64f5U, 0x164c66d8f04fcbe2U, 0xf7f2172072dd231bU,
  0x155fdfe408a1fa81U, 0x1fb0e66235be411U, 0x366ce5ea1db26befU, 0xaacde7cda4fa56d8U,
  0xe045d805e6ab3236U, 0xbdd4047004c0e8baU, 0x9fd530ddb3696a4U, 0xf63f4544e4f63ed0U,
  0x9f39154311cef0caU, 0xb0ea4069199951fcU, 0xd558d76afd7f31ddU, 0x2e77f8d572232a4fU,
  0xa1d6bb2f6ee1cc9aU, 0xe22da681978e3140U, 0xb29eb8b12922a94aU, 0xb5a5324df702cb19U,
  0xc973e5cfc3db6082U, 0x7b7f06fcb4a44724U, 0x3a6574307bc3fbbU, 0xeeb1d13fd2ff68f1U,
  0x56d8d06d50308e3bU, 0xa3170d65340a0f44U, 0x18fd1411f41f64ffU, 0xb6a4cf0317b607b3U,
  0xfb1446f16b41ab3dU, 0x964726e8b96bbb07U, 0x15a618118c2c4081U, 0xc7d1d5cadcc117d3U,
  0x69dcbac5596e3c86U, 0xbec4c8a8afa710beU, 0xf82eeecb01d7ee81U, 0xd0d63cff2f06d018U,
  0x36f34a0ed69cdef3U, 0x2ff8e01ec840f6a6U, 0xbc1f259a43bfd61eU, 0x3d7f7c1f30d0e89bU,
  0xe217787034cf8c55U, 0xf6b71812b025004aU, 0xf21fd506ed639222U, 0x11aab196ff09fb0bU,
  0xc1f53f5954fdfc38U, 0xb1ed132bcbb3f3d1U, 0xebff9da44f994ec4U, 0x183ab47fdeefbcb7U,
  0xb760521c76c9f44bU, 0x3f326957c00c678bU, 0x3f25ccac7190cfd5U, 0xe5c80dd3d23f1ab4U,
  0xf26da7bbd2befeb6U, 0x4e1dc30eb251c9cU, 0x5b62d1bb28ec366fU, 0xe9df1f788f15121fU,
  0x23006d9d8cd2fceU, 0x24e581b381f5c634U, 0x1ceeab155db60fa2U, 0xea95d111caf9d6a7U,
  0xe66d3aa7f3bf2b04U, 0xd8585ce3f1f46405U, 0xf2f8cd9311b2e042U, 0x10e9d02cdc6fe3d9U,
  0x37d431e8cff1cf93U, 0x3baa0f56cbb1a9ddU, 0x7f2c730a75f80b76U, 0xe9785727c53b4f18U,
  0xc8180505f2c49827U, 0xe7f04dfab814b834U, 0x94e204df4b15f35dU, 0xaeb7b213099104aeU,
  0xce96b90afecc1bddU, 0x3b55cefd1bd9de7fU, 0x2e23b64926f01cddU, 0xbaade205bb6371b7U,
  0x62fbd0522bffe81U, 0x3e1f5fdfef4e4eaU, 0x18403d362a08eadbU, 0xd81242ebf10d0ba5U,
  0xe752ac09162ecae8U, 0x18bb11d5c612deb5U, 0xf459e0b502da5481U, 0xef8235410cde61fU,
  0x345945e441d64253U, 0xaf5535c10dc3fedfU, 0x6f2dfd0d933e122U, 0x6ac7073b1baf05b7U,
  0x59c04643e5d9fe15U, 0xfe7b3ad79d437fd7U, 0x496d13bcfe126abU, 0x8da8c12199f50891U,
  0x619019dcabb3904cU, 0xdb850893f09ca6dcU, 0x1ddc2036fb86cd1dU, 0x5589d9deaf7faed9U,
  0x25183c41e29fd23eU, 0xb866205b99063dbbU, 0xb8a48ea139d82dd6U, 0xb120f8aaf55249deU,
  0xb852abe6c48a3bd7U, 0x5c0ca9f84de5fecfU, 0x61250388e3c6ea42U, 0x817cf376cfc44bb4U,
  0xefccf13c1cc20a3fU, 0xc0df7d27c252b7bdU, 0xece9f7ea29016556U, 0x23d061d2cea3cdc4U,
  0x8126dd12c40d4b0aU, 0x4b17aeda4545e7d8U, 0x4e1e5818af6fc433U, 0x63aaf139def0d639U,
  0x96ce393a8d1f70a8U, 0x81f446e9235349f1U, 0x9fa80d56bc2be243U, 0xa4ae8749aedef357U,
  0x14edb4afd89e48f1U, 0x27b940a6cafc162dU, 0xf9b0d0380bab13d7U, 0x21274c208e2d1ba7U,
  0xe96d12bfc76bb281U, 0xfd4f290c3f261411U, 0x4816eecad71f7393U, 0x98ebc2b8c0f66514U,
  0xe30610bfcb0a4020U, 0xea9a24cb4e44c21cU, 0x164215394636674dU, 0xcc24040ba436f9c7U,
  0x8b55f49b6ba10819U, 0x39f9c0d5d97f1ba2U, 0x646c30514ff10d88U, 0xccc1f66136f83c93U,
  0x5cb2d4c758cdddeaU, 0xc91a5341fd736831U, 0x100b989cfe8d337fU, 0xaa4587c6200782b7U,
  0xfe59b42bc09c1a92U, 0x1bb58dcf2ff907e0U, 0x17d170990af07b72U, 0xf2bb1543cf55a482U,
  0x3af6814836898276U, 0xd27f26f3b806239cU, 0xf43ee1d13b4e1901U, 0x5b4e0906a8715be2U,
  0xb4caf0f867610caeU, 0xa485116536d0b22bU, 0x51aef3f92b059fbcU, 0xc33fe76657a8c592U,
  0x9475b4cf8d1c59d0U, 0x89c62916aba85350U, 0x5fede17fecf3a642U, 0xb0ec9638f9a9ba7dU,
  0x1c5f0e47e6760d46U, 0x9588a4f4a8dc7cf3U, 0x5e1faff5dc1ae3efU, 0x55cef1f2476ce3a0U,
  0x79242b28f2d3faf2U, 0x814b1c0bec31f5e1U, 0xea0adc9de32831bfU, 0x2e2eb7f8f3727f9U,
  0xcf41bc1b9f5fe3b7U, 0x15c2e7143a4b48adU, 0xadb393df9a2b6ac9U, 0xbfd714aed83c3452U,
  0x7170fb2c0d679b4aU, 0xf8ce8bbe366019feU, 0x670796ed6cebc094U, 0xfda98ee96ddffeadU,
  0x2c4c0c17d385e2fU, 0xf1732ccb34f223c1U, 0x222b1da70ce10b77U, 0x4c22e3ab17028123U,
  0xd206f5b0df5d6526U, 0xbbf3eb85cebe009aU, 0x2534ac596c65b092U, 0xdd2e324f1430c008U,
  0xe5517fffcb1ed6ffU, 0xe40e9c217e0e45eeU, 0x6d0e81b7fdf444e7U, 0x61228f67932209c3U,
  0xdd40bfd22e77c00U, 0xb03824dfdc1a61caU, 0xdb6008023fb40470U, 0x467e2dd2a9628b24U,
  0xffa68df98730e330U, 0x93b454fe9a811274U, 0xcea5bf1cc35438f9U, 0x64c2d3078ec5af89U,
  0xc8b3edeb30148fe9U, 0x9f85aab90005a8e7U, 0x5037a5a32c4827ecU, 0xaba2bb7e4b102f50U,
  0xef400d812e0d4051U, 0xede9f1454036dda3U, 0xb13d91db1b471959U, 0xb1a9c1d4be6af04U,
  0x2134a30dd898fa0cU, 0x581c04685608e6cfU, 0x1efc64a333c35c51U, 0xc23d06f0a2ede3ebU,
  0xf5101500f1d7bb01U, 0x8ab9faab8141a6b1U, 0x3836ace6fae03027U, 0x310e091dc522afbaU,
  0x334002c153b7ff59U, 0xd91e104e945d2b2bU, 0x21f8e1ede807affeU, 0x81c6505097f7e081U,
  0x634625d73ba70beaU, 0x68161971e672c1caU, 0xdc461c31a8448e5U, 0x337b4573a11f3ba6U,
  0x9c60efdf3901da59U, 0xebf0252f507eb394U, 0xcc353d131f94f304U, 0x6585c1c40ef53e29U,
  0x53e84b1434c401e4U, 0x86223737dc266e8bU, 0xc6bc37dc70cbdb7fU, 0x8608bb2bfc4c9ddaU,
  0x59d532c473266a15U, 0xe0dd8c4584fcc9a8U, 0xd8c6e0e715ef21dfU, 0xa11ec00e8561d81U,
  0xc47aaf495eda9ceaU, 0x65e9811fdc4ad44U, 0xa4522bb9ed119e9U, 0x5e726885025951b8U,
  0x41cbbcc781bd264bU, 0x3196a74f55e55bfdU, 0xd2a0fd0620b16c1cU, 0x125524294dca27d1U,
  0x5b96c36e3320f0efU, 0xc9591f9ab6108a34U, 0x1d496773a9dd5b73U, 0x602537aa7f34469dU,
  0xbc9f677797e1d165U, 0x17b4cce9bdb61aa1U, 0xa92f32ff24da1f3U, 0xb3370c26d197fd8bU,
  0xc98101ef59cf9116U, 0xa6742df30e94013U, 0xa9fff8f4abf916b9U, 0xe9bb325b21ecaec3U,
  0x1c434925941aaf0dU, 0x87c3cc4bb25ae10eU, 0x8ffe561c90638164U, 0x64a58223f8590975U,
  0xd91868cccaf90629U, 0x1ea301c194127bebU, 0xd030c1ae23b8fdc5U, 0x13f5d5752d1babd8U,
  0x87619c76e186c60U, 0xd23c7a40db76068fU, 0x98f64781c984f6f2U, 0xd52cf4d499f7bb86U,
  0x5249060b63dfdc38U, 0x68909ad2324ab1adU, 0xf03bd01de0e96919U, 0x927f415bd7fc27e7U,
  0xce0de9c52c0f934cU, 0x7e3c1b5f413abbaU, 0xfd32c3a96bccc2d1U, 0x5bdfed0e4624fd22U,
  0x69d5742bfb891bcfU, 0xce31002970ec9abU, 0x1b790210806e421U, 0xf7b5f059057feafeU,
  0xeb6add7f2f4ae94aU, 0xb5c71e433df73ff7U, 0xb34d07dbbd2bbfb5U, 0x79c288b0c5a2e235U,
  0xc38968a3a2614e0fU, 0xdf0ff0b1a7863baaU, 0x152afae2e9fb2a1eU, 0x5521bb09d57f9027U,
  0x4367379a2b250752U, 0xee2958f0c5ee318dU, 0x1e48ff1c321e1770U, 0xd3de0faee12eeffcU,
  0x164e96242e1a5a81U, 0x470d2c676bc4ddd1U, 0xfb622abf3efcc95eU, 0xa4294d1cecf13acfU,
  0xf1b6ed44ebdb2626U, 0x560d16c72b25be32U, 0xb509a71ef4d91dceU, 0x49e896e6d9ca7008U,
  0x5b9a202317eac5e4U, 0x42e9820615ade811U, 0x3c8bd58957f4b66U, 0xe12c13ee5e0a1c0aU,
  0x1a002bd96dc818e2U, 0x77eadbed226cbc1eU, 0xf66ffcc83912221aU, 0xab67d8d8b5cf1e18U,
  0xf26a14117f93f759U, 0xb2bf573683e1210bU, 0xe5590c10a6172c38U, 0xb2ac69d8dcd1d33dU,
  0xfa531e25e826b74aU, 0xbc3f7da2b810675U, 0x7a28665434139b15U, 0x3b1a30bae9230d2cU,
  0x583695443eac3c89U, 0xc3c7a0327f719807U, 0x1974aef91feafd31U, 0x123a1f5993782beaU,
  0xb44af88f444edf5eU, 0xd4bc1fce17011fe1U, 0x4896ca6dcbe1e842U, 0xa94f883b3e39ecceU,
  0xb9a589909006e081U, 0xa7c2733b5dd6e57cU, 0x2226d95f98046a27U, 0xce16c0a82f277faaU,
  0x10063eb50e3227c5U, 0x7f9dd94dc3fe17e4U, 0x7dc72d9bc538fa7fU, 0xf6c9d768cf792ba4U,
  0x9256ebfb2c829302U, 0xcd0308f48d458104U, 0x6b0ed69e6af805f5U, 0x40f9b6ec73de0f1U,
  0x53ea3f9f54e96f44U, 0xfde625061e7f28c6U, 0xc17109001994fe1fU, 0x5306ed018859ef24U,
  0x8130c4f122af0dbdU, 0x982b3b41f628cb22U, 0xb7d7e4d10930f238U, 0x4553e3a9e99008f0U,
  0xeaf9c2f8e05172b1U, 0xf953d2ce05ff6359U, 0x5495e2b108edf0adU, 0x81b35a20f216aeecU,
  0xee0156dc8efc02d0U, 0x271bfca1f863f814U, 0xe64e6b1a165a4b9U, 0x585ad9f36b173b52U,
  0xb2d09342ce7feaa2U, 0x7b5f401cbfc95526U, 0x9f52d4694ce495bdU, 0xe22dff5ab2f1be49U,
  0x4b017fb95d00bdc3U, 0x95dc897f6b4d9937U, 0xd2f3dbb56406def3U, 0x2b1b3008fb6bf01dU,
  0x3f52706348f9adebU, 0x60dffed813487a04U, 0xf9976dbe871e3433U, 0xfcf681e932f7d430U,
  0x215d01c03fca593aU, 0xf321f519cb06b1abU, 0x4657d72dfa992d50U, 0xb470ea52f1374da8U,
  0xc75eb3fb64b3d838U, 0x42fae649d0aU, 0xfffffefa000004acU, 0xfffffe3afffffeb5U,
  0xffffff3b000003a2U, 0xfffffe9efffffdddU, 0x36afffffebaU, 0x464fffffdecU,
  0x4750000040dU, 0xfffffe5800000417U, 0x2ed000002f9U, 0x652ffffff11U,
  0xffffff2100000430U, 0xfffffea2fffffec9U, 0x45300000419U, 0xfffffeab00000408U,
  0x5c8fffffe49U, 0x511fffffe8bU, 0x8a0fffffebaU, 0x3d6ffffff31U,
  0x5d100000468U, 0x4ff0000045aU, 0xfffffe6f00000727U, 0xfffffdfaffffff5bU,
  0x404fffffeb3U, 0x4530000058aU, 0x51cfffffeb9U, 0xfffffea300000340U,
  0xfffffe5f0000066dU, 0xfffffeea000003e5U, 0xa7000000445U, 0xfffffed3fffffd9bU,
  0xfffffe98ffffff73U, 0xb3cd405800000529U, 0xea74a7c7fbe05fe1U, 0xeb6e69b8582f4859U,
  0x4d604202f1ac4742U, 0xde36e569a953c3e2U, 0xa2f97f444427396aU, 0x662eb14d2c44c5aeU,
  0xe93238c0690042abU, 0x32e29b6c0ecU,
};


ai_handle g_forecast_temp_ml_model_weights_table[1 + 2] = {
  AI_HANDLE_PTR(AI_MAGIC_MARKER),
  AI_HANDLE_PTR(s_forecast_temp_ml_model_weights_array_u64),
  AI_HANDLE_PTR(AI_MAGIC_MARKER),
};

