/**
  ******************************************************************************
  * @file    forecast_temp_ml_model_data_params.c
  * @author  AST Embedded Analytics Research Platform
  * @date    2025-11-30T13:51:42-0400
  * @brief   AI Tool Automatic Code Generator for Embedded NN computing
  ******************************************************************************
  * Copyright (c) 2025 STMicroelectronics.
  * All rights reserved.
  *
  * This software is licensed under terms that can be found in the LICENSE file
  * in the root directory of this software component.
  * If no LICENSE file comes with this software, it is provided AS-IS.
  ******************************************************************************
  */

#include "forecast_temp_ml_model_data_params.h"


/**  Activations Section  ****************************************************/
ai_handle g_forecast_temp_ml_model_activations_table[1 + 2] = {
  AI_HANDLE_PTR(AI_MAGIC_MARKER),
  AI_HANDLE_PTR(NULL),
  AI_HANDLE_PTR(AI_MAGIC_MARKER),
};




/**  Weights Section  ********************************************************/
AI_ALIGNED(32)
const ai_u64 s_forecast_temp_ml_model_weights_array_u64[2039] = {
  0xe0fec8d9fe8111adU, 0x24c6e0d6e50ad61dU, 0x103710b152be5a27U, 0xedc4a44c093f223cU,
  0xaab9eedf0be2d624U, 0xef10db4b3c13e6a2U, 0x2c95b22dd1ff7afU, 0xc327d2e84327e0f0U,
  0x4ff82d3d25b20f29U, 0xd9157fe7fd192fecU, 0xcb25d8abed0af3eeU, 0xf4ea26f8f9fcf813U,
  0x2424a719fb9d7a3dU, 0x4d5c335bf502a1eU, 0x9ad9da81503c0307U, 0x1bf4b84d17312306U,
  0x1806622c272ae9ddU, 0x814ebcd231ffd743U, 0xed3cc03fe3ed23c4U, 0x2600e22b1ff2e2b1U,
  0x9c10d451b6e5d41dU, 0x333b47a4b8e664bbU, 0xa4d824d6cc081899U, 0x9049f51582bf260dU,
  0x49cf38b9b3d910bbU, 0xd9e581dc1844a0f9U, 0xce85c6df510cf8c8U, 0xa6f8041dd03a2abdU,
  0x53ccb0520e114f3U, 0x2cd9c136f11d0f48U, 0xd08117d310d716eeU, 0xf9e3f9590c40182bU,
  0xe3d433bef7fb3027U, 0xc6df12d4093eede2U, 0xcf3c48badc434688U, 0x4e01d4072bfe02d1U,
  0xdb00eb4cedbb34ceU, 0x4b175e81b048e203U, 0xf964db8b5bf1fb73U, 0xf0d03c33be2c7e43U,
  0xd63c40efff60dde0U, 0x82ecb07172fd4f8U, 0xe90ec83bf5fe39aeU, 0xb3f03ae023268143U,
  0x65606e1ecc216cfU, 0x4af411f52ef409fcU, 0x1c2df70c0bcff037U, 0xdd5d332f9f73a75U,
  0xfcbd0ad0cd207f10U, 0x950cdacc2a47f7e6U, 0x4b10f3053aec1a0eU, 0x44416e4106d6d63cU,
  0x4b4205d0fd234139U, 0x3b42ed27b11b4a13U, 0x14e5d80d7f70da27U, 0x8cbe0e42f200165eU,
  0xe71a02e424aa256dU, 0xf0002318adc6aac5U, 0xef15e9bcdba7efcbU, 0x5c20cefca0d6d4dbU,
  0xfae9f081cbd1cd36U, 0xfb1d9cebcdf43230U, 0xdbdcbb4b32831a13U, 0xcaac1768c444d705U,
  0x94037b43725e0bbU, 0xe8dcc15bdc14021eU, 0xfcba7f1512c5f5e7U, 0xc4b2ff3e03cec233U,
  0xc31e12f31425ecbeU, 0x1621df3b18c72715U, 0xc10927d1c1f7ace2U, 0x8144c2b021b2f9eaU,
  0x66ce0df7e294a2d2U, 0x277f03e9dbecf515U, 0x55030a03040b2d37U, 0xfbf5fb03ff1c4111U,
  0xc8f3e8f02b2e0534U, 0x17f50100141a4a0dU, 0x2800f228fc1614bfU, 0xdfcf812bf2290302U,
  0xc6cc00ed04e913f7U, 0xb3f5fcf901ee1b29U, 0x27e80c3032f612c1U, 0x2d19fae7faf0d7daU,
  0xe6ea01ecd7ad1aU, 0x1e3f51700491903U, 0xeafd01e41f36d900U, 0xc408ee09030706b9U,
  0xea83308d322e0fbU, 0x815b08cc3a1e21d8U, 0x515290d0b242f08U, 0xeef5111507e8e6c0U,
  0x294632132c28b6d6U, 0xd05ebe5e2f6c62aU, 0x2b2a1722eb81391bU, 0xe7fd0cd6a4e21022U,
  0xae3681bc17240659U, 0xe082c7d511f2c5aaU, 0xde98f0bc50c0d013U, 0xef23af12889f66a3U,
  0xad151018be291727U, 0x3bc7cbfdfd115fa8U, 0xf1cceb15f4141335U, 0x623e6062f29f334U,
  0xe114112441160c0dU, 0x709fb12012fee05U, 0xf0eed9ec3f81fef1U, 0xe4faf21f16e7dc13U,
  0xdf716f7e5e0f4daU, 0x122700d9002507baU, 0xf80d030fe8ecc211U, 0xd0ef709e2ad2ef3U,
  0x32aceaea812afb03U, 0xa7e12fc0e51720eaU, 0x41dbafaf1d39d9a3U, 0xe4bcf41dfa0dc9b8U,
  0xbdded502478199ffU, 0xb6d60a641de4d507U, 0xff031020d4151bd2U, 0xec0ff1012819d081U,
  0xfef2ef0f2600a00bU, 0x2e0d110703c9ffeaU, 0xfcfdf1f2ce0813f2U, 0xf9bf00f700fdU,
  0x2100000008aU, 0x1590000026bU, 0x327000001aeU, 0xffffffe8000002e4U,
  0x4f900000132U, 0x257fffffff8U, 0xfffffd99fffffd65U, 0x30a0000027aU,
  0x7a000003e4U, 0x2ff0000025cU, 0x157fffffdfeU, 0xd14e0b432fc81722U,
  0xe70b69d0194adc13U, 0x29f72b19ddc4301bU, 0xd6fba63e01ecfcc5U, 0x8f3172040c3155fU,
  0x19ccef2621edbfb5U, 0x317fbcc7c014f61fU, 0xc2c3d42a2f3f39c7U, 0x2009201b42c74cfaU,
  0x7fcd5e2102dc27f4U, 0x3b3a361f27f6fef2U, 0x1f220d414a25edf6U, 0x1d4b1ee7f960c6deU,
  0xe91305141e1bf530U, 0x13f81b301a51ed49U, 0x33463d4d520f014eU, 0x6f3080c19e5eef4U,
  0xfcf60505060bb9ffU, 0xa05e5f105effb00U, 0x880303010d0b07d2U, 0x308fffd02060901U,
  0xfddb06e7f5f602e8U, 0x110b81fa08f8fa0aU, 0x6010b05f3f50c0eU, 0xa4aaf1cdffe5e704U,
  0xd2de0c00d41a09d3U, 0x22c3e0fe11c3d5a3U, 0xc037b8d627e0c8f9U, 0xb5e3c38198d1a9afU,
  0x60129d9c7df8218U, 0x3e7edd2cd0000c2U, 0xebf1d5c91aa1f4bbU, 0xf0da17d1fcfbceb6U,
  0x2afcf92c023e3cb6U, 0x405d3cdd5b15fcc9U, 0xf7fc2c7b7f5d0e26U, 0xbac6363148e11968U,
  0x47492c326f212938U, 0x1616fefa05170cdaU, 0x65651c542efc2a2cU, 0x5cd73d42005e6e0fU,
  0x1dd5e219fccd5435U, 0xdce23b3035391104U, 0x2ed71baf0b2240dfU, 0x29f9232042632c04U,
  0x202a1cf1326c7044U, 0xded42fd0f13bed20U, 0x5f60fb00d8371dfdU, 0xc624581c7ffee051U,
  0x144404dbfaba42bdU, 0x411c1cd3c7d80bfdU, 0x12fd203226fcd45fU, 0x221d223700f736e9U,
  0xe2b2062effbe81f0U, 0x35f206eefb17df10U, 0xc1bd0eeade3be0d8U, 0x973fddb01717c416U,
  0x5c7370c0213261bU, 0xaebfefae71709fdU, 0xe909e9fc7fc50dfeU, 0xfa111db8e6dbcee7U,
  0x2830f6c2f51bfb01U, 0x119ede2ee036eb6U, 0x240e0a0efebae4f6U, 0x56d91535f7f5d8f9U,
  0x160cdd0a27fdfefdU, 0xc8f82435d909f5f2U, 0xfbe9e2e919f11814U, 0x9fa041a090600fdU,
  0x2d29dca90022fe03U, 0x29fec3fcd9f905daU, 0xc3c30bbf16101412U, 0x2c42432b4e700acU,
  0x8124f9edd6d228f2U, 0xc5eec200a02bc7d8U, 0x81fdec188e8992efU, 0x4d9afbdadd887e2U,
  0xf1410b0aea2fbbeU, 0xc3b3c8b087eeb72eU, 0xbaa28c8ab22b12b9U, 0x26cccd84cd1ebe21U,
  0xe1c51ea9e320b110U, 0x90b91fecc2990f5U, 0xaed0243d2a315ba0U, 0xedfb9613cc2d42eU,
  0x3dbe2e2681deb7d1U, 0xff06e39753fb2845U, 0x87ff42fecd2e5e1aU, 0x2c12469c0922c3e6U,
  0x441611210da3f525U, 0xcb18b76325210973U, 0x85fea2f5c4291886U, 0xa6e8f0e71d8e0ffdU,
  0xfad5b3b1b8b1d0b4U, 0xdcb2bf9d1cb495c6U, 0x811b0b862188e0a1U, 0xbac7a0fb0314c195U,
  0x1ebcd2b22408bde6U, 0x22980aaed12cc834U, 0x283d03f3563d1bebU, 0x36f22803081f270fU,
  0x43fc42fb590b3e0dU, 0xf6383ce8eaf11c36U, 0x2a393f167fe9062eU, 0x4836fccc4e0b3220U,
  0x3845d02009123306U, 0xed0e733f9425cdcU, 0xe62a16f1f61e1114U, 0xc40ee745002e33f8U,
  0x7d0e0f1eefe0005U, 0x92d0007f026de09U, 0x2f0b810610382f14U, 0x1ef71409ef0cfc30U,
  0x23fafb090c16e707U, 0xeffce91badf3231aU, 0x552c96bf06ecc51dU, 0x1e729b3c003a0301U,
  0x35b93e31dc566b50U, 0x1b1721ddafc10690U, 0xd91acf59394b0351U, 0xbf7a0ab74fcb1a43U,
  0xd35331dc1cf8f0fcU, 0xadd4d5f6d8cbf914U, 0xd4d1eaf814dc022U, 0x3d07f3150cf5fd00U,
  0x3aeba2e3bff9f838U, 0xaee8066ad9e8130eU, 0xe7275cea1510fdfbU, 0x34d51ee3b2df04f3U,
  0xa616befa0d32d3c3U, 0xae38d0336d191116U, 0x1683a781aa1fc401U, 0x1f85150fe1e627e1U,
  0xdb02e4bf0809c1c9U, 0x3d1d5e8e70af7e9U, 0xe0213581f4273ad8U, 0xeaed03dae64ef521U,
  0x5bc416bfc8e9d017U, 0xc22e9fc47b9f512U, 0xc2ed09eefaf6b043U, 0xdcf4f416053ab3fcU,
  0xa0f8b58113c4fdfaU, 0xd71af2c60dc6f4f4U, 0x2d1ac0021205f506U, 0x49f71c1c9ed3f3d0U,
  0xc7d7ffe71fe024f9U, 0x3328011c07061a3fU, 0xdefb521b184af1c4U, 0x61ab2b2dff154cdU,
  0xb372504ffe0f48fU, 0xeef3e707edf90dd4U, 0xfb81000babc30910U, 0x1f005232345cbd8U,
  0xf70e12dd08ea08U, 0xe7ebfc94f800c4d1U, 0xf02f7c40138ed24U, 0xe0fb1610d8eeU,
  0x6e200000307U, 0xfffffd3b000001cbU, 0x89c000008ebU, 0x20000107eU,
  0xfffffaa1000009b4U, 0xfffffa4f00000d7cU, 0x37d000007e8U, 0x27400000906U,
  0x40bfffffb46U, 0x25501f000000707U, 0xb7a27f08a71a8f4eU, 0xb04d7f637fc18430U,
  0x9481405b88813e81U, 0x3d8e7f7fc17fde57U, 0x7f7f8d81eb813982U, 0xa7fdc7fd67fb781U,
  0x8190811be5U, 0x0U, 0x0U, 0x0U,
  0x0U, 0x0U, 0x0U, 0x0U,
  0x0U, 0x0U, 0xf22650d000000000U, 0x29369807fe1f813bU,
  0x483f232e8bb58fb5U, 0xd31526e218490931U, 0x10f1e28e2cf7f15U, 0x17c60516f21351b8U,
  0xdbf4f9242733fdf8U, 0x4d626db13e07fe2U, 0x40171257c9e3119dU, 0x1723f4cae2381d5U,
  0xea81e20be022b3a7U, 0xfedbbff0ff45d9b8U, 0xec07707f92ef8150U, 0x14d9e94fe2eb442cU,
  0xb2eb2289952408e5U, 0xc9bf23d7e7613806U, 0xb0c07f02e7e4e614U, 0x2ff56e55f916663aU,
  0x8ed8eee7b5418133U, 0xf68b2e20481db7e4U, 0xc1314339ba2b3446U, 0xcd81381bf9be6fb8U,
  0x81baefb530d1b4eeU, 0x1ef51eeb404dff15U, 0x97f4b9e83429edeU, 0x42e7278c423f30dU,
  0x819f4c9208a3cd8dU, 0xe359d541e1edf0cdU, 0xf051504bc707d716U, 0x47bff3e4ff26467fU,
  0xe18931ce1bf5075dU, 0x5bf4e559dd052d16U, 0x1e0d7213a99d7fc6U, 0xceb0ab2f83828855U,
  0xd8fc81a2297535fbU, 0xf3040b60fcd00323U, 0x35bec7814a241210U, 0x4418c81bf129d24aU,
  0xc7f20106b370837U, 0x4654f4fb2437ea36U, 0x8131bcae351937d8U, 0xea33614d410badb8U,
  0x60d559d0500cfa9U, 0x5e5dbe910f205804U, 0x128ac7ff4b21ec3U, 0x42db1ba42723651dU,
  0x916ce4ed9ff0c7f6U, 0xc9d9d3a12f317ffdU, 0xeece1e031b811fe0U, 0x1ce4f9e2042a28b9U,
  0x649f5d12c4011a17U, 0x37d45807bcf45d30U, 0x73c2d6a058149e7U, 0x5d62a2ae2f3e3f8U,
  0xfa81943dced92fb0U, 0x2d47cbccdf2f32b4U, 0x23d6133dc6dc0defU, 0xd934a9f48114b6e6U,
  0xd6101fef1081770fU, 0x812ef6ab935ae55fU, 0x4fb12420c7082ed2U, 0x3a16eb50582d36f7U,
  0x2e74089cabeb4200U, 0x711d497f431ddeb4U, 0xca8f39a9d2282f8eU, 0x9abddf056f12679eU,
  0x8185161b757c3bb0U, 0xfe1bed1ba90531U, 0x81ec100efafd0fd3U, 0x1be48104268d11c6U,
  0x2504aee91e1324e0U, 0x81f0dc35fdfe2c33U, 0xcfaf8c266d3c6efeU, 0x24a54cf78f48e760U,
  0x9bc61f7f43a2d224U, 0x3571ec8cb4bd7bc5U, 0x91259003f3cb2498U, 0xa8162256ed36ad01U,
  0x69bef409e381080dU, 0x39ddef8cfd54e1c2U, 0xb3347148165f7f6U, 0xaff03dbaa4c2e3ffU,
  0x561f8194f4abfb04U, 0x88ab1f883d562b3U, 0x513b8c4923b1ffeU, 0xa4566f607f8f3b24U,
  0x2b0781150ab10756U, 0xefd3edb4394cf481U, 0xed3e2c4328d746cfU, 0x81e71b0f0259b805U,
  0x7f671d0fda25275bU, 0xb83245f024d9ccdfU, 0x4be442e1dec05d2eU, 0xd0edaaf51b7f6110U,
  0xdce7b2ca22e24cc3U, 0xb0182dacff09dc16U, 0x19ece6fbf7aff22fU, 0xf21035815e2efe44U,
  0x44d847c6e30c81c7U, 0x534c3317e93b081eU, 0xe2def9ae331006ceU, 0xbe0cc67feae4fbe9U,
  0xd40ee7285cd21ccbU, 0x7f2ed4e611c6e018U, 0x4ccfe345ea1ddefdU, 0x2e11f39e5d526931U,
  0xe62b0cf645d0443aU, 0xbdbb2ef807240f81U, 0xba05b8ff81ee5acaU, 0xe0ae0c76c19638a3U,
  0x3c7faf28b8191dd8U, 0x1b57ddd9e23ef6b2U, 0x8c4f64061c5a2bbdU, 0x543f70beafbf7881U,
  0x298dc9ccd32U, 0xfffffdc3000003b2U, 0x81dfffffda9U, 0x8f3000004bcU,
  0x22f00000516U, 0x6f200000487U, 0xfffffc5b000004ecU, 0x747fffffea9U,
  0x32000000544U, 0x215000008d5U, 0xf100000279U, 0x52400000769U,
  0xa4200000571U, 0xa2c000008c0U, 0x2e100000ad2U, 0xa440000030bU,
  0xa650000041fU, 0x8d5fffffe55U, 0xfffffdc600000aa3U, 0xfffffddbfffffb21U,
  0x32afffffe4bU, 0x44c000002a5U, 0x2bf000004ddU, 0x66b00000277U,
  0x7f7f414c00000aaaU, 0x817f81f87ff2021fU, 0xf74181817fc68481U, 0x127f7f81f6b5587fU,
  0xe62452397ffe6981U, 0x261cb78161f15b81U, 0x17c33ebf7f711dd4U, 0xbe6a5e8d87f5f7fU,
  0x29db8f63fe45bd2aU, 0x7f4362dd7081e98bU, 0x617f057fa2814bc3U, 0x94817f6c817fa2f8U,
  0xcf3f7f8138461581U, 0x18ef5481ea187f46U, 0x8181dd57907f7fc7U, 0xfef21ca57feb7fa7U,
  0x7f0681602daf81b7U, 0x8199f079398d81f8U, 0x547f8109U, 0x0U,
  0x0U, 0x0U, 0x0U, 0x0U,
  0x0U, 0x0U, 0x0U, 0x0U,
  0x0U, 0x0U, 0x0U, 0x0U,
  0x0U, 0x0U, 0x0U, 0x0U,
  0x0U, 0x0U, 0x0U, 0x0U,
  0x0U, 0x0U, 0x53331ffa00000000U, 0x48401bf42aa997c4U,
  0xec45facdeb88b1d7U, 0xb70ea03a8c6eacd9U, 0x9a08d0b0175dbdd1U, 0x39b8d009abebf7efU,
  0x1e606f1a481fcebU, 0xebf2f2f21d1814f7U, 0x2318e31cfa15ee0bU, 0x11eef7efeee8da00U,
  0x72001e610131d81U, 0x292a0a28e2e7faf4U, 0x53b1b421f3e20b2bU, 0x5b87fdebfe825ceU,
  0xad1f3fa00b202deU, 0xdfd8d350b876bfe2U, 0x9fb44722cc390cfcU, 0xf767e2d525e6adbaU,
  0xedebd57dce82efcU, 0x37117f13cfc5c3d5U, 0xecca4de03014bf13U, 0xbea9bd45014acb02U,
  0xa32ca633211a13U, 0x7ad08edb2ef8cdd4U, 0xec25390f90b1f65eU, 0x52bd0001d2c3533U,
  0x14dbd303da3a0dd5U, 0x291e400518fa1fe9U, 0x3403ffe3f3d92381U, 0xc6e2e02cfcec04f0U,
  0xa7fbe8ec32ee04e6U, 0x2d3bb7bf354ec732U, 0x1c1aba258ed409e8U, 0xcf3909be07f22224U,
  0x290dca1df3fbcf81U, 0xc209cb3a91f5adbaU, 0x3bf61c2947febbd2U, 0xa548bc16f1c10ae6U,
  0xdc09374b18fce349U, 0xfb1e59a1172f3097U, 0xf1dfd22e57b63b81U, 0xc2a2c9cf19b8a408U,
  0xde0d1cf342f24cb1U, 0x1cded2f11c21080eU, 0xdf1ada008117d735U, 0x34eb30cc04f2f1d1U,
  0x193b073a2fd3f1e0U, 0xfbfaf525e1e70a0aU, 0xb2fce1ca2b1ff6fcU, 0xc41afc05d8dc2a19U,
  0xf324e8e3a8272b04U, 0xf71ffff6ed14f5b3U, 0x48fd0d102019d381U, 0xffb5d820fbede0e0U,
  0xf8cff71b292d9912U, 0x24aff51029bfdc81U, 0x3cf2142ffb011805U, 0xca8aa662a36c1209U,
  0xdae1e1c2f7f9141fU, 0x914ee1525ed1a10U, 0x5f0fd04d0fd144bU, 0x4f608fffd0502f7U,
  0xfbfa04057f01000dU, 0xfe01f7fffc03f407U, 0xf8fffdf2070405U, 0x7030001f90607fbU,
  0x9fee41efc030b02U, 0x25fc181cd09ab8d3U, 0x3ae13bb60ee0c81aU, 0xc8b1bc280b49b4b6U,
  0xacd917a27f098664U, 0x12ff39d016fd2201U, 0xcf10ff1b8d5fe34U, 0xe6e9f0eefc03151bU,
  0xe19fa13811209f1U, 0xf01a041fea04fefbU, 0xc0924ecf0e9e514U, 0x11e01a031e23ffe1U,
  0x101eff14f511e8f9U, 0x81dfef222f3df28U, 0x1af71b0481f7dfeeU, 0xe21725fd13e11be6U,
  0x8f114e32a072bfbU, 0x1fe818f829f7d3deU, 0xec81bb1c001801d1U, 0x29ec3358fcfaa6dcU,
  0x3b6e23ee21fd030dU, 0xe4efb61db74afa34U, 0xb5bc2ebcf329f7ffU, 0x4440a7e71b1ff4e3U,
  0x19eb2dc6e4d50a00U, 0xbbfa120bea43d431U, 0x1fdd113cc9200020U, 0x1251e9d748b84a29U,
  0x340eb84b46ca2081U, 0xb39a3e1530f7ebfeU, 0xcae619e2f31c04f2U, 0x7f6fc0c0b21f91dU,
  0xfe5d6268125fbf1U, 0x2403f7e2f3dc1c0eU, 0xe51ad3e8e8e110c7U, 0x706dc1fe1ecc9e5U,
  0x8e8f9f2e307dc0cU, 0x8e806e0f80ee5ffU, 0x31410f481e80dcaU, 0xfef00090fff0414U,
  0xf20c05f11ae1061fU, 0x1508dbe81506df00U, 0x1ffb0c250820d70bU, 0xfc1d1b35f20a0609U,
  0x1c19d6169733d4efU, 0xe62613f3dc13ef38U, 0x82b2ef524dee481U, 0x1030dffd7e4c0ebU,
  0xb8351be112000929U, 0xe7ce56fb81cd9327U, 0xebea1790103d2bc3U, 0xbac9ef6241261070U,
  0xa42ccb36be480af3U, 0xeb4bdb0f46322a3eU, 0xf608f891ce1c11U, 0xff03fc0207fefd04U,
  0xfafffdfd08fdfcU, 0xfaf9fd02f8f8f9U, 0x1f807fdfafd0110U, 0xfffafef9fb02faf1U,
  0x5f214ee07fc81f9U, 0xe0161b1ae03026e2U, 0xc3f9cd038112e828U, 0x323930effeeddbe4U,
  0x3c3f1eecf7d83b8eU, 0xe8130ed0da15e3dfU, 0xad522e32e44d518U, 0x481d0a1dfca91dd7U,
  0xdf0a0adb04d0f70fU, 0xf0a80663ea7fd413U, 0xefe7f5130ff6eae6U, 0x3c1514e8facd1212U,
  0xbfe0a211dc61001U, 0x241cd213fffa1915U, 0xdf220d2681e3fdfeU, 0xb32faf00bed19fdU,
  0x1c33f5eee8cafebcU, 0xd1c12e27e321b525U, 0xd701f5f40deb0e08U, 0xfb0d00e31debede8U,
  0xe9eafe1e81fef5ebU, 0xf80c05ee07db0705U, 0xfff8081bf9e2f913U, 0xe0da0d01f709dd0cU,
  0x47dbf9e20303e505U, 0x6ea7ff092e9bc595U, 0xc027f2c08d8d7dfU, 0xd5e7992eed35ca29U,
  0xef0140dcaa31f92cU, 0x763620382f30f6b4U, 0xe529341709f94635U, 0xcdf019d22afd10edU,
  0x612eb20811e030fU, 0x142cfce71bd63322U, 0x2814f62adace1499U, 0xf5d319e9f9fb111eU,
  0xfbec0a042afae5feU, 0xfa00fc0b08fc06fbU, 0x70a080f81fb0008U, 0xfcfcff02f6010413U,
  0x10202f8f90702f9U, 0x210ee02fb02fa0aU, 0xeee8ed1805012a05U, 0x2925e4f709032f17U,
  0xfdddedda810dc005U, 0xfe3015f1f9fa26c5U, 0x2d1bf0d9fbeb1b9aU, 0x331129fe0ee4e1c8U,
  0x121f9a3ee91103d2U, 0xed26a0625a993daU, 0x2ee930dae5dee026U, 0xf28d8f4b8144b032U,
  0xcecffaccd259dfffU, 0x6426cc2515e31323U, 0xe20d36dde1c8044aU, 0xec20f2dfd9ef332cU,
  0xe1c410d6814aea36U, 0x44f1fbb28b3e891U, 0xeae503df4230c4a7U, 0xc290c0901d504d9U,
  0xeffdf0ea2c57c092U, 0xecf616ecf702eefaU, 0xfb06f20181f71bf6U, 0xee110a1309fbf8fcU,
  0xff0beffdf302ff24U, 0xf909ea050efdfae2U, 0xfddc10f0f1f7a4faU, 0x15e8eef8efe90dfeU,
  0xdff070c81fdf5ebU, 0xeefe150e03e7fa08U, 0x120a17ff100be112U, 0x7f21402fd0bed07U,
  0x8f807fdeb10b5e9U, 0xfff50a07fb01f908U, 0xf7ff08f9de0bf906U, 0x4fffa0101fc07f7U,
  0xfd0a0bf9f8fcf80fU, 0xf7fc090a0a00f6f8U, 0x31f2d07b01f981f1U, 0x3250c3a5681ac9cU,
  0x2315c34f3e719e9U, 0xdd98977bc85ee127U, 0xa899fee51b140914U, 0xf329ee33f4fef00aU,
  0xebdf53ea7cd134eU, 0x77c6060cd8bc9ce2U, 0xc3c3060933dec4eaU, 0x81b3d82fc96ab9f9U,
  0x96b240e2da48c111U, 0x29cfffd3d3f400f0U, 0xd73f37e79f9ffa68U, 0xd63000cb120be5e2U,
  0x1ac71e2181300049U, 0xf71ceab702c6f7adU, 0x2106ad3dc51258b2U, 0xc998fc32e1e8dbaeU,
  0xde16fcb5120bf9e3U, 0xfeededc6ea2f0b39U, 0x1dd5c8f49af70ff1U, 0xdc0e13bf33041e04U,
  0xde03d43102f737f8U, 0xd3d0c505b6fce1edU, 0xf2031b03f7d881c1U, 0xc0103f6221e00U,
  0xd7e0d1e081f8d81fU, 0x30e826cff5da1514U, 0x1623e52bf0fd1cc5U, 0xf5d0e1f9ea02e9f8U,
  0x3a21a8331a1ef112U, 0xddc7f0eeab00d8aU, 0x16e11cc90dead520U, 0xa9d78641a56e0a03U,
  0xefe5ebf50455bc37U, 0x2aef4d151121f912U, 0x402f7fdaca93c57U, 0xfcfe0ffdf600f101U,
  0x3f7f60981f60d07U, 0xf1f50512060f09f3U, 0x9040f020afd090dU, 0x8f8050006f1eef3U,
  0x29f32628fa0bd907U, 0x58cd4f1ae1de0f81U, 0xee54090c0af03644U, 0x94a8dd3eea3c21caU,
  0xa90c4ea5d9f4fa0cU, 0xe9c7ff470ce508f0U, 0x6ff0bf4a9c5f11dU, 0x2ec02fae70706f9U,
  0x40416ff7fff0efcU, 0xf0fffbef0e0cf0f2U, 0xdfe06ff0af30207U, 0x1203010bfbf9020dU,
  0xe5f418d0eff8e400U, 0xef1c02ff092a0dfeU, 0xeb0afe0681f322edU, 0x1a0425d02cff210aU,
  0xe4e3141aeb06e8d1U, 0xf8c231fc1a250defU, 0xfbeb010af2f3c6e5U, 0xeeea13100efaee0cU,
  0xf0f2100a81ee0615U, 0xaef0910f305f3ecU, 0xb0ffcf90301f511U, 0xfd09100cf00feef6U,
  0x10f3e51b0e04e3f8U, 0xd05e41e190000fbU, 0x6170ae781f2f80cU, 0x80ced191fff261cU,
  0x2829072f10ef26e7U, 0xee22c001cf2e1fbU, 0x13e7cdda1907c902U, 0x4ad37f5f189108f1U,
  0xd9e155bbf9290a3eU, 0xab9b99f8d7112be0U, 0xc7a530ab2711391eU, 0x10fd272c382af430U,
  0x3fd0207f8dc1fecU, 0xfbfb090006fafcf8U, 0xfbfe06fec305fcf1U, 0xfefbf8fc06f903f9U,
  0xf8fe040507fe02U, 0x606fc03fcfd0b04U, 0xfffffec7050181f6U, 0xfffffeef00000191U,
  0x53dfffffe8eU, 0x74a0000064fU, 0x5df000004dfU, 0xffffffaeffffff27U,
  0x235fffffd9aU, 0xfffffd3e00000378U, 0x36500000669U, 0x40000000288U,
  0x15fffffebbU, 0xffffff36000005a3U, 0x29900000448U, 0x44affffff09U,
  0x4a1fffffffdU, 0x885fffffce6U, 0x12100000121U, 0xffffff2e0000005dU,
  0x7b9fffffd93U, 0x4390000058eU, 0x97ffffff2aU, 0xffffffe2fffffeddU,
  0xdd000003e9U, 0xfffffed8000003ccU, 0xb704daf4ffffffa7U, 0x4020b0806daff13U,
  0x41ea37fd1ed13b26U, 0x7f3a373fe53c17fcU, 0xe8f918364214f91fU, 0xdfa0f51c542320cU,
  0xae30df311713ec52U, 0x172bf52eb0b7fe2dU, 0x9ad8183a8a1eb3edU, 0xc18106ceb2e5fb9fU,
  0xf60ae5db22cb8fecU, 0xb393322910cbaa4U, 0xa7ed2feaf428b33bU, 0xf4da4c484bf00657U,
  0x492c43212dadf1fdU, 0x2c43b5f627fc271cU, 0xd8d0b3da3c47ee0eU, 0xf31f0233815a3d24U,
  0xf2961fe5b1315413U, 0x497e501e2cfd01aU, 0x68c9f2f394460c9cU, 0xfccbbbf23572ac6U,
  0xe6a88db9ed05a28dU, 0x97da480dde81dd94U, 0x1d8588da2fb8c0f8U, 0xd38b3709f6de2fd6U,
  0x1c81e99099462b40U, 0xeff6112cb2b695dbU, 0x10973598f49beb36U, 0xc1b702ec3106cef9U,
  0x811f33fcf28fa99cU, 0xdefd116d79480745U, 0x572a014d2debf5e9U, 0x32a2728f05641eaU,
  0xd234abdeeb050d41U, 0x57271cc3b40c0a49U, 0xf723cc16b2173b42U, 0xaa8dc1138fdde1aU,
  0x2008090d17cf30e3U, 0x36ff171ae74af85bU, 0x9e0b7f216e33fcd7U, 0x9c8f656d9ebeb01U,
  0xf26043975ef6284fU, 0x62c0520a1d147fd0U, 0x20cc6afc3a3bb2f4U, 0xefa08dd4ea13a688U,
  0xde02b0d4aa72e08eU, 0x67ea9acf83d324cbU, 0xd48cbf9976b2a994U, 0x32a2f994813df629U,
  0xdf899c23cb8a07d3U, 0xd5913785c52fa5beU, 0x1cf4919f20aa08fcU, 0xf59e414012febe99U,
  0xaf3da62d3ecad5c9U, 0xe4be038db4f81c81U, 0xa589d3ea19c1e0daU, 0x13f7b98d352785fcU,
  0xf7b88521b68dc619U, 0xb52f3525e2e903b3U, 0x8ca3f9e39039ccaaU, 0x18b72ea08202b2acU,
  0x8104b19e2b25a93aU, 0x41bb9d15d9aefc1eU, 0xbbccbada89c4d0f6U, 0xdcfea0d12909cffbU,
  0xd05d0bd2beee9f7U, 0x97f4b5edff2fd4c3U, 0x3297edbfaae1a22eU, 0x8cee28970e278de1U,
  0xb4a1513e55a1bf9aU, 0xbaa41e813e2141d5U, 0x282d9f5b1205099bU, 0xdd286b96c083874cU,
  0x5b27bf3282208882U, 0xd3e48b872b02942eU, 0x9dab53b3096776f0U, 0x71ea700ec94de836U,
  0x27a82412811abdb3U, 0x1c9ec2dc38b69dc8U, 0xcc82282cb98bef43U, 0x381e4322ded1bf17U,
  0x8aa01a8aa0bb068cU, 0x9133de24c5cc83a7U, 0x16f39ff2d9bb81ccU, 0x10901f91bbbda59fU,
  0xcedcdd98831e87aaU, 0xc88d00c08803a8d2U, 0x2203de9bd8a1cfc8U, 0xb9dbf4add6cab781U,
  0xb545222a2e1bdd9U, 0xf77f063c3e6d5a51U, 0xe61deb4f70a82d1dU, 0xf5e8064904477bf9U,
  0x271df155246c1de3U, 0x46012b32124b07dcU, 0xe7bb14da9c4a1a20U, 0x91b931d50a2890acU,
  0xfb421286ef2827aaU, 0xfe2f8ad1fc042b98U, 0x810be01b0440038dU, 0xd72cf516e898f59aU,
  0x93ae218bd2a801d6U, 0xf49f06d0028100c0U, 0xfaa91c0ef3033298U, 0xe5fffd11cdd1b190U,
  0xa928de0f82eb2e21U, 0x2dfaf285cb18d399U, 0xfe27b340c88e19deU, 0x3186284fcc5a1948U,
  0x1bfd43d82bcafe71U, 0xb0195d3a026a4564U, 0xaf37a40377e294eU, 0x63c947dfa0696b49U,
  0xb1f381fe547fedbdU, 0x933330bda8fbba30U, 0xaf2d98bc1d17a7e7U, 0xeaf831d1d3cc2339U,
  0x89973332dbd8bf81U, 0xbdf48de538fe3dcbU, 0xd501f6ff9ca0e2d5U, 0xefb01b2c1507f439U,
  0x46191f2106c83ce4U, 0x814929f1401efc1eU, 0x19e32c26fa2ff327U, 0x2bdfebf6ae2d4feeU,
  0x2230a6fb2ce90a1dU, 0x18ab1fb71817f2c6U, 0x1c43b711a981a327U, 0xecc1a20e9cb8eccdU,
  0x9ad4ce0391e2cedbU, 0x24cbb49eb59612d9U, 0x8fc23ea1faae1f91U, 0x2f3dc990813e8bc6U,
  0xaae6aad72fa51e05U, 0xa58a9384be218c0dU, 0xd24289eed3a689b0U, 0x213eba3c42a111b7U,
  0xbe4eedf1f5cc0696U, 0x52ec443f75d23364U, 0x2c33064e0718661dU, 0xf3204c7a154f2e60U,
  0xa827737ff13ed427U, 0x45bfe64fdefa480fU, 0xc6d306ca340d3f14U, 0xaca6993484a31bf3U,
  0x183dfbe2c01a99edU, 0x85231cc40f399790U, 0x3a3ab381ef08389bU, 0x1d0b3b3717923ad8U,
  0xedf41811e12b9508U, 0xf90006122a1c2119U, 0x1b1a0af601e81103U, 0x81fdf7f801f419fdU,
  0x1615e5f2d9212f0aU, 0x13fd14eef7161b1cU, 0xb2e000e3f00b13f1U, 0xfe66337d38430d7fU,
  0x25f846175bdc6aeaU, 0xc75bd37a4ecb59edU, 0xc466f70f3b7253feU, 0x19013260ad0dd3feU,
  0xdbf703f30f716161U, 0x160aee030dfc0c09U, 0xf70afc0af6e307feU, 0x81090af8ef05091dU,
  0xfaed2af6f70f080bU, 0xffafbfbeff7fcf6U, 0xcdf8060f3701f8eeU, 0x2bf6e70400f514ebU,
  0x9f8f60010f1eb13U, 0x81eee4110acb1444U, 0x30f0321421010af1U, 0xf70ef5efc611eeecU,
  0x98384f304dd51905U, 0xad5cdaaeb528f6e5U, 0xa08a493d5797054bU, 0xc5132e53ea8944f5U,
  0x34a43903c7bff91aU, 0xad818ef282859d20U, 0xd9f79d36bf0c8eaeU, 0xf49238ec3199ed88U,
  0x3d8ef6f1f6e1e90fU, 0x811c3b819687f039U, 0x2be00c95e724f926U, 0xad9a1cd4fcb1c6f5U,
  0xc30bc9dd14fc8aa3U, 0xa134b0e9031e00ffU, 0x31fcd7c29bc21cb8U, 0xbef1ce958126ecf8U,
  0x9ce4cc26bfa02f03U, 0xdd1f22d8fefd86eaU, 0xd9d71bcb9ec7e30dU, 0xfc3dda412f271b05U,
  0xd9282cf73fe21619U, 0x6d34e30c05cd178dU, 0xeb03a50ff111d914U, 0x31ffbdeeec2bf43eU,
  0x93eb329081ed1c1bU, 0x19cd1d220e351d11U, 0xe256d8e11fd93e0dU, 0x81570d214dd0065dU,
  0xf714cce4073d3907U, 0x22e2dfece34af82cU, 0xd936da1b1acf5024U, 0x2c8117e2160e3119U,
  0x14230e071ab12733U, 0x3c1b12fa2e3520eeU, 0xf1eb4c3c15f10dedU, 0xf6ed2c2cf53330ecU,
  0xc8bd00d33410001cU, 0xad1d1c1006fb1506U, 0x15f61f2d17d244f8U, 0x7f1eb7240baf0ed0U,
  0xb0ea1b1a203cf02aU, 0xfce51ab5f9091fU, 0x96ec2c1405f03c2cU, 0xf5fbea30df2fbbd3U,
  0x15b9839304938186U, 0x890eecf8f7f04116U, 0xea1fceb31d181ac7U, 0x8ed6e10b291e82bcU,
  0x131ef721da908fb2U, 0xa40de592844eee6U, 0x44defc4efbc6466bU, 0x1a493c1bf5f9650dU,
  0xa9db29567f55681aU, 0x51082b7ce50440ffU, 0x2222ded418e81652U, 0x93183debeac2fb02U,
  0xf5bea1f981e8a818U, 0xf2f441d4b41c82a6U, 0xa9b634cab023d983U, 0x9b12b5aa2534a2ccU,
  0xceead9411331fae1U, 0x30fab8b19bb08f00U, 0x32a00d171b3d46cdU, 0x819faeaee7a49104U,
  0x29bf23cd86b1ae4bU, 0xd3c1869cfc14eb1aU, 0x35ab25e0bca443d2U, 0xcc169ab3f640b719U,
  0x3d07303bdef43d9cU, 0xaf0c0796ed3b1487U, 0x962abcc6c59f9c3aU, 0x81cb20a3bda79fb6U,
  0xbfd90d1415f43d9dU, 0x3acf4a34e5daae9cU, 0xea9e0ff385e291fcU, 0x18082de82c2bdf11U,
  0x202c2afeb5321cf4U, 0x16d89f812de7a1dfU, 0x22ff9129b91038c4U, 0xf6f1a2c49bf80513U,
  0x3c3facc2e13ab681U, 0xd087232f9ea7232aU, 0xfb32d1258f9a17a5U, 0xd7ce82c03f28a1dbU,
  0x81eee8c3ccbddeafU, 0xdedb10282e503340U, 0x425e8557b9b550aU, 0x876dff272d1d102eU,
  0x9b33fd2db1474f5dU, 0xfe21fdb8aaf25574U, 0xa6e5b808b1104b2aU, 0x81d69ba5c53fa922U,
  0x373e9897f832382cU, 0xeaa5b009f031d1a7U, 0xcacf49a7f1fb08beU, 0xe58dfbe7bda485c9U,
  0x9060460099288882U, 0x2dd059387f521934U, 0x2f603e4c268f000cU, 0xbe06fa3b2e426af7U,
  0x2c1cddd7ed747ae1U, 0xe1255fbddb4d5948U, 0x31b032819c0c63dbU, 0x8240fda58e05411aU,
  0xf1082dfdaac72319U, 0xba2b973d13199a38U, 0x1633f60099df2823U, 0x9f11a9905b8a9e3U,
  0xeebcf3910b3c9ea1U, 0xc735e8c0b547ccd6U, 0x38ca3ca1eb3e1717U, 0x50924a242baa1612U,
  0x3e4826d4adb70fc4U, 0x1a1cb1bb37810b57U, 0xc1980e8f9929562aU, 0xc0fbc8aa8e0681a2U,
  0x1c011a9ea727deb4U, 0x37ced3de11c3b91bU, 0xa2af3df0baacd00aU, 0xd0d497040efadcb5U,
  0xafab40d11ed0f99cU, 0x1940199ef00d33deU, 0xf01732bc813d4019U, 0xf198bfc20400ae07U,
  0xed12e0810239d586U, 0xab1d9a6eb1320b5U, 0xcef7b3e5232909cbU, 0xff272881fdc4b58eU,
  0xcbe9d78483ffed92U, 0xf982c599b9c0f1deU, 0x3fd1d51502d212a4U, 0x99b31eb4319deff1U,
  0xd11d2c860af0bbecU, 0x72eee3e510225882U, 0xc11ce145dc681baeU, 0x82d688d7e8e37f9dU,
  0x87aaa29e2224e029U, 0x7f9f502c2a0e815U, 0xfbddede70c3a9363U, 0xc6ced31428fa050cU,
  0xe707220513f82600U, 0x7f1af12007bd0cc4U, 0xd0fbd7f9fe1bed23U, 0x2012d405e31b1713U,
  0x1ce964c8b4f60808U, 0x2ea0265e7f30948aU, 0x34a4c6d5ea280823U, 0x128261030b8995b5U,
  0x23b2f3d46c8dde36U, 0xe48697a4ccb2b65dU, 0xe10826a7e15c3fecU, 0x19c4dd3f5445347fU,
  0xd9d7df427d8ffbeaU, 0xa44c516a321f631dU, 0xa6e4f1e84d5e440fU, 0x4bf15916a209393aU,
  0xb523a912c34df522U, 0x89fb0795f1fff516U, 0xa52e81e122e31407U, 0x9926341d0bf4f340U,
  0x3cbe6f5911c2321U, 0xb204f7cbfea8e5e2U, 0xfabb18af0be8e5feU, 0x95d9af0b50f55afdU,
  0x32042e5efbfe2d42U, 0x4963f01f52c609ccU, 0xc6fcdf0e0832de5eU, 0xf234e53dd8310709U,
  0x20a9a091811bf027U, 0x3243bc3da0e6c4d0U, 0xd93af8271ef59e8cU, 0xeb481900ac9b238U,
  0x97b3ece2f0c8b695U, 0xb3e23ec53f0ec022U, 0x3baf816043209aeaU, 0xdbc43d438629b0caU,
  0x8efea910975deac5U, 0x244645b6aa19a201U, 0x3e7a1d3b4a1f3dc4U, 0xdf78fde1f247f24U,
  0x2921dab7bae96d07U, 0x1691ef34d545bb92U, 0x4101d58bf5ee302dU, 0x341e31ebe4872da8U,
  0x27dddefb81c2f1adU, 0x9e0a3299e6edc1dbU, 0xfa1bf208038924daU, 0xfc09030d02021d12U,
  0x1713010ff8dd2924U, 0x7f111afe070ff8d4U, 0xd80afa1c180de70eU, 0x130a1804ea16f716U,
  0xa541f402e1050d2bU, 0xb425e59181bfedbaU, 0xa3dd1fcf98b3cdbU, 0xd9c2f09fd918e940U,
  0x321cae2317c09081U, 0x891d0840069d8a8cU, 0xbaba1208d317d9ddU, 0xc9ad12322b0d1e23U,
  0xed36e529eee60410U, 0x8133e9413e1c023bU, 0xf3d03df3121b2b21U, 0x33ba01c88540192eU,
  0xbd2c4ee9f30912dfU, 0xa83a2a2830f83535U, 0xdd3f36fe2decf20cU, 0xa73ad52356ef3cd1U,
  0xf52de7c5fd49e758U, 0x50331ed79b650f4eU, 0xed18173081ee03dfU, 0x53bd0e541c055c1dU,
  0x2315211863991908U, 0x81232f2745f1f73bU, 0x663e92be3617e19U, 0x2eea3d5cf753380fU,
  0x1f0dab35db284d06U, 0xfbe60cf7e6baeaa4U, 0x3fa8f41d0ee9db8fU, 0x9cbbe221f2cacb2dU,
  0xcf341c2481fd253dU, 0xf18d3af13acd2a5U, 0x887fe4c9cffd08d4U, 0x8a04d387b51e60a1U,
  0x1be866f284205b85U, 0x432936691c4b1becU, 0x92940bd20c7718b3U, 0x921f201cc01cbd34U,
  0x62427d1682401891U, 0x28f33f517e97ff82U, 0xc20a7b6c8d4be88aU, 0x2fb0617a81fd8da9U,
  0x5599a95f33547d0bU, 0xc47897123ef2cd81U, 0xf3ec0cf1b5b6c1feU, 0xfb60007131f211fU,
  0xf61be40226ec0df3U, 0x810ceffd12f717dcU, 0xeffdc8d2c2110e05U, 0x19f9fdced50f000fU,
  0xd7ea11e09afbfee5U, 0x11d507191d151322U, 0xf912e91521fef0f0U, 0x811cf60517f114e0U,
  0xf4edb6ccde05f90fU, 0x803eaebe4031205U, 0x98068131ae0007e8U, 0x25e4e39bcecb81c8U,
  0x1b912ff4a4ec39b8U, 0x9deed5bb96192b16U, 0x8e34c1d193153fa4U, 0x2be7ba242e902e83U,
  0xec01fcfcdb21ad3cU, 0xf2e3b521f9f52c04U, 0xe12323272ada2d02U, 0x4dfbbaf516810b06U,
  0xf2f8022d38f4f508U, 0x25d7fa2ecb3c3936U, 0xd224f740f4ba2801U, 0xf9c7d6224dfa79d8U,
  0xcdef3c240ac6e11bU, 0x7e792e70270e6faeU, 0xc76406563f65a942U, 0x64b3407e99164cf0U,
  0xdc81fed6e1f77f5bU, 0x3fc0b2e68310eef9U, 0x21a22c3c90c20bb5U, 0x3616f8eda8eeb526U,
  0xe03cc7ada1e1eeb1U, 0xf80842013a37c794U, 0x407f5e089a124f7U, 0xd737d81b43520226U,
  0xfe0c184327bb0528U, 0xea563f59fb0f34e9U, 0xd8f7c8d5df601847U, 0x61222824e4021663U,
  0x4f85496181ea1f24U, 0xb078f4bc6ce08702U, 0x1ff2adf41b3e5c28U, 0xcd483d7bf723a58eU,
  0xc171f35e618123b4U, 0x85b5a5ededb7962eU, 0x2b49f04ac3aca46eU, 0xd84ab8a7c29bd113U,
  0x28bfb7ea10f6128fU, 0xadd28bf9ec45e6a3U, 0xcd494abb1caa0c23U, 0xe5859adcbb0ca6dfU,
  0x13cc03db1c814803U, 0xf9efc8f41df1fefbU, 0xf2fa361f19fd0516U, 0x7f12d91f09b808e0U,
  0xcb162e253201ee08U, 0xeeef110bde415efU, 0xe4d8752012f80c33U, 0x486f8e81bb8e008fU,
  0xef7368f0ed29b685U, 0xd0a4a15fda542678U, 0xf90f8f2345bfdb6aU, 0x2ff947fc0f10f334U,
  0x9aed1203e95ee495U, 0xd9b4d729fc431ae9U, 0xd73efee205ad0b39U, 0x81f0a016318b5326U,
  0xf70d5cf24bf9eb03U, 0x3f1feaf994304b44U, 0x37d33bda11b81ff7U, 0xb42ab8bbfad93dafU,
  0xea21a8e2a45fcadU, 0x3d1345f98d45e7b1U, 0xfac188053328ff1aU, 0x9da1c1df8100b9cbU,
  0xe4c1b56832c8fc28U, 0xe3f544384f157520U, 0xfb68667f618809dfU, 0xc77c3d66021bf5e1U,
  0xa51828f95312f9d4U, 0x4c4a34d6ddce0d62U, 0xc3bf3fa86826696aU, 0x6553bce3e2d02239U,
  0xbf14d0ce88a22d18U, 0xe581a2ff06a88120U, 0xbfc5bdfcaa172bfdU, 0x3bd5d79deda5001cU,
  0x8f14033b899f33aU, 0xf423b4bc26be8797U, 0xa1361bdef46c46e2U, 0xf7a49481345bf4c7U,
  0xc055c93db5002ecfU, 0x3fd6048162cbcac4U, 0xb481a9468b49e283U, 0xfd2ce0f2a9f88e41U,
  0x30bbe9cbead0246U, 0x3d9251fa9e81f4ffU, 0x2f1bf1cb9b95e02cU, 0xbbbcb0923900a045U,
  0x3f6a72f9ad1b8dfU, 0x64076c834484c3ecU, 0x57402cf04190f7faU, 0xc82708e4aee35c0fU,
  0xc07fecdd4337f62cU, 0xd6421b81be8a1129U, 0xdfeb5bf36239625U, 0xf8a6091c545f0b5dU,
  0xe464683b7d926e27U, 0xf857e7c6c7122142U, 0xcc5a23dd65517f38U, 0x3f04682a05452b3eU,
  0x1bb90cc5e85f4c59U, 0xce1c2103daa51193U, 0x4c9c38d1c1b2e7c5U, 0x70fedb22b9dd2ba7U,
  0xded341391290feb9U, 0xaa8131cae59411beU, 0xe4143fdb2ad4191bU, 0xacd2c035141dc7a6U,
  0x3491e839e5588fbbU, 0x181086eef81983acU, 0xbf99908cecb42afdU, 0x9e81b29ca89d8a27U,
  0xc4fd1e181e953fdaU, 0xf934242639397b7fU, 0xd73a6068798d4d20U, 0xebfeede073267146U,
  0x130deab52cea15eeU, 0x193a5b06e223150cU, 0x523ae76db34575d2U, 0x1f5fe1b9f270f4bU,
  0x11abf41cea14ba0aU, 0xe8b0c20e333919fbU, 0x5230aedcfd9a8194U, 0xaefcded999c2911cU,
  0x15e7d21c949fe010U, 0xecb81f9acdcfe2d6U, 0x35a7eb0d25d8ce16U, 0x46fcba8988c2ecd4U,
  0xc0859afc0a97fa81U, 0xd8c5d7f2c325ea36U, 0x3a94ea95172abbdbU, 0x95d28b95fa1c2339U,
  0x2297cb4183e6de81U, 0x8df5883418d6081cU, 0xb9d3e1b3cafdbfe3U, 0x9db91de935cef4f3U,
  0xf214eb00be001c12U, 0x516f5211f06fc0cU, 0xce90aeef9f8fe0fU, 0x810210fd16fc220dU,
  0xfb35200824fcf51aU, 0x18f0f6e7ef022216U, 0xedfe10fe2ff4fce5U, 0x17d9f400000a0a0eU,
  0xf31000070ef41002U, 0x510c060c09f612a0U, 0xf5f499eae8fdf404U, 0x9e805fcf411fb0bU,
  0x56cc64ec81030d05U, 0x95ce2c9c31d19299U, 0x4635d3ed9d767073U, 0x1ddc82dfc46ab80aU,
  0xc3bc36e907d481afU, 0x854e3fdbe82eabb9U, 0xf6b8c48933a93a83U, 0xdc961ea5f9ba971eU,
  0x51b90e723e5ceecU, 0x8700331d2328a7a1U, 0x10362bc9cde9ed35U, 0x27e1b60694052300U,
  0xf6fef7f7b0ccd481U, 0xf881faf900fefefcU, 0x1f700fdfaf6f9f4U, 0xae020502fa02fc17U,
  0xfffe24050af7fefaU, 0xfef1fcfb02fe00faU, 0xe71caeb62afbf6feU, 0x6328bc28cb908188U,
  0xbc01ad8bc5182c06U, 0x383dbe9296c4e40bU, 0xc023a0bbf50006ccU, 0xf1c83b0fad3bacc8U,
  0x22e0b63fe2ff2bafU, 0xd3906832859c810bU, 0x4d92b32b8ba6dedU, 0x19a4959d1f133500U,
  0xcd245de5d8c523f4U, 0x1d20a6e636eb1714U, 0xf8f10c0d065f8372U, 0x3f9f412fc040203U,
  0xfef6f70412f5fcf7U, 0x8104f1f7f8ee0915U, 0x5f50af4f21503fcU, 0xafdf2e6ec100f0aU,
  0xccfe2ac6fd00fbe5U, 0x44cd11f12a660c58U, 0xd71e6ffce4b63e0bU, 0xd236e9e465dde6dbU,
  0x8df4527f7be6bd3eU, 0xacab73bb00a1d17U, 0x9c0e17f672fc5bf3U, 0x8736d7224311150dU,
  0xd2dfaef29d9ff39U, 0x630cdf3620d42a99U, 0x9301c723f849cf0bU, 0x2bef0b28a1374020U,
  0xe218021781ea2001U, 0x8fd0d1904131726U, 0x1c0bee181e0500f8U, 0x81fb05ff060a041bU,
  0x40a06e9e801f509U, 0x1706ffeaf61a1e1dU, 0x2813a23eef0015f0U, 0xcc36febeb081cb2dU,
  0x4ee0e3a275e1e70U, 0xdaf0da397ca4c7d8U, 0xc9c9dbbe478b86ddU, 0x8e9310513a2af98dU,
  0x99b42ffaa203dffcU, 0xd3c91b514b0820f9U, 0x5f636129fcd53e2eU, 0x1611aaf11dc36d4bU,
  0xa3361e3bdb06cf2eU, 0x2bf746db810f1952U, 0x1b19fa28fdc92e2fU, 0x4e31b122cfd3426U,
  0x10f9fe2e37c31d1aU, 0x812a041ff900161fU, 0xe60909fceb262312U, 0xdf50aeaf4280a0aU,
  0x15997f2fe5fe0edbU, 0x6355e5339a9db445U, 0xac47a50ea949a62aU, 0x54db443e6b8e94f4U,
  0x79fcd3c3579e3cc2U, 0xbedc73007aedfddU, 0xfa0eee16bfcd603aU, 0x1546260c080c0dfdU,
  0x241135101de5ff31U, 0x7ff501040d2128d7U, 0xfc24f5011210fd0fU, 0x3023252ded1f1307U,
  0x2035dafee7010220U, 0xa19cfd92830cd4acU, 0xafc4e7c515be8ddbU, 0xf81cb9487f2fd19U,
  0x22fc30b5ec2abdd5U, 0x35ca1f291eee21c9U, 0xe3a0329a301987fcU, 0xcd0a193ebddacf28U,
  0xcd82c2fbdd11fa99U, 0xfe90a4acc131a38fU, 0xc5c8348103b58720U, 0xdc2d0444aaac2da5U,
  0xa33db5c63e26a019U, 0xb36efe9a96350782U, 0x25aafb905768ef7fU, 0xfa94bd6242080311U,
  0xdb9169d123b810ccU, 0xf8a6a867e1d70526U, 0xee6565b0d2bbad68U, 0x517fc815288f39bdU,
  0xb8a484d92e87b0c7U, 0x9801bd1102928efcU, 0xcadf103b9bce2f12U, 0x3ec6f4fd218b8851U,
  0x94d3bf45d6fb1de2U, 0x4e16f919918fc8e0U, 0x32460d3eb6a833e7U, 0xdc82ab24e0e436f2U,
  0x3ba0198193efaa2fU, 0x199b170e0d8c17deU, 0x966134efcd4786e5U, 0xf4155f4b4907ee29U,
  0xce4e23d9f2f34b47U, 0x7fe41437ea437ee7U, 0x20786d69055ce95cU, 0x4939edfcf135d46eU,
  0xe37a6ab90aec7940U, 0xc30da4e239c8bb0U, 0x795ab73b3aeaef9U, 0x7cb8bc5a8da0b6b3U,
  0x50c1ef98afd07fdaU, 0xcd37a9164ff66f7fU, 0x1219a2fb2999b0d9U, 0xa8af23379efefe33U,
  0x81eab81bbd7f5b7U, 0xdc4097dc3db208daU, 0x21f1e73e9f8fcf94U, 0xec2e41f79bec3819U,
  0x973f39ff3ab80592U, 0xdfa439310e1d53d7U, 0x5c221844ddfc77e0U, 0xa3f4275231df7f67U,
  0x10f64ad171e20c32U, 0x4f1f666af25d085eU, 0x910efea52e625835U, 0x3e7fe52625445453U,
  0xe15e1d0529cf353cU, 0x8c62f30b3e5353e4U, 0xe9f3ea31c8542f57U, 0xa49e7018326ff40U,
  0xd20cfb0a89e0fce2U, 0x8c29328d2161ecfU, 0x2de4c1f2cbbb19f5U, 0x93073489f0d72527U,
  0x8f9a48e143a6e40aU, 0x3b0639ece7b1ca93U, 0xd502220581a6338dU, 0xe4ff2834375f4132U,
  0xe14adf0e26d34afeU, 0xda5cdbec3d1d4be3U, 0x7e39418c0512f4bU, 0xf9e820d8f10420ffU,
  0xf6d3fd02813b2ac9U, 0x4cd84907fbdcd0e6U, 0x1c1a46e2e6f30a20U, 0x11f6f25d29373715U,
  0xfdef6254743344e1U, 0x55f0023681551a08U, 0x9d15c43a6c0c095aU, 0x18a802420df33bfcU,
  0x2d3cdb6451e404d8U, 0x7f3c004f59512913U, 0xf62fb605a0cfe5aU, 0x122bee4fc9252537U,
  0x891a0309c9511358U, 0xb2d8f6333d580359U, 0x23f200f17f115664U, 0x90641e562f4c2bf0U,
  0xe55dbbfad476351fU, 0x15fd3fd1c95def36U, 0x5c8dddf5b0220026U, 0x3019201ca08578bbU,
  0xa4eda0a40121632dU, 0x8ec3ce0a1cf08890U, 0x7fa30bbdbc438750U, 0x883f09bbb4f4e19cU,
  0xa9e9c9f0a74d3e30U, 0x16e3d1ea2c06909eU, 0xef3316d696602c8dU, 0xe19eee818b06c85aU,
  0xb42a9796dc0d2ac8U, 0x260bd3f0cc233ef1U, 0xc73407aa09f4e2c9U, 0xb2e3cffdc281d443U,
  0xd31296b7fd42da02U, 0x2eb32611f5c4f7d1U, 0xd70ab53afad6b8d3U, 0xe52efedcf6c1a0a0U,
  0xd099a02fae0bd701U, 0x2f0de2240a293e01U, 0xd5d2cf1e9826ade8U, 0x968481a7dc37a6a5U,
  0x81a1f588dd0d873bU, 0xa116391f3984d2f2U, 0x1545fd39f940U, 0x1dcffffff9aeU,
  0xfffff96cfffff98cU, 0x138f000027f5U, 0xfffff9a000000000U, 0xfffff9aafffff92dU,
  0xfffff9aaU, 0xfffff06cfffff96bU, 0xfffff987000024efU, 0x2a96fffff652U,
  0x16e1fffff94eU, 0xfffff994fffff97bU, 0xfffff9ac0000290eU, 0x233e00000ea4U,
  0xa2a000006d6U, 0xfffff968fffff8e6U, 0x14cbfffff9bcU, 0x10e300001fa2U,
  0xfffff98e00001227U, 0xfffff98a00001f3cU, 0xfffff9b4fffff8b2U, 0xfffff9a3fffffa04U,
  0xfffff97b00002609U, 0xfffff9a200002860U, 0xfffff98dfffff928U, 0xfffff151fffff9b2U,
  0xc3a00000000U, 0x275500000000U, 0x1fc3fffff9a8U, 0xfffff956U,
  0x908fffff93fU, 0x1a52fffff96fU, 0x23380000201bU, 0xfffff9afU,
  0x94b00000000U, 0xfffff9430000098fU, 0x2554000010fdU, 0x22e9fffff95cU,
  0xfffff8c000000000U, 0x952U, 0xfffff91f00001b2eU, 0xfffff8f2000023baU,
  0xfffff930fffff933U, 0x258800000000U, 0xfffff977fffff80aU, 0xfffff922000025c1U,
  0xfffff9a2fffff930U, 0x38100000f19U, 0xfffff99700000000U, 0xfffff9d30000018aU,
  0x929fffff998U, 0x18dd0000234dU, 0xca0U, 0xfc900002268U,
  0xc6200000000U, 0xfffff96efffff9acU, 0x0U, 0x2474fffff9e2U,
  0xfffff97500000000U, 0x23060000253cU, 0x1d96fffff9acU, 0x20ff0000172cU,
  0x27c4U, 0xfffff967fffffa07U, 0x1310fe0bfffff98bU, 0xfe031b1812121904U,
  0xfb17fef6111d0907U, 0x2e122e0c1309221bU, 0x80f1a02f9f4f71eU, 0x1c04f404011c0d08U,
  0x11de2214f8fe1906U, 0xf9fa130d0b15e801U, 0xe9eef8181d1e09fdU, 0xf614fe0f0ff2fbf3U,
  0xf205140918fd0505U, 0x17fc16efe013ef1aU, 0xefff7f12fa2d20f0U, 0xf724170e3406105bU,
  0x170e00eee714fa01U, 0x1a11101a13161510U, 0x1119f813160413ecU, 0x23fcfbf7111e1ceeU,
  0xe922fdf3163efdefU, 0x3b1337041b060622U, 0x101523f90cfeec2cU, 0x2126f3edea1b16f4U,
  0x1cd704f400f224feU, 0x1714f40a0122e0f7U, 0xf80bf021182501fdU, 0xf0111812162013f7U,
  0x409180822f40c10U, 0x29171aecf817e4eaU, 0x10067f20203727eeU, 0xf0271d033c051c50U,
  0xf7160c15f1f80a05U, 0x1e14181e051d1ef3U, 0xef1fe220f4000f1cU, 0xdf01e0edf936240aU,
  0x12fe8ec1b1d12d1U, 0x59274aec2e211e36U, 0x162c37e9fc3bff48U, 0x301513152611243eU,
  0x31ae25fd272131f3U, 0xf4e02d1b0f2e0eefU, 0xd7ede72d1f33ed02U, 0x31e022123ec2c0eU,
  0x141e2614331f15e8U, 0x292b22f6c128e4fcU, 0x3de7f0fda453fe9U, 0x313e290a4efa3053U,
  0xde24022009ffed07U, 0x2c1e2e1727273015U, 0x282f19351c111a17U, 0x1751e7180f532aebU,
  0xa4706fd2e7adf3cU, 0x7f3e6143493ed54dU, 0x2f3c50d45406f56dU, 0x45d720e703e542d4U,
  0x31963f2deb0332d8U, 0x3dbcd6245742d5d9U, 0xc4220d3f2550010eU, 0x11280e3339ee324dU,
  0xcf023a4351102ddfU, 0x806370be63a25d7U, 0xed385c30184a604dU, 0xfa533e1a76f0504fU,
  0xe138f2d7c526201aU, 0x33364911d5324908U, 0xf3312340fa4511cdU, 0xe04ce2e30a612a18U,
  0xf65544df45271a33U, 0x7f4c53fc4f4a2959U, 0x3c4c5bbed9544f7aU, 0x46d8dde649f64eebU,
  0x58e1cf6601c3639U, 0xefd83a2ade4032d3U, 0xfc42ff4d31544a19U, 0x2e2b2e3d415f5265U,
  0x101b445659344039U, 0x451f3e38a543f7ceU, 0x27381a1a4b11715cU, 0xba5750f06ff75a37U,
  0xe9400c35ef14db30U, 0x2f405a0935375deeU, 0x132f1454ff26162aU, 0x4bf50243d161280bU,
  0xde5325e3322818bfU, 0x6249421558084451U, 0x424d52d93c05326fU, 0x40f0255e50df4f20U,
  0x2a8154e020fd2c60U, 0xf7ea402831391fe1U, 0x3b425f441950cc1fU, 0x30261a3b49074773U,
  0x1ed24714564449dfU, 0xed2d40e1a840d154U, 0x4a05e6cd44c26215U, 0xe94a44d059f85e34U,
  0x32444539ec2fef38U, 0x3e415d0f022f56edU, 0xf326e9435d1a2ed3U, 0xc2d0426084b23e0U,
  0x63905de2d1f09dcU, 0x3c351df83de9323cU, 0x38373cf00749cf4fU, 0x314218d90a1a433eU,
  0x22814af90fe82503U, 0x42e1002606320ef8U, 0xe10c452e1f342e28U, 0xdf24dc3534053158U,
  0xda0f34393cec380aU, 0xdb1d2c24a72fdc35U, 0xeceae0e5248f4a34U, 0xd13039eb370b472aU,
  0xec3403091cea2734U, 0x27324e0337274208U, 0xe51e1134e3382626U, 0x20fbe51c1f39200dU,
  0x36260b0928211919U, 0x2129161c2eebec29U, 0x2c2a28003eeee131U, 0x22142c04e0ea2f20U,
  0xfbad1b1a211d192fU, 0x13d40e220323d80aU, 0xe31604221c29f528U, 0xa21052b2c03282aU,
  0x5122b0e2bfe3502U, 0xed0823e9c626e52fU, 0x15e8ed14fe81322fU, 0x20192be11a153432U,
  0x292c1d1ff129fe30U, 0x1e2b3bff1f232ee7U, 0x919052c20e4f5e9U, 0xe2f140edd2c1518U,
  0x1c1e210f241606eeU, 0x1528112821f00c23U, 0x252521101d17eb1eU, 0x1b10f712e5122a1aU,
  0xbcec2deb0619f6U, 0x110ceb20f0200c16U, 0xfd11f121121bea28U, 0x1c220c2728fc0a15U,
  0x231f230520e430f9U, 0x28001a0dbb20f9ebU, 0x1a19fffcdc81221eU, 0x51c25e2121f272aU,
  0xe924f7e1fcfa2433U, 0x18232d0c1422231fU, 0xfa1e1f2ff605f9ffU, 0x13ee002c13291b14U,
  0x261b001823270fddU, 0x122718f52418f220U, 0x29201f1f25021e14U, 0x1f2423e9eae629ecU,
  0x15c200e821f31cfcU, 0xf1e8e8251f1c0e29U, 0x2dbf01b1c19152fU, 0x8260b27272cf9f2U,
  0xe63120eb1d1530f2U, 0xe8ff1de5da211d1fU, 0x2aef131be2811d03U, 0xee181fda10262327U,
  0xdc25e9ffe01cfc36U, 0x1e27290f0c2324e6U, 0x152de538e7220efbU, 0xcfa1bece6282e23U,
  0xb240b002dace4d6U, 0x142f16202ae4ee22U, 0x302c233e0a1f0415U, 0x271f08f729e3302eU,
  0x8a719faeb072c06U, 0xe2fa1633df2ae441U, 0xfbd2fa2a2421de46U, 0xfb30022e3121d6c2U,
  0x14e72904212736e3U, 0x3df425259d261f22U, 0x14e42dfd268123ebU, 0x121f28eb0c3e2a2cU,
  0x2e2feeef0f2d0b45U, 0x302a2c1ef9332c2eU, 0xdc393141e0fa2fd9U, 0xf2dbe3fa223141daU,
  0xf429e34a2edd1237U, 0x193b21302bf6fa26U, 0x3b30284bea06cc13U, 0x2b2301de0e2f361cU,
  0x26bceef1310f3cf5U, 0xea1b33414528f75aU, 0xd235df2f3924e156U, 0x3444f7383bd9b881U,
  0xdf92eec25263c17U, 0x462e2ad7c429f6eeU, 0x32314421feb122e3U, 0xdb2d31d912512e1eU,
  0xce312f2b2bfe1c4dU, 0x35332e4003352cf6U, 0x1227ed320edf19ffU, 0xd07e625d71e35e8U,
  0x291b042124b8edf2U, 0x152d1e152112f81eU, 0x2b1e22440cec070cU, 0x23e92734f4f7260aU,
  0x12d7f220e4fa30e6U, 0xe2080b3c07220f47U, 0x26023924331ce83eU, 0xea37f7292d1fc681U,
  0x21a211f1d152cf1U, 0xe32e25e790241732U, 0x31113ff6dc071910U, 0xb20270415422001U,
  0xdd2702f6ea39f13aU, 0x2f2b1f30e12c22f3U, 0x34302e2afe2ae4e0U, 0x918081a131c3324U,
  0x921e7fb29a8151dU, 0x14291e0926fef11eU, 0x29272a4939f2010cU, 0x2d2e29261af626feU,
  0x1fa61eebfde42f34U, 0x23dc263d3a20ff4aU, 0xdce4e62333213039U, 0x2031152c2c2cbd81U,
  0xeff71ff31c232c36U, 0xe2fe2520a6221cf1U, 0xf42d401df659171cU, 0xdf2626021e4321eaU,
  0xf824e8e9f419ef38U, 0x332b1f42f02a21eaU, 0x2423f920122413f5U, 0x1e9f4edf5172901U,
  0xf017f8f51aca1debU, 0xc1d23061c190819U, 0x211e2039ecf9230bU, 0x250c12f802f21df9U,
  0x17ce2df6f1ff2220U, 0x1172a2e2f21f33dU, 0xf013f71e2a1b1d2dU, 0x2029f31e2200ea9aU,
  0x220b19e619042419U, 0x19002116e61df02aU, 0x11eb32f7f57f13edU, 0x91a1d141c3217e7U,
  0x1d1efeed22120728U, 0x242118310e231a04U, 0x1af01be900f1e4U, 0xb05fd1807131d24U,
  0x2213fdf418d00719U, 0x71516fe12231f14U, 0x1919192afcf9f10aU, 0x1df0f822f3101523U,
  0xbd4ed051ffb20fcU, 0xf8f6f226ec1a152bU, 0xfdf417161e17f022U, 0xfb1f031919f1f1e4U,
  0xf423140d12141becU, 0x17f117faea1510fdU, 0xf10124101a7f1108U, 0xb19191c112812efU,
  0xed191803ec151519U, 0x2019142c031c14ffU, 0xfd1a0a11fbf40e1bU, 0x151cf30e0b0f1e1eU,
  0xf3111e0014f315f2U, 0x616181113f10012U, 0x14141520081d0a09U, 0x18170ef61f0b12fdU,
  0xf4d1f611131b18f8U, 0xf1feff1d2013f623U, 0x18f10b171b11f31bU, 0xe91b1a14160a03fdU,
  0x315100310fb1120U, 0xf3fc14f3ef12e8ffU, 0x715f9187f0f11U, 0xf61715f7171f11eeU,
  0x1214f10718fd191aU, 0x1a12101e1c1c101aU, 0xf3160a130f1c0f01U, 0xf1fb05fcf2111809U,
  0x70f021417fdfd0dU, 0x61620f010f60613U, 0x1514141df7f41808U, 0x15f91d111ff113f4U,
  0xf6e9fb140718170cU, 0x5f80b1ff919f724U, 0x19f705171d130116U, 0xfe1e211616f51d1eU,
  0x100f130f10081312U, 0xf6171503e412f1f2U, 0xfe0c0cf8167f0e13U, 0x181213fd171c12f7U,
  0x81412040000f217U, 0x18111225071610f6U, 0xef1b0914f1f7fdfaU, 0x307ee08050f1f21U,
  0x61227031af7f2f9U, 0x615210d12f0ff15U, 0x171619220925040aU, 0x1d030325fe131417U,
  0x15eff4f6f20b1a1aU, 0xf0f3ec1cf31aed23U, 0xe0925181f14f819U, 0xff1e071518fa2f4fU,
  0x118152513ec1508U, 0xfc1e15f6e71408f7U, 0x21f60103107f11ffU, 0x91a18e51a231604U,
  0xfb15ed16e7f8ed1bU, 0x20151226f1211402U, 0xfc19001800fcef09U, 0x2fc1903e610252aU,
  0xe916f72519e1f70dU, 0x91c2eef17131a16U, 0x1b161d2cfe0d180cU, 0x1ffb1116f2f8162bU,
  0x8e4ea0524171c02U, 0x1c0e012425200627U, 0xff07241f28190c1eU, 0xf425261c19074d7fU,
  0x70118f3171517fbU, 0x18fe1b04cc16ea02U, 0x1310f203fd781408U, 0xfc2119f31e2c1922U,
  0xf717120f11ed151dU, 0x231c15311e261607U, 0x13191d13261ffb07U, 0x1cf309f8fe0b1e0bU,
  0xa1300231adfed1cU, 0xa1626fe1316ef14U, 0x170e182df4090009U, 0x20f6010e0c0011efU,
  0x8f51f1beef51e18U, 0xd02061ef81ae523U, 0x8151f182913fd19U, 0x191d14141425537fU,
  0xef05170c121a0e1eU, 0xf8191711c1100302U, 0x16faec02f1411500U, 0x21a18e81f241432U,
  0xef131dfbf1f6fb1dU, 0x1d170c290c25140eU, 0x1317fa0ff3f0f910U, 0x100e1000190722efU,
  0x110f1c0518030b18U, 0xa1428fe12030813U, 0x140b142b02fb0e06U, 0x1910f11300000e08U,
  0xf0f8f31af10e1df9U, 0x2f90b18ee150222U, 0xf6eefa152412fc14U, 0xf01e170f12094a7fU,
  0x12f8120610f50df3U, 0xbfb14f4d50eff0cU, 0x8efea11ea16111dU, 0xfc1b140420210f3dU,
  0xec0ff508ecff1619U, 0x1f13092d10210f21U, 0xf218f40af9f303f5U, 0x2307fd19f1082b01U,
  0x241306241912fd1aU, 0xc1535161115ef14U, 0x100918330f181805U, 0x24eff1f9f7210ff3U,
  0xf0f3ec0afc10241bU, 0xd1aec1ff2190529U, 0xe50bed1a2916f213U, 0x1326ff14101c5a7fU,
  0xcf013f311e609feU, 0xaf018f5ca1118ecU, 0xedfae40dfbf315fcU, 0xe822141725290e49U,
  0x1c1219ed111dec17U, 0x260f0338172b1012U, 0x823f80a241e05f6U, 0x605e9ece0002e22U,
  0x8101e032006fe19U, 0x111c42ef10120c15U, 0x110f20480519fd04U, 0x2cf91e080cff0f22U,
  0xf2ee1f1f25fc2c0bU, 0x28fc0327fb25df2fU, 0xe15fe1a321bf615U, 0x831fc1514fd6c7fU,
  0x22eb14f915e30120U, 0xf7212113dc12ee07U, 0x412dd2515cb1422U, 0xe529171e3c350f73U,
  0xf814f8f0030eea1dU, 0x30160049f8321020U, 0x114ffe01f3ffU, 0x1a41000013f3U,
  0x236500002339U, 0x161600001e30U, 0xd5600001052U, 0xff700000d34U,
  0xee20000124fU, 0xc9600000f8eU, 0x8c7000009eeU, 0xb320000095aU,
  0xd5800000dfaU, 0x103a00000c8bU, 0x1529U,
};


ai_handle g_forecast_temp_ml_model_weights_table[1 + 2] = {
  AI_HANDLE_PTR(AI_MAGIC_MARKER),
  AI_HANDLE_PTR(s_forecast_temp_ml_model_weights_array_u64),
  AI_HANDLE_PTR(AI_MAGIC_MARKER),
};

