/**
  ******************************************************************************
  * @file    forecast_temp_ml_model_data_params.c
  * @author  AST Embedded Analytics Research Platform
  * @date    2026-03-24T16:00:35-0400
  * @brief   AI Tool Automatic Code Generator for Embedded NN computing
  ******************************************************************************
  * Copyright (c) 2026 STMicroelectronics.
  * All rights reserved.
  *
  * This software is licensed under terms that can be found in the LICENSE file
  * in the root directory of this software component.
  * If no LICENSE file comes with this software, it is provided AS-IS.
  ******************************************************************************
  */

#include "forecast_temp_ml_model_data_params.h"


/**  Activations Section  ****************************************************/
ai_handle g_forecast_temp_ml_model_activations_table[1 + 2] = {
  AI_HANDLE_PTR(AI_MAGIC_MARKER),
  AI_HANDLE_PTR(NULL),
  AI_HANDLE_PTR(AI_MAGIC_MARKER),
};




/**  Weights Section  ********************************************************/
AI_ALIGNED(32)
const ai_u64 s_forecast_temp_ml_model_weights_array_u64[1566] = {
  0x7f0000007fU, 0x3e48515a636d767fU, 0xf4fe071019232c35U, 0xabb4bdc6cfd9e2ebU,
  0x100000000U, 0x300000002U, 0x500000004U, 0x700000006U,
  0x900000008U, 0xb0000000aU, 0xd0000000cU, 0xf0000000eU,
  0x1100000010U, 0x1300000012U, 0x1500000014U, 0x1700000016U,
  0x2f00000000U, 0xe9362831cc7f18f2U, 0xd70212efd1f341ffU, 0xf84a0803a98716d4U,
  0x3615017f18ec58e7U, 0xd2a8de30160cea4fU, 0x7ffae3160ecd4081U, 0x4ee24741770eff36U,
  0x8132e3f541b961d7U, 0x14d122f39fecea01U, 0xae4df4bdcc5fd44U, 0xe300f0dd05eeeff6U,
  0xb3faf551de290148U, 0x8115381a81d90ff5U, 0xd4143931abff2412U, 0xacd3fb37bbf51a15U,
  0xe1e7c5bed97feba3U, 0xb718bfe800ded9ccU, 0x2d522d4c1520fe0U, 0x4519d36a39034101U,
  0x18a68145d9d1233aU, 0x28f6a22ba714d224U, 0xc4c27986c99a4284U, 0x5de2621affbff7fU,
  0xb615f07fcde5220bU, 0xc2f83068f0222c5cU, 0x53272b484b7f64a7U, 0x42a01cbb0f01283aU,
  0xc07fec0891d50b2eU, 0xcfbbec2df3ec3317U, 0xad84351626153313U, 0x43f9454519c7097fU,
  0xfb47dc53353dd575U, 0xa07f03d88e41c874U, 0xdeecb2febb01bf19U, 0xd9b0fffbcad22689U,
  0x9141eefc8633b25U, 0x7091c001502ea66U, 0x13c1102981fe2417U, 0x1af62b2605ff56ffU,
  0xf610057f3a2937ecU, 0x35285f5e16b83937U, 0xefe557c7346f7f0aU, 0xee0de48cf82560b1U,
  0x39f48cdd1213cddbU, 0xaf81d5c4260a1a97U, 0xf12513d8ed7f27f7U, 0xbdacee08eef3d6e2U,
  0xd55d0359a2920fbbU, 0x81ad43300fc22d27U, 0xf58f0017fe04f0a3U, 0xef2f293a7f6e553dU,
  0x10dd08da3b17dc00U, 0x81003bcf9990faccU, 0xe7d6f3d8bf1c0ad8U, 0x3ef598502510e62bU,
  0x25200000461U, 0x74e00001849U, 0xfffff1b20000080fU, 0xfffff906fffff8a4U,
  0xebdfffffc12U, 0xa410000074cU, 0xfffffe5600001039U, 0x6ad00000c5dU,
  0x7bb000005acU, 0xa9bffffffcbU, 0x6a200001857U, 0x110943f35cc4ec24U,
  0x2e1a12f313ff231dU, 0x1c1d7fde0409eee5U, 0x381de41314fb2f04U, 0xf3e3edfff62114c7U,
  0xe285f1c57fdf532U, 0x51ec610851c91d2fU, 0x380631bef82d2c2fU, 0x29e45295c0193d11U,
  0x6beb0ee9f825df19U, 0x13be212f2bd8d122U, 0xe904f7db39e60201U, 0x8124fc500de64fefU,
  0xfbe0250b0f1edd04U, 0x410f0a0fd8efdb28U, 0x3ce3a60ae81adbe4U, 0x41812d08040ad3f9U,
  0x1614f9f3fb061c19U, 0x203e2c02ce311df3U, 0x14073d82002124cfU, 0x33f145b935f2cdd4U,
  0x24ae02113096b414U, 0xf0a5d0cc1c1442d6U, 0x213ec34ff355802U, 0xd0011c2b0ce5119eU,
  0xdd0b21261206e204U, 0x11c5417ec2f07feU, 0xf41e300173d9efddU, 0xb4e1f8ee22202718U,
  0xe800dc17eb21d431U, 0x223b04145e0b25edU, 0xd85feaf831b66c1aU, 0x1ef005fb24811730U,
  0xf3e109c5003539f8U, 0xee552d3be12f04feU, 0x9104007f0b1a0fefU, 0xe0e2c0e809b24630U,
  0x1bf2cb0b00db0f29U, 0xf497d5261428f310U, 0x3e31d2fcc9e5fc5eU, 0x1e5044ebf90036dbU,
  0xd5e89b06060bae5eU, 0xc9bee43b1eccd10fU, 0xeffffd361306725cU, 0xf6df0a01fe24eb2bU,
  0x5ff7d4c6e91222d9U, 0xf003c2f5de071607U, 0x4efdf8eaf6fa2d22U, 0x20f37f2b0ef42634U,
  0xf5451c26e4dfe837U, 0xf45f461d1e152129U, 0xc0227f19614c37a3U, 0xcde7c21d40c9f28U,
  0x21d6be37f138b22eU, 0xb13cbe920273cc3U, 0xe5070c97410af7faU, 0x6515f2eecc31fa1eU,
  0xf768143ff2d918eaU, 0xeafc12317012dee1U, 0x3adb4d624e2c6afbU, 0xfb2fa41b0c13472eU,
  0xf6dfc136d8f61ab0U, 0xfef3ca0f74fafa15U, 0xea81f635d0e20901U, 0xd30cdcefcef19ed6U,
  0x3fbabae47e5cfU, 0xe01acfd2e1fb114cU, 0x447f0ff71e6a24bcU, 0xd54406141a5819e3U,
  0xf8dca8f2d2b9f503U, 0x2eb52c1f40fb230fU, 0x31ebbf0bd6311d5fU, 0xd1ef10889e3d3d6U,
  0x375201d3eeddf716U, 0xf408f809b701e508U, 0xf614f3110309ef19U, 0xfede0904fffd0ffcU,
  0xbd0d242913d4a811U, 0xecf5f8ed03ec2510U, 0x811dffe90c0107daU, 0x2200b4f120322a8eU,
  0x22edb12318fb34ebU, 0xc54e2a15d9ef152bU, 0x207fd5261addfc06U, 0x2213fc2ef500fb04U,
  0x90aed0a0b01fb6aU, 0xdf1fd450015f901U, 0xc3b1006101a59feU, 0x1fa1bf2fb0bfffeU,
  0x3b1bf2f50830f909U, 0xecf4211efb0e0007U, 0xfbe7e2f534492911U, 0x72ce4fff4090ab7U,
  0xdef61fe7040b3118U, 0x1f064e441ab112f9U, 0x44df3bee74501b31U, 0x163e18ce1d282eU,
  0xf8ff2fe2bf0401dfU, 0xf921d4478119eedeU, 0xbe0b1104e6dcede4U, 0x56c6fee7fc0f0d22U,
  0xe5f9b8c1f5eb0aecU, 0xf9098dfa0a17edb9U, 0xd8f120e203fbf602U, 0xf495b11efadc01fbU,
  0x16fd08f7810e1f27U, 0x1a16f206dd2913b2U, 0x4a194610bb3aeef7U, 0x47d926a134c8e024U,
  0x76efe4396a01e17fU, 0x20716deeaf9e811U, 0x4b414c1c0a08f717U, 0x2634510fdb15ff2dU,
  0xfd2cf62119bb281aU, 0xc86fe701242df8f0U, 0x52f0242c0c060e65U, 0x1cb52d707323719U,
  0xfc25d1dee322070fU, 0x137f250924243b08U, 0x1b321eda53da2ef8U, 0xcf70cf618cbd606U,
  0x1acc305d2197203dU, 0xe06620cf4caa4133U, 0xf6ef2a8e3424f2bcU, 0x1810fafeeb10ef16U,
  0xf206442cf4271b28U, 0xc3e07f9242eeec7U, 0xfa071be50c010d23U, 0xdd06dafbfaf30d0dU,
  0x407932125bffe430U, 0x9293d017f095fecU, 0xf63244fe1beb3746U, 0x2317d921b11207f2U,
  0x7f3cec17e23a01dcU, 0xfb0af632e7d4e32dU, 0xdad4f330ec1ce616U, 0xe53671490907e03eU,
  0xe42fcd0d092dde14U, 0x110d1200cdfff20aU, 0xec0ef9273a2415dfU, 0xbbeac2f6de00d734U,
  0xddc5e02d1de3c23aU, 0x123031202af80b21U, 0xd240bf04e55c17daU, 0x13352eeade56f119U,
  0xc10bd81bdff735c1U, 0xc8338103d2eae75eU, 0x20c2e65734f0e664U, 0x3fcb0012b569f73eU,
  0x3aa36a10f2522d10U, 0xf5233da18d111f45U, 0x36f9fa220c305cdfU, 0xf71b09936ed63100U,
  0x33eefb01f0b2811bU, 0xe5db4161eb17f03cU, 0xd822100730a45deeU, 0x34181e2e0eacU,
  0x5ad00000036U, 0xffffff2300000329U, 0x588000013a8U, 0xfffffdc0000007b0U,
  0x278000000a8U, 0xa6700000880U, 0xd8fffffed0U, 0x38f00000196U,
  0x12be00000a5aU, 0xff46818100000298U, 0x7f81047f91035c4bU, 0xf168817fd34881d3U,
  0x3014817ba07f7f3dU, 0x7d7f5b2a81d4e5e0U, 0x7f813b112c467f97U, 0x2a8d1d39812b7fabU,
  0x2ae5e24e81U, 0x0U, 0x0U, 0x0U,
  0x0U, 0x0U, 0x0U, 0x0U,
  0x0U, 0x0U, 0x600315200000000U, 0xd1a3250afe1435b5U,
  0x35f0b4f8e8810f09U, 0xfc53c31930bd81ccU, 0x25ad57e90f0dcb2dU, 0xf4e81481ee28e9edU,
  0xeedf0721cdd29b05U, 0xf048461a19f1f9e2U, 0xceb3d7863dc009f6U, 0xd7240b379a288125U,
  0x45a712d6dea9811bU, 0xeb04c10e53c10d2cU, 0x48913a11f329f561U, 0xb3ef6df8a8107fc3U,
  0xdfd62fdbc9b05832U, 0x66484f35d1e146fU, 0x1227c24281381708U, 0xdf161a0c45dad42aU,
  0xaaa77bed7ffd49aaU, 0xd777819c48110b2aU, 0x151fda1cfcf6d4f7U, 0xfe3820bac15d02fdU,
  0x1752d50cacbd8152U, 0x15e8dce089a240ceU, 0xcfe9d9ee3e25deccU, 0xe56644e1fdecb215U,
  0xceb49811a32f4deU, 0xee19e0c9df2915c2U, 0x81fb0b19d420dd32U, 0x7fd4353314a95230U,
  0xcdd20f35f7cf32e0U, 0xd6ef4481f9c3f70cU, 0xd3e71bf7f0b2dbfaU, 0x7fe40df82cf325ddU,
  0x2741140d22c9e464U, 0xb96ce61e0634d7f1U, 0x2de10f1a84bcdf16U, 0xfef4b0f46ddb8193U,
  0x70dde12afa3a0b36U, 0x7f36c01ddceacbf2U, 0xb710a367ea098b6U, 0xd3d10001f45209f4U,
  0x1e7cccb2e67f0ee6U, 0x9a5efa4b45a47f4U, 0x1bd1460eb21281d3U, 0x2eebe425d7093dd8U,
  0xf0da2881eb15cddeU, 0x21f4f9f721b60e21U, 0xfa24b4dacc068e81U, 0xdf77efdc231ff9ddU,
  0xeeac20242d2d2bd4U, 0x8138cf0528e6eab8U, 0x81b422be3a1b0439U, 0xd9ffaf1c36545cb0U,
  0xe8e70c0abd021fcdU, 0xbbf7b7da2ac92c0dU, 0x3545da1c7081f71eU, 0x2e07fe5eddd5355U,
  0x1eb00cdffa2344a4U, 0x8e800530ce12affU, 0x55da55128186d12bU, 0x1affdd7e7553f25cU,
  0x1eb00004d03U, 0x2400000030U, 0x28c00000251U, 0x3a00000163U,
  0x29ffffffceU, 0xffffffa900000346U, 0xde00000001U, 0xd8000000d3U,
  0x1c00000036U, 0x117000001fcU, 0xa900000022U, 0xffffffb4000002a1U,
  0x27c0000032fU, 0xb9721b8100000138U, 0x3dc781e98181e08dU, 0x81b97f8181819133U,
  0xe68f11a3ee81d910U, 0x2b50dcd812d9e05U, 0xb0772ecdf8364581U, 0x2881a69b7f46c801U,
  0xf3f64481817f8127U, 0x97b87f7f7fefb87fU, 0x810672815a7fe82aU, 0x7f26U,
  0x0U, 0x0U, 0x0U, 0x0U,
  0x0U, 0x0U, 0x0U, 0x0U,
  0x0U, 0x0U, 0x0U, 0x0U,
  0xb19b41600000000U, 0xfb17c7e30331dbefU, 0x4f9b0c0ddb0b0b49U, 0xeed48110f014ef0aU,
  0xc210c0b00f20b81U, 0x20f634ec231e0055U, 0x16c6fdef20f9f6d9U, 0xc3d225b950491fb7U,
  0xe40abf3f84ca5081U, 0xebbd9072a84f5dc3U, 0xf7f17ff7ed0ce923U, 0x63a5b24ee879ee29U,
  0xe8b87f4703aaf604U, 0xda1741f4646e6fe8U, 0x16a5e9ffe57f2910U, 0x3e3ab92cb43003b1U,
  0x1fd6a2fada1722c1U, 0xf8e7e514f8eb0181U, 0x2acc0bfb19fb0021U, 0x11fcef0afd28070aU,
  0xd7ff03f521810514U, 0xcf0cf826c0edf7ebU, 0xfb14e433e8fc1cccU, 0x2cf2eb2136b0fefeU,
  0xfbcb011ae60ee004U, 0x36d80d7fae0cbde1U, 0xd9297ff3359dd2dbU, 0x2a9df23a236cf2eeU,
  0x571acf28e22712b9U, 0x2fdc60ec31924c2U, 0x35faeeded8dd1208U, 0xd23ccafff3f781f4U,
  0xfe160fe1d1dbd826U, 0xc0f2eb210213e8beU, 0xc53002e89ed81a06U, 0xfbe3e1e03733d247U,
  0x2810cc346bd78122U, 0x1b811388e6d45061U, 0x2c1a4e42d528f1ecU, 0x84ce4e682e8f04cU,
  0x81de45c5d0c72addU, 0xe4e53adde9e5ec19U, 0xdf42080c20caad47U, 0xfce6d5b919c0e281U,
  0x2a135708df26abeeU, 0xfb2b082c08ded6f1U, 0x1026dcff0ee96d8eU, 0xb21a43dc199ec01bU,
  0xd1412b9cdb70815aU, 0xb300f2d527217612U, 0x6e01e1401531611U, 0x2c9f123f0e15dd18U,
  0xc4ca2bba7f20bceaU, 0x22dddef050bf3e5U, 0x1010eff57fe6331dU, 0x2da537b8032527f9U,
  0x1e23a4f41251e6d1U, 0x1904041bdfe8010eU, 0x81f814eaecfbf947U, 0x21b45cd9f9e627e6U,
  0xefd1bed5f1c8e2b5U, 0x3514eaf7ee638521U, 0x4ea4cfd77cd77f1aU, 0xa9c4d60d55c035eaU,
  0xbbe7af70aa30b3f4U, 0x1031f0167fd42e82U, 0x86b0d5af12ce93cU, 0x43011d5e24009c8U,
  0x53038161ddeb05aaU, 0xec9e247ffd1f1111U, 0xeceae12f2eb457f2U, 0xfe3ce7431fe9192cU,
  0xf10000015dU, 0xfffffeaa0000012bU, 0x8a0000001fU, 0x2db0000002eU,
  0xffffff680000006eU, 0x77ffffff97U, 0xfffffeb6000000d4U, 0xfa000000f6U,
  0xffffffe4000002a6U, 0x20cffffffeaU, 0xfffffeeffffffef0U, 0x10ea14b8ccfff77fU,
  0x20b11edaac7c5b2U, 0xfb5ef6df09feca0eU, 0x8cf25e1e8df7a16U, 0x242bf825e00df2c0U,
  0xb68da2f67fe02616U, 0x2a0c134f3373ba2bU, 0x2c1e82021e2781e6U, 0xecad81f80875b8f7U,
  0x2719c93508d8f12dU, 0xf5200061982db0f1U, 0x93397fbef6c331adU, 0x9fcfd0f841dfe653U,
  0xba3541dbc3b031dfU, 0xe0e8ea44f4cc7f1cU, 0xfddf1b2e00cbfa16U, 0xe202e32d182fe336U,
  0xbc05afabfcf38160U, 0xa41384b8b2df00bdU, 0x2086ce0e11574ed4U, 0xde0081d9f79b1edaU,
  0xf2acfcf0fa241526U, 0xfed605fc06190b81U, 0xfc18501f2ee428ffU, 0xa812fcff50de10eU,
  0xf955ec3f2911fa25U, 0x914e2d5f12f61f3U, 0x6c21dedf3ed3ded7U, 0xf5f92981f81aee96U,
  0x221713e901e31f12U, 0x3b6f511077ff2abU, 0xdbd689c7f1d507fdU, 0x417132a11fd0ae1U,
  0x2000000080U, 0x118000000c4U, 0xfffffd66ffffffefU, 0x18afffffeffU,
  0x127fffffff2U, 0xf50000001fU, 0x40c1483d4212d02bU, 0x48f1a2f4240f14a0U,
  0xc34eddcec7a26c42U, 0xfaec26e7883c4581U, 0xbb686746a7079f49U, 0xb05dcc2227f9f7ceU,
  0xa32d5799c0def4c9U, 0x449dc39f1da40039U, 0x7f377054487490faU, 0x64c6e9146aee9cdeU,
  0x1e913cbff5111435U, 0xa8f8a895583a1c05U, 0x3b827d610757863eU, 0x121b4a8c7cfc2b7U,
  0xbe615924f596f5f4U, 0xfeeebb67890c5a1bU, 0xd4088f2d251b0c3cU, 0x8319e99ef69d1154U,
  0xacc97605cf13a05aU, 0x5a48b429eebcb314U, 0x97e401ca2d49a74fU, 0xb2a855b6d36318a0U,
  0xbcff0640a4eca981U, 0xd4c2c1f35ea8e45aU, 0x95ea27bad68a30aeU, 0x6e0082b108813afcU,
  0xb05c10a534984365U, 0x3ec8f9df33032a50U, 0x5d4fae9e9838b719U, 0x31d0e51b86e29e36U,
  0xcc13978689a5f339U, 0x69e58f00dae9f368U, 0x3b9ced9735a16452U, 0x8e7364cb790c2bf3U,
  0xd6d781655301fdfeU, 0xe236a6b958bc7e9fU, 0x28dd26c169fdf81aU, 0x47a48c6cc10bc50bU,
  0xc97b6a83baad0081U, 0xaa2529c8abe9858bU, 0x19c652e86510e473U, 0x2877b44d2d7e9240U,
  0x84c74e99d6dca068U, 0xd08533c417e00217U, 0x303968bdb0fa6b7aU, 0x7f1e15a8207fd302U,
  0x5eefa13461897bf5U, 0xc7883a4bbdf499d8U, 0xe6b50fee01c44229U, 0xfd28966c4185ca41U,
  0x55af1ff0b8847487U, 0xebd668e7a0f48ee8U, 0x2d3f468536c19179U, 0x8c96c4ce825834cbU,
  0xc527b5bbb50dfce7U, 0xc807d3811ca998f0U, 0xc71e0ccc1ab80855U, 0x73ba443d2a940c6U,
  0x4e8d191efe1d02b3U, 0xe618210b55202cc1U, 0xb2e20fb3374ca7e3U, 0xdb4215a6bcc8a9d3U,
  0x81c3b92c363cf51eU, 0x21a84f47c10208bbU, 0xcdcb9e95f081dfb0U, 0xe06231fe946480aU,
  0x35f8aa2a23cd28c5U, 0x2481e66051915127U, 0xfc47b7e5180a432eU, 0x5958666f8819f0a4U,
  0x51d98a2696141032U, 0x5b4dfb60e2e3145cU, 0x9c9408d2f304add1U, 0x91648a99cbf902b0U,
  0x4f2c4dea16199597U, 0x3bea97c5ab083639U, 0x99254c95ac498d30U, 0xe22417e3dcf3a006U,
  0xc6ed2b549febd907U, 0xacfe81eae82331ccU, 0x599cbf399b1e3987U, 0xfb8bfd115bfae4dcU,
  0xaf9ea889d49a1034U, 0xe786b12d69b9240bU, 0x9344277f1ccbc0c2U, 0x914623d14b0ee567U,
  0xbe97ecf7e9f2a90fU, 0xa74ef9a9db48323eU, 0xd71962d3ec69aea0U, 0xc6098a79981ed995U,
  0x3d2437f1e852193fU, 0xbc8106df2b4c5bb5U, 0x3a903b32e364cab2U, 0xd4d803c8fd15ade5U,
  0x1d2b9181548e0937U, 0xd8f984f7a4b4dcb3U, 0x3d08c94930026f13U, 0x1849110055aa5763U,
  0x8afb3a837822aa15U, 0x53dfcf4786b0d0b9U, 0xb150a8324424b06fU, 0xf21477cd2cb1a17fU,
  0x379d0334540cbe06U, 0x8267a55411176fa6U, 0xaa74dfd48c6a9ed1U, 0xcb1826aca6a9362bU,
  0x9ad948d6b0848306U, 0x9d44499c95c6a4b1U, 0x7f3c12a17d8dc32U, 0x16109b319450185aU,
  0x91811018821284afU, 0x4061e3a832942dacU, 0xaca6e2812cc34e04U, 0x49e0d7e0ee0d12c0U,
  0xe89dab319af1facaU, 0x8bbb5a95358f2bb4U, 0x2a232ccc5748e941U, 0xb0ee55d278e8f21U,
  0x4a44e1b3ebe8503eU, 0xbd991ae812da50d2U, 0x812b6ab7829cca33U, 0xcf99be44fd9eb435U,
  0x61814218769efe1U, 0xac1fe8a62f4d6bc7U, 0x210df7341f400340U, 0xbe64f42e4a2e92c6U,
  0x991feb37cd41c0d3U, 0xa1b6cf151522f1a4U, 0xb8f31a6a22db3613U, 0x8f4fe3bbb6750ae6U,
  0x4045b8a9d6ccca74U, 0xb13f84a8419f2b87U, 0xeeee5f5ee1536daU, 0x71de97b94b821956U,
  0xbcb281d18bb87d9eU, 0xa3f664766e31a91U, 0xc3e3263bda8db992U, 0xfe072e4da237be50U,
  0x40068144f8a55a11U, 0x5fd001049213dfe2U, 0x97ec43ea84585e8eU, 0xb60cc99702002e52U,
  0x2490d8f952d82fe5U, 0xe6b982971c1801caU, 0xb43f0225f7172c9bU, 0xd0ffa109f72e1abfU,
  0xc8b8c34805cffb4eU, 0x1955e94442ad943bU, 0x5845b6469eee112cU, 0x81bc0d17e416f0d7U,
  0x4f95d4df5caee73dU, 0x81f5a386eb48b0beU, 0x2547e0ffde993468U, 0xc2ff3f696770c745U,
  0x2737f83dc9bb0560U, 0xee8d0ff16fde6709U, 0xd914e9a7a05e770fU, 0x507c8b77899eaae6U,
  0x6fbed5e09ab77179U, 0x7e58e0b3495d3fd8U, 0x984f82c37f90b575U, 0xc858e24fa9fb3d1eU,
  0x4b933e8e8541a138U, 0x9e8ffb683c52f6aaU, 0xa0b350c6fc34cf82U, 0x8e171955e1c39f9aU,
  0xf5db2b008dcb81b9U, 0x2eb21a9fa421453bU, 0xaf0d0c082b21d4a9U, 0xca3cef0fd84b14a9U,
  0x15e5ae2d06ab15b5U, 0xe1cb21dbbffd2233U, 0xcf3a58bab292c12U, 0xef0be3b3dcb1c73eU,
  0x1302fdf4ec12818fU, 0x17f8bdb4031312c9U, 0x1bfaf7f81f3bdef6U, 0x1f37dead1dc91cf8U,
  0xb22e0a02100b636U, 0x9f1fdbefb81831a2U, 0x1ca11f4db7db3815U, 0x97f5fa4281c6cf0eU,
  0x868dde031724a648U, 0xe2a6171fc5191d1bU, 0x5404f242fe8dee53U, 0xc9e62fd4db4147U,
  0x9fdd2ef9faaf542fU, 0x77f09e2b29fa65aU, 0xcdb27cc6c62584f6U, 0xb02a6c8e037270fU,
  0x2ef724281913013aU, 0x92078d1b09c500bbU, 0x19ee160f334f4c2fU, 0x22ebc6d3d0ed10b9U,
  0xc7fcf0080109e1d4U, 0xbfec13bd85adc981U, 0xafd7f2bfdde8cac4U, 0xbccaf6f2a7dcdb21U,
  0x1d2d4bf9c4c6deb6U, 0xf81bf91a9b9ea9a0U, 0xd5ee28cd13102b1cU, 0x11ff33f1221f1b08U,
  0x1867e129b11bbdfcU, 0xf85ae623dc303272U, 0x50fa01aede0ae79bU, 0x975aecf9c28165abU,
  0xa004da959701654aU, 0xfc60a0f492c33da3U, 0x9d574ad318e1b4e3U, 0x1b18fec5642e1f2fU,
  0x54cebac82ebb8b1U, 0xbf13fc9828075303U, 0xd3bde9c0d40433fdU, 0xcb4ea609d0f1bab2U,
  0x3139e1fa8117d22cU, 0xfc37343e17a71f07U, 0xd8d4f1f59125fad3U, 0xd0e84282082cb931U,
  0xd62fd581cc2fbf0dU, 0xeec30e21221fe8daU, 0x23383686fb8b90d6U, 0xd5dcdf1aa9ee10a1U,
  0x3a3a11a9a235fbf6U, 0x8c21ef150b0d53eaU, 0x5617e44686a73505U, 0xed9e0dd181928334U,
  0xdc41bdd7ee4c4b61U, 0x6816f94ce6755a9U, 0x7306582115eabf57U, 0x8600d89c2c6e67e1U,
  0xb3e49c17fabd548cU, 0xe1ecf590e729f61cU, 0x4ca04874cfb450ecU, 0x3871f2d0627e7b3bU,
  0x9a01eccfc301dcbcU, 0x35c6d554d84e6974U, 0xbf70c88838639538U, 0xedb1d08f535e4c85U,
  0x28478154b460b526U, 0xedc5c3060efe962bU, 0xac05d89898da0ebfU, 0x42b901af2f91e0adU,
  0x2a39b3f224a691U, 0x68a4ed36ae578136U, 0x6aebd23d51a05396U, 0x8ad73a44921ab5f1U,
  0x15b498f4aa60c239U, 0xd312aa2c292ced60U, 0xee25013181d8a0bcU, 0xc1da0f0af3a30d3U,
  0xfd4bb289dc0d2e9U, 0xcc4981bd2fddeddeU, 0x163f3d3f1fbbe044U, 0x1ec411e1c2fa14a3U,
  0x3023a597ff13af48U, 0xa5eb1c5689f4ac02U, 0x1e6c0bc16ed96d7U, 0x96e8da44939008d6U,
  0x81d9dee9a9c7dd5fU, 0x55293b50ece1f359U, 0x55928858069ef552U, 0x53c8dcb65accc6dcU,
  0x1c558d31090ef9d2U, 0x6215b58f66787786U, 0xd21664e435b54ebeU, 0x6ac5faea304d6194U,
  0x279bb74abd6def92U, 0xa690c71b21d51330U, 0x66327c23a40c3806U, 0xa336812e462b8d99U,
  0xb62ebc57b0b3caf8U, 0xe42f462e2d3081dcU, 0x333db4caf494ade4U, 0x9e9fa00737d68e06U,
  0x3b50f0faa2a5f5bcU, 0x9b2fbe1a630e5901U, 0x239a13d6e23fbd8fU, 0x152c2e07bc2accc5U,
  0x33ee8eae8fb3533U, 0xdc13f03c04bc280cU, 0xd91cda1d01043b3aU, 0xe08157b07af6254bU,
  0x34e407fe11c3b5b4U, 0x2124ce1def32f01aU, 0x24eee21b06f22b08U, 0xb0f6521e8dea6b8cU,
  0xf0fa9ceac299b88U, 0x522063c593a1fdbU, 0x817e3ce7a64d1562U, 0xebaaeeb4dfffc3acU,
  0x41c8490f0026d1U, 0x649ff72c6e81c747U, 0xa96328f4a58a5decU, 0x8454e4c8c8b8fb03U,
  0x4456463d2cfdc311U, 0xd0ade874ea94ac9U, 0xe29fd8f5ec2d8f56U, 0x53ff67d287c3813cU,
  0x582d8ecf37361efdU, 0xe0b8bd59c33baaa2U, 0xa93c772747c1b436U, 0x43b73acca2d55c41U,
  0xabd3d97356952e0dU, 0x9b61a71e9738f28bU, 0x7fcdeabc5f4760e5U, 0xe88eb4fa51b2a376U,
  0x314ff2fdf825e69aU, 0x1616eb33bf70cac0U, 0xe8417512f151ef08U, 0xd1f677abd15f1723U,
  0x7f360df44d8c56e2U, 0xead8548e270ad56U, 0xabdbad9e5021ebabU, 0x160e07c88c2ab2f7U,
  0x2a20bcff7255c3fbU, 0x81d06841e942d372U, 0x6d862019e2d62bfU, 0xcb85ba564eb62655U,
  0x3d85aad455491942U, 0x68934cc5b6c39202U, 0xd1fc924208c839dU, 0x1df10671db8953bbU,
  0x54e2892af2de56ecU, 0x63d78ad42b586ff9U, 0x2e20760b7171f8eU, 0xc6030ad8d8662853U,
  0xa7afa8336c2a81e0U, 0xd15bef060b569484U, 0xaac3f67118d33f14U, 0x2335914c1b50f88U,
  0x1def2eda1e53b1cU, 0x1bbfb90cbbefdd06U, 0x81a45733c61f3733U, 0x3560a1f1d4093628U,
  0xb1e5452296ee3fU, 0xfdd43430b4ced8f9U, 0x1ce33fd10f013f3eU, 0x16ba061b00ea9d5bU,
  0xea12e59bcac8a000U, 0xb230938b80a099eU, 0x811eb684fd1026b1U, 0x8d8ace97e3ce46c3U,
  0x29c61333103627a3U, 0x3925ddad99e01fdcU, 0xb3e8102b30202635U, 0xd8c34c3cc342f7a9U,
  0x27f715f9cadfd9feU, 0xb40bef16d50624ccU, 0xf4123b2389a1e0f9U, 0x5e31b412bcca005U,
  0x142b94252e3881e4U, 0x934011f23845d53fU, 0x47dc3ca702d414a0U, 0x160c5481229e2a20U,
  0x25210b3fb28ac503U, 0xbc642b04e027cc85U, 0xfe92145ee5b3c9cU, 0x1756d0f7f4c22bf4U,
  0xecff4a9550a9d69dU, 0x595fc30b0f0031e1U, 0x81768f9a1a4565b0U, 0x9cffb097aa698e65U,
  0xd54b8752b1361e87U, 0xe89e3e1636d521a8U, 0x15f3e2dfd63fd30aU, 0x5aca16500f145fb2U,
  0xe3ee9327988bab43U, 0x1c58504944a80b70U, 0xf15f024e61ac0b05U, 0xdd8daaf6f8da0405U,
  0xfafe8507f66abf11U, 0xfd9835d599b14842U, 0xf21be8a3dfdc2ef9U, 0x5f83ec2837f081aaU,
  0x1536c5db9ee1148eU, 0xe1287fa88ec4cffcU, 0xd3afedc04fa0eafU, 0x7e9d109d40450bbU,
  0x920f4e90e347707U, 0xfa324118d92d9017U, 0xf002f6fff90c15faU, 0x1edffbe6f9202fe7U,
  0x3a3bdecbf7e2fed4U, 0x3998f747c263ebdaU, 0x4442e09c4e68651eU, 0xe96c948f1217cb57U,
  0xa65c52b1b48fb492U, 0x131f18b4e8e286d3U, 0xd0ce6810fcfef20U, 0xe3e959ca9602ededU,
  0x65709d3da0172444U, 0xe60f57e8452b49e2U, 0xd4c8dfe4ff1b0c6eU, 0x8b9eaea622fc5ed6U,
  0xf69403f6a7a62b22U, 0xe585dcaacc252904U, 0xff8161f82403a7a0U, 0xfd3afaa2ad550431U,
  0xe24d0f8e5caf7b8U, 0xe2cfe12add2e24c7U, 0x9ad8819ed8eeae96U, 0xeca9b4412525f6c0U,
  0xac26d714f8c9f917U, 0x1d0b253e2cd20df3U, 0x99c0dd3be0f5ddceU, 0xd0e35bbdf6911ad7U,
  0x5234eb43b6b5b67U, 0x58e5bc0f05e455d8U, 0x68a013cd7e0cba03U, 0xbf0a94bda3e3648bU,
  0xe34cdbbd6308812aU, 0x61aa3a50a8fb5992U, 0x1c67dc43aaf62ccaU, 0x6f1fd02ab738e82dU,
  0x5638de49d1d4646eU, 0x88379aac02857939U, 0x6dc2ac6dedc304ccU, 0x2f05d4bea8a6148fU,
  0x2e72c5da86a07febU, 0x6f1e99f791a34898U, 0x52216e5492dada9dU, 0xac58cecb68b2fbb3U,
  0xcf94ad1447d1dd1aU, 0xd606611bc5d33ca1U, 0x81f6cd8aa754caaeU, 0x438e7643a446d225U,
  0x372c0cbcba9b1fb3U, 0x2bba04a99ac5e992U, 0x813f45bb38205745U, 0xedc842cc0ea211b5U,
  0xa8cd536c2dca3defU, 0x5c12c16a4c412141U, 0x38a1e326100cc6d7U, 0xe6b1da37db33283bU,
  0x3b2b961621f1fcd5U, 0x38e62383f856f634U, 0xe21a247c6b181121U, 0xfeb9ac90cb8e9b5aU,
  0xa6f5dc13581c706U, 0xbfcc4eda257e1afU, 0xd152aef099b67555U, 0xc74bd412998a478fU,
  0x2663425213c30dfeU, 0xbb8c756d755bd357U, 0x14ef3a61d898b5cdU, 0xe0a5ce11a2fdf3deU,
  0x978dafb4e611e21fU, 0x9e2a9aacd2fa5bebU, 0x58951374e757c6a8U, 0x364281f8876a71b8U,
  0x3741ffa5c6be29fcU, 0xfcfd073d06ffd2eaU, 0xafecd1febfa50fcbU, 0x9ef1ca9cf03e0087U,
  0xfe3c130d81a3520aU, 0xb9a94430d44754a2U, 0x1e46f63dbae2e98fU, 0x29c619f4a05b179eU,
  0xdb1b96f5dabdf603U, 0xacf80bd24833b689U, 0xe05aaed59c10f718U, 0xea82f38190de6044U,
  0xe9df49055956b7e4U, 0xef04650bcca5120dU, 0xf433842f3bc0e2b3U, 0xb919bfc8b335c398U,
  0xd81cea8de70327e2U, 0xaf42183381d73d59U, 0x14f7032d3d19a225U, 0xeb1253d88a00c5e3U,
  0xdc2fa3e10f335004U, 0xec120b0c21a2dca3U, 0xea30de3fdde01c13U, 0x2f2a2dedb0389f61U,
  0xc8ba32f6c629c4f2U, 0x41544bbe18443381U, 0x9fe4d5c2ef340cd3U, 0xcfd8412b26b941a8U,
  0x1cebcd2647fb1ccaU, 0xe6c7022011a9d13cU, 0xffffffedffffffe4U, 0xffffff9d00000000U,
  0x0U, 0xffffff9900000000U, 0xffffff9fffffffb0U, 0xffffffa2U,
  0xfffffff0U, 0xffffffcaffffffa3U, 0xffffffe1U, 0xffffff9bffffffdcU,
  0xffffffecU, 0xffffff95ffffff8cU, 0xffffff96ffffffb5U, 0xffffffb9ffffff87U,
  0xffffff9bffffff91U, 0xffffffde00000000U, 0xffffff95ffffffb6U, 0x12ffffffbdU,
  0x1ffffffc8U, 0xffffffbb00000000U, 0x0U, 0xffffffdcU,
  0xffffff7dffffffcdU, 0xfffffffcffffff63U, 0xffffffbdffffffceU, 0xffffffbdfffffec2U,
  0xffffff86ffffffc1U, 0x0U, 0xffffffaf00000000U, 0x0U,
  0xffffffbdffffffbeU, 0xffffffd8ffffffe9U, 0xe828f2d5c130fee6U, 0xc7cafe2f4e4523b1U,
  0xcdb20c131cacfb5U, 0xeed4c425b93ab5e0U, 0x5c97f062404e2e2U, 0x33f32fe2bfea2cdbU,
  0x46d5afd3e1c12c06U, 0x2b03fed44feecadfU, 0xe5fced6711a8a707U, 0xb841c42d2e092347U,
  0x19229147e77ff99dU, 0x4c84a43c304fcc3cU, 0x2f9f6979dd487513U, 0xb9a2f600db669364U,
  0x6bd83afe6eeca8a7U, 0x83c2f4aff67ba6d6U, 0xd772fe321ffdfe33U, 0xbf05329eefc1f50bU,
  0x5c6ba3c371c7ab3U, 0xe0b04aa654f4e21fU, 0xb7e24f7537c82d93U, 0xad1268e8f8be1474U,
  0x66e4997f20f75991U, 0xcb9d8bd3a42d5bdbU, 0xdff7999a69e3f2cbU, 0xc5d793b1e71759f6U,
  0xac2ed0d1b564d20dU, 0x6243a022e9dcf3b7U, 0xd7ab3a519b10ed2dU, 0x13bd6155dd218181U,
  0xdfe25ebc98fea47cU, 0x53bddc77cd6222f5U, 0x53050e591ee09bb4U, 0xcc4c386b2a700688U,
  0x66e59562a3def53eU, 0x9b812cea093207fcU, 0xb8db2138eca057ceU, 0xe548ded5bf4af2e6U,
  0x2a6ec04efb0367b2U, 0xa2fc761cd3c5ab05U, 0x3872156990be30eaU, 0x6e7584a17cff86a4U,
  0xe0c93cb5fdb32a5aU, 0xd63b1f3d8b42136dU, 0xdc5907107f6c182bU, 0x15ec19a03a54329fU,
  0xacdbff204203eb68U, 0x2edcd1202ea4f2beU, 0xca46cd12047243a0U, 0xe29a3cd2062adb52U,
  0xd8d4f63614c3682aU, 0xeedba36edcda2326U, 0xa30cf97f103667caU, 0x4dd0bd440eb942bbU,
  0x1ab2a530603352bU, 0x30c198a82c38f8f7U, 0x3f95adf2b7e04813U, 0x3e8f01693ca3ec45U,
  0xaff6c06e366a1fb2U, 0x975efd0732a93071U, 0xc14e0adf89d67c1U, 0x2436f4e2c9203ffeU,
  0xf4cda188690252beU, 0x45555e420481cc6fU, 0x6877d405631bc4bdU, 0x2a5881ab0b242660U,
  0x55fb60d4a7ee22e4U, 0xa700102082e240a4U, 0xbba2ce78085b0b22U, 0xe05e1503ca9fd84fU,
  0x1d59ad646503071dU, 0xb154b765d844a6aaU, 0x563201677a8e7e2U, 0x513ab58913c6642dU,
  0xb168b9592c7c0c55U, 0x754952888159416bU, 0x1d43b887e83d77b5U, 0x512a0a2f5b7aded9U,
  0xed294ccf4a024d31U, 0x69a44db834b213ceU, 0xebddd1e735e24cabU, 0xddd0c699be5f115dU,
  0x68a049e79b2309a8U, 0xaf4cef274c073ac8U, 0x8c3eb446b4a296deU, 0x95254d3e4fdda4f5U,
  0x309fd8899f027f15U, 0xdeadf1e2aee5ca2eU, 0xec703567964307e3U, 0x4c7c50c10267142aU,
  0x33992f812cf63a21U, 0xe244e454322e4c02U, 0x8ca59652364143d1U, 0x8814c70bba1fca83U,
  0x5bfc4c38d105445dU, 0x46b831f673f5e6c7U, 0x6a6605e03454d414U, 0x102443cb03d8f92fU,
  0xfbf47b7235380cb2U, 0x9b454358d8694dc5U, 0x4bda863b447bda0aU, 0x5b8a08c17ff4a807U,
  0x22f6e7dbce03637aU, 0x57f93f9193cccfc8U, 0xd4eda6c7abdc24cU, 0xc31e2838f435ab8bU,
  0x62196e6572fbab48U, 0xab36a593cbb94126U, 0xcd0381ae8749f942U, 0x55be47bda50f8cd5U,
  0xcf1d001dc1fe70b6U, 0x9403bb89b661fa1eU, 0xa362512c8396d81U, 0x8aba20b0224fbea4U,
  0x505f49aa5309c504U, 0x38092f0cdc2d39a7U, 0x86f0920631d69daaU, 0x8d15e9020f39cf59U,
  0x7c021bffd8faf102U, 0xabf172c4eeb0d432U, 0xf10fed48f4ae30f0U, 0xd4b8f159b0499c1fU,
  0xf21ab1330e040700U, 0xddc74755b25e289eU, 0x57aab94081fb64abU, 0x4430ee84b05ddaeU,
  0x47c05744ffff04c3U, 0x2c41ed4eca00c20fU, 0x66d96fcf0769610dU, 0xdd768bf279be390U,
  0xde9cc7b7dbed703eU, 0x59c61bb0249733c1U, 0xfc87a983060faacdU, 0xec261b86ace642dU,
  0x69e0d12d59078646U, 0x1607f2818a694233U, 0x700a6f9aa12423f5U, 0x6a00e94e5681a54cU,
  0x1d10fceb09eac0acU, 0x1e5e5f9603c92e16U, 0xffcbbbabeae8a8f7U, 0x535b2f668f3e4eddU,
  0x5cf3e598a7fffdf9U, 0xf4dc2e07d74f1b4dU, 0x3fedc9998124ec02U, 0x3f555f1ed3cec89cU,
  0xcb9910e6ac6cc2afU, 0x59891659343a3c69U, 0xe2cfc314ef9d4276U, 0xeee5394a6c0b77bdU,
  0xbb9be1ea4bfffae0U, 0xb22eb4c0c99f34fbU, 0xcfa14fe9ca6b2baaU, 0xdd5ab87fee5cac94U,
  0x6bc107e5fdb1024cU, 0x499406d112e2670fU, 0xb08cb32390771a61U, 0x6f43ab6d47215e24U,
  0xdfc58f5befff0b28U, 0x8dd50891438dbca7U, 0x7c00e71009f6dcceU, 0x42bcbc572b160161U,
  0xe831cd98b938b8f7U, 0x52d51e3affae425aU, 0xeb20d11faea3d6a4U, 0x52bee461f4f298d0U,
  0xab02dc527fe786dbU, 0x603cbb7eccc5ba4dU, 0x63fe154da8b6ce5U, 0x718f64d5f5c48c0U,
  0xdf814782a10e48acU, 0xfafff9ef0d1e746aU, 0xc088b5a30bde1339U, 0x891f271e10f723c3U,
  0xa612672f68d099b8U, 0x761336b9d1df0d63U, 0xd617f803fed2d02dU, 0x8df24fede1ae7deU,
  0x27cf2c11db2ade31U, 0x1717f301cf033428U, 0xd2dd8103e6ee2b09U, 0x1100da0100ceef27U,
  0xdeafae71bb9e315U, 0x34f0fbe522eaebe8U, 0x0U, 0x0U,
  0x0U, 0x0U, 0x0U, 0x0U,
  0x0U, 0x0U, 0x10d000000627U, 0x96f00000ef8U,
  0x733000008dbU, 0x1100000293U, 0x1e800000437U, 0x15800000126U,
  0xa6000000dbU, 0x4fc00000268U, 0x28a00000171U, 0x7b100000579U,
  0x72e0000039cU, 0xecU, 0x2926aafbdc81e409U, 0x4fbd8061dc1eac3U,
  0x2c39e203fd06dc0dU, 0xfdda16f711e1ec08U, 0x1d0f0e00fa19ea08U, 0xf2f81b29221129f9U,
  0x271edfdd0ed8ebccU, 0xfb6943521afeeef9U, 0x3d7157168cafbefU, 0x54c28727344026f2U,
  0x68040444f62d1ddbU, 0x441ddc1581ce3a2aU, 0xd6c41011fcdec7d7U, 0x183b2af7bf19caU,
  0xed0ee9b92cf8e40bU, 0xdbd2d6d0d75166f5U, 0xbd2cf0030c228107U, 0xab1056de5bd99196U,
  0x1de661335ce9cc82U, 0xfb4ab666f15d82a2U, 0xa993f7b48bdfcc4cU, 0xac2a5545aa9a4ebcU,
  0x971fd95f4539dacaU, 0xa43113ae73321b95U, 0x4b3ba713c74681eU, 0xd8684c0bd2e2afeU,
  0x93aeb5f65098cc1aU, 0xbda52cf74e065f81U, 0x68caaa44c0855b00U, 0xb8fbe24895c6e0daU,
  0xc161b096df1a24eeU, 0x88b3bd60e56b0feaU, 0x5f011c40e2fa24f5U, 0xf7be05f0a4f39e8eU,
  0xafa08bd6132bbd62U, 0x7181f76ca2b0d2d0U, 0xdc628bfd269b9b82U, 0x545698f17a613baeU,
  0xfcd95d2055bd013cU, 0x8c398ec000bf0daU, 0x43e88dc56a1a03ffU, 0x3e9e1aba1b0c50fdU,
  0xe546a0bf4f016dU, 0xe824d89940b4289eU, 0x961c81ccf9f10f88U, 0x2d12c52eeb812bf8U,
  0xe0e3f51b1fdaa2f7U, 0x10806f5e70c9710U, 0x13e1f908f5e8e8f1U, 0xfc1bf70ccf08310cU,
  0x17db0f060ff5eee1U, 0x2e4f5f2ddeb1d0cU, 0xc14c22c220271c14U, 0xc868510dbad07f42U,
  0xfcec54fd1f033304U, 0xfa2eff01f5c115feU, 0xfedaed25000e1c19U, 0x50ee108d1f4e0eaU,
  0xdfeb2cfd484121e8U, 0x22dcfd2e1dda23f2U, 0x130881ec0fcfc323U, 0x1714fef017d7c5f0U,
  0x1014ede02e25b7f0U, 0xc80ae30538eb0f23U, 0xde233324f118f30fU, 0x12373813ddd008dfU,
  0xf3e6e5c11add1328U, 0x2464d4cb08d1f612U, 0xff2d19c7fa227b81U, 0xd2e76ce8ea1fecf5U,
  0xf32c3fd3e7d6de17U, 0xcfde0de05f0dbe2U, 0x39e0ff3a0f09effaU, 0xb385028ff03b2ebU,
  0xe6200c2fdf0816c6U, 0xe9725d777f9d07d5U, 0x78d0c6ffd2187264U, 0x92d5909508ff82b3U,
  0x1a350a55a55f82baU, 0xfef1d3a385edebfaU, 0x7298e7a3d5c43989U, 0xd93afb369f643c49U,
  0x54496262d9ccee69U, 0xd1d624105009d3c7U, 0xe4b11554c1c145afU, 0x44f48fb70f2e5989U,
  0xc7f88148c3f53cU, 0xfeed51d6211331f1U, 0x47b2f5e3d456f4d6U, 0x63993ea6a2f6b43aU,
  0xd5dc64e9db7ff5d2U, 0xfd3316f1e5424401U, 0xfad7e8e3f70b67fdU, 0x5ebe10cf40c2f09U,
  0xf70a01090dfec1fbU, 0x1c0ce61318e311d6U, 0xf2001d1a1723f608U, 0x1081f535faf512f2U,
  0x2bb8d1e042ea88e2U, 0x1beb87ddd9cb030eU, 0xfb7c2ff123a0d11U, 0xe103390de60ff015U,
  0xee0b0a200613eb13U, 0x2eafa17f4eceafeU, 0xf4fa08f5190a01f9U, 0x1500891102c21949U,
  0xbfd4fd2d07ba9afeU, 0xf7131feae7d5810dU, 0xfb15e1dceff7d5daU, 0xe90af833da0b210cU,
  0xfebf06012626e706U, 0x3733161713c4bfe0U, 0xfa1806fffcf236eaU, 0xa093824e63e7f26U,
  0xffdf797d50221abfU, 0x15f6fbe904e902e8U, 0x46b5eb34022120d9U, 0xddffc60dc8e4d333U,
  0xe9c2f42260226160U, 0xcf0bead1ef2ac62aU, 0x601b182b3d55aec5U, 0x178c0bb4058ecc07U,
  0x1084aada944dd897U, 0xfefb38628bfff6edU, 0x16a77fcb34a1a5f2U, 0x9d340ff5528c7ec7U,
  0x86a6b582a27037c3U, 0x8143124ef0e74dfdU, 0x4054fb7c97b4dbd0U, 0x4dfcda7e012f518fU,
  0xd1cd3e45e7660f2aU, 0xebf7d7206d73739bU, 0x92c852e404721ca7U, 0xfb1ea945da16a13cU,
  0x303059813a48e81U, 0xc7cbde3ca55e2de6U, 0x84a40e12d60d4abU, 0x3d5dcc911db45291U,
  0x92f508c6290bfbf2U, 0xaa28f9354928f33fU, 0xa498e1f4914dd1edU, 0xc743ed5359c781ecU,
  0xe876f3d7e51b10f2U, 0xbc0430cdefe57fddU, 0xd2d67edae75d03fbU, 0x6294df4d7f1e7ffU,
  0xf81094dd2df1e5c1U, 0x16dd0e1a1805f2feU, 0xf4fe3107231ce3daU, 0xe0f800131feb0627U,
  0xe7de3fedec1029afU, 0x314df715e4f3611bU, 0xc428db4efc417fe2U, 0x55c1da021c0523f1U,
  0xaa24a2d7d4e4e07dU, 0xb3607623625e211U, 0xc412fae71cff30dbU, 0x1b7f0ce0da07ec1cU,
  0xed572e35e00d6c3dU, 0xe0017e410400f7feU, 0xae1109fafbde00deU, 0x21e4fdbe26e0c922U,
  0xd7f8f5faeaf7da06U, 0x22e813f6ff391deeU, 0x20fa2d20f42e1fd9U, 0xe305f8d74d9e01b3U,
  0x525067dd5a6dcd53U, 0xcc6b711868723186U, 0x383aca1850d92d00U, 0x68ffb4e055d65c36U,
  0x90dca469b8e79505U, 0xaca55c6f0e0efe9U, 0xf597aeb9816fd2b9U, 0x3efe99e7030d86e4U,
  0xee059839525a2e97U, 0x2fb119631a817acbU, 0xcfe9bb2eb72ced29U, 0xbc0ad0d4b52c4505U,
  0xc901c01384d2f161U, 0x487a851dce380135U, 0x483f344110bb6238U, 0x43bb9eb1ad4f0f50U,
  0x10a061991e020f61U, 0xc0cfa83b4b2786aeU, 0x3b8e1f2b814db140U, 0xe58ed6d3e31d838dU,
  0xd15d13f507611b65U, 0x4a7ffb0bf591dbfdU, 0x195ef537efcd6d3cU, 0x11e002a1ac4201dU,
  0xf0d4a72d13c33f12U, 0xffd941a7c3f72df8U, 0xdb2cf7fbcfe5d40cU, 0x1240351b200414cdU,
  0x30eadce623fadc38U, 0xea65ef5ed7f273d7U, 0xa9f11185d9ac3b37U, 0x5687f9ad58ffdc10U,
  0x59b812fc71772657U, 0xb543d756e99834ffU, 0x7184ed418106cf35U, 0x18caff31b613a129U,
  0xff17cad9dc49a353U, 0xbcf65e15dd2c59ffU, 0x1f2b7ff03f6832b6U, 0x4e2f1f12f511e3baU,
  0x350d83300ef60afcU, 0x56cd421ac0dfb41bU, 0xe5cbee473569263aU, 0xafac8ed1db4c13aU,
  0x521b81f129863529U, 0xd4b9e31923ae93f8U, 0xf62e2e1f04238af7U, 0xcf012b12f906c1e7U,
  0xef1b14fd02d948dbU, 0x7e6f6e3fd0ff307U, 0xdeb2e0afa20f515U, 0xe40981081226ee29U,
  0xb42836ed9cce49b0U, 0xaafb70a94c4ff1d9U, 0x314741dc1ea8ac1bU, 0x43faffa20f2f712U,
  0xf32c251808f512eeU, 0xf0dbdbd716504443U, 0x1909f7d8aa22042bU, 0xaed81aad4329dc3aU,
  0xab0236faa90c49d3U, 0x288a984ba135cfecU, 0x31adee28002c050aU, 0xd634f09901814af7U,
  0x52cff53821edbe16U, 0x292cd832c3c433c2U, 0x27a47c894aa2293aU, 0x386edca83ce1692eU,
  0x935063bc66aedfa6U, 0xe9b47c21dddbb2f7U, 0xa34af36da0f95a40U, 0x6fab0ebbb81a25eU,
  0xa202da4b31451b81U, 0xc4622a7a825612d3U, 0x56ffffffb9U, 0xffffffccffffffbeU,
  0xffffffc200000000U, 0xfffffffe00000040U, 0xfffffe8d00000084U, 0xffffffd200000000U,
  0x4bffffffbbU, 0xfffffff90000002fU, 0x0U, 0xffffff80ffffffb6U,
  0x18ffffffd6U, 0xffffffc1U, 0x78ffffffb3U, 0xffffffd3ffffffcfU,
  0xffffff590000002fU, 0xffffffcbU, 0x0U, 0x0U,
  0x0U, 0x0U, 0x4c1507fa0cf25defU, 0x6f62fdaf7fcf181U,
  0xf0f33c15a40dfa0dU, 0xff0edb28eafb4409U, 0x5d26e1ecf50e6dd1U, 0x83512def819b4a4U,
  0xebfe552f81f81fdfU, 0x2f6b64ce5e94f2bU, 0x2c5717fbe21847cdU, 0x3165000efce0f425U,
  0x18f8521a8121eee0U, 0xdbf8932ac82d4018U, 0x1b51eb34d3dd1eb3U, 0x297b09100729fa7fU,
  0x32e65005a3d528e9U, 0x3069a2aabf12812U, 0xf948f1db180effbaU, 0x61e43f5e9da097fU,
  0xf0d059f1e81305fcU, 0x2d15c61c9eff1334U, 0xe839de0a0247dbb0U, 0xf92e53f613f9157fU,
  0x25cf3bb10d32c722U, 0xd745bc26acd91f10U, 0xce31bac509fdb0c7U, 0xcde54cf45514c452U,
  0xe5b90886474636deU, 0xd249cd7d81d025ceU, 0xd107151427fbb4bfU, 0xb2d57fee1a31fb1eU,
  0xfb0b11c324212ad7U, 0xeb330b52aa0cf4f0U, 0x870a1d43352a8119U, 0x970a51c9231d34e6U,
  0xeedcd4b44dbf29e6U, 0xcdfac24fb6cd3fb9U, 0x8afccdecc3d6813aU, 0xb82840e6055214d9U,
  0x2adbc1f3250e37cbU, 0xb44ff34e921e1eb8U, 0x81014109edc79936U, 0xd559151a32161fd0U,
  0xf80bce17c8041d00U, 0x1a11f233e7df0412U, 0x81fc22cb21d08a3cU, 0xc2534101dafda6d0U,
  0xbcf0fe1cdc39e7ceU, 0x14b82241feb2e9afU, 0xe2fce11fb5d89e4cU, 0x367f5cc946e92305U,
  0x30bffbf2dbc9ccdcU, 0x42cb0603f8f0bd15U, 0x1f160945f8f9a348U, 0x3b397f9b56e4cd22U,
  0x7fc02e60a363a4eU, 0x4c62c1fe1b58fe9U, 0x238cd33441fc34cU, 0x1f4b70810dc00f58U,
  0xbc4e22ff1cfbb52aU, 0x221ff0ce0e17d51dU, 0x11480e2e3ddfd765U, 0xfce307812d113064U,
  0x51b8e51ae72a18a1U, 0x3807e12cfd22ad35U, 0xd7f0f56fd1fed4eU, 0x30b34aa7a85b4e3aU,
  0x64e7b8e0f02e0153U, 0x2e5ee6061629ba5fU, 0xa87f05bfcd00fd43U, 0xe7b524d7dbc21248U,
  0xbcbbb50ccbd53024U, 0xd64eed1747aaf2d0U, 0x815fca424c370dfeU, 0xcba9432cb52ad238U,
  0x29e9bd369403339aU, 0xcdb02d3347ace3a5U, 0x982821e51312160aU, 0xd8b347026e4e812dU,
  0x9e4b8ff7eafcf9bdU, 0xe9e82d4b5cb10fbeU, 0xabcecf581c4f1ef3U, 0xd92357e6b89da77fU,
  0xcef0c028f1baa4c7U, 0x56f8261b3e2f252eU, 0xbdc4c925a2462dffU, 0x594e73fa3304317fU,
  0x9a138dfad22dbc49U, 0xadb00f534401961U, 0xcfd027cff214280eU, 0x3f582ee9d8420e7fU,
  0xef089d3303b02c47U, 0x4906ecf3f9ba31f8U, 0xcc00000000U, 0x166000001dfU,
  0x12d00000191U, 0x400000080U, 0x77000000bfU, 0x400000004dU,
  0x230000002eU, 0x1710000009dU, 0xbd00000065U, 0x236000001a9U,
  0x21b00000131U, 0x19f000000a2U,
};


ai_handle g_forecast_temp_ml_model_weights_table[1 + 2] = {
  AI_HANDLE_PTR(AI_MAGIC_MARKER),
  AI_HANDLE_PTR(s_forecast_temp_ml_model_weights_array_u64),
  AI_HANDLE_PTR(AI_MAGIC_MARKER),
};

