/**
  ******************************************************************************
  * @file    forecast_temp_ml_model_data_params.c
  * @author  AST Embedded Analytics Research Platform
  * @date    2026-03-12T20:29:25-0400
  * @brief   AI Tool Automatic Code Generator for Embedded NN computing
  ******************************************************************************
  * Copyright (c) 2026 STMicroelectronics.
  * All rights reserved.
  *
  * This software is licensed under terms that can be found in the LICENSE file
  * in the root directory of this software component.
  * If no LICENSE file comes with this software, it is provided AS-IS.
  ******************************************************************************
  */

#include "forecast_temp_ml_model_data_params.h"


/**  Activations Section  ****************************************************/
ai_handle g_forecast_temp_ml_model_activations_table[1 + 2] = {
  AI_HANDLE_PTR(AI_MAGIC_MARKER),
  AI_HANDLE_PTR(NULL),
  AI_HANDLE_PTR(AI_MAGIC_MARKER),
};




/**  Weights Section  ********************************************************/
AI_ALIGNED(32)
const ai_u64 s_forecast_temp_ml_model_weights_array_u64[1261] = {
  0x7f0000007fU, 0xf5ece3dad1c8bfb6U, 0x3b332a21191007feU, 0x7f776e665e554d44U,
  0x100000000U, 0x300000002U, 0x500000004U, 0x700000006U,
  0x900000008U, 0xb0000000aU, 0xd0000000cU, 0xf0000000eU,
  0x1100000010U, 0x1300000012U, 0x1500000014U, 0x1700000016U,
  0x434b545c656e767fU, 0x91119212a323aU, 0xc0c8d0d8e0e8f0f8U, 0x2f00000000U,
  0x10fe11cdfc140debU, 0x1c220ed6d78146edU, 0x2d721c205dcfcaeU, 0x19d00f62dadadfd6U,
  0xd72648c377fd0b1dU, 0xf7db11061d01483bU, 0x7f4340f04b2225d6U, 0x1a160ed0e760794dU,
  0xcce3eeaf3bd81fbU, 0xdc23e9f9fcdf1016U, 0xf5d1def0efe814d2U, 0xaca269d6dedb091dU,
  0x2042e212573bdbe2U, 0xa7c5d31b27d20119U, 0x7f30a33413063a2dU, 0x9211f01f0cd1e61fU,
  0xde28c4d1d23f280bU, 0xb66446208137d2ceU, 0x47e0fa21fe0eaa4bU, 0x90023b1db77b90e5U,
  0xd4c9b4c210373559U, 0xf1dc50d330d80be9U, 0xe9fcf8042f7f260bU, 0xc7dd11edeeef9cfcU,
  0xcdfcdc11d6fe03efU, 0x81132bfd23f5d612U, 0xfe7f3c0a37ba4227U, 0x1fe90544270e51f2U,
  0x52918f8e4324ed0U, 0xe00b36e5f23ac0f3U, 0x2723cb3023cb4201U, 0x1adce204812f0914U,
  0x29c51fe752cdf31aU, 0x1c327ff1af3873ddU, 0xf813dfea81e23939U, 0x17e1051ac121c3cbU,
  0xe72608ca2d2cd43dU, 0x7f3cf7ccc1d6de12U, 0xe41b4b00d911c0b7U, 0xe4141add33d41b24U,
  0x13f0e2dc1dcdfdd1U, 0x7f00d122b71ce114U, 0x130ee3e5c7f9dad5U, 0xabbd1bf1cbe50612U,
  0xd59d9cfe2f109505U, 0x22f41159d1e9edffU, 0x351bb0125053bd16U, 0x294f190edb0af04dU,
  0x37313d7f1714f20aU, 0xe9231f0bc7a0082cU, 0xf00437091cfc3ae2U, 0xab60c8447d20b87fU,
  0x56d63d17963562c2U, 0x2c1424e53dd17ffaU, 0x43dc3ad7040cfefcU, 0xc02b191119d6ddefU,
  0x17db18f3e32534eeU, 0xe82529f0e3e9001fU, 0xb00916f4120ac824U, 0xfebc81fdf219f4e9U,
  0xe5e3932c47e8d9b9U, 0x3b270f0801fffcd8U, 0xc681312bd9f9e8daU, 0xd40275c6be17ff3dU,
  0xc3d8cdf80fa41832U, 0xd102b0ddc107ac09U, 0xaff9f86dcbd681d6U, 0x8122f8413620d508U,
  0xc403b3110cd7c308U, 0xf6d6e0c2aa241ec5U, 0xba0ae0e7d930decdU, 0x52c560f91725e728U,
  0x17fa40e910d8d5ffU, 0x9c2fdce102950afcU, 0x1fed81f62e382bbcU, 0xde25d3ce81b902ddU,
  0x311f62314cc9ac5U, 0x4267d328ec06d9f8U, 0x2f06d859d73be8c4U, 0x32cae5cfae287ffbU,
  0xeb1b3922effcd2dbU, 0xfd1a24311d1b29edU, 0x9d550e210U, 0x161000004adU,
  0x13c000001a9U, 0x27900000093U, 0x31c00000408U, 0x3440000020bU,
  0x3330000001fU, 0x2f5000004e8U, 0x4820000018cU, 0xffffffa500000575U,
  0xffffff98000001ddU, 0x58084b2800000362U, 0xdd3347d8f48103caU, 0x44e306154a0b28faU,
  0x311008e1e44322eaU, 0x39e3e1245b63171dU, 0xcccc31ac8c1d2141U, 0x1d3ff1ff35041e23U,
  0xe073c4cb4c232030U, 0xe122b3f83cb8c775U, 0xfe15c3e1c52a7601U, 0x7fe7df3a0deb1302U,
  0x1bdd08f8ff53c9daU, 0x9c01fd4fcd4f2cebU, 0xddc61d25db171bf2U, 0x9d420ce120701e3U,
  0xe31dc4d91e08e25bU, 0xb8d7cab23010fcd8U, 0x5bfd2c3e28457336U, 0x3f7117210f397fbfU,
  0x23fb73345be2f320U, 0x2bf20f34c9ff2a00U, 0xf52864fb1e55ff4aU, 0x19f815f4ec0f6f9eU,
  0x4d4b300a01242d13U, 0x4016e966763b1219U, 0x19fcb52fc1e91606U, 0x1cf3c2dccb3b8160U,
  0xba1bc67e4655eeadU, 0xdde60d25d024e3eeU, 0xf1d9505b1ac9ac06U, 0xec187572d757fa9U,
  0xeb33c3440c19ddc3U, 0x520dbad5014cf5e9U, 0x531352cba051d3d9U, 0xf34f277770510c23U,
  0xb846107713dd4041U, 0xee735ad507d45bdeU, 0x38e605e7f8ff281dU, 0xf415b0f61030e8c0U,
  0x35cdb90181a8fca9U, 0xbfad586cb9b31df1U, 0x11b1ebdf4dc9ab4U, 0xf604ed04400e8113U,
  0xf4fdce0eff341cf4U, 0xd000ff2ae837e11cU, 0xff1ef4cde3e2132fU, 0xe713e0e4d31e2d05U,
  0xf07e035073a0e33U, 0x170f032ffc0312c8U, 0x3beb15f4fadb1610U, 0x4005081f2b334340U,
  0x6513ff7151503U, 0xf3247f053f0b5e2bU, 0xfebc10b0e4492011U, 0x32f91a114529fff3U,
  0x1bf5f25b1e2bfecfU, 0x6052850100f51c6U, 0x9f31949e437eb4bU, 0x4747658e0425ce4U,
  0x46aa3b3d3716edf9U, 0xebb9f6c1314ad63dU, 0xfc6bfd50f3dc0fafU, 0x1326c7a3e40d0160U,
  0xfc813ed40335fddcU, 0xd920320bc86a4dcfU, 0xe0e26b27c7ad4ff1U, 0x1e03f7f531c8ca28U,
  0x1294ec0ff74860d6U, 0xda31370a1ee40eecU, 0xec3d293efa2f9543U, 0xe3c47fb0f549c002U,
  0xc566bd605394d4efU, 0xc0624637af5cc3d6U, 0x2f361fe921d44e09U, 0x3a22cf0bc6060591U,
  0x3c610e2f28143af1U, 0xdfd7735e4bb40eaU, 0x38591c211c1632f5U, 0x4636070c1d490624U,
  0x4b4afb445f1ef405U, 0x5231fcf73bf1275bU, 0x4e335f28420d307bU, 0x154a627f3bfc461eU,
  0x4808b431263bff25U, 0x666632180e1f7fe9U, 0xf3093bee3d9a1745U, 0x28e8225af44840f6U,
  0x1a074ef44de0d94cU, 0xa15289647d466f6U, 0xd53758ec42ddcc5cU, 0x361eeef03c3d6942U,
  0x35fd23d01eeb4fd9U, 0xff2614aae44ddd51U, 0x16ecf51d3ee0cf24U, 0x16003b0ef1b2faf6U,
  0xc923f13904e30d13U, 0x5b310516cd061319U, 0xc94e36e54e0abe09U, 0x347f9b45da21ad0bU,
  0x391a56e6d118dbe1U, 0x5742275a1e0bf833U, 0x45a9e358257f42ffU, 0xe2e01d2a60eb6fcfU,
  0xfacd38e7201b5c13U, 0x10f5c5d017dbef18U, 0x563c2b1dd0ce71b8U, 0xac133dcc0336326cU,
  0xf4e3fca2192d5827U, 0x19aa7551d5cf29U, 0x1be610086d16bfe7U, 0xe656e3e2b054c25dU,
  0xc0cde0f9d1553342U, 0xe135c3be00dbefbbU, 0x1f9fcfcedfc8814cU, 0xbe0046ca1fa900c5U,
  0xb31ed2218df2e326U, 0x3b4a19477fe32079U, 0x81f39393431f6d1U, 0xf0104ac15daf5b32U,
  0xf0b50d2a05236812U, 0x67e2126ce9f9bcf3U, 0x1e04f6c3fc2718afU, 0xf342ad8470a2125U,
  0x11d46de5012a1832U, 0xf47f202be3cc49f6U, 0xdf1237e1490bbc49U, 0x4d95ecb6fd47c323U,
  0xbb2bd11d1d0a26faU, 0x28f7d1f6f9f8df64U, 0x2e5654d2ea050cbcU, 0xd02a97fb5333e5cbU,
  0xdd1f6f945bde7bcU, 0xe2d41133a724e250U, 0xc3e6bc64373a27fbU, 0x2e5f532e906233aU,
  0x7f029a9d680f33e7U, 0x2372afb4f6eeddf7U, 0x33304be66507db01U, 0x13ff2248bd0b7b21U,
  0x8705375a83d2934U, 0x4409d837f1ed442dU, 0x47353dcafb1a3b3dU, 0xaddf0a1912c4db45U,
  0x4824364b2ebb43bfU, 0xf1f63b4b55f834efU, 0x1ae2a70601dde025U, 0xe1f6f9e3ffc54bdfU,
  0x3ec5af1df5fe4243U, 0x3625ac1120f28135U, 0x10c90c122324491fU, 0x88e6220733214240U,
  0xe0057f2cd317c654U, 0x251318f5e03211d8U, 0xcf30ef1850f7da10U, 0xe214bfbf13ea2f16U,
  0x9a360ecb3457f1e2U, 0x12c8193736ed03d5U, 0x2d5000018e0U, 0x5a300000428U,
  0x25d0000029fU, 0x307fffffe77U, 0xffffff6c000002afU, 0x51d00000288U,
  0x7d20000032cU, 0x7cb00000346U, 0x6f80000017dU, 0x1920000018aU,
  0x947f278181ad63e3U, 0xcd81a1810582f77fU, 0x3b1a287fc55a5281U, 0x9b9e00811a81a47fU,
  0xcb7ff3652d81cf87U, 0x8648818210973f7fU, 0x8165e34781c9817fU, 0x81U,
  0x0U, 0x0U, 0x0U, 0x0U,
  0x0U, 0x0U, 0x0U, 0x0U,
  0x0U, 0xc22bc886bb3b4828U, 0x8c811ccfde1bdd9aU, 0x29ad7f8b59675289U,
  0x3b012910f1cdae36U, 0x2614e2eeba162188U, 0xc034af52e289fb24U, 0xfe5c812af5afe67cU,
  0xa03d2c411a81526cU, 0xe3e6bd06b3105c1cU, 0x814ee6b6fe0a0ed5U, 0x75448e3eecbeec1fU,
  0xe038f5ea2dda3aa8U, 0x118706b981330c2aU, 0x2ea1346aa64ab0eaU, 0xcecbe9cd4f291616U,
  0x7215ec33dfcfe42U, 0xe7141405e5819bU, 0xc70b81fa2ebf4ef6U, 0x432017fa2df2efU,
  0x1bf16953cf43d743U, 0xe05d85d11e7f0bd0U, 0x137f1e3963a0c7f2U, 0xd9c73620b141c1b7U,
  0xd47fe2c652051705U, 0xbc1ed6d6e4479764U, 0xcf034921a943d440U, 0x43f49acddf3ab610U,
  0x7fd342893fd17861U, 0xf2c1be7c3ce867b4U, 0x5dbd71de159f4f6U, 0x17d381c49f31a258U,
  0xf424e1d89f3cf8f8U, 0x3233bc7f249eced9U, 0xe6cceedf1ed55b9bU, 0xd6da247fc12cd2daU,
  0x5e23619f808b254U, 0xade504f5ccc7377fU, 0x6a171bd7fc70b08bU, 0x9b7e14f281883feeU,
  0x94d7d01334bc459aU, 0xbab66742d84955e1U, 0xf140c7c9d42137ffU, 0xa0e109dda75a3c81U,
  0xee0219c971310440U, 0xbb817debf4eae1c6U, 0x6f96e959b5058127U, 0xcc2ff013a8150bd6U,
  0x28e053c34301b4b7U, 0x13fad80ad14ed5fcU, 0x817f0b42d1cb37ecU, 0xdcb5ddc21162b1f5U,
  0xc01edb1ca70004d2U, 0x6981f6643c762b2eU, 0x220ccb469b7cfe3dU, 0x53312ed4b8fbac9U,
  0xe2fd72ecc745d516U, 0x280730cd3da11281U, 0xfa7732b8bdc42617U, 0x8181ddd26ea13fd0U,
  0xeba65d641a152aabU, 0xaf0bdce079be389eU, 0x7f3071573ec3U, 0x1ae000002c1U,
  0x1e800000279U, 0x254fffffeb5U, 0x1b900000140U, 0x2ad00000135U,
  0xffffff60fffffff4U, 0x27a0000005dU, 0x3b8000000ebU, 0xfffffedb0000039fU,
  0x22a00000131U, 0x1aa000000b6U, 0x1ba000000cfU, 0x245000001acU,
  0x7f4475f4db7f8179U, 0xdd81eeec7f81b781U, 0x814f817f527ff805U, 0x587f7fe1b77f7fc0U,
  0x2253b987b6bc77fU, 0xb21bf40c7fe806fbU, 0x4620d7b990812281U, 0x7f027f335030811bU,
  0x81ec41817fbe8181U, 0xf349046158b5U, 0x0U, 0x0U,
  0x0U, 0x0U, 0x0U, 0x0U,
  0x0U, 0x0U, 0x0U, 0x0U,
  0x0U, 0x0U, 0x0U, 0x39cfdd2f5bd93be3U,
  0x4d30a13a00376045U, 0x2afdb9ea4819bc7fU, 0x162cc73b051ff210U, 0x67f190c57cc667aU,
  0x9ed8d503aebba1fU, 0xcf5394c403c69ed7U, 0xf0c83288b460ef04U, 0xe500093863ae8154U,
  0x6c10d4f8511736b1U, 0x2339dc1a2ef7233aU, 0xb03420efdfc6145cU, 0x48c7094de6337fe5U,
  0xf8d5550afc3051a1U, 0x5ea29927c2110ddeU, 0x52b8c1b78c07ed81U, 0x98161ee2d8c09263U,
  0xef48e5cc7f322138U, 0x7beb33a2bd0af301U, 0xbee1c94ec30f32e9U, 0xa3f2818d7b169dd9U,
  0xf128fa0f0b6e0076U, 0x3b37d59542414c29U, 0x152af91450be7f1fU, 0xc122c3a1e441bd27U,
  0x7b19f866cc652acaU, 0x3390a45a5d252bfeU, 0xd5482ad01cb34b7U, 0xe97fa690217cb87eU,
  0x9629c144ff1b51c0U, 0x4d43910c346d6d37U, 0x7fd5bb902d430cadU, 0xf5f37f0f9df03ec1U,
  0x344c5948dcf85eb9U, 0x7bd612e50d2133dbU, 0xfff315ae0e3eb507U, 0x34715ab19f7fb9bfU,
  0x19321cdd4579dc13U, 0xf320e4d971123ae1U, 0xe0fbfde6485fa12U, 0xec6b19cf4229592cU,
  0xadd4199b9d7fe1bbU, 0x17e9f6dc68e9c9c1U, 0x257fba1c1e4fcfe1U, 0xa3481f42b0ef1f11U,
  0x364c573635c1c2e9U, 0xe8469771f4d97a8bU, 0xe2541d6814520c7U, 0x21e751b7b722f963U,
  0xea23b3133ebc2a1eU, 0xbc3cddf928ba2027U, 0x26e51155e5567fc9U, 0xa2013fd2d1af1dfeU,
  0x6339c15c12145c12U, 0x7f1541da178db01cU, 0xcf055956f8f21554U, 0xa1eb57d8e4f3c3d7U,
  0xd93b56931c7f27b9U, 0x624b4b4566e6e46bU, 0xcb2b0446e8275ca5U, 0x4f3985b603c2f42eU,
  0x2d34036db178d7fU, 0x71c0374fecfcf8e7U, 0xfef610fb0c7fd7feU, 0xb5ac45cd09d54139U,
  0x7b4f69d8811e0466U, 0xd0437f39c22a0906U, 0xedd3d5ffde04e5a2U, 0xbf5114d0b6a46398U,
  0x46e3b0f3c41911d9U, 0x5f1bcd81fe405cffU, 0x614a6c23057U, 0x417000001a6U,
  0x489000004e6U, 0x2a100000405U, 0xf5000004daU, 0x71ffffffdf4U,
  0x123fffffa56U, 0x29c000007cfU, 0x5330000012cU, 0x3c500000394U,
  0x20d000003c9U, 0xcef94dbfffffffe0U, 0xdae50188f9da275bU, 0xc149d801c5711f7fU,
  0x5deb2519612be044U, 0x3ada3a1543acb45cU, 0xf95a61feb67f06c8U, 0xcbd66be3dfaf1e54U,
  0x9d285c0d4afd7fd9U, 0xf47f2c7c2f0ec1f0U, 0xc635450c8f526dbaU, 0xee0acae97efe9614U,
  0x18c77a3da7ea2976U, 0x60311827fb0d671U, 0x6287026d10512b1U, 0x3bc7207ff8df18d6U,
  0xf6a658d94df4d337U, 0x6ce828f833be8e04U, 0x4101e2e71c09ed6dU, 0x1c537f01cef1a53dU,
  0xb34916d40260dce2U, 0x9c15f0e0385d113cU, 0x17f15b743469277U, 0x431ef651abe160c8U,
  0x3232f4c2c53a3708U, 0x7f22ed1fb0ca3693U, 0xda1cf9fc398f11eeU, 0x324a19352ae4017fU,
  0xeb3df0c149bc60U, 0x29d5028c44cfec81U, 0x5246fcc51a42d0d0U, 0xb49feb42f12e20d1U,
  0x3c1081d3e1fa28b6U, 0x47de9fd71411b3caU, 0x48aa112af2fU, 0x39600000293U,
  0x154e0000075bU, 0x54b00000906U, 0x6410000068bU, 0x1a3000004a1U,
  0x1f06d420fffff860U, 0x1dea1fb3269f3014U, 0x8f8f642323fa94feU, 0xad3b05a6cb33e6c8U,
  0xc7148139f3fadbdeU, 0x2f1bbdeb09fdffe0U, 0x3717d60a2bed2740U, 0xeb10cc2e22f5fa07U,
  0x101069150a98fabfU, 0xde10551dd8118194U, 0x1ef7196a332adc62U, 0x4b021d5c1e00e00fU,
  0xb7e7db01c1bff5f0U, 0xf5c7e02becae7fecU, 0x6195d054b40bfa5dU, 0xd6952cbae6cad0fdU,
  0x208153068dde1ba6U, 0x248c3e5f6afb9db0U, 0xcce11216be6a2798U, 0xf6baf64b0015bdccU,
  0x49ea232f4606ecf8U, 0x1d0921fd1481f8e7U, 0x24ed0711e11d43caU, 0x6d02bb357abc158U,
  0xc1d69895cf4f7fc3U, 0x4bea067bd11f5afbU, 0x1966ac2d0eb018ddU, 0x1d66f10f2d49984dU,
  0x508d58227f2bffc9U, 0x2022b2f766fef034U, 0xe5e05d21e6933e4eU, 0x2eb8fc5603af32c1U,
  0x826f47ba604b5e92U, 0xca0d01109fa0bce8U, 0x56bb8112e232aaa8U, 0x2da40f68ee01cc94U,
  0x3f56c410f45a16f6U, 0xffb7d113cef108bcU, 0x795cf63317372ec9U, 0xbdf42ec4c181d541U,
  0xcbb0def3f994705U, 0xae32200fba9e450U, 0x8123daba081ed7d4U, 0xafec141700124847U,
  0xe1e9b12d3f008f41U, 0xa8114d4e5430026eU, 0xaf5e8d4453e181b3U, 0xe7e887ff9531658dU,
  0x97dce410ed3126e8U, 0xf12f4fd6b6de3653U, 0x5de4fd02cbc5d5baU, 0x2ad909e00381d234U,
  0x34c6124e1645fe54U, 0xfdd7e6ac8b3f52f0U, 0xfc481e52d39b322dU, 0x435356c843172be7U,
  0xf150c3a8d5810ef7U, 0x1112adfd53a13642U, 0x69a1123edbd3f5c7U, 0x6d0dcd0a07673a18U,
  0xade3d4f582e337c4U, 0x1930af6801f6f247U, 0x10cf337fd2139113U, 0x9ca23729fe2bf18bU,
  0xbf818502d1020d94U, 0x90ae869a90d03cceU, 0xfbbcd28ac3e3d8fU, 0xa34b095708dcba18U,
  0xd1226bebfacfe8fU, 0xad0119e06dfef401U, 0x59a650d0079ab33dU, 0x624af84991aa7f9cU,
  0x998fd53b4b3e51e8U, 0x24b2b345a5204cb0U, 0xab4addd5d681b934U, 0xe211c9f280eed2bU,
  0x1f1cd20fbb07d2a3U, 0xff24b23bfd2e8ffU, 0xd17821e2cffa0569U, 0xf5e2d37f9d5416e7U,
  0xabf53b24023a7baU, 0x24c00ca7be3ea387U, 0xea83bbb31a13270eU, 0x1d1f9c1dd6c23326U,
  0xd9d87f17ede92b25U, 0xb30425253eebb0c6U, 0xaf0fbd814f1fb08U, 0x53518e2f5cbbfe2U,
  0x62def02e614050cU, 0x5d97f3ef5d9d004U, 0x6e9ee13b00f5b3fdU, 0x1e6bc3ce6fb8e7e7U,
  0x8993159a9e0a9a9U, 0x667fd46b503cf30eU, 0xe9a91f6bfe09cd3bU, 0xe3eb273a252bcc30U,
  0x2f0bf8d22db3f30dU, 0x3381bd324a3ce2eeU, 0xe9f72f12ce0b9ebcU, 0xe2c8a292ea2ecb10U,
  0x92c897c19ef8325fU, 0xac097f4af4d7430cU, 0x3e099298668a4ba2U, 0xf4571a829a0cbbf6U,
  0xf681b312ff29e6d1U, 0x33e9adb1b0909d5U, 0x203d000726f5eee4U, 0xc2648f628ceb9c5U,
  0xd0e53e344120bfdeU, 0xc9d7e73c2db80338U, 0x6544a047ddf52a68U, 0xc325552cc2b60417U,
  0xfc2247f049c25dfU, 0x121b061e3628401dU, 0xc0cd1a03f396160bU, 0x111bf45307f5e306U,
  0xf1b2fef8349e8115U, 0xc4d803aad639b4eaU, 0x2df015320d1314ceU, 0x2f0ece5a16065bf6U,
  0xcdbb40d0f4bb544dU, 0xb397f6dd4e247fc6U, 0xdd3f2b58346cc12fU, 0x1735b9c8dff3c040U,
  0xda83eae8062406faU, 0xd8ea7f5dced5bcc8U, 0x81e0a3c4daeda1c0U, 0x5e2a70262061ec92U,
  0xed0349fbd113fda0U, 0xeaebadc1edcee9d0U, 0x8643cf65bc639606U, 0x1925d108f2f438c1U,
  0x3b110eeb00e6eee4U, 0xb81c9ff3af6021bU, 0xf2fd0bc12a202dcfU, 0x8e96901afdfaf920U,
  0xee33314dfeacfbcdU, 0xee4836aad72ec0d2U, 0x7dabb3c018151a2U, 0x25484bd45df65022U,
  0x7f59562b3b9f2f3cU, 0xd1cdc9b71c3004f5U, 0xe1024e4ce2f0fef4U, 0x4734a61010c0ac29U,
  0xaee916dce224bad5U, 0x52a2f3c5b700db92U, 0x320aa8c5ac80bc5U, 0xc7518150213e46c8U,
  0x73ac5fa7699feb31U, 0xb1e5bac9ee04d93bU, 0xf03c66ff24f22567U, 0xc0a121035235990aU,
  0x66e9f08117ec0160U, 0x830aa904e531e20fU, 0x23ebb5d6afe31f5cU, 0x9c8109cf0212bfb4U,
  0xa3ba0a6598e2f64cU, 0xeedb10608ad5dae7U, 0x403822aaf717c00aU, 0x1bc64fd64bd2c2c1U,
  0x1e003ec02f0d0de4U, 0xf81ff78123f44612U, 0xadafc9f71bc1fc58U, 0x3e3688ddc121ab49U,
  0x5819ad4e32c492dU, 0x33c18f014440b8caU, 0xaba5fdbe998c96f4U, 0xdacc1bf805fb1dffU,
  0xe7c75303fbc4c9b0U, 0xc30a1e30050d810aU, 0x4cdc290c214a3845U, 0x9bf3629db8bf72d8U,
  0xa820c1a4ccfb5a1cU, 0xf71b2ff6f701a9ccU, 0xbf38cd5c000c1135U, 0xf0fba2a5aa7fc2f3U,
  0xeec406f4d235190dU, 0x1fecbe21d23309eeU, 0x47ce35d7e9273221U, 0x1b2c813c2310d5ceU,
  0x14cdb22005dcc40dU, 0xaec6441da80c5204U, 0xcd9a25ff14c2f7dfU, 0xba39d2c1b8cbe038U,
  0x4f3921db9c568117U, 0xe2e101111fced18U, 0xee1df00e07284119U, 0x3abc1fe8b7fe57ecU,
  0xeb4c813a5013cbf5U, 0xf81af54d0ed8840bU, 0xe70246fdc6f22b27U, 0x69f4034126c956faU,
  0xe234113f781e039U, 0xd6c6d92f508de1a1U, 0x4b5f3b124ccdc012U, 0x5d813813eb2bc20U,
  0xe0befe4c5423085eU, 0x69e7e2c8a8b80098U, 0xc6e24023c9b7bf3bU, 0xffdbe03728f7d9efU,
  0x3536112d40b5ef08U, 0xb7f1460dc3813f50U, 0x2c9f02673f14dcabU, 0xbe4a7004cc9384dU,
  0x121448d2341711f7U, 0x43f757ec704e1240U, 0x10b267818c2402b9U, 0xe82515c8c19b12f2U,
  0x2a8e44218e23740U, 0x5f2b1fe664d243f0U, 0x868102f2e28ef039U, 0x46e0d3512beb68edU,
  0x17ab120226d42fceU, 0xddae001234ee26b4U, 0x715eebf4cfcdc0eU, 0xfc2c2181d45a3439U,
  0x113244da2306304fU, 0xd609d044d032dde0U, 0xf22024e3e01af3d8U, 0xfd412cdf21cc73bU,
  0xf21de716e7cf7f13U, 0x73d0000f24566459U, 0x2ee54528102d2877U, 0xc29062e43d5b612U,
  0xdd8e74d6c80ff505U, 0x84da3c5002917f3aU, 0x5ebfa4d10d590a94U, 0xd80181dbc60e5bc2U,
  0x94442807cab4e160U, 0xaae0eddfd545e75eU, 0xb202ddb8eb21ede1U, 0x1141571a298efc0aU,
  0x40aea370a02db9dU, 0xbfadc981e873cfdaU, 0xbb01233fce4d4addU, 0x560937105c5f9c27U,
  0x4339f15a13e55af7U, 0xf6f971cbf5c0f3f5U, 0xc6bd3a45ca8dd881U, 0x250417f2496f00c0U,
  0x355829d115d0c95bU, 0xed8192e01011eb67U, 0x451e5b13bec685a8U, 0xe1dd37ef04ada251U,
  0x355f3d4dc3d233b9U, 0xb1e65bdef8414dd3U, 0x78eca9f85102b61eU, 0xb80a1b813ccba3ecU,
  0xdb38e9231b38ea2cU, 0x9d340324df3ed3eU, 0xc814b264e45ed3dU, 0x7b822be9812e6b5U,
  0x9dbe0aae3bd5eb5dU, 0x6a03ebbd69063926U, 0x7ac5c900b52d18e5U, 0xcd8111c8e9fcbb2fU,
  0xbeccd19bb4012ae3U, 0x10332e3b4bbfe3cfU, 0x269db1a08e71db09U, 0xbf7d7cebefe43e9U,
  0x11111b51ba81dffbU, 0xd5481d353b04bbfdU, 0x300b381c29c9fb81U, 0xc1a8a838e1182973U,
  0x22d2e01de4d0e8a2U, 0xc34ae0befb5535b6U, 0x6740c13c0c543141U, 0xc392a9c2b4816153U,
  0x98e9e3cb07da2245U, 0xe4f9d106c9a0c416U, 0xe0a21cff9d85a6a9U, 0x3de6cd114d32f6b4U,
  0x3dc6f4da28e02747U, 0xff3b1edcedf4ee16U, 0xbdd06636cafbd981U, 0xe04082741ee1919U,
  0x5612d1afea04d530U, 0xd4c0ed27012a0e0dU, 0xd9be7f28c9f8e8b4U, 0xac4bf6aefba5fbd5U,
  0x8f93801e2f9c7baU, 0x81bf574bde36049fU, 0x47f59134d73c185dU, 0xb1fbaa0235edaf1cU,
  0xbc218f49e22cde3cU, 0xc01ebeea3e3536ecU, 0x22412f81d3a11be2U, 0xfa180eba2f3549b5U,
  0xfffffe60b3e0e4d5U, 0x48cfffffe7aU, 0x34ffffff49U, 0x1d60000060bU,
  0x59ffffff28U, 0xffffff11ffffff27U, 0xffffff2cffffffcaU, 0xfffffdf9000001d7U,
  0xfffffe790000003fU, 0xfffffd85000002b4U, 0x2f6fffffe8aU, 0x1fa00000125U,
  0xffffffa7fffffbf8U, 0x28bffffffbbU, 0xffffff680000043eU, 0xfffffdd800000113U,
  0xfffffef1000002a6U, 0xfffffeab000001d2U, 0xffffff2bfffffd97U, 0x39efffffbfdU,
  0xffffffc0000000abU, 0x55000002ecU, 0xfffffffb00000316U, 0x7e0000019dU,
  0x10ffffffef6U, 0xfffffea400000120U, 0x42fffffd9fU, 0xfffffdbb00000631U,
  0xfffffb9100000185U, 0xfffffecd000002cfU, 0xffffff5ffffffdecU, 0x10c0000038eU,
  0xbdfef801fffffe8eU, 0x1441e4fee71bfb06U, 0xe835a8dfc0daf930U, 0xf02eb0f09e4f417U,
  0x1f0513e5fdcffe2cU, 0xf700e9f1fddf30faU, 0x26ed06f069fb0315U, 0x4e4a0fcd0181fe0cU,
  0xeffe1f930bc0223U, 0x1f0eda03eb27ed14U, 0xd653a7d2d233dd22U, 0x50fb91bebd7ea22U,
  0x3f363813ecc00729U, 0xf70befe9edcc4745U, 0x1cb912d17bfc0a24U, 0xfb342eac0581e919U,
  0x11fed2f3bba9f63eU, 0x23e9d707d42be71fU, 0xcb60bdd9cb09cbc3U, 0xee179821d4d3e721U,
  0x53d553b9e2df16bcU, 0xfa14f5e9e2cd5040U, 0xef01ab57f010e2eU, 0xc71250b9098ad521U,
  0x43ffcdefd8a5e84fU, 0x251ddd0ce727e226U, 0xc364b20edeeabde1U, 0xd31c9f23c4d6ee05U,
  0x520d6122de372018U, 0x1ceecfdbcb4e29U, 0x2cc1ba87f071139U, 0xe8045bee0db1cf23U,
  0x14feccf12fb4de5cU, 0x2a51da113e27e73cU, 0xbf5ebf27dd32be49U, 0xa823ad27c7d4f20aU,
  0x5bb476e2dac338efU, 0x527f2dbdbd44b1fU, 0xdc124987f101640U, 0xe7cc513c14c9c12fU,
  0xa9ffdee7bbc1d35cU, 0x3c0ccf1c2b39e556U, 0xc759d534574bb2beU, 0x8130da35c7d208e3U,
  0x73547b2ada3f5332U, 0x1137f3d0dbe35208U, 0x1653269e7b1a1e46U, 0x20a322661ec8ce3cU,
  0xf80ff7ea1cd1c95fU, 0x2e21df28cf30ed4dU, 0xe13ff50de8b4dee2U, 0x9427f82de1de17e1U,
  0x4e165adae6f6463aU, 0x1a32ede0e8e93641U, 0xfec229c15d211d4bU, 0x17c3e97f25ccf039U,
  0xcf130cf510ecd932U, 0x38d0df32232bed51U, 0xf94cfeb924b8eb40U, 0xaf271a35f9dc23daU,
  0x41c149e0e5355905U, 0x2038eae1f1e61bceU, 0x72c2fe1302c2244U, 0xfea0ca7f2bdbfa2dU,
  0x4a2e23e3200cf639U, 0x4f22e6515260e970U, 0x94e09ca232feec4U, 0xc444103d2acb4faaU,
  0x57443b21e005791aU, 0x3342ccead5d13556U, 0xeffc40241249365cU, 0xdeb9814d42f92c5cU,
  0x462b2aeabc150d57U, 0x3edff14b004cef6bU, 0x2b4b160e331100bdU, 0x480e3e2bd44cb2U,
  0x38213bdaf2257fb7U, 0x4847b6c5cff720b7U, 0xddd846410c483249U, 0x20cc8c0a3b07563aU,
  0x2a403ded38ff3425U, 0x3947eb5af449ee68U, 0x3a4525c6ead217c1U, 0x564a1b324bb36281U,
  0x31bd0ceee7266c1fU, 0x523d93d099fb0530U, 0xa6025768df54425eU, 0xcedcaad84bf05130U,
  0xc2552efae2124b2dU, 0x4840ee51f565ee7fU, 0x4d2c2dfe313d2be1U, 0x7c4fd83c3bbb6783U,
  0x52273dece31b6136U, 0x413f9bb086e30533U, 0xa8fd4c73ca51304bU, 0x50f5cca04f147951U,
  0x164722ff24056635U, 0x42f0e9382c5dee4dU, 0x442814ca090a1beeU, 0x6f48f4252ad057c3U,
  0x44331209df165e26U, 0x452c9ad3b5f52618U, 0xc31e4458f1292936U, 0xdb0ffc81370d5132U,
  0x323a22fd1f036412U, 0x3717e321ff50ec62U, 0x5514f31ee4041b15U, 0x7f24da2819d75ecbU,
  0x101f121be2133acdU, 0x302997c999f123daU, 0xbfd0434ffb31312aU, 0xe80e23b32b176535U,
  0xe7483bf8c9005c07U, 0x4321dd1e0051f352U, 0x480900ecccdb06e4U, 0x6c37ed141ff2509fU,
  0x2deaf3dced065304U, 0x392cabe6a3fb07feU, 0xc6262848cd38233fU, 0xfeff34a442065830U,
  0xf6363a0cd2047f00U, 0x2c25e03bf04af86cU, 0x4bf118e9e7cc1533U, 0x6f4a0d0e0fea38bbU,
  0xf9f42cd4e9e36829U, 0x4f2ea7c7d6f1f31bU, 0xc435305bdc4a2f39U, 0xebea40b846287f41U,
  0x546310b0d2a6d0eU, 0x35dae7162728fe2cU, 0x22fe1f0a08e509f1U, 0x7008db0aeadb2fadU,
  0x1906f8f1faee38e4U, 0x3e14eae8d9d20ad2U, 0xfc0c0150fe223022U, 0xdaf47fd238143a28U,
  0xd148251b04075ef2U, 0x4ac1e24f38310e27U, 0x2debe9d53af1e82bU, 0x6a0fe718f60c4bb5U,
  0x4eff7ff003556c9U, 0x1b2ffae9eadbdfd7U, 0xb3ca184b19553753U, 0xf2e56d064d0d480aU,
  0xc45b1c1cf4157f01U, 0x26e6c3391e3bd14cU, 0xe61d00c3251cd717U, 0x7944d938c2de6e94U,
  0x10ca4641e3d17030U, 0x773a14bef8b3dc0eU, 0x1ce22a15ff4e4b63U, 0xebb27fe73efa512bU,
  0xde6f43fdd2145dfeU, 0x2c30c422dc16fd4cU, 0xdbe80206eb20a048U, 0x7315a319e2e46eb3U,
  0xf53a1630f4d64ce1U, 0x6a362215f1930a0eU, 0xf333272c285e116cU, 0x29826fbf3aff1d49U,
  0xff421422b6d67fe1U, 0x4e08ea703639ed59U, 0xe7faf6df1ed09b2bU, 0x3e15a138dc2a4b81U,
  0xe8c236ccfff74817U, 0x4a39e6e419ebe10bU, 0x22e00104fa34296aU, 0xead3273f31163055U,
  0xf5f43924261e4027U, 0x402904260429f344U, 0xbcdc1ed907029c30U, 0x321e812cd0ef59a4U,
  0xfbe8371fe7071dfdU, 0x311b26f70face7d1U, 0x4826f1d6c03a2d37U, 0xece5111f110c4e2dU,
  0x6fde43330f356d9U, 0x818d225d042f730U, 0xbb0fb33008d7cc02U, 0x126c53606e07fe1U,
  0xe5ee3c090d1f23ffU, 0x31ffe938e1bf1b04U, 0x23e7021af23a0337U, 0x23e3c72349b13a16U,
  0x2dc940cfU, 0x0U, 0x0U, 0x0U,
  0x0U, 0x0U, 0x0U, 0x0U,
  0x12f00000000U, 0x4300000018fU, 0xfffffd70fffffd5eU, 0xfffffead0000018eU,
  0xfffffe6cfffffa12U, 0xfffffcc2fffffefcU, 0x1b3fffffe30U, 0xffffff4900000394U,
  0xfffffdc0ffffff68U, 0xffffff6efffffd76U, 0x800000c54U, 0x40e000004f3U,
  0xc552ca3000000000U, 0x20b48a40e4828feU, 0xb31a64291c43c34fU, 0xa2321e3f317fd2e8U,
  0xc1ecdf001dab74f0U, 0x26a1d6361b44592bU, 0xee395c05f8627f07U, 0x2c13c91125e9e3d8U,
  0x7feec3b5ea2b3618U, 0xa53bdc63ea11420bU, 0xb359119b38103cafU, 0xd6abe861207f4f35U,
  0xdd1b24ebcc5d2603U, 0xe46d0fe7bf63ab8fU, 0xe2f823f181afb862U, 0x6b21cde462fe1b41U,
  0x5cc3e597f020747U, 0x5d01cd0b39fb0cceU, 0x8bb2388153f1f62bU, 0x3ec99aae3b315969U,
  0x901299f6d4430c60U, 0xc2f66ab62e90c8c3U, 0xd8350a11ebc0ff66U, 0x7fe7aaeb31177b21U,
  0x72f3bd2c11ba5158U, 0x500fab325b3bf5e6U, 0x7f6540e367ae31c4U, 0x4cb7b5c826a612ddU,
  0x21c5c48afa228188U, 0xf2c8d53efeedaf29U, 0x6da61bd2afdd0830U, 0xf6d84b7f2e6b4761U,
  0x432adff27bc9f4daU, 0x55415f66ce9ec7e4U, 0xd7f73d1257fdccb5U, 0xfe990e49bca252a4U,
  0xba493afc1b415781U, 0x287f2515b2a9eae1U, 0xc6352d15e16e534dU, 0x34cd66c3a74f8f3U,
  0x7f6aa836bc189cU, 0xbd0baecb3e4c2fU, 0xbe3fa95bfa74180dU, 0x98cdeec781ef3a36U,
  0x8a8c022fc893e355U, 0x23350f3db3834283U, 0xf3fa11cd8464becU, 0xa2fb40584646d8f2U,
  0x3709adcce07ff4d0U, 0xdee3a02d25262834U, 0xdf391dff29b8c7b0U, 0xa63b122bf5c981f9U,
  0x2d2d172fb3c702ebU, 0x65d2f74bdd317fbaU, 0xb6614bf1f3155f3aU, 0x1970e9add8c9094bU,
  0x7f9b2fc2ff486de3U, 0x19162d1f324307ebU, 0xc400f5c019d8360bU, 0xb7c94a15c75f064bU,
  0xde3e7ee9d97f313aU, 0xd4d80632f7c383a4U, 0xea6de29e0efecb7fU, 0x482803d98d67d466U,
  0xfc0c0133f12ced56U, 0x8130695523f5b725U, 0x16e5f9ef2bf8eaa2U, 0x3e5eee10c1e601d8U,
  0xdf381ab01f4b1d1aU, 0x3eefde1ee7f43f9U, 0xfbfdc0b1c0dd401U, 0x3b0add1f293838d8U,
  0x16bb5a11fe813d07U, 0xd0f90e7f65351820U, 0x362c143c56d5c5afU, 0x19eeb40b17873ec9U,
  0x46f621eddeda2740U, 0xaf30050cfc01112cU, 0xcaea65d736b67ff2U, 0xe1ac312add4ce046U,
  0x43edcefd9fe60081U, 0x42bb0aea5885eba4U, 0xcdf40d7f0d62280bU, 0x3c607bfc2e0b469fU,
  0x25811717f22699bcU, 0xf9a7baa573408ae6U, 0xdc5b8effd1ad9c1fU, 0x2d048c74cd3c3c5eU,
  0xca34b55fb4a4c392U, 0xbef5a6834b4ed7ddU, 0x5840af4977f3816dU, 0xacfe46cf8ad01ca0U,
  0x953fc0eaad412404U, 0x30954da145938165U, 0x10f3e9195914382bU, 0x64945f45c9bed81U,
  0xffffff02e683b314U, 0xfffffe4000000247U, 0xffffff9b00000148U, 0xffffff14000002b1U,
  0x1cc0000030bU, 0x3a8ffffff23U, 0x3affffffea2U, 0xfffffbdaU,
  0x56d00000026U, 0x368000001cdU, 0xfffffb37000002d2U, 0xffffff0400000207U,
  0xa90000012dU, 0xfffffddc00000107U, 0x54ffffff99U, 0xffffff6affffff76U,
  0x350U, 0x0U, 0x0U, 0x0U,
  0x1b35e30900000000U, 0xf1f90c054ce319f2U, 0xd919f17ffed715f1U, 0xf4f6412514e1ece3U,
  0xfc7feceadd231b36U, 0xfa1ddafa60e8f7edU, 0xcc05384af8f9ccf0U, 0xf6ea503635f7c9f5U,
  0xe77fe6d9d2f11d2eU, 0x2f417454f1c24fdU, 0xe524102ef804d510U, 0xf2222c1b52edf5d6U,
  0xe26322b5bdfee8f9U, 0x8240b2b7ff10c20U, 0xe2fe3c18e11fdd00U, 0xf1fd1b125ee4e9d6U,
  0x137f2dc0d906dbdbU, 0xf4f806416a2b24e2U, 0xd7343accb4d3edcdU, 0xed0a083846cd00b8U,
  0x57fe1b1f911e7c8U, 0xe130b5269240a06U, 0xfa4309bbc030e9f1U, 0x15eb301e6bd5cd9dU,
  0xe4261be7d52ddfd9U, 0x3036db56692a08e0U, 0xdf242b81d016cdeeU, 0x2ee3b0c52c1a39bU,
  0x400f7c0f927e30eU, 0x143df314591e310cU, 0xdf1a2b81d7dcf3d8U, 0xf80f091244f2f7bfU,
  0x1213dd09052a1904U, 0x153f1c3319124221U, 0xf0f72d81bdfed9caU, 0xf7ee2d014de2bcb9U,
  0xbfd823010a03e21dU, 0x9611e6b2d0d04f3U, 0xe5012e9ed5ffb5d0U, 0xdf1c24fb7fd1bdd3U,
  0xcbb324da00401a2fU, 0x3c4c393205227708U, 0x81002db7d536910cU, 0x13ea2d3d77ec84ebU,
  0x9bbc3eb4e20dc3aU, 0xdf50af3c0f3a7fc9U, 0x902cf3e696e0d7dfU, 0x48beecf374d5d318U,
  0xc6dde81d6ec3f058U, 0x3118261a39f32215U, 0xaeecfa1b1e2011c7U, 0x37fab0227fd0c106U,
  0xc8eedce960dbf9f0U, 0x3832e61434d6472cU, 0xdf01037f25df14a3U, 0x1d5882a68dff428U,
  0x80acebb5ee12b01U, 0x412f76518da261fU, 0xe5f7cc7f0e2d22a5U, 0xf813ad382a170634U,
  0xfee6f9116616d3e1U, 0x1b32132b182f2218U, 0xde0cf166ec1e03b0U, 0xfa1b8e4348c71d50U,
  0xe9fcce0c7f0cec01U, 0xd346223e130c0c2bU, 0xce16e17f2bf135dcU, 0xe71daa4c2be3e717U,
  0xc129b720652bdef9U, 0xf0290362dcd52fddU, 0xc9d8fb7f1f0b47edU, 0x1cdfea360ecdf531U,
  0xfc2ed5fa6a2ce8e8U, 0xd078cd2bc5241f29U, 0x9bd7f950eff84ff5U, 0x25d2d62121ea551bU,
  0xe426c5ce7fc705eeU, 0x3974c372b10d36efU, 0x9dac33bd1e63ceaU, 0x26d60f2eea092921U,
  0x22dd9ef7ff30322U, 0xe010d459fdd5092dU, 0xead0ba01ee1c12deU, 0x39210c59ddfe2b22U,
  0xb824cbf67ffd1ef9U, 0x2849346cf5ca0817U, 0xc206b90422280426U, 0xe032f67fd41e2fe1U,
  0xdd350a2964eaf30cU, 0xe17f1f26c12a38cfU, 0xe5a804fcf433afd3U, 0xf0c21d30d51f0c02U,
  0x760406d9U, 0xad0000003dU, 0xffffffa1ffffffa3U, 0xffffffbf0000003cU,
  0xffffffccfffffebdU, 0xffffff50ffffffd1U, 0xc4ffffff7bU, 0xffffffc100000117U,
  0xffffff36ffffffd1U, 0xffffffd8ffffff5bU, 0x3000003a6U, 0x19400000166U,
  0x14aU,
};


ai_handle g_forecast_temp_ml_model_weights_table[1 + 2] = {
  AI_HANDLE_PTR(AI_MAGIC_MARKER),
  AI_HANDLE_PTR(s_forecast_temp_ml_model_weights_array_u64),
  AI_HANDLE_PTR(AI_MAGIC_MARKER),
};

