/**
  ******************************************************************************
  * @file    forecast_temp_ml_model_data_params.c
  * @author  AST Embedded Analytics Research Platform
  * @date    2025-11-03T19:43:35-0400
  * @brief   AI Tool Automatic Code Generator for Embedded NN computing
  ******************************************************************************
  * Copyright (c) 2025 STMicroelectronics.
  * All rights reserved.
  *
  * This software is licensed under terms that can be found in the LICENSE file
  * in the root directory of this software component.
  * If no LICENSE file comes with this software, it is provided AS-IS.
  ******************************************************************************
  */

#include "forecast_temp_ml_model_data_params.h"


/**  Activations Section  ****************************************************/
ai_handle g_forecast_temp_ml_model_activations_table[1 + 2] = {
  AI_HANDLE_PTR(AI_MAGIC_MARKER),
  AI_HANDLE_PTR(NULL),
  AI_HANDLE_PTR(AI_MAGIC_MARKER),
};




/**  Weights Section  ********************************************************/
AI_ALIGNED(32)
const ai_u64 s_forecast_temp_ml_model_weights_array_u64[2998] = {
  0xecc0e2eb3713fdecU, 0xf3dcbe1e05527efaU, 0x80cca077fd1155cU, 0xe623d5fe100ad617U,
  0x18baddea0acb120eU, 0x243c4dddd77f0233U, 0x5c403030153e4f50U, 0x2446442bfc3d3fc4U,
  0x49d4541c2b381aa5U, 0x1e31bafa32c9bca4U, 0xd308f310fc13661dU, 0x4681ee27a05e4238U,
  0x146026fa3c99ecfeU, 0x50d11083151311fbU, 0x4b3fe5d7df22f581U, 0x4dfd43354ae50eddU,
  0xde0f30eecc394ad7U, 0x1e433981c4164ad2U, 0x68e54344eb653f40U, 0x69201706db6d091dU,
  0xfb01044a35f04469U, 0x132c41fb481fad31U, 0xea16c5e9f753ee0cU, 0x1133ecefb020013U,
  0x620ef3cc8d7dbe1U, 0xee47f2ceafde606U, 0x2baad9d1181fa6cU, 0x8aaaa1118afef1bU,
  0x96efd8e916af3a94U, 0x28c73da206f1aa6bU, 0x19c6dfe2b742c890U, 0x30122826e7a82d1dU,
  0xdc15fb001fc9bbcdU, 0xe5d3067fd8d2e5eeU, 0xbd0bdfc1531523c6U, 0x58476c2b8d19e991U,
  0xcb065375381feb4bU, 0xeee936647ff7c435U, 0x7038b3c45b17e522U, 0xf0eed2d0e0df7bffU,
  0xaafba73107ea3981U, 0x2ef4efadb26c9f9U, 0xe818283003ce3234U, 0xcc344fd7fc2e0e22U,
  0x64c7d2cde016f13fU, 0x2b1cc8dec0bc09b0U, 0xe91957cc9ff51281U, 0x8ecf97f295dea3e3U,
  0x7ff90629d6310205U, 0x70aebe0c6b9d921U, 0x2fb939a77a35b5e8U, 0x283dc158b715bd91U,
  0xd22fbcdd723316d7U, 0x32fc08ef81f20e1dU, 0x1bdbf0e2b9ddf929U, 0x1d14482212d90a49U,
  0xd62f17282f30dc0cU, 0xec04d20c03040026U, 0x34e2e7d27ffa1e21U, 0xd1fce301e731f2e8U,
  0x2d022306ead627f3U, 0x25e9ed1dd8810b11U, 0xf5f2e7d723f1e4eaU, 0xd2e2dad6e3ec07afU,
  0x1ef92cbfd5d3dfedU, 0x30a45fe4400c836U, 0x142fd75338f1da57U, 0xc31bdcd2011abbb9U,
  0xff042ad7eef39881U, 0xd687703bb2ec16adU, 0x7f2c47db04fd2931U, 0x9b47cdf7d6454cd0U,
  0xdcc8d9d5d5e3d6d9U, 0x2736d16c16ac60daU, 0xc31e22d11afaac66U, 0xd3d9ca02cbdc7f0fU,
  0x4afcf3f8faeb312eU, 0xf132d83cf83403e7U, 0xeb4200c1563ec720U, 0xcf9262a3bf31c19U,
  0x1e25db17f5230e2bU, 0xfd120dcd3dfd3e34U, 0x98dff7d7d6fe8118U, 0x15039c923e91fea3U,
  0x76fa2e08fd4204a8U, 0xeb7f592a7d2172b9U, 0x24a815705d02fc72U, 0xf46715dde42067c4U,
  0xd24a6c322dc37958U, 0xc8a22af1b435f07fU, 0x248daab74eabd7c9U, 0x8a82a513ca22cf0aU,
  0x2d8eb96e71e53001U, 0x5616ea617f74e3ebU, 0x14672022ea4050bdU, 0xd5778e1426cac0eU,
  0xdaf493c2a8dae99fU, 0x115602aa56c13f08U, 0x6b61621932e00153U, 0x175c58c57f6b15d2U,
  0x195b12e86e2a32a3U, 0x2f3c0e05240d373aU, 0x1b4011e216fb350aU, 0x81f505f50c033516U,
  0xafa102ff1312e5cbU, 0xbc22c1f2bdc823aaU, 0x2eb6d8dce8f8c431U, 0xf60ee618a6f408e3U,
  0xe02820e57f2a0be7U, 0x2bb0b4e1c6131229U, 0x4925812917f22e0eU, 0xe0c50424c1e6b802U,
  0xb253f32e5b1543a4U, 0xec1751b932d7ffd4U, 0xeb0a2c7f182625f1U, 0xf9e4e4fee5da1a17U,
  0xd912c3de0606d2d8U, 0xe700edec1a1ed5efU, 0x9bde0ef512453803U, 0xe6ba3c46213cf747U,
  0x5ef8911c2602dc57U, 0x1d368da043df0ef8U, 0x8115f7b0fd022f81U, 0x1f0fdbf0f747f5cdU,
  0xdf2534d613fe2744U, 0x233c33f91edc3e2bU, 0xb94dd7233915f50aU, 0x2a21e884e7ad095eU,
  0x632cb13271ac90aU, 0x2eaef997e4bbe681U, 0x501a0e01e36c381eU, 0xa82ea43e83f90efaU,
  0x1d0895c75681d762U, 0x21fe011e0e33fd96U, 0x19036475e30c2c6U, 0xb8e0014d215ae3ddU,
  0x12c6fcca5cecf3e1U, 0x62f7fffbcb20d01dU, 0xe744f51b02d924d5U, 0x3af00181e20cc01eU,
  0xaae9b9280d813bd4U, 0xd3d812fd1cd4c435U, 0xd24334ee3b51feeeU, 0xe7e5e5f0f3012724U,
  0xd0961db1813de128U, 0x4045e527acfbfcdbU, 0x1849523dd9e9fd28U, 0xe4c0c613cc1eb13cU,
  0x1abfc923270138deU, 0xc5c7333ac739f800U, 0xe4ecd81045dc7ff8U, 0x44b5d0dbfa724a49U,
  0xc413d4c52a93e720U, 0xf1f8cbefe1188125U, 0xabd5a3cbb3cde385U, 0x2bcefa9e8bd3e8d7U,
  0x455dfdd29783cf03U, 0xf335dbdde90d3896U, 0xb2a617cf18351ce7U, 0xc0e6b940e9af48bbU,
  0x3cab45813cfaf413U, 0x4539da20f101d281U, 0x427f352d95411daU, 0xfbc551cb08e2251dU,
  0xd8341d30cb391249U, 0x50721e1f781ffd9U, 0xa8b713d129bfc38fU, 0xa4fea5bcd5e5a2ebU,
  0x1fd21b89d74a34acU, 0x60b481ecebc4d806U, 0xa311a5e01acc96e0U, 0xfee5f4a60eabd1e2U,
  0xd5d686f30eeab0d5U, 0xa860c5e067eb5eacU, 0x7f126ca6164ec05cU, 0x42520cfde4e7d823U,
  0xeb4142f54ecb4e0fU, 0xd1d0145c4c40204cU, 0x25f0ab12dbb873f0U, 0x2422f943c9813eU,
  0x141b2838fd1f5b71U, 0xddc17f283ebdfa0eU, 0xef7d3d542b00750U, 0xc9c5ddc4d1b8e913U,
  0xe3eb18e9a813ed45U, 0x3b07b2fe81a4d827U, 0xbd530019d8e21b9U, 0x27bc1a6636a3e17aU,
  0xcbfb109e3837c120U, 0xbc1842eb81e8e49cU, 0x49263355efc85741U, 0x6d406dd05661b3fU,
  0x9dcf1185d7f4323aU, 0xa8b119d2b1b4e6ecU, 0xd79d81e94ef1d79fU, 0x273b12dcb44c0b16U,
  0x972abcd4a84765c7U, 0x755352c37f057ad7U, 0xc5878c56f771f17U, 0x4060ea9ea7ef64dU,
  0x4b584dae630f3ab7U, 0xcc0206f30728c60aU, 0xfcf01b17bf112622U, 0x814cf3c8b91beeb7U,
  0xeef71fc789e2d9c5U, 0xf910e2e0d5d7c8U, 0xe82de92b33e8119eU, 0x7ad010439b4a8187U,
  0x24007a33192fcaf8U, 0x4fec200825dcc839U, 0x1dfe504ddfdf1d8U, 0x80afb0fe3e6f7f3U,
  0x218c8f1fb1cd1d0U, 0xc63033c5130ac4c9U, 0x2b5fe5055e7f1bebU, 0xedc93c36bc16e143U,
  0x3721c0253fe65904U, 0x37c6de93c8d1fc18U, 0xc22b0810a2ae2b9U, 0xf2f518bbf3f6e42fU,
  0x1703db2af71de4f6U, 0xe7d5531ebbbeccdaU, 0x62ecea7fd7cfc10eU, 0xe52222fe162e2ac7U,
  0x2fdfc1e2129180eU, 0xf5110a070816fbf2U, 0x10ed0fc9f8f0211aU, 0x81ec0c1681a8c8e6U,
  0xf6ceccef16b7b42cU, 0xbfe40615f4feb60fU, 0xccff23c81cc186c6U, 0x360c7e22f6ef12f8U,
  0x1303000c1b2ae72dU, 0xf2f6eb27e5f01f1eU, 0xeddd050ae82bea1bU, 0xc1e8c815231208c4U,
  0xfffffeb1000081b6U, 0x7100000455U, 0x40bfffffeb8U, 0x276000003d0U,
  0x5fd00000331U, 0x473000000a3U, 0x20600000335U, 0x11300000232U,
  0x3dc0000049dU, 0x3a2000001b9U, 0x31d000004c8U, 0x35200000536U,
  0x1fd000003faU, 0x1f7000000b6U, 0x3d2000003b8U, 0x4910000001cU,
  0x1980000012dU, 0xfffffdfa000000a2U, 0x1ec000002b5U, 0x517000002a0U,
  0x48e000001ebU, 0x156000004a9U, 0x25c0000045cU, 0x1d8000004c3U,
  0x26afffffcf1U, 0x30e00000317U, 0x32400000289U, 0x22d71126ffffff59U,
  0x2b2008073a36cae0U, 0x6952ffdd4f2c2d7aU, 0x61cbb971d72c3c7bU, 0x10c30601a754a58U,
  0xf713f567f4330ebU, 0x60d2190e5cfd1ed4U, 0xd3cdfd1639d8adf8U, 0x77ef66085273057fU,
  0xf47975ed111b502aU, 0xe8de3df86846edcfU, 0x30f547fe01cf416eU, 0xc61b054733f901d0U,
  0xb4c872e9091a61b2U, 0x4627f25ed82f534fU, 0xed70c92a26dc4a1cU, 0x1375150f1a742655U,
  0x4f764af06ccef2efU, 0x32402c62d8ef7317U, 0x246ae1fc49451ee5U, 0x23e124200cff40fbU,
  0x22d5f305b1653e68U, 0xbad054d239dd9fc1U, 0x52dcd11d1ce5f3c8U, 0x31efbff6dd19f132U,
  0xc0e3fcc3cfbabde3U, 0x3aab3ccb18b7694fU, 0x24badc043b205912U, 0xe123210ebf81aef2U,
  0xe1db23bda16d435U, 0x9c9330e14542148U, 0xeb43195686e2d51dU, 0x1a03c5eae79927beU,
  0xedc70c2329ead2d4U, 0xafe801b659ed39feU, 0x3befa74307132299U, 0x3c5e1e653a000838U,
  0xc021fb30ff0a5644U, 0x6ee1cbd4ecd2143bU, 0x58a008dce011c1adU, 0xef9f46cd46a2ba2bU,
  0xdbe7b7c100042188U, 0x25d2cbc3c1f79419U, 0x2db1a904b8194ffcU, 0xcf2595b3de3bc2d4U,
  0x9bc1100cf0c990a0U, 0xe1ccdd8cacda00ecU, 0xe3dbc9c016f34bd7U, 0x8eaebcd3e720b8faU,
  0x164657fe86c3c0dbU, 0x8cacf025b5f1aadaU, 0xe22481ee9be4e3f5U, 0x5813c12d1e19bd92U,
  0xeee7d72428e0f03fU, 0x9dbaceced51f261fU, 0xa0f82ad916451cb8U, 0xe126032f0b9cad9U,
  0x9a40ecb30128a924U, 0x319239140aa5f32eU, 0xc44210240b51153fU, 0xcfc5baeab52cdfdfU,
  0xa4f5fbd89de5d9f3U, 0x8eef2bbfaaf5d5baU, 0x616c0b1e58c90bfU, 0xd900d00c25e4b189U,
  0x8b1412b7f3e1a88aU, 0x8dc0bc1222a1021fU, 0x512f8a2a4cfc5cfU, 0x89b1f2aedc81cbbaU,
  0x19b5be91079712abU, 0x19cd9ef4a08691efU, 0x8827a9ce1713c802U, 0xb8afaa82b5fb90f5U,
  0xcb08a8b29ff3efd0U, 0xd027190ca7e30a01U, 0x86d9e8f0d5d99b82U, 0xc2ef1da88306b3d2U,
  0xff18fb0b9a020716U, 0xd7dac6b3ba00988bU, 0xfb8e97ace9c1a31aU, 0xae12cd16a19ff40bU,
  0x90de8dd8fcb3baceU, 0x693c3bd152aa7b5U, 0xeb9e90fb8acc939fU, 0x9629f4038facc500U,
  0x84f7f6f7e7271f94U, 0x19a4181bbb25e8d3U, 0xaba896a996101abaU, 0xbcc3f791a0fdd997U,
  0xc5b3fccfc0b3e7dcU, 0x81fdf918c8eeabe5U, 0xba872ca6f2c9c621U, 0x8ef22bd5dbb0d805U,
  0xe0b68a9dbcebe9beU, 0xd8aa13bc93cccb92U, 0xa8b7e2dd00169fa8U, 0xef122120b7efe40aU,
  0xe220e526990222d3U, 0xe5c8a2bb1cdaffd7U, 0xc3d39d98bbd7f0d0U, 0xccbbf108259f06c4U,
  0xd7718fca20a421a1U, 0xa5f656c47330531U, 0xd11bc3fc1a5605dcU, 0x4f7af1d6dedf52e9U,
  0x33e37fce4fa1644U, 0xface510c4a27041fU, 0xd8ebdc100c235814U, 0xf81d0561e86fdf53U,
  0x44643a57454f18e9U, 0xf6e7372a5d7305daU, 0xf525f77f234c1647U, 0xeb3d0833203d551eU,
  0x6f445431602b5625U, 0xd43008f7055a31e4U, 0xe2d3dfee5b5ae64bU, 0x63013dfbd3520b27U,
  0xf8136830341b3d5eU, 0x43c6432633ff742U, 0x47e808675458ef36U, 0x411566f3d7c15106U,
  0xf4d83b33c448d9ccU, 0x8903da23fce0e386U, 0x95decfb729b4f6a6U, 0xf19ca526ebbf8dfaU,
  0xc40ccb2b9205e3edU, 0xcd86f0f096f495bcU, 0x930cc2dd0bdb8220U, 0xb389a5ad8e89f3a1U,
  0x19e5c388e48ef7f6U, 0xadefdc0f949c81adU, 0x1aabc9dea3ff25d3U, 0xcfc51fdf16ed218fU,
  0xf80fca27f0978ef7U, 0x8a0382fb8aae90ebU, 0xda839e16a91fb1ebU, 0xc0b4dda4e38bdeccU,
  0xdbeede218ad618f6U, 0xada61fceb413cb93U, 0xefcad582d703db0aU, 0xebdfebe22afb26f9U,
  0x950827e3e111f3faU, 0x48420f7ff7ec85aeU, 0x1f0b1146d93f2df8U, 0xef434f1b0de006fbU,
  0xdfe16d38da0d5548U, 0x3a4010ddf106ff4cU, 0x357e1d24451dec37U, 0x355b62d8ce40f2b6U,
  0x8c4d879c8ee5816U, 0x303af6fb0cc25a76U, 0x5f59786a0000443cU, 0x7542dd4c703549e8U,
  0xe5621c21fdc9d6f3U, 0xdfee2de817f1074aU, 0xee0a0323ed0b2135U, 0x35d0dc28f3ed0c10U,
  0xcce365ff73411d56U, 0x9d5d5b9da5d5d11U, 0xe871163978387450U, 0xf24ed5ee594d5f09U,
  0x44dfc6f8eb7238daU, 0xfd74d6561c3ad33eU, 0x25475df75f6e16e8U, 0xf639d2f11857fb6dU,
  0x4df3367131373f38U, 0x3a4852fc0930f3e7U, 0x405b39357fec494dU, 0x392dc362f6132332U,
  0x68ed5f415c0df233U, 0x47ef322c323867ddU, 0xf00df433e03f4a3cU, 0x586b23e42a710852U,
  0x123a445a343a6cfbU, 0xd2d064150b354dfcU, 0x1653600e17f56221U, 0x612a5a5f40795554U,
  0x3f20d5382f2f0727U, 0xc5bf5ed6f58fa16U, 0xd6613e3a0ffbd454U, 0xfb3d48e40733d55aU,
  0x5c4e1dcee963432aU, 0x3303b408f9d4e50fU, 0x6901ed6c5dff5379U, 0x4fe635d93d0737e1U,
  0x20654b46de1b62d8U, 0x3b576aff0d630223U, 0xe11a7024d93418fdU, 0x32224e06183df853U,
  0x52407034c2d0c441U, 0xf2fb13d4bbf22c50U, 0x7bc142cf3c21d131U, 0x491f07ec286266efU,
  0xe3e6df6f0d351e8U, 0x6f39f846d8f9cec6U, 0xf0fef1f53ed93f1eU, 0xf6251b097535d951U,
  0xe66fdd68611819c8U, 0x38501862121ad2f7U, 0x160b492428064edeU, 0xff3052daf07fd3dfU,
  0xd92e34bf297b305aU, 0x231c765f1042321cU, 0x2c3c70e05f52d237U, 0x2373576d385a31edU,
  0x132f104747f511f7U, 0x6641fd36efd70d5eU, 0x663edb235924d247U, 0xecd6d3f35f16ec61U,
  0x1be0eadb4d513b54U, 0xdd3cf364294d3bU, 0x3f3fdb2b35251ff2U, 0x2c12cb52080e1de1U,
  0x345611332534edddU, 0x51324153245f5e43U, 0x4a0c6419d1e8d94aU, 0x5e05154fdde9dc44U,
  0x59294007f5eb0efcU, 0xebf21d2fcf47110fU, 0x341d4a743d2e1cdfU, 0x4565eb5c1e25f872U,
  0x2a18ddfe7f0ddd47U, 0x1666eb55e9fd530aU, 0x6357d2f62659f61bU, 0xea293024cedcf60bU,
  0x5e2b4d5fee12240cU, 0x61f423272435c9d5U, 0x4e7362defa554434U, 0x2a7f2c1ce23b2562U,
  0xee582960c67fe70dU, 0x436f515afdf2d2e6U, 0x48146466f3d83645U, 0x581cdbf6f535dcd6U,
  0x4b5d09f5f20b6648U, 0x3520176916f9490bU, 0x544e3e4c4affe152U, 0x6227d7da44751e3aU,
  0x590a42ffc7d0264cU, 0xdef73d2e434a2bf0U, 0xdb4e603130e96cffU, 0xca0350242be21521U,
  0x3845073c555bd05eU, 0x630a31f75c702ae9U, 0xdee6393d00cffb79U, 0xde34d2f9f5314ae5U,
  0x5af93efa564cfd62U, 0x5d290648575f4b12U, 0x5dddf105dc4e2a0bU, 0x2a410d382e43e61eU,
  0x4dfe1b53ed62d251U, 0x424820db125af905U, 0x18fcf04debf8e108U, 0xd352e55ff9ef1c3dU,
  0x466056ee74f60d5cU, 0x9602b694b09455bU, 0xd15b2a39ee613a2bU, 0x302125b166f57e3U,
  0x637391d3c51e6daU, 0x125efd03f4ea62cbU, 0x5f114cda2bec40f8U, 0x3534de571edb324aU,
  0x555e507f42692559U, 0x201f1cfadfe64b51U, 0xfbef53e0ccea0445U, 0x1736cfe5c307e61bU,
  0xe8e44b124d47e845U, 0xde50435ff8e0e8b0U, 0xc64e26f51776e4abU, 0xda667043465534c8U,
  0xc428f4e53afd52bfU, 0x54f8dc1e8267d017U, 0x61fe476fea6e3547U, 0x39284febc31f2f18U,
  0xbe5f0aedc77b15f2U, 0x6809f40f2a47d724U, 0x76696acf48ccbbf9U, 0xe7c354491f30c648U,
  0xbe402cc74316bf5dU, 0x80b64be1b13f42eU, 0x3669e7f4f336e259U, 0xf15774d81b2e4c31U,
  0xe93f0b1b74507f3aU, 0x6836bcb6e7731afeU, 0x9c2e325844103e52U, 0xccdbfad1c7d345c1U,
  0xe0aec3a9e2ee10e3U, 0xd6cf13021200190bU, 0xa123982b3249d8adU, 0xd43845b91aca21ddU,
  0x94c4fda0cbe315fcU, 0xdff54afb1d415197U, 0xbfd1bd7bcac3084U, 0xd1eb0bafb6abe5d5U,
  0x2200e0edc648f750U, 0x37d6b1ac81320f3aU, 0x4cfb0e0de5b0bf19U, 0x56eebb36f2f2163cU,
  0xab1014d71f12ec0dU, 0xcf29939df0415423U, 0xf2ff4d3eca1ab331U, 0xf1339fbcbf9e00e7U,
  0x53d9ae9f9523cb01U, 0x4c3cabaabd345fdU, 0xb0d652a6a43bee07U, 0x665d66e4f51dd645U,
  0x3b0fdf1be9dc2cdaU, 0xa277f7b127753dcU, 0x6352582be00e24e9U, 0xcc342c4a59ed24ccU,
  0x6c7cfb105b4116e1U, 0xdd56640ff751ebc2U, 0x19627803085df7e2U, 0xe5db377e5027386dU,
  0x6f35144401eb734fU, 0xf8100827693537e3U, 0xe44b5a06e50671f9U, 0xeb0925cb16262b33U,
  0x1c674c197e1e357fU, 0xfa6f1774d9273937U, 0x445ff1f846492357U, 0x5df47ad92e1dff6cU,
  0x3ff77b1424085221U, 0x5ad8ed451010ef0cU, 0x645b0acbff671d1dU, 0x9b29bae41ecffe04U,
  0xff0fd3ec2b25208eU, 0xa6d836aac24bf525U, 0x4d0f3bedcdc70727U, 0x4d2ebf60f0d2ea36U,
  0x44dabaa6330da746U, 0xdecf8a422cc8c106U, 0x37019b12cb090e15U, 0x70634c2d9cdb331U,
  0xc9a0eaf0e6de1737U, 0xf7b634f4c9cdfa00U, 0x8f3f1cc3f40b3a19U, 0xc70b18e3ea812dc6U,
  0xb9e0a4f1e133f71cU, 0xad301ca0c137dff3U, 0xbacc41a6630c2efdU, 0x33cfccb1a19424cfU,
  0x6ce4febce7e0ff42U, 0x2141d82238469bd6U, 0xae00174bc9f31e19U, 0x32b08dc70ee4f25dU,
  0x132edd2219dc20f1U, 0xdec114aea8cabdb0U, 0x113ab1b7ac8e27aeU, 0xf3e024261df7a1eeU,
  0xf2d0db89c143a0ceU, 0xe0a633e7f0f33fd0U, 0x2ffbf51bfc81d8c0U, 0xb7bd073ab0a5d331U,
  0xd51db1289899dfb6U, 0xa892b6a4e2e3e38cU, 0x9916350c1de5e1c1U, 0x2fd6f4c0cb00ad05U,
  0xbf01eae93d06340dU, 0x84edd7053817b1ddU, 0x23cce2fe1ae7c7bbU, 0x3ca94a06052cbf88U,
  0xf5b9eab1eb9bfadbU, 0xc9d3832004bbf7bbU, 0x8942087f02898f7U, 0xdf629beabb4a7edU,
  0x991b0a1383ebee91U, 0x13e88122f0b397d5U, 0x8ffb9ea506f8e7bfU, 0x1fd8fed1000d0e8eU,
  0xfba02c14d02800d4U, 0x89012288e0f8a7caU, 0xe49acade2bc3be14U, 0xc7f205fe1a84fff8U,
  0x82fd1e1091f00aebU, 0xf8b3c90585c893c9U, 0xe10faee8f59db609U, 0xc4d605c6962d9d21U,
  0xc7d9e5f7eeeb8997U, 0x9ef19eeba8a78525U, 0x1ecda1e78dfdcdc1U, 0x22bc9f2ceec1cfbcU,
  0xc5d0fe0a01d6b4ecU, 0xed2e9dc32be3f8bfU, 0x22b0ed8dcbe328d9U, 0x2d8c97c1bfdd11d9U,
  0x8c11c691c508a787U, 0xeb09b71b248af49bU, 0xeeef0be6a0231eb2U, 0xcde9dfb0a29952eU,
  0x272fc1d018e4dc23U, 0xd2ae931debb41a01U, 0xaf7260dac83280aU, 0x28a5cb0dcdc105f3U,
  0xcdf7b8dee9e3b685U, 0xaa9c94d9b08fd985U, 0xa6151d9c81f5eea0U, 0xf0900ff5a317eb98U,
  0x2508c484b1f1f50eU, 0x26ee29bdafe101e5U, 0x2f9adfa3bde61f26U, 0x1dbcf800c7a10eU,
  0xd48a96cdd2e9c69fU, 0x10fc81d8d8cbf8feU, 0x8f25e0a486e022d8U, 0xd820cfd90a27d688U,
  0x1709d47ff0fe8504U, 0xe7301d381d437218U, 0xc5bd36c8d3e5755eU, 0x7d15247c2154ba27U,
  0x573f41495bbb5bc6U, 0x66601af21813d42dU, 0xe016f527d9203e73U, 0xdd43e83f5357211aU,
  0x7c370803daca23e4U, 0x3b16ed092bcd002fU, 0xd85d4fb44d3a3ed4U, 0x26d61507ccedffc7U,
  0x32f84af1e21c450fU, 0xde5316421400a0cU, 0x32361b0747ff0f0aU, 0xcbef690c1b3de5daU,
  0xfd31164a3afe7247U, 0x5afa7e4050004d05U, 0xe8dae06241333026U, 0x1a3a2aeed509f256U,
  0xc8dae7eede43e070U, 0x61ec5eb93a646c69U, 0xe5ccb1aff71666c0U, 0x316c8f190ad7ebe4U,
  0x61bfacdd1d7fd227U, 0xf3c815faba4a03cfU, 0xab492083b80e3454U, 0x2fedec27d9d0b541U,
  0xb999ee2f1f02b442U, 0x5acbb84af9bad06cU, 0x67b19affe6531736U, 0xfe3b365208416011U,
  0xe822ab6715233229U, 0x4d5c00ebe9d3d7c2U, 0xb58cb175370b1e9U, 0x695d28d2dc3a24aaU,
  0xd759707a11f0f5feU, 0xdcf7d220d97c1c1dU, 0x25bc9dca5e0a17cbU, 0x55e9ccfeb479e80dU,
  0xe2c068b8fb2cdcecU, 0xf1dadda7c7b2bfa9U, 0xee891115ccaa17d6U, 0xae23f7c72098a8dbU,
  0xfca18d0bdda94aeU, 0xde1886e6e09803afU, 0x13c4ad09a49dd9b9U, 0xf49dd4eced8808f7U,
  0xb429ca0705d71da3U, 0xe992900af000a3bcU, 0xd6e5cc2dc2af14dfU, 0x97e7a208011584bbU,
  0xca00c5fae3ff14a7U, 0xdc24bec39c99981eU, 0x90f0d189bd0cc695U, 0xaae4f6c4aeadf1cfU,
  0xc08581b9d7841bc2U, 0xebde21ede4e50acfU, 0xf1b43005e706df16U, 0x91bb10c88eb5de20U,
  0xa48b0fc41cb0e11fU, 0xf704bf4c4db988f8U, 0x9537ebb828d89f10U, 0xd90a07f6e913f8b4U,
  0xe22033c2fd0e2326U, 0xee0797b75005e3f5U, 0xd2b1fa09a24830c6U, 0xe28efdc8d115d991U,
  0xc700b25311bde5b0U, 0x1d06b6dffbeef540U, 0x3f38d9ec30fcaaeeU, 0xe00d0d04eef1cc0cU,
  0xccd2f61999aa58d0U, 0xdebe30c8d6081b0fU, 0x4efdc19207f601beU, 0xa5db42810e4604b3U,
  0x8ed4ea85b70395ecU, 0x1ba137fe1e3f3ff7U, 0x453dfe0ddfd63b31U, 0x54e5c78f40b6eb00U,
  0xe0dda8025592adabU, 0xcb1b62bf6bf09c7U, 0x27b10623e22af89fU, 0xfc0daa17d08d000aU,
  0xb7972be086101b29U, 0xe3bdb7252af60b2bU, 0x4e32de0f8bc1d01U, 0xdbb8df92a281e6b4U,
  0x11b8a49bf0c60ca3U, 0xf6a582d30bc7fb93U, 0xdc2112a302221684U, 0xc1a41df9b80e97e2U,
  0xaefeb2128f8bfbb8U, 0xffe718cbabbdc6f6U, 0xa0cea1b796ed02ceU, 0xbdfe88001c9f2d05U,
  0x9eb32097b9de8de6U, 0x14a88fc1ac9ca097U, 0x272895e0db1e2302U, 0xf3b4270ff3dfe995U,
  0xbd100992b5a9ef0fU, 0x3076efb712e08af0U, 0x393605214dd511dbU, 0xbd10e4018e21f38U,
  0x56f22ed002e51f39U, 0x3e0d3acf5e3c00d3U, 0x332e7222e51648ffU, 0xce0bef2b2066e231U,
  0xfb5902e5c449d05eU, 0x780e041b496c6d06U, 0x284b4d58f00a2f54U, 0x1e11e96214e25342U,
  0x35ff624ef5f440d5U, 0x2c205d480609f5fcU, 0xff23cf4c084be70aU, 0xe4002e4ff640a3aU,
  0xd4123b356221f761U, 0x284942320ae04cfcU, 0x23275fffdc4760daU, 0x2239376e4deaf318U,
  0x5151e55be7c87f4aU, 0xe06b5227f23e3e5fU, 0xe71ebdf88fa1f423U, 0xe4971bd79ef586a5U,
  0xb3fde5059df4ffe7U, 0xd481c91a2389f911U, 0xf40e22d0daa1b1f8U, 0x8ade042497ffc385U,
  0xc2e49bdde62af618U, 0xadaf89f8878adaa1U, 0x1ec5cab70cbbb184U, 0xfb97e6d5e7971fd7U,
  0x22aec8e78e9bdaf7U, 0xe9f1c6afb7c1ab0fU, 0xd2296cf1cd09011U, 0x8d1c8ebfa3e50cf2U,
  0x8df9c5e589efb0dfU, 0xa79306fcb0bb298dU, 0xa39bbcaecba182c4U, 0xb3a5ffb9b1f9ca2aU,
  0xf111cff9d6e7bb91U, 0xada0a5f6b3a2a6feU, 0xa1e5d7dae927d2d2U, 0x9be7950deba22cefU,
  0x98edb7381fd93493U, 0x90f5e9c185daf1b8U, 0x14fe1fa203c3e28dU, 0xf6cc12f3d33d0d10U,
  0x1fdadec602ff170cU, 0xec9c1be3d7acfc91U, 0x39f9e0dcd5a48be9U, 0xa10ab5e4d52715a2U,
  0x2d1a16cee2bd0de6U, 0xdd82f00fcaebdda4U, 0x8a8f87b8ba13fff3U, 0xe191f71dfabcbcb5U,
  0x250ffedfda8717ccU, 0x259fb1b12cbd150eU, 0xea9df7c5b6b1a9a0U, 0x4db199d81fad116U,
  0xf8c3c9bfa4370eb2U, 0xd284dfdd10bcca1dU, 0xe4405f0f1d351a9dU, 0x1dd7e063f5505d1aU,
  0x2d675a55e8002464U, 0x19d22c2c03171105U, 0x33105b6922225a5eU, 0x6939cedb406b28ebU,
  0x71c3e6824fb5cf1U, 0x1b6530562c0dd5e3U, 0x5f1ce5d8225feff2U, 0x49414c5b703d0326U,
  0x67015a0660341f21U, 0xe945522f51f829daU, 0x2dee67fd00657fe9U, 0xe0eb03ef2a6f2a3aU,
  0x6d1c2ff0080c63e1U, 0xed1a5c1625623109U, 0x17254adf1a3b7821U, 0x11010b17fadc2712U,
  0x3b362b171e2add68U, 0x153540eb52e25804U, 0x2802413b3d414004U, 0x6a13d6f36a51fc62U,
  0x102f3815df332a63U, 0x39da6073f5d8f547U, 0x167ce539d9154828U, 0x93c4d0cefe26cc2U,
  0xffe70b2bf9f53fd4U, 0x104e704557016711U, 0xe6748fa6de1dc61U, 0x29d23ee9cdd9df63U,
  0x2ee05c2fcfd6cd5aU, 0xd16f7d9384c26ecU, 0x54130b3628365a3cU, 0xe32ad2e303da1b66U,
  0x3d670021e535ded8U, 0x17187f4429da0cccU, 0x1147d8e97e2b6557U, 0xbf22951570b5245U,
  0x6c62662fe4f37628U, 0x29dacb3966e2161eU, 0x4436d0ff501bf15fU, 0xf7eace50615fdb9aU,
  0xc79daa5fe1392e45U, 0xd8ff41d34029f719U, 0x2eba1871c653cdaaU, 0x70eeb5b9f5470c2bU,
  0x4091cb192eba44d6U, 0xe385e2b659b2421aU, 0x714e433f057f625fU, 0x5be516c4a53863c1U,
  0x332d4257f6c7690aU, 0x3164edeed21548bfU, 0x62532b0548423026U, 0x6207fd4ad1f1d49cU,
  0xbe32152245ffdbf2U, 0x313fd8c7c1ac48f7U, 0x346c362c1db5f25aU, 0x1436021e5d64fe50U,
  0xd3cf1c11584fd5c7U, 0x4cdbf371630602c6U, 0xeec944b656ec49caU, 0x3427e50d68ec3139U,
  0x723354230fdafd46U, 0x67d51f1dfc0bf109U, 0x6e42ef0d745c4433U, 0xc130c2cf1ec4fd2U,
  0x2f212de2ebca6124U, 0xc751e319e6210c59U, 0xfb013e462030d200U, 0x21031cd07e2064f4U,
  0x17f420552d1231e3U, 0xf423f73322172458U, 0x7f720d1b0259f56fU, 0x39592fee0bf8ea67U,
  0x58eaf761031bdafbU, 0x186574323d471033U, 0x7f5befef5b1942ecU, 0x2658ffe73dfd5212U,
  0x332862043a4bddffU, 0x2d064d1838f241e1U, 0xf17d183236345053U, 0x27f6d7762a4bf747U,
  0xaf2157c64b74bfe2U, 0xa3c02aac6872e3baU, 0x532a5b7fbb2265f9U, 0x19df0cbe645eedbfU,
  0x542f63d603ade645U, 0x2df04f19113eab3bU, 0x1841e155d24554e1U, 0x53190bd32fc0d538U,
  0x27df31e7344ba72cU, 0x2b3000a81e44ac6eU, 0x333331def368e120U, 0x412a6e273042edadU,
  0xa2fca9537daf4823U, 0xf61a6c75ccd9fbe0U, 0xe2b94326eab1c0bbU, 0xcf056916cdede5c7U,
  0xa9ff02723469344dU, 0xbe6c2419b428dd22U, 0xc05b3deb5f596c34U, 0xf362f95b68d148c4U,
  0x24fbd3233a2130eaU, 0xf8404970d94521f1U, 0x2a29d7e356d61e47U, 0x5464bf331e100f7U,
  0xcbde265c06e63ce1U, 0xf57709300c754d62U, 0xf5520f645452624U, 0x651065190550ea39U,
  0x3bd61fd2c620053dU, 0x56260959144c341fU, 0x3b61df700e1342f6U, 0x3b0edcd06a5d1c27U,
  0xfc122c4dff2bfe57U, 0x362c0e5a22113dd1U, 0xe87f5f6640ee58U, 0xe01e3e483d0be562U,
  0xfe3a6dcb442818ecU, 0x522a5374346e5653U, 0x5d750cf1f7281614U, 0xfb0f55f3117007e6U,
  0x67435643170acd27U, 0xcbf2c32e7f3f3c45U, 0xc7c1e725e2ee0ad1U, 0x3d40310bd210666dU,
  0x21071d62e75c1618U, 0x48e3fe503f32f82cU, 0x286dfa60dce6ca70U, 0x6c6337f6e1dd4004U,
  0x4cd1f7f8443f645fU, 0x523313c33611032U, 0xc612203c465560f8U, 0x2bf56040165a1c37U,
  0x3e5cf522f5f0c10U, 0x1a302be719344fdcU, 0x2ac9d10f47e716e9U, 0xcbe4cf2ecf04903U,
  0x252e5753d6090105U, 0xf623c8136a173614U, 0x4f6a3ee04d24c966U, 0xce3e042b5bba2609U,
  0xc381c29f7e2f05bU, 0xd1067acb3549365aU, 0xe6dcd21635c2c407U, 0xdd493be6dd3cb14eU,
  0xcc1cc54b5566ed2aU, 0x3d32033114e4edc9U, 0x96c541b61826f4e2U, 0x33d3c6393c161115U,
  0x21c8de4b50243bf2U, 0xbe2e2ec12154b0cU, 0x7f01f2ed44f4d146U, 0x66f24a25302357f5U,
  0x4214cee43001cee4U, 0x4934fadf194114e6U, 0xf66a08f6fc024d6aU, 0x2c0bd6ef35ebe2ccU,
  0x4b2c5f5c54c46ef4U, 0xf659136747fc1bebU, 0xd3a28c61264c835U, 0x49cd50e969541101U,
  0x3e09f74339de5ad1U, 0xf35f0063340760f3U, 0xe7fb15d761642510U, 0x3445fdeb581b6a77U,
  0x2df1ecf637e1d9e4U, 0x4a3e1eeb254f035fU, 0x36292021ee130450U, 0xe5ece217450e216eU,
  0xcfd2e3708e37674U, 0xf5f2f3491f273d6bU, 0x43474de66115450eU, 0x492752f9ede05917U,
  0xec5e391749f40779U, 0x180eda75ea65244cU, 0x271c22f51673f211U, 0x267e732d7f5c22cfU,
  0x3714d35e19d7e9dcU, 0x6b6363e74c5e2e63U, 0x4f300662403d0745U, 0x8ff02190423681fU,
  0x13e6eb324545134cU, 0x2cff8338b99f98dcU, 0x32c69c07dbdd050eU, 0xe7eef1e0d0e72121U,
  0xc111d5e51ccdc2e2U, 0xa5a01ba4adc02c93U, 0x992dd9e4e19bc907U, 0xeaa390ef03ef94d1U,
  0x2e152d941ef6b019U, 0xfbb928f7a3022d9bU, 0x9b8d38388a0e818eU, 0xbeb8a0330b7f127U,
  0x712abd61729c7d1U, 0xc1e4ceaf823123ddU, 0x8ae60bfc22c19adeU, 0xea91a8b0968d04eaU,
  0x2c0c05b5ddc4f704U, 0x98c485f708e59b9fU, 0x3948c0b23ae4112U, 0xbec21ac3cec81720U,
  0xcc0994cca6eb96ccU, 0xf827fc4c0f0fecf9U, 0x3bf028e600721b34U, 0xde7e7e4603d4e5eU,
  0x62d2336d3c4802f2U, 0x67efe32cf91d3553U, 0x5f570b1a2c4c5c4dU, 0x4e20c75e5a38d721U,
  0x34b3805354deae5U, 0x664ae2224b26331cU, 0x620be91750641ad8U, 0xd5e7304326566659U,
  0xe2387f2f355f5ee2U, 0x2f6a49f11d2636fbU, 0xe76df2e9c70dd74eU, 0xfa3d3f2924e44758U,
  0x4bf66a2d40403674U, 0x1d2ff166e753eedfU, 0x18fdf73c2a49f72bU, 0x226bd73ff54fdb63U,
  0xef692969dd253238U, 0x1fd3dea5cdeff81aU, 0xdac222eee7b6abfaU, 0xab0c8fe20f34ea01U,
  0xd5918ac3e196cc8cU, 0xffe899c9ef12261aU, 0xbed7d587c1e023abU, 0x3006fcd824bbf0d2U,
  0x391dc9b9fdf7fba4U, 0x368e969de5261df8U, 0xf8d9d4058face8a1U, 0xfce22c90ae825deU,
  0xa2f312c4e6c6ed12U, 0x25e7f0fd1cacce09U, 0x2f00a8c70024ae81U, 0xf3e73e2f321dbdb1U,
  0x50622feb4c20501U, 0xe7a70a26e28b0df5U, 0xf69ba310192ab0a5U, 0x1cc3fc1e08a61696U,
  0xb9e6db10c6d01dd7U, 0xb4278ef611350f2fU, 0xb19619eea4f2d78cU, 0xcee7d1d7bcbbdcdfU,
  0xb28eb81df5d2e907U, 0xb3b29d052dba2485U, 0x9cf309f8a206c8c7U, 0xa60426e0d5afa785U,
  0x819d1db983239db7U, 0x9424ffe5fced9c8cU, 0xf1cc14b4c89bd98bU, 0x8689630fad55a89dU,
  0x9f9c06c60efdb005U, 0xee03f1fd1b82a753U, 0xc018b895aceb0db6U, 0xf6b7b197ccc4d19cU,
  0xe6bb8ee33e20c80cU, 0x9d0fed9e428f219U, 0xd11d22e8ca89cd99U, 0xa2ef2b2a978da211U,
  0xf317d84001a71ffaU, 0xcea699e9b09eeee5U, 0xfdd9a220adaffe6U, 0xcb27bba712a796e9U,
  0xeb1afcfa9bc417afU, 0x1ed3ae9bb10f14dbU, 0x17f587e89fa8a71cU, 0xdbfab9eae2fb8c00U,
  0xaf12cc87e08218c7U, 0xb7b2c60c06cad7bfU, 0xe1ffe708f48696f5U, 0x8841beb9bf2ee06U,
  0xbb08a9d0f6d80dbbU, 0x968bdbaeb8ee9de5U, 0xa8152210dcf1a5c4U, 0xb8a8e7e5ef9701eaU,
  0xbf049a95219107c0U, 0x2281f79398d184f6U, 0x2e7d8eedd0319abU, 0xa79ccf9c210ee0f6U,
  0xfde8ccc2a0b6c689U, 0xebe1e7140c9f04e8U, 0xa7e2e2c5f82aa5f8U, 0x5b69ae3049f14c7U,
  0xc9e712a3bfe5acfcU, 0xb4ce3fa4d0a1d69eU, 0xcd6b5afb3debba1U, 0xf3e39fe2adb4b407U,
  0x20170aa4b4f20bb8U, 0x28fefdc3ebfb2233U, 0xe236c0d3e521aaadU, 0xfef989ff2b901b93U,
  0x2a36ddcde516ae86U, 0xcc0cf5c0f5c9a2fbU, 0xd1d01edef9b2d081U, 0x940ffdfeffeac8aeU,
  0x9c2ec1d2c6a61be6U, 0x8fbc30d507e8102fU, 0x1abcaf971a21e5edU, 0x1fc5d72310fac9dbU,
  0x16f900231feec29dU, 0xdc9ec5aeb1e1cdf4U, 0xe500a717d72095b0U, 0x1fb00aab160b8e89U,
  0x99d1f29e180696fcU, 0xbbde3a2ec03bf0bU, 0x9f0218a0c69881d4U, 0xf9bab0faabd7019fU,
  0xe7b8868c222e0303U, 0xf3c9bba100fc0f44U, 0x2cd46bdc989afdaU, 0xfa9adcba819ea0b5U,
  0x10cd41e39f0edfedU, 0xcd9ad6b81fb69dfcU, 0xc81bf5ed0da1de09U, 0xd11e5ae0abdf5d3U,
  0x12a2fad5b50acfcfU, 0xb0f72d0f18a999e4U, 0xc3c016050e2381edU, 0xcd0d1d86e1b7eb22U,
  0xc0c7020782b4dc03U, 0xc2a5e4190acf59d5U, 0x47e64542fd23869cU, 0x4d710e41ee206d30U,
  0xfe3e57db33314dd6U, 0x2314186b5ff31621U, 0x2f2dc3eb61f45339U, 0xeefb46f20aff4134U,
  0x326adb45fa0de612U, 0x3735184547511972U, 0xef257137e4205321U, 0xd310ef032a152214U,
  0xfed314fa302e2a21U, 0xc7d66e21509160fU, 0xc71402b14045545U, 0x2df7c843eb2bfd56U,
  0x522825ec0f52470fU, 0xef36da2e7fef4107U, 0x19216457f8082bfbU, 0x4e63386c71305155U,
  0xf5762f34580710d9U, 0xdf5d69f01c06dfdaU, 0xea21dc2ecceede7eU, 0xbc9ed29ee93004f8U,
  0xa8b5da8eb7e69f26U, 0x95a7aa890b2bba19U, 0xbb348ea001bfc499U, 0xffe996b0143ac7b0U,
  0xc8b31d3b06e1d790U, 0x89f095abb3c9e0a2U, 0xa2228ae1fb272321U, 0xa2c52bf9ea07e2b5U,
  0xc4230daaff0f1111U, 0x97d309eda58ea2c0U, 0xdd2627cbc0dc021eU, 0x37cca58133a3d51bU,
  0xb3b489ca9388a626U, 0xdaac903c09baf5c1U, 0x91042b22ce2317e2U, 0x9810c1dad08eff20U,
  0x1d030b9633ddfef2U, 0xc52923e89fc68ac6U, 0xae15b79cd182a4bdU, 0xfa00631a41e70fe9U,
  0x2ba0081cdde73421U, 0x2f3bfa113c403a21U, 0x5569f22c462d40e3U, 0x135e232bc220304aU,
  0x3982f2352f22483fU, 0x2fa902132311279fU, 0x1ef914eb42122542U, 0x253928adc4f575e1U,
  0xe8e12d0f07091b18U, 0x58ff2b10e51a430cU, 0xf5bffbb2ce19638U, 0xb42318f16b7f02bU,
  0xcec481bbfe2cfc30U, 0x54ad2195bdc5e291U, 0xb294cbb794e1a3c4U, 0xa19d19409ac89eb1U,
  0xdbc5bac806d149a5U, 0xc4c2a9a827c8a317U, 0x81d08cd7fdaa8502U, 0x9a952020f8099ebfU,
  0xc71128d3eae22d89U, 0x82158720c9bc22f4U, 0xe7d1a7cb16f6d1e0U, 0xf99e92ffdafdd811U,
  0xe18fcf21f79cc11eU, 0x1ee588b423ec14b6U, 0x9fcd81fcfee212a9U, 0xd4b799229bb29ea5U,
  0xb9c90feafebbc5e6U, 0x2805d88de7f6088eU, 0xd2cb39dd0acbcc8U, 0xc0fce8c51e219e2dU,
  0xdbffb2a0b305189fU, 0x99e2e1df22890125U, 0xd40ddcf8c9d00f89U, 0x24ae1de9bd0a9596U,
  0xf195a9871ac3f4b8U, 0xb3f8bd2f94fe9efdU, 0xb822bb219989bafeU, 0xcfcbda6ea1eU,
  0x1810000046bU, 0xfffff709fffff6e6U, 0xfffff70100000ca8U, 0xaa800000d03U,
  0xcaf00000919U, 0xc2300000d13U, 0x17600000ac9U, 0x4cf00000ea2U,
  0xfffff71dfffffe70U, 0xbe7fffff79bU, 0xfffff7550000069eU, 0xfffff74afffffda0U,
  0xfffff6e400000c29U, 0xd12fffff882U, 0x43100000d33U, 0x85e00000d68U,
  0xaab00000b7eU, 0xdee00000706U, 0xd9cfffff9ffU, 0xfffff702fffff974U,
  0xfffff96bfffff60bU, 0xcaafffff6e3U, 0x85bfffff8f7U, 0xec9b1aa5fffff7a8U,
  0xa3f58eb0dc7f7f4dU, 0x817f0d777d817fd2U, 0x817f81337f81dd87U, 0x3c36e47f7f816481U,
  0x4304227f7f2a8130U, 0x5981727f7fcc007fU, 0x81475d7f7233cb18U, 0xfaae927f7faa4625U,
  0x42d0b681065db253U, 0xdb81d23a77607ff1U, 0x2481bdce3f7f3f7fU, 0x8140815bc37aacdcU,
  0xf87f7f717f3b6181U, 0xef3c816a57e21381U, 0x2ae7202f82137f81U, 0x81cc81ca71663cbfU,
  0x8137813681595477U, 0x827f8172U, 0x0U, 0x0U,
  0x0U, 0x0U, 0x0U, 0x0U,
  0x0U, 0x0U, 0x0U, 0x0U,
  0x0U, 0x0U, 0x0U, 0x0U,
  0x0U, 0x0U, 0x0U, 0x0U,
  0x0U, 0x0U, 0x0U, 0x0U,
  0x0U, 0xdef3f4a600000000U, 0x40ad2bddf0b7e4f6U, 0x39e92a8aca3924e9U,
  0xfd08521fbce9ced7U, 0xf014f32eb4d0853fU, 0x8d069f0a55c0c814U, 0xb02090ae88185aaU,
  0xf8fe02fc07030b02U, 0xf7fd0501fe0403f9U, 0x1fdf30605fa07f8U, 0x201fd0afa0404U,
  0xf60604fd02fd0c0bU, 0x8f8fb0af87f0e09U, 0xef040303ff090410U, 0xfafe07fc05060df5U,
  0x80b04fff507ff01U, 0xf3060400fcfd07eeU, 0x70610fff105040aU, 0xa5ffb22efb7f0b12U,
  0x17ed17ef95d224beU, 0x210144b281352362U, 0xfaef4bdcfb8c7213U, 0x7356dc98ebb9610U,
  0x2779e9d06683b3edU, 0xf059fb9ada27b084U, 0x76fad416fff1c98fU, 0x4efb50c82937a82bU,
  0xd55d09b11ca6306dU, 0x730278f581c88451U, 0x88d10320fcd2b9e8U, 0xfdfa07fa452097bdU,
  0xee0fff11fafd0307U, 0xfdf9f4fef90601f8U, 0xf6f4f6fff906fbfbU, 0xf1f6f00b0f10fdfcU,
  0xfa04fcf3fd080100U, 0xdd18e389f77f0200U, 0xf402aeb781abc01eU, 0x3a134a16ef63bcefU,
  0xee1aef28f6a0c7f0U, 0x6225f809a0f0bf46U, 0xc222f64f0ae823ceU, 0x1f10ffd21060504U,
  0x70a11fcfe030af9U, 0xfaed0703fdfd0ef8U, 0x2e8f515120ff704U, 0x409ec07000c07f5U,
  0xfe02f8ecf704fc14U, 0x18e7bd8dfe7f0613U, 0x60a930e4ba28d929U, 0x1ad776f191719f7fU,
  0x81f6b0f0c96d4fcU, 0xe7165c2090deddd8U, 0x62a9d052bb3eee6U, 0x2b032df0082811c1U,
  0x11bbaed1a2e3cc1aU, 0x455171198c2feff7U, 0xe902079acbd98df4U, 0x57eb4583eecb2626U,
  0xa5d526080dc1eae4U, 0x95dcefe97ff6b381U, 0x6c03c3818ca9a5e7U, 0xfccf20c9de78cf3cU,
  0x8e7f70ef094b6d8U, 0x6f00f526e5a71929U, 0x950103590ab9a5a2U, 0xc06fffdf804c9a2U,
  0xf702fc0b02000208U, 0xf5ff02090d020602U, 0xfcfafe08ff0c08fcU, 0xfdf3030a0206fef2U,
  0xb07fcfe00070e0aU, 0x5fd0af77f0205U, 0xf3010df908fb020bU, 0xf8ff06fb0ef612eeU,
  0x7ea09fcfffa0ff5U, 0xfdf1010b01f708f1U, 0x4effaedf00b0811U, 0xfb0a04f9ef7ff8f8U,
  0x10dfbfa020403faU, 0xf0f8fcfe0ffb0d03U, 0x800f51103fff503U, 0xf7f5f90c040afeeeU,
  0xfe05fb02070902U, 0xb8d51dfa067f0901U, 0x3fe8070508de05e3U, 0x1040cd3871fa372U,
  0xa5e94811dafd9204U, 0xec157f0d08b50b1bU, 0xd328c13360abe0d9U, 0x302fa0325b68f86U,
  0xf90c060108080501U, 0xfefcfdfd0a0207f5U, 0x80dfefdff03f901U, 0xfff5fcfa040a0700U,
  0x5fe09fe08fd0dfdU, 0xfe040d13f57ffe01U, 0xee15090d0ffefbf9U, 0xf701fe1413f701eeU,
  0x40c04fd0e0af4f0U, 0xf20b030d131714f7U, 0xfafb03eef20efa01U, 0x8f3324b3fc7f17fbU,
  0x7ed2eee2c4b0c5a4U, 0x276266d39c00e209U, 0x166a0bdfac21ec49U, 0x674e1a2cb4c22b7fU,
  0x9976d50c240a27b1U, 0x406f7fdf5e8061fU, 0x5020a0cfafa0d02U, 0xfbfb010e07fb02f6U,
  0x2010302f50706fbU, 0x2f6f100040c0af5U, 0x2000bfd050500ffU, 0x8fefa14047f0d0aU,
  0xf4f6fb070f12080cU, 0xef020106120807f9U, 0xfaf7eefafc0bf4ebU, 0xf4f0edfd0f1502feU,
  0xf7f214f40606050aU, 0x808f904f17f0202U, 0xf60400f90d00030eU, 0xfffd01100104fc03U,
  0x2f4f7000c070af6U, 0xf305050109fb03f0U, 0xfbf306fd04100dfdU, 0xe80c0107007f0c02U,
  0x1da3d8f3d2cbbd29U, 0x5f1df6efe4288119U, 0xb64f0becab279609U, 0x19702b99d894ee1dU,
  0xd7c4e2e1fef312e0U, 0xfffc080dec1fd9b4U, 0xfeffff00010aff03U, 0x104ff0f0e0006f3U,
  0x4f9010f030e00faU, 0xfff6f205fd0609fbU, 0xd040ef9f6010208U, 0xe39b9ff057ffe0eU,
  0x75961207091cd8cfU, 0xe4017a050c51ec68U, 0x9337f9d15002831U, 0x6b25330986f8cc58U,
  0xa31ffed3218f0badU, 0x14f7110a00bdb999U, 0x70ff60507fe0a11U, 0xef03f20509fff5fcU,
  0x900fd06f7040a01U, 0xf60109030a030c02U, 0xfdeffcf301010a06U, 0xf857ffc4037f0411U,
  0x4aedf8addae69795U, 0xe02e62e7f15c127fU, 0x1ad67cb5caeee54bU, 0xe0024b10f87fc12U,
  0xc4af4d877aac28eU, 0xe6614b8a4f091ee4U, 0x31deff05b4a495c1U, 0x66175ed51406dcdeU,
  0xa65fe59fc78dc07fU, 0x783152c0e4aec552U, 0xd4a78b644e0ae9bcU, 0x54d7ed026d8503fcU,
  0x7f81e1f6d6df9f10U, 0x15136e92c614c2e5U, 0x21e0240cfc159d74U, 0xcd45031517ca18U,
  0x7ebdb9b52fafbebU, 0xaa0401c974e5cbbaU, 0x19961cd9ee06c1b0U, 0x5cdaddadcff60962U,
  0xfc0af324bdaffedbU, 0x42fb40d10ea7f849U, 0xe41a094153971fbdU, 0x2e283e030296e881U,
  0x7fa706c8f7af99dbU, 0x1774ec8cfd62bc6cU, 0x77124ba4f961ce6U, 0x70de4d2a09ef641U,
  0xd3f28e7629fbe5eeU, 0xe1c27b90f0cb7abU, 0x41d907812015aa22U, 0x5c723704b370b324U,
  0xf1423615f6d9d509U, 0xdc73ed11b6b6b841U, 0xfa32c345f212dcefU, 0xb22407e24393d7f9U,
  0x712b13b6e20afaf1U, 0x7fd336ccc81836ebU, 0xdec40b8f31321922U, 0x491944bbf52efb65U,
  0xaa6718156ab2ec8fU, 0xc243478eeefda18cU, 0x43fff4f581f4f114U, 0x19025cbfe61ba556U,
  0x2415f5b414bded5eU, 0x6e5177e3ec09af76U, 0xd2ff9e1a29ffd300U, 0xa9650bdb47f500acU,
  0xf6b6e4f4aefaebcaU, 0x2460f7c1c516162aU, 0xfb387fedb7ad5f01U, 0xecff6922b9bdeb2eU,
  0x84de4d94b06f7dcU, 0x1fa120032de9f24U, 0xf7fc05fdfd0d0e0aU, 0x1f10d0809f20306U,
  0xceefa0c0b0bf400U, 0x6eef40609f807f5U, 0xfb050b06f0fdfd15U, 0x8c1bca23f47f0f0bU,
  0x288b920f083181f0U, 0xedcffebdbcf88b02U, 0xa4646adea78c4bd9U, 0x1b3c1f1084b6fe0eU,
  0xe6e0bffc3fd6bd83U, 0x5dc23d7fa0a24acU, 0x47acdb322ea386a6U, 0x6be863a0aace0853U,
  0x285a2fdbf2268b79U, 0xd3fbeceacb84f86bU, 0x96cf8103e2ac1012U, 0xd74f491b1ca088caU,
  0xfb1d03899801f189U, 0x4c41f1b7a819ba09U, 0xd2e92fd6e6fca75fU, 0xed390812bbad9809U,
  0xec02c32a39a6d081U, 0x127bfe9ef8fc020eU, 0xf208ead60c311f0eU, 0x37467f15b406040dU,
  0x45daa7e8e3df44U, 0xf23a422597d40746U, 0xb710a008d4a3e781U, 0x6f9fd065ac8f28dU,
  0xf90402090704fcfdU, 0xfcf5050a02000afcU, 0xdf3f507060509feU, 0xf70504fb0b0507f4U,
  0x4070cff04060005U, 0x9f20010f87f0d01U, 0xfa02fd08f80008fbU, 0xfb0203ff05f2fdf5U,
  0x4f3f81106020ff0U, 0x800f2fdff0807f7U, 0x7f1fcf1f0131201U, 0xc037bcdcf07f0a0aU,
  0x1294f0cbc4b7d09cU, 0x3cf157ecc9fcd15cU, 0x303558cf0e82071U, 0x1d15ebef0a81f3eeU,
  0xdd1a98dd38c5f6a1U, 0x2f6ff1fc380015bdU, 0x7881b491ebbee5dfU, 0x6e615ed19c67fc69U,
  0x73dc2ef90da0007bU, 0x686de2beb7f3da35U, 0xdb59de3d1119961eU, 0x7ff01ffd3e3920eU,
  0xf406fd03000f030cU, 0xf3f903fd00090e01U, 0xafaef020008fbf0U, 0xfe06010306fe03f1U,
  0xf0410f102011010U, 0xe230b5c2037f0809U, 0x1bc5a291bef9f3a6U, 0xfbfaeb9efc1ded5aU,
  0xdee537fca722167fU, 0x32f8fceecee7c473U, 0xe3faa1e0f6f007eeU, 0xfe0808fb4fa30b0eU,
  0xfb0a000b04ff0b07U, 0x103061309f9fcfcU, 0xdf70411030c03feU, 0xfafff204fd0c0dfaU,
  0xfa08fdf7f700feffU, 0xfff6f1f9f67f0506U, 0xf1ff0a08fa02ff0cU, 0x401020206faefU,
  0x6f2fefdf6fa0b02U, 0x1ff03f9fefffcf3U, 0xafe08f700fd0603U, 0xdd2f4221ef7f0901U,
  0x5bead6ace4dcd5c3U, 0x681f0bd5c3dde92dU, 0xaab441dff02003fcU, 0x34fe2701230fbc59U,
  0x1d030c36f320cba5U, 0xffe0d0d3e0bca81U, 0xf20202020d09fd00U, 0x105f8010508fff7U,
  0xdfcfe0006f9f6U, 0xf900f2fbff070ff9U, 0xf0308f406ff0602U, 0x10bc12d5f97ffb0bU,
  0x58aab41dc741ff26U, 0x2eb5dbcad92739f3U, 0xf9204aadb8221ec9U, 0x2e6039eea58dbf46U,
  0x5ecf7f40f5b6053aU, 0xfb040104e3963aeeU, 0x2040500090507fdU, 0x3f7fc0907fffafcU,
  0x9070000f900fef5U, 0x401fc0a0c0504fdU, 0x1f9fe09ff060e03U, 0x8512b9f3037f0701U,
  0x28161a81eedbc50aU, 0x4341619a8ed7f8fcU, 0xe2ffa14eaf550f2U, 0x1445ac5f6f5252fU,
  0x1fb598d051f629dbU, 0xaf9f80fea8c9dcbU, 0x7060407fb0e0210U, 0x3fa030ef7ff06f6U,
  0xb03f605f8100406U, 0xf407f1f8fa100d07U, 0xbf6fff4010e110fU, 0x202fefc067f0d10U,
  0xf9fd0b0a0ffb100dU, 0x102f40d0e040406U, 0x605f412fc1009ffU, 0xf6f2f50cfe070dfbU,
  0x8fb05fc060f120aU, 0x150df902fd7ffe08U, 0xee14f914f5fefbfaU, 0xf8ea0208faff0aefU,
  0x15ecec130b05f9fdU, 0xec0b03110af406eeU, 0xb0712fbf20cfb00U, 0xe7f589d1fe7ffe00U,
  0x1ba5ece6eca686a1U, 0x34447b06d04df77eU, 0x8739ee28efac587dU, 0xd36265c2acb0d6faU,
  0x1838f26e06a481d5U, 0xa7e813196019b2a1U, 0xeff3c59bd6cdaaa4U, 0xf8330a09e7f0fa49U,
  0x1bd5222da5ed0f0cU, 0x526f31a61df7ba5cU, 0x18e6a2551e81c492U, 0x882d32d60cf0aaa1U,
  0xf39f07d0a2c51f2fU, 0xdd04232ea4f3c9f0U, 0xda6ce006c920b647U, 0x6b486e86fc1ebd4bU,
  0xb0ede8fb099b1081U, 0xfc05fb01e80a161bU, 0xf601020709fdfbf7U, 0x20c0e0105fdfff4U,
  0xf50cf40306f4fffcU, 0xf4fbf40405030ef4U, 0xf3f7f5feff1006fbU, 0xdf1f907017fff0cU,
  0x60e0cff021509f9U, 0xf5f6f6060cfb0007U, 0xf6eaee17f1111501U, 0x4fef10304171002U,
  0xdf1f9f7060a0312U, 0xf2f69cb0ef7fff0eU, 0x21dae0ac1a02bf2cU, 0x4071052ed7258153U,
  0xf7142b1923b5c86fU, 0xf2df5fd9e515c061U, 0xfc5ec114eab203f4U, 0xe0538ddb5dabd5c7U,
  0x51e13cf9724ef12U, 0x14356195e1fd127fU, 0xaa1245ccb10b14f4U, 0x527449c6b8e1c41bU,
  0x9de3173e2eca28cfU, 0x1f7fb0818e5f4d0U, 0xfe0107f90afe0406U, 0xf903090006fb02fbU,
  0x10f3f5fef90bf706U, 0x204f8ff09fbfdf8U, 0x2f507f1ff020707U, 0x8635e3e0007f0effU,
  0xedb4bfffe29d810aU, 0x192f09efaa30dd23U, 0xbe48df1eab1a592fU, 0x7cf07aecf20b211fU,
  0xac5024737b039599U, 0xfb0804fa370ac5faU, 0xf10b0908080606feU, 0xf8f8090602fbf1U,
  0x9f8f9fbf9080106U, 0xfd02fefa0805fe04U, 0x5fcfdf1f90f0809U, 0xc542e401047f03ffU,
  0x43d804c2f1f7e42bU, 0x3d590fc89f2f1c10U, 0x8c0df9a214d7bc21U, 0x11e47dabc3f3862dU,
  0x103de22bfb8114eeU, 0xda33f7eb0f24291cU, 0x3a0ae5bee99b8c29U, 0xe51e031a8a4a87eeU,
  0x2ff761d01fb089d9U, 0xec1d7fd1ea07cf12U, 0xc71b8c00d0e18ebeU, 0xff65c8131f232ee2U,
  0x7f9085f9e5a11bbcU, 0xee64649a1bed024dU, 0xcd1d2eadef84fb1bU, 0x772c101b9e858444U,
  0x8ad5bbf6e89128aeU, 0xb66c0bfd1ba92e31U, 0x69fcc2a7b010b9c6U, 0xe33efeb3dbdacbf6U,
  0xf3db6f238423ba0fU, 0xe05c67bb01ccc07fU, 0xd53dc1e0e3112a0cU, 0xb0580aac24c72201U,
  0x7299fbc505209614U, 0x1e22fb0bee220228U, 0x23fe16a4810e5e5dU, 0x4e0147d51697b4f2U,
  0xbf1a1e013dffb8d2U, 0xff1ba4de4ed7eebaU, 0x7fb1f7cf8fa4031dU, 0x46752db49a6897d4U,
  0x1cbf068501c07be4U, 0x416051f9cacefc3bU, 0x140e9ca7ef9a1cb5U, 0x282e52fff4b70f1aU,
  0x75d2efa1f3191f19U, 0x7ddadad91fec9164U, 0x13e23da1db342063U, 0xf843f4f4dff5b139U,
  0xe323e74409aaa0daU, 0xe7eab0e5268199a8U, 0x24ecc6b096f283b6U, 0x593b4d25b31e077fU,
  0xdfd621a520d3c574U, 0xe1585e1fce24e47dU, 0xe73d0d964cc2c10dU, 0xef7f3304ef86e0beU,
  0x3d1f05d0afbfe0c4U, 0x67225ec4c23bae43U, 0xcdc053252cfb1721U, 0x32293e18a9f325feU,
  0x1467191845a8d2a7U, 0xb74ee210e1c91799U, 0x3fd1e0e2c0c8c0e0U, 0x4e20d9ee20f2837eU,
  0x16df3bd731f6217bU, 0x1755449d81f4843eU, 0x32d189f64dade1c9U, 0xe9720f371e1ff22eU,
  0x75c3c1fbb31fb0fdU, 0xfd6dad287d0e47fU, 0x26647a9f292d62f0U, 0xeb054fb8fe1c2a72U,
  0x2e28a56e6b16b794U, 0xcd50edf6ecd29caaU, 0x11eeacae19b8b823U, 0xfe00ebc6da70932cU,
  0xd5047f0db8060925U, 0xfbfa4cf4e29ccc27U, 0xa02afed140211ab3U, 0x50000f820b71ff9U,
  0xf210fdfe100af715U, 0x1ee0905070a01f3U, 0x14fd03160cf20104U, 0xf1ec000afdfd02fdU,
  0x100e07f10007080eU, 0xd110fdc1ef7f100fU, 0xed9b3706e624109aU, 0x69f942b5032605e7U,
  0xc2ebfcbfd6e6054bU, 0xe4fd7eb1c7f28e74U, 0x12be97385181b3d5U, 0x294dedcc5f9107aaU,
  0x66cc9ad088c7cfefU, 0x252a2605950817e3U, 0xe3d015d731f7dd25U, 0x6c7ffcac1703b12bU,
  0xb744d1d958a4a789U, 0x5fafe2da4d40eU, 0xf802fefc02060507U, 0x1f4fb0a01020704U,
  0xff0101fcff0d09ffU, 0xf3f9fefb070cfb02U, 0xf90005f3fc060d07U, 0xfdf805fe047f0a0aU,
  0xf50d1006fefa0f02U, 0xfff309040dfcf904U, 0xc10ff0bf309f802U, 0xf2f9f509fb0804fdU,
  0x8010203fffafcfcU, 0x2e53ddb6fb7fff0fU, 0x14e0af17e2f51d0fU, 0x1801d42efa62a216U,
  0xe75900e4e4a12b1bU, 0xe6582cd1adb9cc7fU, 0x88558f515023b19cU, 0xe060b086bd9fbb8U,
  0x402fe0d07fc0101U, 0xf202fe0e09f60c04U, 0xfbf5f10bf9060af9U, 0xf7fa050b0e0508f8U,
  0xfffcfbf205080305U, 0xc21f15cef27f0706U, 0x49a0c7f0dab024b2U, 0x34134bb51ae61c5bU,
  0xa52e4ab88becfffeU, 0x7287fb490c69648U, 0x26f5bc2e39f40f01U, 0xf605f708eaaa8ff6U,
  0xf1040a060c0b0507U, 0x402f50703010bf0U, 0xfdfe0106f40904feU, 0x4f30406100603ffU,
  0x70100f6f5040700U, 0x309fd0f007f0509U, 0xfc0efe0a080e0bfbU, 0xfcf30aff0ffef8f8U,
  0xfe0e0004f3fb0ef3U, 0xf5fe0206fb030b02U, 0xf5ff0000f501ff08U, 0xc02fe02007fff01U,
  0x108ff0c0d0dfe03U, 0xf6feff0a0dfd02faU, 0xefaf8fffb02fff9U, 0xf7f9f7f9100600feU,
  0xfef60f06fd0b0f04U, 0xff303fbfe7f000cU, 0x303100b00fefffbU, 0xfe00080706020803U,
  0x7f80a01faf704U, 0x7fcfffa09010bffU, 0x1f600fdf2ff0a0eU, 0x2d03c404f97f0103U,
  0x2b81f7e2e8bad8a6U, 0x25360fcdf27ad364U, 0xaacc40ae10a50440U, 0x503ff2e7ae25e855U,
  0xeeffc7f3efdcaa9eU, 0x2b1184c0161bb113U, 0x2ca6e700edb4ff28U, 0x64c86986003efdf2U,
  0xb8107789e790cb7fU, 0xb426690a5af0b67U, 0xad0c095467e5dbdaU, 0x2efe7f9d75a8f6fdU,
  0xe8b9cb1492e1bff6U, 0x1b40e9b28b0ad319U, 0xbd477f032fdaf212U, 0x4bf0f6d38c0ddf24U,
  0x19c4e8e353180da1U, 0x301f30a16049f1fU, 0xf0fd0a010b070b0fU, 0xf10004070704fbfdU,
  0xcfdf1fff51202feU, 0x503090809f803f1U, 0xfa0afe06fa0e1112U, 0x7fa0406ee7f1306U,
  0xfcf9fefc01000e07U, 0xf0f6fd05110b0100U, 0x12f3fd061000f0f3U, 0x7fbf8050af70307U,
  0xf60510fd07120e05U, 0xc34bf20bfe7f1302U, 0x3b291a90c5ba00c0U, 0xd27fe69e9acfb3faU,
  0x31e4fe2c4ccae6eU, 0x1e3116e49c19c364U, 0xb6050520f48efbaeU, 0xc0f9bd1527aad115U,
  0x7fb087a186f8abc2U, 0xe510e131a0edd71U, 0xc16049ace91f1640U, 0xdd605a2914e0b10cU,
  0xc616e74e0413a1baU, 0xf09fd0d28cbbadaU, 0xf90b090601fc0bf9U, 0xf2ed030dfc0806f8U,
  0xfcfdfc09f30a0df4U, 0xf0f9faf708f9f9fdU, 0x803fbfc02031206U, 0x3118048bf37f0b03U,
  0x6f8f1e8bd6ddfabaU, 0xfc68d6eae1e50505U, 0xf74036110b8c221fU, 0x33a81722d4a3a347U,
  0x2047ecf1781681b8U, 0xfc0709fb791ddbd9U, 0xf2020600010e0902U, 0xfbfdfc0a07060af5U,
  0xfdf2f60eff06fd03U, 0x4fdfb0dfd0503fcU, 0xff0008fe050a0409U, 0xf8f1fafcf87f0cfeU,
  0xfcff0a0714000014U, 0xeafefdf806ef12f7U, 0xf7fded1803000602U, 0x3edf00cf9fe07ebU,
  0xf809030805110ffeU, 0xd74fdbbbf57f1414U, 0x35fadadcf9a1bb15U, 0x2dc52de965eab78U,
  0x10a430fafc27116bU, 0x59740afeceb70164U, 0xe309ea072497dd0aU, 0x1bd4aab17fe8b827U,
  0xf5a7e0c50dd28193U, 0x68e169fbefe2f654U, 0x120f27a3a4980c73U, 0x1559f9bad2f69bedU,
  0xa40e9072e29a9089U, 0x8f803ff48eab2a6U, 0xf0080b0c0805070dU, 0xfe03f9fdfdfb0ffeU,
  0xd0001fd0807fcfeU, 0xf50303000d0600feU, 0x70001f3f4090b10U, 0x5d012ba9027ffc0cU,
  0x600df8c9d40906aeU, 0x343e5381bd36b424U, 0xdf2e0a1749faf903U, 0x2a787eeb04aa9444U,
  0x1574e7d0cfda03d8U, 0x1ff04002ca5a9e9U, 0xf511000d04021001U, 0x5eef2fb05fb06fbU,
  0x1209f610f6080afdU, 0xfbfef800000302fbU, 0xf0513f8020efd11U, 0xf3faf8f9f07f0810U,
  0x10308fa0e030c0fU, 0xfffe05fffbf5ff01U, 0xc01fb02fcfef8f4U, 0xf205f1f9fb0c03ffU,
  0xf7f00400050afd0bU, 0x9d09c8aefd7f070aU, 0x44bae1d7b7d7d7edU, 0xed0316c81b44141fU,
  0xba35fdba92be3a49U, 0xea221fbea229cb2bU, 0xf352bc5031812aedU, 0xf1fbf609fbaa9117U,
  0xa0a0e05f4fbf5U, 0x1fcfd020a0d03f1U, 0xfe0305f906050107U, 0x901f7060d090902U,
  0xf5f5fc100c0103U, 0x4bfa34ddfa7ff70aU, 0x5bb92abcfcbc9ce2U, 0x5dc14c8792ee1349U,
  0xdbd172c70ea5d2d5U, 0x7bf6fc1d01bad07fU, 0xe455e02c0900fdb7U, 0x7fdfa0818cae8b7U,
  0xef0911110e120112U, 0x505000501f61105U, 0xef8f410fd10f7fcU, 0xfe030406020503f6U,
  0x12f2fa00fc08fb00U, 0x43defaf67f0004U, 0x610300c8ffb0bee2U, 0xeb3f0722cd44ec63U,
  0xa3220dc8f7c10e04U, 0x22526319fd94c403U, 0x1a3aa70002cbcb81U, 0xa720d4fbd9fcf30cU,
  0x2d819dc591efb9e8U, 0xeeef49f7e7239fffU, 0x2f76125fe21f905U, 0xf1062888aa2ddd0aU,
  0x1f0321dd3cd4ca1fU, 0xfffcf9fdfd120aabU, 0xfefc08fc070a0506U, 0xfbfc08fe000603fbU,
  0x80cf906f805fcf6U, 0xf8040300030102fbU, 0xfaf20eff02040703U, 0xfd070004017f0901U,
  0x50d070ffa0603faU, 0x1f4090c02f90f01U, 0xfc01f5fb02040efaU, 0xf5f0f5020d0005f4U,
  0xdf3fcf4f3fc0bfbU, 0x3051202f17ffc0fU, 0xee1605020e06f803U, 0xf5e9f30e0af611fcU,
  0x9edfa0cff10f2f2U, 0xfd0afb0d0bfffefcU, 0x13ec0303f701fd0cU, 0xff08f310ed7ff901U,
  0x3100d0b09ff0e09U, 0xfc03fd1200f9fffdU, 0x6ffed0aee1311faU, 0xfb05f30b090e0a09U,
  0xff0410f60608ff02U, 0x8031101f37f0011U, 0x30af9ff03fefb09U, 0x5fe080306fb0f02U,
  0x4f1fb0e0e0e04fdU, 0x9fffd0b0a0b0302U, 0xf609f9f6070e04U, 0x1fd0507fe7ffafeU,
  0xff010a0809040200U, 0x3f6fbfd0c0608fbU, 0x40c0101f9020004U, 0xfff6020502060af9U,
  0x1010102fa0205fdU, 0x9f8f80df77ffe08U, 0x30aff01fe0c0e01U, 0x1fa01000702f6U,
  0xf5f3f500f802fb02U, 0x4f3f6fa08040d04U, 0xf60500f7fd0b08ffU, 0xfdfd01fcfd7f00feU,
  0xfc090a0bff070a01U, 0x1f3fd0008fd00f9U, 0xc04fbfefcfc03f8U, 0xf602fcfc0c06fcf9U,
  0xf5fc0bf801080805U, 0x8f5f708017ffe02U, 0x3040c0b0507090dU, 0x3f2f70507fafdfaU,
  0x607f30dfa08fafaU, 0x3f7f6ff08fbfff3U, 0x90601fffe0e00fbU, 0x21f1e9b9fe7f000bU,
  0x3dfc1fa381f4a10dU, 0xcb26de2ea52bbacfU, 0x97de20dd09033400U, 0x4bf0571ac5d28426U,
  0xed5d8b4f17049af1U, 0xf805fc0d0b0d0cd0U, 0x3fe0cff090b0c0dU, 0x1fa02fa0afbfeffU,
  0xfef006faf6fdfaf9U, 0xfc02f4fc0c0c03ffU, 0x8f800f101fcfe0eU, 0xc1c26de027f0706U,
  0x39b4cb0b819de7faU, 0x5a252db1e60fd047U, 0xf1152ea705e8296eU, 0x5162dfee8d8a1651U,
  0xec2fa50bf0fce8d8U, 0x9bdac40d48db92acU, 0x53ffd9b7c4d7c9e8U, 0x86947e0f50289f4U,
  0xc00526c4a3d0ce2bU, 0x105c6e0e81069eedU, 0x894bb72e00aeb8feU, 0xae12b11406b581c1U,
  0x3ab2a0e3080414adU, 0xf5d519c7dae1027fU, 0xc067e09bfe13f754U, 0x9d45ca08c15ad38U,
  0xc100a1674ded0ea1U, 0xfb08050c451503d7U, 0xfbfb08fa030806feU, 0x5fc080b030803f7U,
  0xfc07fefe070bfff8U, 0x3fffa0602020ef7U, 0xf2fafef8fd0efe0cU, 0xcde9d6bfa7ffd0dU,
  0xe32685eced13ace7U, 0x26e34d9c9ce9a16fU, 0xc05b0d849ab0e353U, 0xe262d4a4c2d7b431U,
  0xce9bc0448fa958cU, 0x605f3fb7fa3eba6U, 0xfe0f1212110cfd13U, 0xfef0f814050e00edU,
  0xd0af81304ff07ecU, 0xf3fceeff1611f609U, 0xf6fc03ea04010611U, 0xace79281007f130aU,
  0xedd9c900d8ef90b8U, 0xf52a69bee701f122U, 0xdddd0dd5ab1a3e48U, 0x2d52f3c5d9c6dc70U,
  0xdef5e40a02a8ffebU, 0xfef7080718dfb5d8U, 0xf00908fcf9fd0d01U, 0xf1f001000ffe05f8U,
  0x11edfe0cfb080902U, 0xf20704ff07fc07f2U, 0x6f805f6f00e080bU, 0xad3109b2fd7f0a0dU,
  0x2fcbba4aed21adaU, 0x6e5324b681d0d667U, 0xbf52fea1db1eee27U, 0xfce2e90ba1efb4fdU,
  0x3426f4925ba71206U, 0x12fe0d05ddc6da92U, 0xf5fcf90c02091105U, 0xfd000201fff705fdU,
  0xfaf1f30403fcf3eeU, 0xf1ee0700050c08f4U, 0x30603eff202050fU, 0x18fd1417f57f0d12U,
  0xf8011502101f0318U, 0xe3f30905fa09eeedU, 0xbf607f9181012e9U, 0xf70ef7f718001beeU,
  0xf9f21df606fd1d1bU, 0x48e9150ee67f0702U, 0x5ebdf73f1a24040cU, 0x5019e881123e02feU,
  0xb0c42ab232d5156U, 0x12625e1afa4cd7fU, 0xa21af94575096188U, 0x76ea4022e0c9dbfU,
  0x42d519e3a7060218U, 0x44b73b99a6d8feaU, 0xdec31092fd81c816U, 0xfbd53006d9cffd42U,
  0xd0442e117c0bf491U, 0xffaf707299f81efU, 0x208030b000afc02U, 0x2f1f70c00fc0103U,
  0xfcfcf904f4020b04U, 0xfdf1ff02030501fcU, 0x50906fffd02ff11U, 0xaa0626c5f77f0cfeU,
  0x58f8e01effdfd2cU, 0xe0d94b09c4689112U, 0xb1d507fdb7b47c46U, 0x21296c21cba59ef9U,
  0x855428f05daf81a0U, 0x14fa10f6691e02e7U, 0x10e140303040d08U, 0xe7f9f90309f401eeU,
  0x3f9f20f1105fbfdU, 0xfdf1f6fb0811f8f9U, 0x14fcf8fdf31113ffU, 0xdb3febeff67f1717U,
  0xffce170b9508e6baU, 0x4d75e3c1ef4dcd4cU, 0x31337c9edf5b03dU, 0x6e357993dc93972eU,
  0xe4e8e1ef7fec1dc8U, 0xd03033c75fde1000U, 0x220fdec4db00b054U, 0xfc81f4eb0f46d037U,
  0x266c23acff38d559U, 0x6b1f53b6c0e0e443U, 0x348774bb4c35fdcdU, 0x1d10ebd6d9dd30edU,
  0x19c0baecb1149506U, 0x2e225be6d82ec275U, 0x26d9fbfaf108d46bU, 0x2969e0a21a240f7fU,
  0x67e07023bc5babdU, 0xf2dbd6ea2f960bf7U, 0x5716a2e9c7bbc9e8U, 0x5f3d2c05e0220f0fU,
  0xa1d148929424876eU, 0x5d4e7fb8aa138643U, 0x15118fd23f50e20U, 0xd00ff7830ebceb08U,
  0xf9f3025abb4e5d8U, 0x5e015d0b0d49c046U, 0xbd560115c91f5a61U, 0x194535c881adfdf8U,
  0x20dd2a610481d6aaU, 0x505015d14c585U, 0xafc01fa000afbU, 0xff0304fbfb0808f6U,
  0x4ff0209f7080701U, 0x5fcf6f90003fbfaU, 0x20108f9010508feU, 0x807f410f47f0600U,
  0xf9fe030a00020e01U, 0xfafa0b0c0006f1U, 0xf8f9fdfefd0b06f6U, 0xf6fff1010502ff05U,
  0xf0ff0bf2080207fcU, 0xff3fa07f17f0d0eU, 0xfdfd0dfe0c070dffU, 0xee03090410f608efU,
  0x502f506f70505f1U, 0x407f5f8fbf70506U, 0x70408fd08090f07U, 0xd9e517bf047ffdf6U,
  0x23a9a2fe9febf61dU, 0x53dcfab3080c97f6U, 0xf2002bd013c3f52aU, 0x551033a3c981e306U,
  0xb03dbf941d407f2U, 0xc071008fef4bec5U, 0xfdfff8f80d0606fbU, 0xf1ff05fbfdfafbffU,
  0xb02fdfe10fcf8f1U, 0x705fffd04fa0af4U, 0xff502fef6ffff07U, 0x10f805fcfe7f090dU,
  0x50e0c0d0f050900U, 0xeef9f9f70d0a0ffaU, 0xfff8fbfc04fdfaf7U, 0xfffc0409fdff0600U,
  0xf102f0040cfc13U, 0x7090603f37f080fU, 0xf50307080a0a0a05U, 0x2f6fa0b02fc07f9U,
  0xff8fbfd090302fdU, 0xf9f105fd0d07faf0U, 0xefa11fcfe090f0fU, 0x708030cf47f030aU,
  0x6fd0afeff0c0cU, 0xf4fff603fbfd05ffU, 0xf7fefc06f6fd0afdU, 0xf4f804f60cfe05feU,
  0xfa050a030600ff02U, 0xf1f11c8cf07f0f08U, 0x269bfae1e8a8d7a5U, 0x66dafdf0c16d8105U,
  0x121c73e3d898f105U, 0x1f785e15b79bc0feU, 0x1a310565fe9eca99U, 0xb045b84923ecb2fdU,
  0x7fb0b5b69dad0dbeU, 0x59e021c6000cec0fU, 0xea1d22fe24c474ddU, 0x2d5419e1a91802f7U,
  0xdbf7cef4f8b82a21U, 0x1200080e0f95f0f4U, 0xfe07f6030c0f04ffU, 0xf3f50b070c0a0a03U,
  0xe00f3070f00f603U, 0xfa03f20b040b0804U, 0x12edf9f0fb060700U, 0xf5010103ee7f0201U,
  0x20cfd060a03fbU, 0xf50103feff040bf6U, 0x8f5f903f90ff5f3U, 0xf6000404030a0afbU,
  0xf2ef080209010f0cU, 0xa74597a6f57f0d08U, 0xe6fe16b2cda2849fU, 0xda056b1c193098f3U,
  0x92383807c1ad0463U, 0xd67a7fb187b39d01U, 0x5800c7595bb0f3d4U, 0x707f6fc4cffd2e1U,
  0xfbfd0b0cfc0afb05U, 0x3f60407fb0a0af4U, 0xf6f9f3fcf3fb0603U, 0xf5fdf702fe010102U,
  0xef0508fc0404ff0aU, 0xd035a14fc7ffe0bU, 0x7114fa9ff210a6aeU, 0xe4d907fa1be8a10bU,
  0xd7cf0eee90cf605U, 0xeb3dd227c117814dU, 0xeef11a4407b4fba2U, 0x115a6206f11fe1b8U,
  0xf9deea3a2a51428U, 0x5f3b5ab901739060U, 0xf0176b12e0e5146cU, 0x16115981d9c80f0dU,
  0x20011ff15004fea4U, 0xf0114f772911800U, 0xfe0af9f8fb110710U, 0xf6fd000bfbf811fdU,
  0xfef6edfa09000504U, 0xf6f2fa0ffd000dfbU, 0xfd080b0ffd00fc0fU, 0x811459d7fa7f1108U,
  0xe0b81fe1e4f0e5bcU, 0x302456a00227c112U, 0xe7ed5febded0e43cU, 0x8d6e04a3e1acac56U,
  0xf01782434e9620c3U, 0xbae6dd8f0ef211a9U, 0x2aedb01fbf84d799U, 0xe5335a25161b8753U,
  0x2a5317f1c727d834U, 0x367f24cca531fb6aU, 0x1869e471d9e8bbd5U, 0xade228fa56cbf4f8U,
  0x51b7a221a82ead0aU, 0x4af76c88fa58dfe2U, 0x81f3f4d22d97113bU, 0x5dc9292491c2f028U,
  0xbccfe2292abcdd87U, 0x203ff130a29b305U, 0xfcfbf7fc0a0f1011U, 0x3eff610010501fdU,
  0x5feedff0f0bfbfdU, 0x5edecfe0e0dfbf7U, 0x1fc11f7f4100305U, 0xfffa0704ee7f0cfaU,
  0xed14fd120c02fdfeU, 0xff05f6fa01f30befU, 0x6f2fefd0410f503U, 0xf1f2f4030f10f903U,
  0xf8f509f6effdff0fU, 0xcef1203037f0f06U, 0xfefb03ff0f0411faU, 0xf7ff0cf411070ffbU,
  0x15fdf106fe08f104U, 0xfffbef01080ef9f0U, 0xf7000ded0100080bU, 0xb49c492017ffcf5U,
  0x1491feb281a0fbddU, 0x665309dd016dd76eU, 0x23044a1adaf60309U, 0x1a0514a78cedc8f5U,
  0xc2f81951009f1699U, 0xfc07f6fa70dd0389U, 0xf805110afefb0e07U, 0xf8fa050e0cfe0201U,
  0x7f2000a0dfd08f2U, 0xfff3f6fd080906faU, 0x10211fdfcfe0b04U, 0xfdeff500f57f0709U,
  0xf9131411fb02060bU, 0xfcebf306f9f601f9U, 0xfa0505f90c090deeU, 0xfafaf31208ff13edU,
  0xf8ed10edf1fb0100U, 0x5fb0d08057f0f0aU, 0x10202f809fb0d03U, 0x1fe02fa0df6fbf9U,
  0x5f6fd0af90906f4U, 0xfa00010bfc070cf5U, 0xfef9fe1007040d11U, 0x1a262608f07f0a09U,
  0x50a630cb03aa09fcU, 0xd12d48f8d22b274aU, 0x9d6cea1d2eac064eU, 0x482961c2810dd118U,
  0xd8de9a2546fae7d1U, 0x9e22e5b7feb8c8f2U, 0x7fcbfbc1bdd08794U, 0xdef24e070bd1dbeaU,
  0xdaf17e920ba31837U, 0xdd71010aa206c45cU, 0x85f2def01a0eea8eU, 0xfa121bf8ee1b8ee8U,
  0xf8eef7fd0afcfc04U, 0x1070c0000f8f508U, 0x408fafcfaf6e70fU, 0x18f80ef806e6040aU,
  0xff08020bfa06f702U, 0x10f8010b0c7fef04U, 0xfd0505fbfb02fb08U, 0xf3000706030901fbU,
  0xc0bf4fc060dfbfbU, 0xf6f5f2fa100c02f9U, 0x9070500f30d0500U, 0xe1d56cd3027f0b09U,
  0xe71610eadaceddc7U, 0x576734b688499cf9U, 0xe10d5706f599880bU, 0xf40b51078badb477U,
  0xca05b40a1319b181U, 0x103fe0c6fa717d0U, 0xee080f060cf9fa0bU, 0xe8f6060c0f02f8f0U,
  0xfcfe0a010a0a0eecU, 0xff07f402faf60f01U, 0xbedf8fcfd0f0d07U, 0xcf90004047f110fU,
  0xf408fd060e000f0bU, 0x300fafa0aff06f9U, 0x4080503ff060a05U, 0xf4fc01fbff0f09fbU,
  0xf503fe0004fffbU, 0xde31e2f9027f0402U, 0x4dcc1f946aec8101U, 0x211861c5b04fae3fU,
  0x719f596f4ad136dU, 0xd212e8c396b7fb56U, 0xc32bfb592ae012beU, 0xb8f2f0036e1e061aU,
  0x28180a05e2e420a4U, 0xf6710c96e74aec4cU, 0xcb1b73c50823b66eU, 0x6f7f55edf7f1af64U,
  0xdb6fec2310f711ccU, 0xa111f1eb17d3271aU, 0x39d78bdaf10609f8U, 0x58081dc000d3d9U,
  0xaf15521487d70cfbU, 0x5d27f0b0ec1c267U, 0xda53b84960c81bdaU, 0xe0401ff25aa89eaU,
  0xf0b0d07010cfcU, 0xfefcfb0afe08ff00U, 0xf4f8f408f6000104U, 0x70302070e0aff04U,
  0xf702f808081006U, 0x2fe0705027f04faU, 0xfa01fc0b0c090302U, 0x40105030903fdf8U,
  0x900030b08050105U, 0x3f8f80c09ff0dfeU, 0xc04fff5070e0e03U, 0xecfc05b2f17f0302U,
  0x5815c315d333c9a3U, 0x7f65f2a290dec876U, 0xe40341823a2d1b53U, 0x5eb06b8aa208203U,
  0xad232b43fbc5e681U, 0x1d23e90123a7fb87U, 0x53cd16eca1d3d518U, 0x4af84116002aaf49U,
  0xd14d71f8a7f23debU, 0xf278edcd9bab17fdU, 0x250df20b29f0df95U, 0xef306f95d02e281U,
  0xfb0805f809fb04fdU, 0xf5060c030afd0ef3U, 0xf03ff0908120806U, 0xfbfdfe08fc040ffdU,
  0x4080ef8fbfd110eU, 0xa9212d1df67f0a13U, 0xdfce04a1ada3961cU, 0x1b39112c1811b578U,
  0xdf3f4503d0e31c37U, 0x2b4ef0b1dac69f6aU, 0x306beecf7acd8194U, 0xfbf808f92ff12abfU,
  0x30a090c00090b0eU, 0x4f009020dff0d01U, 0x1000f7fff411fa07U, 0xfcf8f40cfc010afaU,
  0xbf2fe0ef7020e0aU, 0xef9f304ff7f110cU, 0x2100a02fe0a0607U, 0x502fafe06f50700U,
  0x110efb0ffafe08fdU, 0xfa04f800120f0d05U, 0xe0411fef80eff09U, 0xf5fd0200f07f0afaU,
  0xc0702f9f9fefbU, 0xfb0cfcfa0c040c00U, 0xf50000fd03f2fb08U, 0xfcff00050a0000fcU,
  0x1fcfc0b0a0cf506U, 0xf507fc057f020bU, 0xf4020b070b03010bU, 0x303fcfefdfc03faU,
  0x904ff0102fb02f6U, 0xf304f5f503fffb03U, 0xee070bf7ff08fe02U, 0x9be5e4faf67f0cffU,
  0x7fc5e5a5c8fb0f03U, 0x4021061ce955dc25U, 0xf7081702fcf6bd69U, 0x23252ebbe00cc70eU,
  0xa9fcfee24b08deddU, 0x1f6090becee00aeU, 0xf2020a0b09fb0e07U, 0x2fdf910fc001007U,
  0x1103f60406fbfbf3U, 0x5f0f2fa070402f4U, 0xfc06fe06f6fafe0fU, 0x8f6fc10037f0f00U,
  0xf9000f0a0dfb1001U, 0xf7fa0903fd040ff9U, 0xef4f503fd0203fdU, 0xf305f70ffe0308f7U,
  0x4f407f0f300ff11U, 0x509fe09fe7f09fbU, 0xf4020b0f01fc0206U, 0x3fd0002090203f6U,
  0xf6fcf0fefc0cf8f4U, 0xf6f604faff09fcf5U, 0xfa0410f403030803U, 0xff03fe00fa7f020aU,
  0xf00ffa0ff50cf603U, 0xfafdfd1315ff04f4U, 0x1405f00a14ff020cU, 0x90b08131417faedU,
  0xc0dfbef09000b17U, 0x146818d0e87f13f5U, 0x10eced05b2d0dab0U, 0x566bd7d4e306183cU,
  0x81d37fb432080959U, 0x2deef5fccefcc746U, 0x9e5ca5fb68afe8a3U, 0x1e653b07dc84def3U,
  0x7fa1dfc100dfcd9dU, 0xdb4060e5b23c8e65U, 0x20050fdb21c8917aU, 0xf7fbf3f518f58e17U,
  0x7cd8fe17001b7eaU, 0xe8f4e982dac1cfadU, 0x1c00f4ce151b03faU, 0x21277fb38618bf3cU,
  0xa80cde292f2af813U, 0x5b440a31afd09e00U, 0xf26f1b500903c18aU, 0x20078102d5f330eeU,
  0x4f7cef0fbf9e7cdU, 0xf4f441c07301302U, 0xf0e604d4f6a3637bU, 0xd6873d5951cec79U,
  0xe3a0a49608fd410U, 0xf80cf21c0fe8bcbdU, 0xe40414fe0cf5fd0bU, 0xf4f4ef14fd0e1003U,
  0x9f5f1f7031518f6U, 0xf4e40413110df7fdU, 0x1cf118f0e60909fdU, 0x21623cc3fb7f1803U,
  0x33d7b91b0c04eda4U, 0x691a19a3bb369013U, 0x387026e281e0f67fU, 0x40eb2ab5b2b4c402U,
  0xfd05c4f1580222d6U, 0x11f7eff94ebe11b9U, 0xf0131007fef70b0eU, 0x4fffb100cf000edU,
  0xf80bf914f4100f0eU, 0xf3f209fd050dfefbU, 0xffe9ffedf4120f12U, 0xc07c4ab077fff05U,
  0x360403cbd3a8c9bfU, 0xd41ef713c41d843bU, 0xaa6134e2facef33eU, 0xd8f97f1599f4f04aU,
  0x2c63ead6f0a3151eU, 0x20d0b3a203ff0a18U, 0x3ab9fba9aba512f7U, 0x13d7dbf6991711daU,
  0xee2ae886b91c2300U, 0xe15850b881a5f7eaU, 0xaf6897e30ee1e6a2U, 0x90e1109f1342c9dU,
  0xea0a16f5001416feU, 0xf8ff10fa0df0f8feU, 0xf8ee09ff04f7f601U, 0xf602f0100b0903f4U,
  0x1309f909f5160e07U, 0x110315dce67ffaf4U, 0xfec1e1aed010d416U, 0x1d481d19ebf1dc56U,
  0x94091bfa81c55f77U, 0x467c57e3ee93d100U, 0xbff2104b30fae8dbU, 0x25420c9820c1c085U,
  0xefb8fef7ecd39998U, 0x6dfd13c7f4e6ee7fU, 0xbadb319301c7694fU, 0x3bf660cdd6058775U,
  0x1aa08be6011224fdU, 0xdf6f5fe2eee2318U, 0xf3010508010cfffdU, 0x2f9fcfcfbf702f2U,
  0xfef200fcfa0d0afdU, 0x6f8fe050d03fd04U, 0xf40204030403fd02U, 0x14e116e5f37f0101U,
  0x78c3ba25ec81c2a3U, 0x160203a587fdee0aU, 0x17df18c6bef7984fU, 0x725f0a9fe6e004d4U,
  0xa3d9ab69458ff286U, 0x3fbfefcd0c312f3U, 0x406000c0809fc08U, 0xfdf80108fdfc0206U,
  0xa00f60001080202U, 0xf5fefd070400fdfbU, 0xfdf5070b020dfefeU, 0xc8e2f4f0057f0104U,
  0x10030cf60afb9cd1U, 0xff105dddc7e3f9f1U, 0xef6572cf129fbff6U, 0x777f7ce0f9e79547U,
  0xf00824323fc4f808U, 0x1dfe359c1eec0792U, 0x2eee30b811cb810bU, 0x2ffc0f31bae1ac49U,
  0x33b17301dfea07eU, 0x36557b8da62105e3U, 0xab76edf739cbcfc8U, 0xb03fa081a2082b1U,
  0xf9ff030a0e060f0aU, 0xf9f1ff01ff02fbfcU, 0xef7ef0e0d0ff5f3U, 0xfdfcfd0804ff02eeU,
  0x11f704f6f5000309U, 0x9155e63ff47f04ffU, 0x5ed3d6f8bfa3bb9dU, 0x74fdd5abbf3a811eU,
  0x40f350c222243d36U, 0xcf720fa5c322cff9U, 0xf71a034864099408U, 0xfcf40c0ad2eac5b8U,
  0xfb02fa02fbfc0a0dU, 0xff03fe0b0c020400U, 0x108010dfe0df501U, 0xfffdf602fe070afbU,
  0x205fef6f7080206U, 0xbb6f9889017f0bffU, 0xfeffc6bdbef70da8U, 0x7b4733c7d505d07fU,
  0x30e4ad41702f76aU, 0x73f434ba0ae7c957U, 0x1db5b4f820ceae03U, 0xc87be600609bb1eaU,
  0x42e6cec9bbdb85ffU, 0x1dfad8ed2a6a267aU, 0xd7e0f19a7fedaf69U, 0x2af9ffeeb00fa656U,
  0xe6d9ac07f7ee03b8U, 0xd0f0d7608784bdU, 0x689d872a1185c230U, 0x43cd5697f0e00426U,
  0x84f5fb2e10e649d7U, 0x572e6d26960de339U, 0x8131f2cd04fa9fa9U, 0x1d210dcb47b7cec3U,
  0xfbdba08bcdf906c1U, 0x321a1797e641ed16U, 0xf520feafdd227233U, 0x724d3facd2e493feU,
  0xd12c181c2fd4da81U, 0x12f8f10c03b0b098U, 0xeb021107f608000aU, 0xf80604f81500f802U,
  0xaf0f305100efff4U, 0xeffbf4fafaf9fa07U, 0xfc090cf6f1090a0dU, 0xcf80703067f05feU,
  0xf40bfc03fe070308U, 0xf7f9fa08010401f8U, 0x9f6f7ff04fffbfbU, 0xf9feff040a0803f6U,
  0x3fe0503fb0b0604U, 0xe5c5ebe2017f0c09U, 0x7ff39dfef0b68685U, 0x3de92092f065b464U,
  0xf7fc24c831fc8306U, 0x796ce5c019008735U, 0x1dd5b9765691c696U, 0xafd0808d604b206U,
  0xf1070c0d0bfbf90aU, 0x200f4fc00fd0d06U, 0x5f3f7faf700f604U, 0x10a000c01fefaf0U,
  0xffa0ef8fc070efdU, 0x3f9fffef87f0b0aU, 0xf2100803fa040d06U, 0xf6f0fb10fcfdfafdU,
  0xfbf8f5fe000dfcfaU, 0xf9fff507fffc06faU, 0xf911fc030b0905U, 0xd137a111057f0e0aU,
  0xeef0d3ff31a8e6bdU, 0x57077f85c01e9853U, 0x33e93619201b527eU, 0x30082ddfccf59079U,
  0x20bf8443e0ceb8d4U, 0xfa42faf821b0cf8aU, 0x323602189dc70eefU, 0x7f3b1192f6e1b142U,
  0x933443c33e8cd74bU, 0xf2e1778a91e5870fU, 0x28c793db1304a182U, 0x2f64cb9115d81e89U,
  0x41dd26dbb855e913U, 0xdb2100c9f0ced06fU, 0xdcbeffd3440b096eU, 0x2055462c223ee61cU,
  0x13c51b357fd3d6cdU, 0x3fa010a19e12123U, 0x50cfc00fbfbfb02U, 0xf802fafe0aff0401U,
  0xfef1fa060809faf4U, 0x10403080cfcfe02U, 0xf4011003f4080907U, 0xe45d98e9f47f070aU,
  0xfd0cd2aeb7ef8ad8U, 0x701ff007b72c8cf8U, 0xb5217fe1d8c3046bU, 0x4777071df4bcee0eU,
  0xd4f91762388db616U, 0x9fff60e5ad8c801U, 0x3ff000a02020000U, 0x1f3fcff0bfb0af2U,
  0xfbf40e04fdfaf8U, 0x402000d03070ef9U, 0xbfb0404fa0d0400U, 0xfffbfb00fe7ffcfeU,
  0xf70efc11fe0cfffeU, 0xf8f20d0ef9f2fd08U, 0xf9f7f40b070e01feU, 0x2fcf5ff09fc0af9U,
  0x100504f8f60f0e0cU, 0xfef90f06f97f0113U, 0x10c07fdfe0a06fcU, 0xf8fefe0a01060302U,
  0xfff803fb040d0302U, 0xf2020407fc0405f5U, 0xfd0bfbf70d090aU, 0x92132de5f77ffdfeU,
  0x55921e112bd005a6U, 0xf2ea7fd9db36b329U, 0xb11b759ce4cd09f3U, 0x75f42bfe5c5c063U,
  0xd1edede23ba3e985U, 0x1b3d0296d706faeeU, 0x2b9af8fdc68ba82bU, 0xff21fcc6f947ce1dU,
  0x2a30748ffda514d7U, 0x3be8de2fc61dcc6aU, 0x28edc6fc31812203U, 0xca67c6b6119ad1afU,
  0xe981b60bedefe918U, 0x3236329d8626ace4U, 0xdb32f0e8a4cf3e00U, 0xfe506ff78c9cde2eU,
  0xf156f34425b0d51aU, 0x884251ec1d0523bcU, 0x7fb322ce8a32feecU, 0xf052d6cbf860ed5cU,
  0xbf28f60e2b27ec6dU, 0x106f30f0ffeaa42eU, 0x18750d4a17d1bdd3U, 0xffd09f9f8e20ec2U,
  0x50503f9040e0dU, 0xf6fffc120a02ffecU, 0x1202f5ff0a0af906U, 0xf606f00afafaf9f8U,
  0x8e60812030ffffbU, 0xfdfa040d067f06fbU, 0xa140e030dfd02feU, 0xf7e9fa020ef8fcedU,
  0x6f1f5fbf6110d01U, 0xfdf7f9070c000fefU, 0xeeefaf6f30600feU, 0xa260e518ed7f0af9U,
  0x2bf08d02b6440aefU, 0x142549999cfee5f4U, 0x48b13eecbe181e36U, 0xfc48db8fb032c8f5U,
  0x2645cc5816ad81caU, 0x5fcfef90cc9bd28U, 0xfe09fe0fff07090cU, 0xfdf3050906fe0bf8U,
  0x401f809f60305f3U, 0xf2fcf7fe0bfefe04U, 0xc06fff2050b0805U, 0xe1d92b2b027f0dfeU,
  0xebfab7e0bb8497abU, 0x3508db09d3e6ef07U, 0x98e475d730f3114eU, 0xfa00e2fed4d2026fU,
  0x1f2681155182c183U, 0xf51fcc3d06be29U, 0xe89c059c1c0bcb29U, 0xe943f300937f823eU,
  0xe74c2feeee29140dU, 0xe6641005fe008c2bU, 0xc17aa063fb8dcad7U, 0x285122c441be1d06U,
  0x269a9c05ca09c7f1U, 0xe9f5f09db3f604faU, 0xa9f977a3d5cbba09U, 0x55d37a4dade0857U,
  0x99410fe6e6ef02e1U, 0xc01bd5330f1f0581U, 0x16a10eeba59a9902U, 0xe59d532d37fd8e6U,
  0xad5a73e4ec10d660U, 0x550f28eda385ca4eU, 0x12ecb3ff49b324ddU, 0x41622af43a4f926U,
  0x3bf39bc6dfa8b5daU, 0x6df00190211bda6cU, 0xb2d637e4e72f9371U, 0x2f1d660cb4022415U,
  0x810321dfecf416efU, 0xc5a1bf34890a625U, 0x4d0da4f4d8d417eeU, 0x3b5dffaf14d309U,
  0xe11e6aca09c53e5cU, 0x38261a0cd606f7f4U, 0x222c0058e381e49eU, 0xb6f54ab660d0bec0U,
  0x15da13dbe22b8cddU, 0xf11d29d0ee49a3eaU, 0xa8df7feafc1b14d2U, 0xf81b6c0001e2b660U,
  0xce06cb2556f38c92U, 0xfcf5050bf20bc7d2U, 0xf30c000510060d0dU, 0xf503f40810f40cf4U,
  0x10fbfe0904050afdU, 0xfaf401010303fdfcU, 0x4f50cf5f5fd0409U, 0xf6f10e05fa7f0204U,
  0xf90fff05fb0f140dU, 0xe90704020c050f02U, 0x19050814faf810f0U, 0xf9f2070f0409f4e9U,
  0xdf51001fffe0c05U, 0xbfff909077f010dU, 0xf70c020e0c0c0efbU, 0xf3f20907000405f4U,
  0xbf3fa03030a05f6U, 0x1f9fbfdff0203feU, 0xc01fdf7fc01feffU, 0xa0e0bb69ff7f040aU,
  0x42f7e8f4b4e2a3f0U, 0x244967dee310996fU, 0xb7f2060d0cb9557dU, 0x6c7f65e7d6e41c42U,
  0xeaebbf28e0d5baaaU, 0x204f6130ac9c3f2U, 0x6fffcf9100af911U, 0x5f1f10313f711edU,
  0xfdebf2fefd0b01f9U, 0xf5fafcf80c00f5U, 0xaf410ecf4ff0d13U, 0x7fc00f9ee7f04fbU,
  0x40a07111106020dU, 0xf3f0020ffefa1100U, 0xfc1201ff0c0f0307U, 0x5eff202030d0bf8U,
  0xfcff02fcfa0dfb09U, 0xf8f4f8f3f27ffefdU, 0xec0af20ff20e0b11U, 0x20002140ff80208U,
  0xff01070a08f801f4U, 0x7fcf90a14020902U, 0xfd0516eb060dfd12U, 0x9718e6e8f07f06fcU,
  0x13f7e581cad398ceU, 0x3df5701be9ddb47dU, 0xa7787892d9b9f468U, 0x6e24e2abd3eba71dU,
  0xecf88f40ff16ffa3U, 0xfffffebe2ec3f2f1U, 0x6b0000004fU, 0xfffffeebfffffed4U,
  0xfffffe9f00000064U, 0xfffffee600000076U, 0xfffffecffffffebfU, 0x7500000059U,
  0xfffffec500000066U, 0x8b0000004aU, 0x58fffffee4U, 0x590000007dU,
  0x5bfffffe37U, 0x65fffffee3U, 0xfffffeb2fffffe74U, 0xfffffeedfffffe8bU,
  0xfffffeebfffffec9U, 0xfffffe52fffffec8U, 0x74fffffee5U, 0xfffffee3fffffee2U,
  0xfffffee2fffffebfU, 0x720000004eU, 0xfffffed6fffffe98U, 0xfffffe4600000062U,
  0x5d0000006dU, 0x5efffffee5U, 0x4f00000015U, 0x5cfffffeddU,
  0x7b0000006dU, 0xfffffee5fffffe8eU, 0x49fffffee5U, 0xfffffed200000086U,
  0x55fffffed3U, 0x5bfffffedaU, 0xfffffedbfffffedaU, 0xfffffea7fffffedeU,
  0xfffffee2fffffe81U, 0xfffffedcfffffec9U, 0xfffffedefffffedfU, 0xfffffee2fffffee2U,
  0xfffffea600000074U, 0x50fffffeaeU, 0xfffffee60000005bU, 0xfffffecb0000005dU,
  0x540000005cU, 0x5b0000005cU, 0xfffffe8bfffffeb5U, 0x71fffffeb4U,
  0xfffffee200000068U, 0x63fffffeceU, 0x55fffffee4U, 0xfffffee400000080U,
  0x5efffffe89U, 0x64fffffee2U, 0xfffffebc00000054U, 0xfffffee300000046U,
  0xfffffeec0000006aU, 0x44fffffed9U, 0x9500000060U, 0x5d0000006eU,
  0x4f00000041U, 0x5200000049U, 0x50fffffed7U, 0xfffffeabfffffed3U,
  0x54fffffee7U, 0x7afffffee4U, 0x66fffffe8bU, 0x6ffffffe7dU,
  0xfffffee2000000a5U, 0x60fffffed0U, 0x88fffffec7U, 0x35fffffe80U,
  0xfffffebcfffffed2U, 0x44fffffea2U, 0x6200000061U, 0x5bfffffe3fU,
  0x6300000068U, 0xfffffee60000004bU, 0x70fffffec6U, 0xfffffea400000059U,
  0xfffffed700000057U, 0x6ffffffeabU, 0xfffffe99fffffee3U, 0x73fffffee6U,
  0x6800000076U, 0x6dfffffe9dU, 0x5f0000007cU, 0xfffffee5fffffeedU,
  0x65ffffffffU, 0x7cfffffec8U, 0xfffffedd00000058U, 0xfffffee2fffffeadU,
  0x5300000052U, 0xfffffea7fffffec2U, 0xfffffe8100000073U, 0x670000005dU,
  0x500000003cU, 0x66fffffeb0U, 0x5b00000067U, 0xfffffe8800000089U,
  0xfffffee0fffffe95U, 0xb4fffffe75U, 0x74fffffea3U, 0xfffffee3fffffec7U,
  0xfffffe8300000085U, 0x4ffffffe89U, 0x4afffffeddU, 0xfffffeddfffffed3U,
  0xfffffe7b00000068U, 0xfffffe7b0000005cU, 0xfffffedcfffffedaU, 0x77fffffe49U,
  0xfffffec800000042U, 0x640000005eU, 0xfffffeb4fffffebfU, 0x5900000066U,
  0x54fffffe84U, 0x5d0000006aU, 0xfffffee5fffffee3U, 0xfffffed9fffffeb4U,
  0x7900000076U, 0x59fffffe9fU, 0xfffffeb5fffffed3U, 0xfffffed7fffffeb1U,
  0xfffffe99fffffe5eU, 0x6bfffffee6U, 0x5600000088U, 0x78fffffed9U,
  0x740000006bU, 0x254e5cf9fffffeceU, 0x41f0cdf668334503U, 0x5060e2523f1f5568U,
  0xe8eafc730b3c3259U, 0xe853f9fcc6cac6e0U, 0x4ed90f4339e42522U, 0x64efc62036e49fdU,
  0x73350dcf0e70456cU, 0xebcff94a3061c8ceU, 0xe7e5feec06f31916U, 0x441b5d66df1566ccU,
  0x1108c96e3b744fefU, 0x633d0a4a05f86858U, 0x411c794ff048fdf5U, 0x52634c59f8024021U,
  0x145c243f3e7c397fU, 0x348f4581e581e13U, 0x265ffb6613186355U, 0xf8563e791300f84aU,
  0x64432eeb7540405cU, 0x31ec7550d1642e4U, 0xc9495a45156c4a4aU, 0x1edf6866e2513cc8U,
  0x47f158fff04070e6U, 0x664a484c1b5a3d54U, 0x1168f669dccf1becU, 0x207bf876f1eb68caU,
  0x3c9272552e942d3U, 0x4ed0db424111305cU, 0xd0dcef5755590d59U, 0xb201448235e6cd8U,
  0x4397444d905f712U, 0x2243e76a4948U,
};


ai_handle g_forecast_temp_ml_model_weights_table[1 + 2] = {
  AI_HANDLE_PTR(AI_MAGIC_MARKER),
  AI_HANDLE_PTR(s_forecast_temp_ml_model_weights_array_u64),
  AI_HANDLE_PTR(AI_MAGIC_MARKER),
};

