/**
  ******************************************************************************
  * @file    forecast_temp_ml_model_data_params.c
  * @author  AST Embedded Analytics Research Platform
  * @date    2025-12-11T06:36:42-0400
  * @brief   AI Tool Automatic Code Generator for Embedded NN computing
  ******************************************************************************
  * Copyright (c) 2025 STMicroelectronics.
  * All rights reserved.
  *
  * This software is licensed under terms that can be found in the LICENSE file
  * in the root directory of this software component.
  * If no LICENSE file comes with this software, it is provided AS-IS.
  ******************************************************************************
  */

#include "forecast_temp_ml_model_data_params.h"


/**  Activations Section  ****************************************************/
ai_handle g_forecast_temp_ml_model_activations_table[1 + 2] = {
  AI_HANDLE_PTR(AI_MAGIC_MARKER),
  AI_HANDLE_PTR(NULL),
  AI_HANDLE_PTR(AI_MAGIC_MARKER),
};




/**  Weights Section  ********************************************************/
AI_ALIGNED(32)
const ai_u64 s_forecast_temp_ml_model_weights_array_u64[1583] = {
  0xe4e20007cfee1745U, 0x7e940bd06145d4eU, 0x1739caf61068440bU, 0x63f1fad37f37021bU,
  0xcce5ed7260f8150cU, 0xec3ee741d4c82dd6U, 0x4524fddd4b0934f2U, 0x21e2fc5317ef2dedU,
  0xcee35df00f39ec59U, 0xf64427f93d017442U, 0xc1620181132337eeU, 0x623528fb186618baU,
  0xffd1f1fc261234eeU, 0xd01c27283f0bea24U, 0x90ce5265cf92a6dU, 0x330c3837ea26f881U,
  0x72232dd214e870aU, 0xee7f23ddfaf2f5e1U, 0x6d05eb01ef04dcfdU, 0x5f038e710be0ff4U,
  0x1006dffddf02f14bU, 0x4d7f6f500efe4cdU, 0xf4101ac63686c421U, 0x15d312cfd00fcdU,
  0x41af08d7ca15cbf3U, 0x30f703ef0a81120bU, 0xe333ec0ac91406f1U, 0x29f910f113cfe946U,
  0x8fdfe623c217fadU, 0x3d0a6826fb7dd83aU, 0x51e2e142d03237U, 0x3114fd25c2fb1b46U,
  0x314643db6a380a61U, 0x2a362c0a261f3006U, 0x3c41011a21ccd0dfU, 0x50f712270e0041f3U,
  0x12fb3328ba4ce02cU, 0xe4f710ce02fef242U, 0xea2689e017c37105U, 0xec2ef9071c7f25e2U,
  0x20fc151810162c12U, 0x73703f775341b0eU, 0xd51a161e361eca4cU, 0xfeff7fe424f7f3c0U,
  0xee15160327f82a2dU, 0x4805ce1f1ff1e83dU, 0xfeddf6ccf6fb0433U, 0x4b70df4f55653U,
  0xfec606c0fd7f69e5U, 0xc2dce8be5f7adbe1U, 0x3ab5c23d7905c9f2U, 0xbcaf33a3028dde3aU,
  0x93dcc8079c1933f4U, 0x1de7de90993516ddU, 0x45f195f435d481e6U, 0xec8fea12f689ada7U,
  0x23e6c5f255d0c22aU, 0xfe09ea2efbd1cff1U, 0xf6f144f3fd0afc37U, 0x1c5fd9d4f1f8270aU,
  0x2a140cfd2a0ec211U, 0x811f102db81124U, 0xfffff8d400000252U, 0xd10000027cU,
  0xfffffe48fffffa82U, 0xfffffd8900000010U, 0x32e0000038fU, 0xefca7a1fffffab6U,
  0xe2a3cfe8ff81d99cU, 0xadba3fa4a82591ddU, 0xda3bb9b7df30edddU, 0x502d7fe412b4b149U,
  0xe9b0e9dbc9f320e7U, 0x1302f00e194a4a47U, 0xe8ed284329b2b7f8U, 0x10bc8f91ccebf4f2U,
  0x2cf2a9ea9c0cc4fbU, 0xe5b140efdf1fb95aU, 0xe3cc0a81ec64f0acU, 0xf4dae8d6dffd93acU,
  0x93efc7bdf8ced6b7U, 0x807d74acf071b81U, 0x5c43f1ee1a32f008U, 0x210c4802c3050e05U,
  0x2cfd1cf91c02df2cU, 0xcb5028f217c90938U, 0xd1b024df10e70b1dU, 0xdaa2d3e081a297f1U,
  0x6f3f6a92001ed83U, 0xe4500be66bcf104cU, 0x2e2d81cb0750e1daU, 0xde010ef4115338e5U,
  0x43b6dcd47fddfae0U, 0x7ddef120dbf5a686U, 0xd3aeaabbae47f826U, 0xea924be3d230e060U,
  0xccc6fbf42aa3f5cbU, 0xe45a2fcebe623c2U, 0x180bc2f4ddebd6f6U, 0x27d7aee204ff26b3U,
  0x1181d5ec810311efU, 0xdc0e83e6c4c11510U, 0xded8f3e1e81d2d94U, 0xfd0ef5eff40c1dfbU,
  0xf85d0811dbf9e0c6U, 0xe801e21aae22f427U, 0x4ef2d0838197f0bU, 0xd923e83447f60b05U,
  0x3e0ce9fdda4aU, 0xffffff47000000ebU, 0x750000013dU, 0x124000001b3U,
  0x50ffffffb1U, 0x7bffffffa2U, 0xf58132c4ba4b2776U, 0x87f7f7e3fb30e81U,
  0xdd817f7fcef68188U, 0x81fc8e297f4bU, 0x0U, 0x0U,
  0x0U, 0x0U, 0x0U, 0xc032ddf81c72ab1U,
  0x1bb83e2e48146f7U, 0x814d08b30e43ed29U, 0xf881d1e038d2a6c9U, 0x6906e56e075435ecU,
  0x5b5a9dcf3be181e5U, 0xccd33ee0be1f7703U, 0xe25df6906b7f21d8U, 0x2e861a45ead781d7U,
  0xaaf4ff0c8a81da92U, 0x3405f833307f113bU, 0x46fabd9eda4ae9f7U, 0xa606204a7ffb47c8U,
  0x5be1b36f27ffaa7U, 0x2429d53403af8111U, 0xe96810e607f7149bU, 0xca3c5fc207f7f00U,
  0x384903ac3ac51c25U, 0xd52c7fc63a49fceeU, 0x7f63e1e60b1d320dU, 0x20bfeeb6d27f00a9U,
  0xff81411547ee30U, 0x814735410acd13efU, 0xb91ae8e25308e3c5U, 0xe6f71914e481dfcdU,
  0x7f1de2a49f7f0d14U, 0xec06f1c5071870c2U, 0xc8ec0306167f060eU, 0xbb18fbfbe3dfe381U,
  0x14150340cf810ac7U, 0xdc59002481fa14f1U, 0x2416812d67dffeU, 0x26c703190afd1bf2U,
  0x1fb81eff16371081U, 0xde0c2f1115811dd5U, 0x3b0216860f980381U, 0xcd5fd6a44181f70bU,
  0x15f4db44072643c6U, 0xf2d9cfe527edf981U, 0x1be212e9f91581baU, 0xbdabea52c57f3d9bU,
  0x8103a1bfc9f66639U, 0x5039564d10e50140U, 0xfe2bf7c9af18f781U, 0xde56df81efcfe6f8U,
  0x9c0724f2811fffe4U, 0xffcf31f1d9810e11U, 0xfde5d4b934d9c240U, 0x251fe1810d4527c7U,
  0xf2d64ff5de813520U, 0x37db81bc41f22f59U, 0xad8103d5061bd313U, 0xd081e49d00f32905U,
  0x2716f9f0dfc00540U, 0xe71ff3aeb39f7fe4U, 0xe3f9f681f5beddf5U, 0xf1ce0713e1020115U,
  0x8118f7f37fee0f30U, 0xf94103f1ddc2eb9bU, 0xd1ce4aeb29b1ca81U, 0x5d204c3fefc4a7fU,
  0x1df7a0e6c681c565U, 0xae1f345ee150619U, 0xc2c100faf6ea0e81U, 0x376de203087fb30aU,
  0xef000d037f05ff5cU, 0xa24e0c50c81dadcU, 0x4620aa7ff5ee12edU, 0xc9013bcb0128a298U,
  0x271e7f2eb1f594f7U, 0xd4f8e3e4c5b52c81U, 0xaaa7225f2a01516U, 0x594aded97f52d112U,
  0xce00f7810639a3d3U, 0x19ca672281c9f7fcU, 0x24fff8814268bac1U, 0x121d059811814424U,
  0x812c5510203ee1e8U, 0x4ec605cf96b61528U, 0xede5e341121d81afU, 0xffffffcc000000c3U,
  0xffffff6b00000047U, 0xfffffed8ffffff0aU, 0x6000000b7U, 0x9800000029U,
  0x149000000d3U, 0xffffffb7ffffffcbU, 0x6c0000015eU, 0xa1ffffffa8U,
  0xffffffa6ffffff91U, 0xffffff91ffffff9eU, 0xffffff6c0000000eU, 0xffffffdf00000058U,
  0x10000001fU, 0xfffffed600000006U, 0x5000000023U, 0xffffff44ffffff99U,
  0x1120000003aU, 0x9d000000b8U, 0xffffffae00000058U, 0x62fffffff0U,
  0xfffffeee00000015U, 0xdffffffe3U, 0x3f00000095U, 0xd100000007U,
  0x750000007bU, 0xfffffff2ffffffd5U, 0xffffff4dffffffe0U, 0xbc000000bfU,
  0xfffffe80000000fbU, 0xffffff5400000036U, 0x2300000098U, 0xc881688192878975U,
  0x7f7f817f817f107fU, 0x7503236feae7f3aU, 0x81bd78df122fcfb2U, 0x811f1f7f781a2073U,
  0x7f8f7f0c05815a7fU, 0xa6d7cda63fe47f06U, 0x897f92d3816c8101U, 0xacf816c6a0a7ff7U,
  0x616672252e2ceef6U, 0x7f81ddf30881cc9eU, 0xee58181db2e817fU, 0xdd258152783c81efU,
  0xd87fea7f816e480cU, 0x81127f7f611d7ec6U, 0x81fed9c4199c37cfU, 0x7fc52b0e7f7fa981U,
  0xaae915097e137f3aU, 0xff147f8181c1e57fU, 0x197fa2917f7f9ce0U, 0x8f81b22e7f81d37fU,
  0xde3ee95616e181f3U, 0xcf812f20817f5d81U, 0x16ce8181cd813481U, 0x0U,
  0x0U, 0x0U, 0x0U, 0x0U,
  0x0U, 0x0U, 0x0U, 0x0U,
  0x0U, 0x0U, 0x0U, 0x0U,
  0x0U, 0x0U, 0x0U, 0x0U,
  0x0U, 0x0U, 0x0U, 0x0U,
  0x0U, 0x0U, 0x0U, 0x0U,
  0x0U, 0x0U, 0x0U, 0x0U,
  0x0U, 0x0U, 0x0U, 0xfb0a0542ece8e615U,
  0xe505fbd1f0eaddffU, 0x50b0c16fd0710f8U, 0xd80827fa02f0fcfdU, 0xf1ee1b1f010f810bU,
  0xdf32f07f8dffe07U, 0xedf3ff030ffef2f6U, 0x605152304021a1aU, 0xd9e4ebf1b9d2d710U,
  0xcbdddb09fd0dffedU, 0xf112ae1c7f04cfdfU, 0xd99c8b2108c924f8U, 0xe456fafef413060eU,
  0xad218af32d75304U, 0xf614be1b04af0a11U, 0x23aa3c3d081a120cU, 0xf711f211b429f93bU,
  0xc728f7ed2cc1b0d3U, 0x70704f92a5fd201U, 0xbbec5c1dbf9c2e1cU, 0x35f91e3ac04b174fU,
  0x1036600d0386e6b7U, 0x22f299b12005f01dU, 0x41fe277ffb0205eaU, 0xe81224eedf57182bU,
  0xc6d4f21339eeccc2U, 0xf80fe90dfb2df326U, 0xbd421f0a09fd5627U, 0x1324323ec4120e4fU,
  0x3f3633513b813f23U, 0xfdaae0c700c3e13eU, 0x8b11677f9d8bfd4U, 0xea06ddf2171803U,
  0x14f91d0a0803f3f8U, 0x8117fdf010ef617U, 0x3ea3b0bfcf20c07U, 0xce119040010ea03U,
  0xf1d03d436f329c6U, 0xffe5f4dbddf8110aU, 0xc1107f7f636e9feU, 0xf5e91b3a0f4c0620U,
  0xd1f1eee8dea4061cU, 0xb2e7b1e6f7e4fb48U, 0xefdb7ff2cacf2433U, 0xf43f4fe11b07ed1eU,
  0x38322427132fb0f6U, 0x2322bcac8824f614U, 0x1da642d23c6ff939U, 0xe2f814141ec7f40dU,
  0xe3c114f5f605dd21U, 0xf3f0c924dece00d1U, 0x15fa13e50cf4ff07U, 0xc8f7160bea03f7efU,
  0xe3051dfbeefd010fU, 0xe51c1ad2a8f9d307U, 0x1a04fe3f197fe1ffU, 0x300d2bf9213a2ae5U,
  0xd6a3d11fdff80eeeU, 0xe114bd7b00e4ee57U, 0x2a063406eef3cffdU, 0xd4411ce3d9edf41eU,
  0xefb0719101f06d5U, 0xc31919c58e0018f8U, 0x20e0d9092e7f0733U, 0x80bea04aadee96eU,
  0x9de6cff6f21b8dc4U, 0x7272c31224bf20bU, 0xa0192826299e4d0bU, 0x3a065f3496160f63U,
  0x66f24b91f1b0f5deU, 0xdef5b0df0ccdf908U, 0x42497f5df2f2ae50U, 0x131dcad627140e20U,
  0xf1051d1a3b15bceeU, 0x810710093a1dca0fU, 0xfeed0d31d8cb0a1bU, 0x4169251f13064310U,
  0x11ae5faee11b5eeU, 0xd4210e8b43eb7ffU, 0xef0de53b0d0edce4U, 0xa4f2f06ec702e12U,
  0xf0b1c4ea2009bfcfU, 0xb21a4d5dfd0ce5daU, 0x7e61435dea32431U, 0x13d8dd0dca20b721U,
  0x2d2c1121dfcbec86U, 0xd47fca220704e9ffU, 0x3bfa095af6bae401U, 0x1121e0fd9362aa40U,
  0xa730b6205598cf87U, 0x1311c164776f0baU, 0xc8f75427adcb505eU, 0x7f016b4fc1513f6dU,
  0x3d33290623c899c0U, 0xf1f7c9e0fe39c740U, 0x22d5526306f83a55U, 0xfd5c0f0cf730ef7fU,
  0x90ec4fa05caa6b2U, 0x1107260c0e75030fU, 0x85293037eeab4418U, 0x7010113bd21df55cU,
  0xfd203ece15a61dddU, 0x6d4b4c61928eb43U, 0x35cd5651f5f9021aU, 0xef6f8fcfbf428fbU,
  0xedd0fdeb0405fd03U, 0x32f4e8812503f6ffU, 0x3fe07f2fcfe0b16U, 0xd1e160503f4d8f3U,
  0xed0f091610fe1fe8U, 0xedbe04f4080b10f6U, 0xfff70cfa020ee4fcU, 0x901fcdcf21b1afcU,
  0xe4e1040bf5da03efU, 0xa920e7b3f71519dfU, 0xd5074b0701c51a2dU, 0x1413eeee101de108U,
  0xda01f90801dfdcd6U, 0xda7ffc04b2450ff3U, 0xbe30f4d0f371714U, 0x2a05192b2af92ce9U,
  0x9d9de0010ea100fU, 0xe313b82cdbe80d1dU, 0x102d280eebb6d421U, 0xff170813fc0bdef0U,
  0x11ebd2220aab28U, 0xe91603e795eec410U, 0x2324d9261f7f06f4U, 0xbdfff609f8d27fc9U,
  0xd9f4dc2718e51fc8U, 0xedbffa16232ccbf0U, 0xe7fef442d9ca4343U, 0x2c2502f5fb1ad2fbU,
  0xf65903ed0bf3f4c4U, 0x19edb0fa0637092aU, 0x40cf15080aed03e3U, 0xe70804e313f8fb1aU,
  0xe9d8f02d14ede1feU, 0xefc9d5fcfce914deU, 0x151e0f1f0ec1ebf6U, 0xe5222d0a15f3ef23U,
  0xd0800d8fc1c8118U, 0x4370cedbcf6d906U, 0xe4020c09245ff517U, 0xe82433d7e91edf0cU,
  0xea08020123e8d3faU, 0x81eaf00b0cf9d51bU, 0x14f3080de3f1ff11U, 0xfa330bf9ee1e200bU,
  0xf624fc18fbf5f70bU, 0x32fb18d916eefeU, 0x3cf16160c0310f9U, 0x31561e00da25f064U,
  0x9b23b31524eec5ebU, 0xfa390106f234ef05U, 0xb604532a15e12016U, 0x31ff1734bc24057fU,
  0x2c3e2fba08af2b95U, 0xfdb0acab0e330b1cU, 0x16fd4d5b06062df3U, 0xfdfd11f6200c140cU,
  0xe2bf0dfde708c5faU, 0xd8f0df67ec05fe21U, 0xb0b262deae8e1f5U, 0xf91aed23effcc915U,
  0xf9ea3bf3ec0ef8d6U, 0xb52216fb81fcddf1U, 0xdf010c281139f709U, 0x5edd81d05204c02U,
  0xe9e4000427fa01e8U, 0xbac5247ff21ae4fbU, 0xf1010e2be6de261aU, 0x100203f0fd2906f9U,
  0xb2cd705fb25d1d6U, 0x471cf4cff8fcfe08U, 0xfae1f62d2017f702U, 0x2620504d816d967U,
  0xc5f9c73afb0486b7U, 0x4fc0716d104fff6U, 0xb3143516148730f5U, 0x1136f8ea2b3d39U,
  0x42b76a8efb000d0U, 0x1dc10c0f07f2f2U, 0x660e357ffef6c060U, 0xd73810fc85e50861U,
  0xafbf99f62db0d0d3U, 0xdc5f23362a70e807U, 0xd4c22e7ffab24f03U, 0x28f7f34aa3451b4aU,
  0x705949873caadffeU, 0x23f4990802f8ed5eU, 0x39e64175f027f80cU, 0x1b2e0620e750fd1aU,
  0xe9e213f52ac3aaccU, 0xd034127f4039db17U, 0xfcf8422702950c22U, 0x13f525e4fefdf6faU,
  0xe1470d1cd1db0cdfU, 0xce0eef349e25c3d8U, 0x21952a2f1d0b1a0dU, 0xf35af013fc080c47U,
  0xc6620a1830ccc5f7U, 0x18f010ef0368ba31U, 0xdfb4327fb69c0a48U, 0x275dd6d1e247de30U,
  0x314db091f9ffedbaU, 0xd3cec1337b3e72bU, 0x7a460d8020d4304U, 0xfc44d61e3340fffeU,
  0xe5ecfd27201ae1d8U, 0x814a520b7f06e2e8U, 0x1c053c5bf2a61141U, 0x2af1ed0cda050113U,
  0x1e14e8deead3e9d9U, 0xef33cd3eba0d9e00U, 0xf8ced93e1cf4c50bU, 0xc5f2151ec0eddffeU,
  0xa40d5ac742e4f8edU, 0x731aeac81df80325U, 0xd9c0f2290eca0b15U, 0xfee8f044ede2fc17U,
  0x212231d901c87f26U, 0x2230f8e0e52ffef0U, 0x5d71e0d11da4cccU, 0xdff9e0e40d0421efU,
  0x5c3e5ec1f2b1e07U, 0x81fc1437f226e7f5U, 0x21e610f5e0052d16U, 0x1ef8da01021c0812U,
  0x191ddc000e00da01U, 0x2cfbddf7014309efU, 0x242a111500f414d4U, 0x7f05ed01f4020243U,
  0xd604032712f7a7fbU, 0x2def08081f0c14faU, 0xa5c31a261cd41d03U, 0x11204135e1e61410U,
  0xdf062adcf1c855d3U, 0xf610c8e203f3f3eaU, 0x1ff805090103bae4U, 0xde0f0c03d8cd065cU,
  0xa9d1b7252cd6cb03U, 0xf7ed061f064a05f4U, 0x2ba1317e4d937feU, 0x26436329cd20ea7fU,
  0x31011fd611f04007U, 0x2c2f0e5e9f9ff26U, 0x2ac95424031f1dfaU, 0xc5f20a19d0ea0311U,
  0xbc23ef20feebf4f0U, 0xeb1af9fa7f1ee9f3U, 0xeed8b108ea001307U, 0x1c63fb05071f0c15U,
  0x1a0012d90ce92e09U, 0xe10e60dc6e2f412U, 0xecd23ef1fa2931ffU, 0xfe14f124f0e5ece0U,
  0x8c6f4dbdbf6ffedU, 0xf8e4b241edd81eecU, 0x2ded40140ef503e9U, 0xcebde3df09e1cde7U,
  0xfb011dffe4060b31U, 0xeb4d1d05d601e415U, 0xedf1fa25207ff6e0U, 0xbd1f0821980af83bU,
  0xb1dfee1f7fc7cabdU, 0xedf515f6e94af600U, 0xb8e31051f7c84d15U, 0x4bebfb34d9420842U,
  0x295c2a04238f2ddeU, 0x6049205fd34ff3aU, 0x5fb13d63fff22700U, 0xf50500fcd3d7e84dU,
  0xcb0ce51714ccc3c8U, 0xdd0423f2f644edfaU, 0xb90130170b815b24U, 0x37fe5819c45f254aU,
  0x63152d0206cbdbdaU, 0xf7a3d5ff18e10fU, 0x30d7326d060bed23U, 0xd608352044ff11d4U,
  0xc795c9151ce0d325U, 0xa0c6c97fd819fb32U, 0xfa09601d00fdd8eeU, 0xfa24f2092840defaU,
  0x28f41010e2ff0dbfU, 0xe127cc0da20a98d8U, 0x39ffc544454317f8U, 0xf0187f1410fefd16U,
  0xebda04f5fdef020aU, 0xeff3d31bfbf5e9feU, 0xb0c080bf4e80aefU, 0x4fb0a0d0fe908U,
  0x30b14f3fb0fe6f6U, 0xf7d2fffa33edeef3U, 0xfc11151d08491c06U, 0xee31d5169ef90843U,
  0xf649e3233ad8e4b8U, 0xff091e1c1d5ae3f1U, 0xaeba4746d5a6262bU, 0x40063f0ad4381c7fU,
  0x253652caf5c011a2U, 0x1eeacecf07cbd639U, 0x2fd23f5af60431f9U, 0x113df1201008cb3eU,
  0xb8eaba7028f30fd5U, 0x20454c1e3319e8dcU, 0xcce062410af71b24U, 0x2dd60e46d83cd20aU,
  0x1d3533ac17b8ba81U, 0xffd3b10d1a3dca2cU, 0x2cf5ee49dd061be3U, 0xf809f3e5100910e2U,
  0xbb6ce2232ed13caU, 0xfaf5af0f6d17b2baU, 0x1801053cf7a84534U, 0x202ce0edf56108f6U,
  0xf14611b5ecccd6baU, 0x7e2b2240311d524U, 0x7fc00c0e03e22ee6U, 0xf214e41305ee23f7U,
  0xdff3e6f518ec11fcU, 0xc0b5081f8f3fd0cU, 0xeef3e618f3ff102bU, 0x6fe0bf2e7152108U,
  0x81ee6eefaf8dbU, 0xc339f203002102fcU, 0x2dae243f2af019e1U, 0xd731fcf8b3ffe628U,
  0x8104f70b3be502edU, 0x2835fe140b140af1U, 0xffc6171dd3bf1b1aU, 0x3f1e661cc935fd36U,
  0x3b3541e63fb3f8d4U, 0xffcad3eff418f138U, 0x2ae23d5613f72f1dU, 0xd7280319b6f9cb42U,
  0x86f58717f5faa5aeU, 0xd7240f352b2ecd38U, 0xc422442c14d04a00U, 0x26ce6433c132de6dU,
  0x7ffd48a125bd07e3U, 0xf3e09aea07fa1225U, 0x36e93b4d0ffadf16U, 0xf4f5244928e3f3e7U,
  0x8bcf7f5df1de917U, 0xd2ebac29e0dbfbbeU, 0x27f9ff1313de0dd8U, 0xf02711dcfaf201f8U,
  0xdd03270e0b28eaffU, 0xfd2e10dd81f8fdfeU, 0xfc06d50a086d020dU, 0x1a1fee138332fb55U,
  0xb41a245e46aef3cbU, 0xeb1a0bf0094afbe2U, 0x81ac2264ecbe4d26U, 0x702b2d1cb764df60U,
  0xf4568cee9a40d33U, 0xf42889d30ec6fa77U, 0x4fb24815fe0a7adeU, 0xf807f8f5dd1fc525U,
  0xabe42415e3d890d7U, 0xd523ea2634ff3eU, 0xcaee194ef2e821eeU, 0x4b271e0ed22c1b7fU,
  0x5c09fead09e424e0U, 0xf305bfdc0a35ed0aU, 0x27c5484bf1270100U, 0xc3250ff5ae42c66eU,
  0xcf14fbc549ebc4d5U, 0xbd07150fbd64deecU, 0xd2b1784bd5e134fbU, 0x4148206bb8348141U,
  0x48503ae950afcdd6U, 0x37d9ebb2e62ff154U, 0x8bb161d08f417cbU, 0xe93cd7f9d52e0351U,
  0x314c11320ecc70dU, 0x3012fe6d004e5faU, 0xd4c97f27ead71427U, 0x8ed3b04cd23c63bU,
  0xf21b2b0402da4cfaU, 0xe09e408fcdb000cU, 0x26111531080d2a28U, 0xf034a94b27f22ad6U,
  0xec90d4d5f610fb1cU, 0xc928e76424380229U, 0xeded0efa13052cf0U, 0xf2c700193218d2d8U,
  0x6510f5f82bfbfe9dU, 0xf97f11e2ee40d1b8U, 0x3115d3e103511508U, 0xc45e7e4f9fa0be0U,
  0xf3c9e950ffebbb18U, 0xf71f43565803c3e2U, 0x41c52b2c039b240fU, 0x1f52331c0bedbd43U,
  0xdf48f9c6c5ea8118U, 0xdc232860b106d4c8U, 0xe0eb0522493b8bd0U, 0x17600009cd04e927U,
  0xe315bf29f3e381aaU, 0xe711131cde21c805U, 0x9a0e4914fca43cf5U, 0x8ea120fbc4d1730U,
  0xf5174dc002bbf8e4U, 0xfdfabbfd09fff6f7U, 0x31ff4f7107ffe73cU, 0xfc072202001df20fU,
  0xef1fced1bd9ef04U, 0xe71afe7f190bd9fdU, 0xfef71f22fcd6192dU, 0x2fbfee3f234fa09U,
  0xe2013fbf4f329e8U, 0x5fde131cf1d11edU, 0x20c4220dfc0113e4U, 0x11ea3215d4ebe818U,
  0xace407b00cdae0f9U, 0x9fdbb634fe091104U, 0xd31f17f1fde6130bU, 0xffa2201bf4118126U,
  0xfd000118eeedd912U, 0xf8fcfbc1150908f8U, 0x28d049581e651815U, 0xe042fbf8d7e4b32fU,
  0xd625cc061edfeec1U, 0x1f0311fb313ddaf4U, 0xacd4796ae3e033efU, 0x2bf8e93be25540fdU,
  0xf4721681fac402c6U, 0xe94ed20905dd1142U, 0x4cf6322509f63ffeU, 0x4a00fef1382426f3U,
  0xc3b11816f61103f3U, 0xfee9d9c80bd6d55cU, 0x1c4111280ae0d71aU, 0xfd60fa21250bba0cU,
  0xe4f518e1050c90faU, 0xa83b13f9a0edef00U, 0xecfac62b047f01eeU, 0xa71b705065a00e3U,
  0xccb41f30dbdecc00U, 0xe73755e829010ee0U, 0x1b03225a25a7f34aU, 0x102ceb0a1134c622U,
  0x1a37edc6d1cb9806U, 0xa75e146812fd4d0U, 0x2ef0d5165225b4edU, 0xf2153bf7f9ef2afcU,
  0xe3bce5100603f425U, 0xb2c2936de5d72cd6U, 0x160ff13b17c8e60bU, 0x32df8d707fbefe8U,
  0xdc2d25e41021fefdU, 0x130eeed681f3f0f2U, 0xfc14e92d304c0befU, 0xe524f70299cee97fU,
  0xb3ea0bfe42dfafc7U, 0xf0ff19e94073ed32U, 0x859920493fae53ffU, 0x5e22313dea4af940U,
  0x4d6ce3c2529f4608U, 0x2ae83e7f3d22565U, 0x3ede333cf1f8ed4eU, 0x38f3e72a0a2e66f0U,
  0xbfa80bcbedd6d2fcU, 0xb8f8823f04f3e1d7U, 0x1ac6cef1f1f9061bU, 0xdd531809043109fbU,
  0xd41612000229042bU, 0xbe01f0c281fbd5e5U, 0xfcf7e74ef566e7c6U, 0xa9e0ebffea1fd71cU,
  0x2100261837d805adU, 0x57f8e37e479ad9U, 0x10d751499df6417fU, 0x2f165050ed232340U,
  0x5459ebfa4ed6afc5U, 0x26d6adca0e0dca6eU, 0x18e63212fd21c1c4U, 0xe437190cc8fbd815U,
  0xb6d8ad2432ccc7c5U, 0x14f50e0d3a5bc4f9U, 0xc9252b44e0b74126U, 0x592adf14d0212b42U,
  0x314d188114d71efbU, 0x70ad2edf5280409U, 0x4ece2c030b0bce09U, 0x20f90ffa16390b21U,
  0xd9e3f2f2e706f6e7U, 0xdb02f57f2507edfdU, 0x30ffb1f0fc71016U, 0x1f0906d91034f4f5U,
  0x4f4f50419fb17e8U, 0xed07e403ab0911f0U, 0x34c51d1efe10f30eU, 0xff9d4b31f0ea400cU,
  0xe663f97fff0be3dbU, 0xabf73b4a9231f1f0U, 0xe9e6320bf6111c11U, 0x2331e60e10313d00U,
  0x1f105edefcd4e920U, 0xfc7e5eaf811fa07U, 0x2ada5abe2f99d9fbU, 0x71aedfce837bd61U,
  0xb736d7b34ebcba83U, 0xec05f819f26bc70bU, 0x9af25b56b9b0425aU, 0x790845028136ed62U,
  0x4f4a55d4f2b1c9a1U, 0x2fea5c70138ef54U, 0x4bd16569faf8eb13U, 0xfffffe8500000040U,
  0xfffffe2efffffe3bU, 0x70fffffee1U, 0x199000000f2U, 0xffffff3bfffffd5fU,
  0xfffffb08fffffef3U, 0xffffff1efffffc39U, 0x14b00000043U, 0xa5ffffff01U,
  0xfffffd7affffff73U, 0x120000007eU, 0xfffffab6fffffe52U, 0xfffffedbffffffc4U,
  0xfffffe55ffffffb8U, 0xffffff680000017cU, 0xfffffe3affffff48U, 0xfffffe0c00000130U,
  0xeffffffe26U, 0xfffffea20000004cU, 0xfffffed5fffffcbfU, 0xfffffca000000053U,
  0xe3fffffd71U, 0xfffffe74fffffd13U, 0xfffffe15fffffbf8U, 0xe30000008cU,
  0xffffffd1fffffe8fU, 0xfffffd7affffff8bU, 0xac0000011dU, 0xfffffd970000011dU,
  0xfffffe2600000127U, 0x44fffffdfdU, 0xfffffc250000018bU, 0x891dacf2f305a68bU,
  0x88aa6f199b225e8U, 0x3e46818f972a2d43U, 0x9331f2f85d320af0U, 0x229bf509f8e406e0U,
  0x469b1e20c9114883U, 0x15852ac5921822eaU, 0xd7d4c91a2fded4dbU, 0xbc1042df3b2ed0b9U,
  0x812f2dd31f49b798U, 0xc9f8a5b8ef85a3c4U, 0x400f19ce34ebfa27U, 0x4d0df4e898c8494fU,
  0xcc471822fa0d5440U, 0xf8be0db81ea2e235U, 0xdea9d8ede8b600d9U, 0xabf418cac80508c0U,
  0x9c8cb08481a1a9cfU, 0xc4bca2f6af423c2fU, 0xb605a8a4fedbeaacU, 0x46b825461486fac1U,
  0x81ac2bda1204c1e3U, 0x3e0a280e291a44f8U, 0x91b9d41bee83e4f7U, 0x80cf739f211ae08U,
  0x7020e11f4fb0015U, 0xfb08effc1100f9dbU, 0xe6f5f2f9e3067f03U, 0xc6f6060504280809U,
  0xe00116fe0b0df002U, 0x507030a013df7f5U, 0x5ebf81bfffa0ffaU, 0xded92fd7e4ddc7e5U,
  0xc4fc923a2881331dU, 0xf9e0acd3e794cec0U, 0xf93023aa1afce2c9U, 0xa3f418dda4d226d3U,
  0xd5211adfe7d2d9U, 0xcfd908dec2f1eeeeU, 0xfaeddd22bcb2591U, 0x103b127162ff4015U,
  0x14e6f809af12fa34U, 0xf9eb1108eb022304U, 0x8d2018fbc0fb29e5U, 0x7f06e815f4cdee0cU,
  0x2c133ad41bf9eaf8U, 0x19062121e312220aU, 0xe0a7e82729130c0cU, 0xddb1e2bec8d5b106U,
  0x83a7d8eacd8ad2d3U, 0xcd0c0dee8060d13U, 0xcd0e00852a02a28eU, 0xf1dcc3b7a6160dadU,
  0xe526f601cef6bec4U, 0xa4d504d7c3dea109U, 0xebc7c4cef581ddccU, 0x1d171b530f05d426U,
  0x14f2f010dd12f709U, 0x5fefa14edef0b30U, 0xa9b5f0ddfcf37f11U, 0x1c12230bec071c13U,
  0x6030f0afee8e7e0U, 0xebf4d644f648f807U, 0xc9d510e62f0c2e1cU, 0x1216fd3b24087f13U,
  0x1031a13f4fc08f8U, 0xf6fa060ce4050710U, 0xbdf4e0e0040abffeU, 0x6f1b3d07f9fdfc02U,
  0xafb070c091605e8U, 0x5182608fa0af5feU, 0xefd3fe1a11ff1306U, 0x933ed497fa7512eU,
  0x3bf49f0deedd162fU, 0xe8e20834e7e536e4U, 0xa4a0f3f30c26b217U, 0x61eafc332ae13c15U,
  0x88b3fccf353e2efdU, 0x2d3708e1f42ef9e3U, 0xc690e2393f13f62aU, 0x9ea7203135f6d93eU,
  0x9a0bf40f369b3a42U, 0x8abca28a899214b7U, 0x3d230efee5e738b9U, 0xbd27ae3437951a39U,
  0x81b818dfe8c42890U, 0xbca298978a3a90f6U, 0xf5ef0e23e1b421b6U, 0xc9452926a76bbb8aU,
  0x9588dfa39921da33U, 0xd1a45ab1098ba151U, 0x21efef3aef29d988U, 0xa7bfaef5d535b38bU,
  0x8f186f9c64012db8U, 0xd3914d4ed3e2df70U, 0xfbac657f3ae2cc67U, 0xd881c8e7fc1321e4U,
  0xc998f704cca4da01U, 0xde0daa9cecad8bd2U, 0xe1d30b8806e3d398U, 0xf61fe5a7a61724c5U,
  0x11dc0d1e89fed8d8U, 0x9aad2fb4d6d1bcc3U, 0x34dc9b2e0cdf2fdeU, 0xcdc5b6df0020a5d3U,
  0xdcb196f0eda98aecU, 0xce6b49b23c6b5cbU, 0xd31cd08914ba8fb9U, 0xdfdd068c84291e99U,
  0x221bd630b1e200b8U, 0xa6acecc588d08de1U, 0xf391811bfee0e588U, 0x1a119b38292fc00eU,
  0xaed437d71aff202bU, 0x42feee2ca37b22cU, 0xb7c91227b9399dc9U, 0x2dfbdb90bd8102e4U,
  0xecbfd02bcb3b10ebU, 0x10b39dfc87a0848fU, 0xd68793e1d524e310U, 0x328af0d613909ff0U,
  0xa88e1cbf01f4bcecU, 0x2d44f3c024d3b2d1U, 0xfc81542b4640942cU, 0x45f7c516d54132b6U,
  0x1cd2b7e11cb7c79bU, 0x2219f1440c362f24U, 0xa5d6e0bfc41f179fU, 0xa12ff8e38b81efeU,
  0xffbdf01f8f318f2U, 0xfad220fad41d0d7eU, 0x4c1cf8e839f181f9U, 0x4ef1fd16f6172003U,
  0xf819151000f70412U, 0xa0f01f001b40e02U, 0xebd513e52b100e02U, 0x506f1d128b7790cU,
  0x16f0c110e7dd16faU, 0xfbd7e50afff70edbU, 0x2aead2dd2a10810bU, 0x3ae6d7241701c516U,
  0x2fe3471d223bec10U, 0x282b09ebf4001b10U, 0x1acd13f939001303U, 0xaaaa2dea981b9845U,
  0xa801e5be9f4c0c31U, 0x17a766d21981fcd4U, 0xe2f7189fca890700U, 0x26bfb8f44fc563faU,
  0xee88a2429e10eb3U, 0xf51ff5fce02d1400U, 0xf7a490ad168abfa7U, 0xa4eac8d2f2f9ea0eU,
  0xa59229f7ca81ba06U, 0xcc11cbcaebb295d5U, 0xce1600f323e1d7b4U, 0xea0413a5e415daedU,
  0xe9e101dbe51bcce0U, 0xa1d5f0b695e0c1d5U, 0xf7dd92a0cea8cf98U, 0x20d1d810bd191f5U,
  0x230faff511280a2aU, 0xedfe2800f2280e66U, 0x5c19a6f3010e4737U, 0xa009da1e11de77e6U,
  0x3741fc1b28150012U, 0x522f9ff3cd8f80fU, 0xf5ea24bed61a5810U, 0xc7b7c9cd30a28a40U,
  0x859703fa46e10241U, 0x1a2f27d1f69e88f2U, 0x14bbab8ed2abfcd1U, 0xb991982901ca6faU,
  0x4630e5c0c49af001U, 0xc52937811a17c6d8U, 0xb40e892c15e627a4U, 0x70605a201dbbbf3U,
  0xf106eb0c0a2605f7U, 0xf0f40afefd0bf9f0U, 0x4d22ecf114ef47ffU, 0x811123fefbff18f7U,
  0x120d270d02efff0dU, 0x3f9d02afe0f0203U, 0xec060fe0fa0c240dU, 0xf603eac81cef2008U,
  0xf6f6deec1efaea0eU, 0xfaec0301f8e70081U, 0x2f03fa030c00d8fbU, 0x8c0f0ef2f609f101U,
  0xeb17150df407050dU, 0xfcf9faf3f8f6f704U, 0x2fffffd01fd10ffU, 0xff1cf27d1efb1304U,
  0x15080cf0d4040e07U, 0xfb16daf2f5e90581U, 0xc0eaf0fecbf16ee9U, 0xd70eecf4f42b401bU,
  0xd51756141e181103U, 0x140f02f7e7fd0904U, 0xf2cd073f0c010405U, 0xd3cad7d4fd169cfaU,
  0x91b8b20c05b42606U, 0xf6f8810fceaa04b0U, 0xdbe1ca41eece0b8U, 0xccfde910a107e80eU,
  0x1500f12bb9f7d2cdU, 0x2921f6f08209d3e5U, 0x13cfad181aba2d99U, 0xa590813733c1ecfdU,
  0x2719cac5202765afU, 0xe34ade20b9d84ce6U, 0xb3c3384bc2a2e932U, 0xff19060282ed491fU,
  0x411dbf3729a1a1deU, 0xbb85fac4959e4f58U, 0x9ec48befbdb8d306U, 0xd812b385c338f51dU,
  0x9c691f3863cba85U, 0xb6d126091e1097a2U, 0xfbf205c339840813U, 0x21462527e0dad38aU,
  0xdaa932d02c3a2501U, 0x9624cc1e49433634U, 0xc494a681dce5a63fU, 0x16201fee2ef1e31aU,
  0x9f50092121012dfU, 0xfef825f7bd1f1a7fU, 0xfcf3dbf9c91bf512U, 0x37dffb1008ca2d1cU,
  0xab3c1a0f0aded1d8U, 0x1407d71c07d21a1bU, 0xf9f1f4671a06f10dU, 0xf0a8d1a7fcd6a012U,
  0xae97f4d32abba1f8U, 0xaffcaaedcd2b57fU, 0xebe7ebb7eb9da2b2U, 0x3f0e119ec4091cd2U,
  0xe7042420a6e320a4U, 0xeaa9f0e99a22e4b0U, 0xf5e6a8daecc10cb6U, 0xacf514e4e912b0eaU,
  0xa6e9d8f6c6c7ed12U, 0xccff0106d824bab2U, 0xe31a249b2f20c4c0U, 0xf614d101af2028e9U,
  0xf1fd0ee9ee271d85U, 0xc3d323e38107c9ecU, 0xd1d3cae7d0b311dbU, 0x2070e0204e8a6ecU,
  0xf9000cd0fb3ffceeU, 0x210ffefddc07f7c1U, 0xd2118fdf8f74317U, 0xabe73803fd0117fbU,
  0xef233a0f05fd1514U, 0xf5f7d87f14f1f6feU, 0xf9050e26ee031d07U, 0xf3aaa12392e3cddcU,
  0x3ccf8e85a488a6b5U, 0xb46bb1ecc90dff7U, 0xd3fd57b3b9e1819aU, 0x2513ff3d8a0ca208U,
  0x9f070f55ddfd1bd6U, 0xecbce92950011c6U, 0xa9edce43f8bcf13eU, 0xc2810c04c8e798f2U,
  0x831be9c2f5a03e17U, 0xce392293ee133141U, 0xb08294b737e5dbb9U, 0xefb413ffef1b9e7U,
  0xddb12350bf21d1bcU, 0xe198bf3bfc1d10d1U, 0xdfe301e0a79afd84U, 0x41d25b72b830ad3U,
  0xeee9bbf383e8221aU, 0xf60ee546ec2fffadU, 0x3fd0dc0c3035ddf1U, 0xc0edc80e207f4d15U,
  0x3f7102d11c02ddfeU, 0x252fd2c9e62c2415U, 0xeb9345c0333663cU, 0xa4c4c798062ae483U,
  0xbae4a406e295d2dbU, 0x5b787ad1fb58ceaU, 0xe5d504e1f1e2d5ecU, 0xe8d284bca705e8a6U,
  0xb2981dfee9dcdf98U, 0xe592fea281cca6caU, 0xf9859aebd59ef0cfU, 0x1b0400e430b281f5U,
  0x1af9d8d1e4240ef1U, 0xf51bfa211f190acfU, 0x37dfcdf2f91d5e0dU, 0xa3e5d0f01538380fU,
  0xe80e2a2211241ff0U, 0x17eed81a13480d1bU, 0xd0f71dedeb063412U, 0xc8f0e597f9d40107U,
  0x91fefbfcc6d30823U, 0xf0f3d79323af9c68U, 0xf5f4d3dce3e781a9U, 0x5817e1d4b120c6e9U,
  0x2c1435d7f8d83a9aU, 0x5aecaedc3e7c59fU, 0xef9dba16edde1fe8U, 0x93c4d3c0e700c623U,
  0x81e0cf1bf5cbdb18U, 0x1f09b3df24ecd5d3U, 0xcdeff2d427d3d0b6U, 0xc726f2d2ad2519a5U,
  0x20230cdeeee61badU, 0xcf011fc1db14aac2U, 0x1fc9eb1ccda22699U, 0x1f1b075aeac1d209U,
  0x1c13ce06e8fcf944U, 0x21fee0c09e40081U, 0xc2e101020df86cefU, 0xd60fe2060ed84204U,
  0xf2f2181826460bf8U, 0xef101304f61e0d0cU, 0xf6d71a14fc0c0ff6U, 0x321b137f53e7391dU,
  0x3413be22f8d3224cU, 0x26e71cecd428d2U, 0x9fcadbf0d11ef900U, 0xf0cf093525e7312fU,
  0xa0da3b03fe32f919U, 0xfe372700ee1e00fdU, 0xd8a1085419ff271aU, 0xcfde85dbe11fe8b3U,
  0xf831cce20681a532U, 0xa13b01e7ae88faf4U, 0x5fe503dfc9354cd4U, 0x4a2da61747e8a5f0U,
  0x16d721338c934dcfU, 0xc4dbbba7b1dc51b2U, 0xc8f6da623f874c50U, 0xb1b2c8f21bea08e4U,
  0x92a8ca08139be30aU, 0xdef89f9009a28dedU, 0xcef108a019a9ce9cU, 0xdff816cfb50e1981U,
  0xafea12f9901f048dU, 0xb4882004a708d194U, 0x1bb2c7fd118ef2a4U, 0xe081a3c7e1db8216U,
  0x91ce15d3fbba98eeU, 0xd9eb889c11c591a9U, 0xc928f2c40eaad9c9U, 0xb6ccd991c915cd90U,
  0xdaddd31db3e62b8aU, 0xc492ee30c51f9cc8U, 0xf096a92d28963488U, 0x95d784ab20cfad9aU,
  0x81a289e5eae9b5e3U, 0x2316e99de8bdb6edU, 0xc1f8fbebeca398d2U, 0x902ae4d2be09d3ceU,
  0x30f40b37b21113b9U, 0xeb8ce0a18f2b90e2U, 0xe5b5c7240e8c2199U, 0xf5abd5d2a70129c9U,
  0x9dbca7be2781a1d7U, 0xc48fc14296aaf48bU, 0x43c54c31b02033f1U, 0x17a988c38ba1cab7U,
  0xb24b42a5d5bc09b9U, 0x8438a0a84df7873eU, 0xc1e23318151dfebcU, 0x130900abf7c42bcfU,
  0xf420a619c00c3f0cU, 0x11f1ed092a0614e6U, 0x53f1b0ff0533b315U, 0xbd0efe1c0b2a46e7U,
  0x1c404f5b347f032eU, 0x210c15d2f537120aU, 0x5f21e0917004314U, 0xf30f08110b18033dU,
  0x3ee0cbb1220f7f4U, 0x5e81efad603087fU, 0xb7dce4f6db120812U, 0x4ebb2f0903f70717U,
  0xce10c21c05c9f9b1U, 0x1f9d83f0ef700ecU, 0xd800f12405190a0cU, 0x10180c5031fa7f08U,
  0x2f013f3e1f1fc05U, 0xf8ebfc00ee05180fU, 0xbcefecdef314b3f6U, 0x71011a0af4040e08U,
  0x1efdfc22140f07f2U, 0x4050ffff6f207f0U, 0xf7d2f1281b030cfcU, 0x36bdc09d2cace502U,
  0xa797df5c6799969eU, 0xb618a3e310ada299U, 0xfbbf6009c815326U, 0x36ae41c2c2fce905U,
  0xdee338a439a24d2eU, 0x4cdf45862ba5962dU, 0xdac335f5d4f65cb8U, 0x91bf2c622dd3c0aU,
  0x280fb0f0f7062dcdU, 0xdba41131e820063fU, 0x28ccffd92a3281f9U, 0x360b15072a111403U,
  0xd22b10fd25faf213U, 0x131ced0416c11905U, 0xac702051c0b162dU, 0x1a1a12f4dcd29a0bU,
  0x131ffbe1e810eef4U, 0x340f5031d0c1685U, 0x1cc1f90be7f17f1fU, 0x92fec617f2fa2815U,
  0xff442a18090a16f2U, 0x190ecc141552e6feU, 0x16e413fcd9161011U, 0x9eb7c2e11020ddefU,
  0xc5d7c5ccd88f83d8U, 0x1f8dc93e5c49ad7U, 0xd7ede2a6f4bfd0d7U, 0xdb2001a5d8f4eea3U,
  0xc5e207f29125e998U, 0xd28d0caabbc981ddU, 0xf096b501fad11591U, 0xb5c1e1c61ee3a0edU,
  0xaabf222fdb90cb1dU, 0x13ea81b9d1cfa738U, 0xa5da12f116daec9dU, 0x3bf2e793e70809bdU,
  0xc926041eacd9e3d1U, 0x899831718aeba8d7U, 0x319f982ec9c6d8d7U, 0xd5d61fb70e19e2d1U,
  0xa1d51408c8bcdae6U, 0xfcda810cc1cad216U, 0xa7f9269c089c7d0dU, 0xbfd92707fef100e9U,
  0xd004dc3b9806bee7U, 0xe10edfeedde9f6cbU, 0xc0e3e3e0009f0cbaU, 0xe4e416010722fdd2U,
  0x8e1c20d21dea123bU, 0x1914bd1fdb3a21b5U, 0xdc36b4254a179c1bU, 0xbac5daadb32dc8a2U,
  0x16e80acb42df0410U, 0xdfa1471fe62ee7e3U, 0x36db43e6db3fbf81U, 0xfb03eaa4d8db2f0aU,
  0xf9dd02e008f4eaU, 0x2d3f9f2f2f0f381U, 0x52f7030f0704e2efU, 0x92082bec03071afcU,
  0x8fb40110bc90e18U, 0xf607080406e4f2faU, 0xea07eddcd9f32fffU, 0xc15029f13d0f1eaU,
  0xf106de23deff06ebU, 0xf4d80f16f50d0fb2U, 0x780cdcfc1ff1e905U, 0x81ef12f602ee3107U,
  0x48341636f2060905U, 0x19ebbfe3f5e81303U, 0xfef9fbf3f8052507U, 0xe1a1ee10cc3810bU,
  0x2816d718133106e1U, 0x530132dfde917b7U, 0x12e0bd0ce5297814U, 0xbc0ead1912dbe721U,
  0xfe3834131c4c2305U, 0x22f1cef02509fc2bU, 0xf4d613f4ea1f3e04U, 0x24eef3e2219cfb1cU,
  0x271fc2f621d54ee1U, 0xda0f97ed1332f09bU, 0x2bf82a382d024335U, 0xd5e3dd0afaf94c21U,
  0xdbd19cce169dd4fdU, 0x36109afe1fe936e9U, 0xf91bebf7813811f2U, 0x24102ccf1bc481f0U,
  0x1f31bae4d70d25feU, 0xe4e7181785151007U, 0x370cc1e90b047c34U, 0x8405effa0a033b0bU,
  0xd0e2bec000118edU, 0xf5ce150a32ff31U, 0xe6e500a5c622321eU, 0x8d9281e4e91bac1bU,
  0x87f0292c0abdae09U, 0xe1f8cdd00487bea7U, 0xef0bd7971e93b2a6U, 0xb5e1ef8c9c17e38eU,
  0xe51e281498e20da5U, 0xc69407a5981ff6c3U, 0x1bb1b2d7e9d3d2c5U, 0x2d21067810d6f4f8U,
  0xf4fed70709f80861U, 0xf745cf0a30ea02abU, 0x8dc0dae3c3177ff7U, 0x2f702191a1746f7U,
  0xdbd4311a2b3ae907U, 0xfd1ff53ef65610feU, 0xeed423f71b181c20U, 0x813df6c5b7e8218dU,
  0x83e093fd182f83c8U, 0x3d29aa12aaa2bc12U, 0x879142aa21458f9dU, 0xe4e01987df96ac8dU,
  0xae354456b72606c3U, 0xf9b3ecf5a13c1993U, 0x33ec37df432beef8U, 0xfffff60ffffff5eeU,
  0x79bfffff618U, 0x136bffffe1a9U, 0xcf7fffff9f0U, 0x1cf900000437U,
  0xfffff655U, 0xffffe460ffffe52eU, 0xfffff619fffff5f9U, 0x16ae00000a21U,
  0xffffed25fffff567U, 0xfffff58c000018f2U, 0xeb200000e24U, 0xfffff10d000011c5U,
  0xfffff620fffff637U, 0xffffec9fffffff86U, 0x139fffffa02U, 0xfffff618fffff619U,
  0xffffe57600002932U, 0xffffedf200001700U, 0x1384fffff9dcU, 0xfffff6320000178cU,
  0xffffe491ffffded7U, 0xfffff591ffffe63aU, 0xfffffe1f00001cfeU, 0xfffff65e00000466U,
  0x177000001682U, 0xffffe43dfffff31bU, 0xfffff5d5fffff919U, 0x1b580000131aU,
  0x6fa00001cceU, 0xffffe7e300001f5eU, 0xfffff5e20000162dU, 0xdbf9fa11ddfb19eeU,
  0xe1e04fd806231efdU, 0x7f0de50d00e94b42U, 0xb219dff3283508f3U, 0xf3012a02db2ddf21U,
  0xd138271df7150d07U, 0x15fd0d15fc362cf9U, 0x16ec5b063400345aU, 0xd904f60cdb2d08edU,
  0xe63b5201dceb1dffU, 0x7f24331f2703544dU, 0xbb1bcbffe8ff2debU, 0xf1f9150da437fcd9U,
  0xd4471c5302270e03U, 0x19041931033ff1feU, 0xdceb7c12360a4664U, 0xd80bf3b4d733ce1dU,
  0x19e451a7400f1d00U, 0x7f411e3754425f58U, 0xcc44b412d22cffe4U, 0xef08431ae7442cdeU,
  0xd859ef7dd0372400U, 0xe11a3e3a0c4bfc00U, 0xd5e951234a185c6eU, 0xe3fff4c8e019f004U,
  0x1035dff71a1416fdU, 0x5b48d83e36e44e4aU, 0xf2ef8220fbd519e8U, 0xf4f47f20bc3d2e19U,
  0xe8502c3ad30629fdU, 0x3b064aec144105fdU, 0x38ee702a3f205457U, 0xe71af3bbe2f3012aU,
  0x12d08b04d0ed16f7U, 0x555ed0532fed5250U, 0x163cbd373a41cfe9U, 0xf9fc782f1e4741fbU,
  0xf15bfa7fbec220fcU, 0xd3ed2dda214aeef4U, 0x37ef413c4e306057U, 0xf0eef600ebfcfcfbU,
  0x3b39e426f1f314efU, 0x4361295a31e0494bU, 0x3b1c3445f3cc12f2U, 0x13a4f38f54705d3U,
  0xfd56d661e2dec9fdU, 0x8e07fc52c473deaU, 0xd2f4304664395c4bU, 0xfbf3faedfa163af0U,
  0xa11f1e6c64012e9U, 0x2e53d55212de383dU, 0x5132654549212fffU, 0xce52e391d3e2643U,
  0x446f54e9ef10201U, 0x22167f9c303be2e2U, 0x3dfb5945523a4b38U, 0x50cffc009e3dbecU,
  0x3af8def5f12516e0U, 0x2753de5638e6323cU, 0x6f1a424e15f7280cU, 0x1a203d433a42283fU,
  0x9451d30962dd007U, 0x1c077fbe3c390fd7U, 0x19036a4e70454834U, 0xef0050d1cdaf93aU,
  0x2523971215fb1adaU, 0x1e4a325362f12b35U, 0x7f175f4d280b481cU, 0x28f8ab482f411af7U,
  0x63ef74b14c0e50fU, 0xe23c4595443438d1U, 0x440e0f51614a402dU, 0x172b0cba2d0e11efU,
  0xf533ab5bcb391dddU, 0x173ee149563c2229U, 0x7fe64543ec49d22aU, 0x3446ef46453cdae5U,
  0x23619395752e218U, 0xe8113cf9442b1ad4U, 0xdb192d4b6f493525U, 0x1c041120384603f7U,
  0x3fe6c8fc05fe20e4U, 0x1032013e29131c1dU, 0x75ee153513160935U, 0x3cf2a5410736e039U,
  0xf92de37f5906f321U, 0x431775d34122f3dcU, 0xf9223e4357442b1eU, 0x28c61cb64f492cd8U,
  0x32ceb448c6d32aecU, 0xe33d53fc5f61d15U, 0x7fd3f13208d1294dU, 0x514ae6477f3bea27U,
  0xf030f93a2068e331U, 0x51e40e04921ebe5U, 0x33347486a4b2c1eU, 0x2c3221285324022fU,
  0xd8fd99c3c7d12dfcU, 0xb2ae03414001b08U, 0x6d01d824fc41d954U, 0x543b813e1b34fdedU,
  0xeb2afb7810350c38U, 0x35f25fc6411cf4f7U, 0xd53a6f3d59432419U, 0x35362b185e1bfa11U,
  0xf9e5b603e3e4350dU, 0xa28072ebae91dfeU, 0x67f6f61ed312fa62U, 0x5d1a813c6234ddf7U,
  0xe829ec566614fd45U, 0xd7296cbf3f1a470bU, 0x4446243a53422218U, 0x40cc36b666fb2947U,
  0xc19b7ad3be74021U, 0xb264a29bd3821f7U, 0x630eab1cfdfe166eU, 0x650181390f341ce3U,
  0xec2900401f271452U, 0x103711a33d1be522U, 0x1a51253645402017U, 0x44d43bd45d0e3648U,
  0x3c1997c0e0d24131U, 0xb1f201efbfe20f3U, 0x51e8b21b300c4366U, 0x5c19812e122be043U,
  0xfa2211741423fc52U, 0x4b017a9a31191d34U, 0x2d50172b3e351913U, 0x4fdf46a75dd90ff6U,
  0x3e16810d23db4942U, 0xd1bd719ba1b23f4U, 0x4bf50b24311e1868U, 0x5b17db293c2910d7U,
  0xf203ea512252959U, 0xf35132ce2d1c1a48U, 0xe75539262e311611U, 0x71da66bc6e202bd3U,
  0xdbf78ed93ac36467U, 0x12194a18d91f2ef7U, 0x531f8a40f8ca5c7fU, 0x6be8da2c772fd524U,
  0x3922f0cf8f521b75U, 0xf52633c43128e371U, 0x476c6f2935371410U, 0x62db5afe4f46203cU,
  0x26d0aeb8cf3b545dU, 0xe0b070f9f4f2503U, 0x38f681463607c75fU, 0x4eefb11c3922f5d2U,
  0x51160916da502f5eU, 0x3a3b78ef2024ec67U, 0x535e1b19260806U, 0x5ad554f83ae9dadfU,
  0xd345edca09cf4b57U, 0x7ffdf0b9905200fU, 0x24e3854fe1f21449U, 0x3b0f8e133e19e9f8U,
  0x690e3525b417304eU, 0x311c5fc115231e60U, 0x2c437f13161bfefdU, 0x541c50012ae10e0eU,
  0x3f5fd06eef54553U, 0xfdf5f8099d311d1cU, 0x131a995a30ec103bU, 0x2df78b0c111422f7U,
  0x7f081619d30df444U, 0xda0514c70d24075bU, 0xe138770e0b14f6f3U, 0x4428431d190c2230U,
  0x28070dd5ecf13845U, 0xefeffa09e4f01724U, 0x1015701def828U, 0x1ee8e207180ee333U,
  0x7f02f32adc20f634U, 0xe41309ca0621e54cU, 0xf2280e09040df1ebU, 0x381939fc0cf30106U,
  0xebfa10f5ee1f303dU, 0xdfeb0c09d4041229U, 0xf0f52456e928ff1bU, 0x13efce04090ae9eeU,
  0x7ffe0c18cde7f529U, 0x28150ebc011f0543U, 0xea1d13060508ede3U, 0x30fd33ef0204f3e2U,
  0xf0f103da27232b38U, 0xcce80209e622102eU, 0xe1e90c58eafce510U, 0xcedf20143081bf4U,
  0x7ffb1d35f2561b21U, 0xefef44e5fd1f123eU, 0x191525040006e9daU, 0x367940002f1ddU,
  0x3910300040e58U, 0x4277a00042152U, 0x3ed4a0003a2fcU, 0x3b7e40003e968U,
  0x3de730003664aU, 0x3b34200038f46U, 0x399190003e7baU, 0x4e02a0003bf28U,
  0x3879c0003fc3eU, 0x2d60e00035386U, 0x287d300029719U,
};


ai_handle g_forecast_temp_ml_model_weights_table[1 + 2] = {
  AI_HANDLE_PTR(AI_MAGIC_MARKER),
  AI_HANDLE_PTR(s_forecast_temp_ml_model_weights_array_u64),
  AI_HANDLE_PTR(AI_MAGIC_MARKER),
};

