/**
  ******************************************************************************
  * @file    forecast_temp_ml_model_data_params.c
  * @author  AST Embedded Analytics Research Platform
  * @date    2026-02-26T20:23:29-0400
  * @brief   AI Tool Automatic Code Generator for Embedded NN computing
  ******************************************************************************
  * Copyright (c) 2026 STMicroelectronics.
  * All rights reserved.
  *
  * This software is licensed under terms that can be found in the LICENSE file
  * in the root directory of this software component.
  * If no LICENSE file comes with this software, it is provided AS-IS.
  ******************************************************************************
  */

#include "forecast_temp_ml_model_data_params.h"


/**  Activations Section  ****************************************************/
ai_handle g_forecast_temp_ml_model_activations_table[1 + 2] = {
  AI_HANDLE_PTR(AI_MAGIC_MARKER),
  AI_HANDLE_PTR(NULL),
  AI_HANDLE_PTR(AI_MAGIC_MARKER),
};




/**  Weights Section  ********************************************************/
AI_ALIGNED(32)
const ai_u64 s_forecast_temp_ml_model_weights_array_u64[1577] = {
  0x3acf4c944e60dc3U, 0x1d1ee8813e13f7c7U, 0x696128125467a4c7U, 0xf246f7ace90dfef5U,
  0x16b9268155c4f6d8U, 0xe02be9dc1652f1f6U, 0xe0a8baf3f108f0c7U, 0x4c69356fe0338152U,
  0xbcd37067d3d87f5bU, 0x442042a96cb0f53eU, 0x21ea05ff4eb6ca26U, 0xc43f1108c2cdc924U,
  0x1a4518e181462ac2U, 0xfee320f402f70a0dU, 0xbcfd0fcc12d4b27fU, 0xbb38ef01916a1901U,
  0xcbe1dfd7fef0df2cU, 0xd8ad103488810ea1U, 0x542f6df7621af825U, 0x65e0037f17547ad8U,
  0x901303416011d32U, 0x141b77fdf0ff492bU, 0x85d81fb8d6ff337fU, 0xc403f200c5e4d1e3U,
  0x8bfeb37fad3609fdU, 0xe708f8037541025dU, 0xc6c8b04181dcffedU, 0xc0090c30b4ffb29aU,
  0xfef039d8b8f50509U, 0x130fe97fd3fdda78U, 0xff52f11b387f0904U, 0xe6bd1f04cfc11000U,
  0x5f631c80f31U, 0xfffffc28fffff0e8U, 0xfffff976ffffea72U, 0xfffff952fffffd85U,
  0xfffff74efffff949U, 0xfffff8c9fffff751U, 0xfffff59e000001ffU, 0xf9010cfff924f7feU,
  0xf5e40edd02ced6U, 0xf6ba2b0be7e904efU, 0xfad813becfe409d1U, 0x180af1e4812c1abeU,
  0x1ed268bfb8f3f2e2U, 0xddf2e2138127de37U, 0xfad23ef2d929f7e7U, 0xf40ad4062124150cU,
  0x393bdc2a07c71214U, 0x1dbfc9f4f333db01U, 0xe52322e91149ff6bU, 0xdabf23117f15cf31U,
  0x8dcc0a490c0bf1e6U, 0xcf6220705f11d73U, 0xea15dea90e240bfdU, 0xb0c021ce5f0d240U,
  0xb909e0d80df9c209U, 0xd8120d4fcc60524U, 0x1f4ec04d19ad9fdU, 0xf2cde1a8beecbe2dU,
  0xe401dce6e2d318bfU, 0x2dff09c6ef34741aU, 0x12ef0fd00881053bU, 0x40f2e43415124dd2U,
  0x2a2fd3d4cc3cc314U, 0xaf164223ff1e0c1eU, 0x1431f2be9f5002eaU, 0x339b11c631d15ec6U,
  0xebf400be05030781U, 0x13a6a0a9f9d24c3dU, 0xba12e0ce253321aU, 0xdb0405e5caaed8efU,
  0x17a7fa4b8139e6feU, 0x9007fef4e118b7ddU, 0xf0e2f32d06def4e7U, 0xd1f70881fa12120aU,
  0x2118ed30d5274df8U, 0xe90d0bb4f7e22ffeU, 0xcbb1106c21cd91aU, 0x6d60ee0ed07c6d6U,
  0xe2ee81cfc5fe0d09U, 0xf8f5fdebcd2a16f1U, 0xe6df05f2d4cbcf09U, 0xee1e348138d0c9acU,
  0x13aab8ffa912e450U, 0x26f04f0931e30e0eU, 0xd73234fdc6d0db03U, 0xf102da3f2224feedU,
  0x5bee2edb311c885U, 0x29f496b304bee881U, 0x2e3e3521fb808fbU, 0xa90c0414d4ed16d7U,
  0xfb4ffd350dU, 0x35900000641U, 0xa0000003a7U, 0x6be0000070aU,
  0xfffffbd9000000bdU, 0xa90000058cU, 0x4c107fe3ffffffe7U, 0xe96581fc7fba7f29U,
  0x812c119ea681c6ebU, 0xe814f7fda7fb339U, 0x81f53dee7fU, 0x0U,
  0x0U, 0x0U, 0x0U, 0x0U,
  0x977d70600000000U, 0xa601de7ff5f126fbU, 0x81bcd0195f00f6c5U, 0x87f664e37dde37cU,
  0xd5f3f2a1d528c9e5U, 0x6a1dfe1ce1fe7fffU, 0x8ff6047ff4e6e625U, 0xd0e00a781243c3dU,
  0xf9222e365cd9d6ecU, 0x3cf78120307c172fU, 0xf2351b81ddcb2f5aU, 0xef9eaf2205d31c37U,
  0xbe1631c6cfba7f2aU, 0x31ecc5ed4fd58409U, 0x197ffe3118047f28U, 0xc0fb7a14ee25f3b4U,
  0x403e6e81a12fe8cbU, 0x55ab31dd5335811eU, 0xfc48f5af26281fd2U, 0xef0c13e7b5c581a7U,
  0x5fe1adcdc1b20c0eU, 0xee47ffb642bf017fU, 0x81fee00f7fe63ae6U, 0x3a16f8bf97cecd4eU,
  0x81002eea7c10df9eU, 0x9f5e3e421981f9fdU, 0xaf0081a605e7cb9eU, 0xc04cc0c0cea15dbU,
  0xc01a8145e83ced5cU, 0x45334adfe6ed1d45U, 0xa1cd045b1d8100ccU, 0xa159b1c07ef381daU,
  0xc2e262fc0fce2b2cU, 0x96032f0043e53a81U, 0xd195f031a1819e41U, 0xeabd7f202da74c87U,
  0x811043daa4fea84dU, 0x59d0f408523ec9d9U, 0xdbd0f1810fc4db1bU, 0x9a000b923226ea81U,
  0x7fb1d403a9321a5eU, 0x81ef55df0fa3d5faU, 0x66eadf359e2125e5U, 0x98114ebe1ff38107U,
  0xd6fecaf3cae8efe2U, 0xbc1d120eebfb037fU, 0x2de335fc7fc908a5U, 0x7fc4753f10b912feU,
  0xa3d3819c45eb861aU, 0xb2f89ae68f2a27d6U, 0xf7d24a7f8d3fcbe9U, 0x5bbd45f4d7e948b8U,
  0x97b0521fccb27fe5U, 0x6998d1e42c27eee0U, 0x9fb76f1ce5f0817fU, 0x70035781cdd46ce1U,
  0x4019f024e0ee1108U, 0x1abb080edf52bedeU, 0x2e7f14c73ac30f81U, 0x82cee1081c5d950U,
  0xa043eae134027fdcU, 0x1de04a2c81014dcbU, 0x4d4cae81c01f33e3U, 0xc08154c823fc0123U,
  0xaecde901152aea16U, 0xd3eb7f16c3f894fcU, 0x814ac884e9e540e4U, 0xab68431babd5da46U,
  0x3e734c3e7bf0a11U, 0x2ae8f9e381ea3481U, 0x2c249413f1ced5f8U, 0x4bff7f89de1905c9U,
  0xcb41cf271beae305U, 0x45744bcc2aff7fc5U, 0xabc46c97fceb35fU, 0x21e9a6813ca4fb9cU,
  0x18eb15f3fdf1f911U, 0x202c0016fbff5a81U, 0x8123197fba87151cU, 0xf8f4dae0592ec6dbU,
  0xef38ee0f188148e8U, 0xe131d411e623dda8U, 0x6d07012a9edf7fc5U, 0xd0d4e9e2f7bf811cU,
  0x50d5e110b43b4620U, 0x2204fe3d162a81efU, 0xba31a3db0e7f2bd4U, 0x95cf5eed17b2cc04U,
  0x30ad4f17fcdU, 0x156ffffff8bU, 0xfffffa67ffffff54U, 0x375fffffd89U,
  0xffffff3ffffffffeU, 0xfffffef3ffffff1dU, 0x11ffffffe7eU, 0xfffffd8cffffff85U,
  0xfffffd6dfffffdf3U, 0xffffffa7fffffeb3U, 0x56c0000027dU, 0xfffffc61fffffe3fU,
  0xfffffc11fffffcb9U, 0xffffff3e00000227U, 0x74ffffff3aU, 0xfffffefffffffd55U,
  0xfbffffff3eU, 0xfffffe82fffffd10U, 0xffffff16fffffdc0U, 0x5d60000008cU,
  0x1acfffffee8U, 0xfffffcbaffffff30U, 0xfffffc0afffffdefU, 0xfffffe8cfffffd9eU,
  0xffffff3e00000057U, 0xffffff68fffffee1U, 0x24000000125U, 0xfffffa90ffffffeaU,
  0xffffff5dfffffc52U, 0xffffffe5000000aeU, 0x311ffffffefU, 0xfffffe9effffff25U,
  0xad1b3c7f0000005eU, 0x817fb75081324e84U, 0xd5707f7fcf4aa11aU, 0x4afb4481bef381edU,
  0xc4e08117aa7f81ebU, 0x7f817f7f81f277feU, 0x4dda7f8181817f81U, 0x7f7f3323372ce8ebU,
  0x23817f8cdc538181U, 0xddead17f13c18119U, 0x7f90ebf948bc7f5cU, 0xabdac1218181687fU,
  0x7f5ab581e072000bU, 0x156db22a9565e081U, 0x7f43ca1899ebc502U, 0x2b577e117f7fbd7fU,
  0x7f7ba1bc18f6cf54U, 0xc3507fbb3a813281U, 0x381f7fe81812281U, 0x7f7f81fd370f9c93U,
  0x10819e787fff4b81U, 0x7f1154deb88181efU, 0xe97f65022bebcb3eU, 0xac0c8181b8777ff5U,
  0x8181add6U, 0x0U, 0x0U, 0x0U,
  0x0U, 0x0U, 0x0U, 0x0U,
  0x0U, 0x0U, 0x0U, 0x0U,
  0x0U, 0x0U, 0x0U, 0x0U,
  0x0U, 0x0U, 0x0U, 0x0U,
  0x0U, 0x0U, 0x0U, 0x0U,
  0x0U, 0x0U, 0x0U, 0x0U,
  0x0U, 0x0U, 0x0U, 0x0U,
  0xe5430c2000000000U, 0x18a2cc44d27f1df2U, 0x286bf3e70c07ef24U, 0xebf0431405fbeee3U,
  0xef2b2423ffde0723U, 0xb70fd5d4493913f7U, 0x3d1c11af8f2104aU, 0xfdb12003f8f7f2e7U,
  0xb0a1300f5d127d3U, 0xae3fed9157f0a1cU, 0xdd33df0602e6060cU, 0xe20d1af20c110200U,
  0xfc114be311f4fef9U, 0xba12f3d8252df319U, 0xbb04c00634244500U, 0xcb7fb11eac9d42fU,
  0xde0d08de25071035U, 0x2cdef20a07fef2f1U, 0xfc00e1c5eefffbe3U, 0xccd1eb16e31c0a0dU,
  0x4fdeae60d26f7eaU, 0x981fcc8e814f1faU, 0xc918c132c41b0b27U, 0xf9e8fd070367de36U,
  0xb707f8dd14ed44f6U, 0x40a10fd4e679effaU, 0x338d0214e331bf0U, 0xd9d8512c0d3a9603U,
  0xd923464153a6f80bU, 0xcca0f4da7f10db11U, 0xfbafc1a3b293e52U, 0xf9e30a322b0abaf6U,
  0xea1761ebfd0241f1U, 0x2af30aebe217e704U, 0xbee6a30d0737b745U, 0xbcbe70600e61bcaU,
  0x373e68ff1a811d01U, 0xed080efb185cfbeeU, 0x401062c20171e19U, 0xf016131517cfe6beU,
  0x186d1b2603c12cf8U, 0x35ead6e4250b0e2cU, 0xc3d7cbf1133c0cbbU, 0xe2e7002627267f25U,
  0xfafd35c875abd65aU, 0x609b002fa5fe329U, 0xdffdebf5ee38eaf2U, 0xed080a365b14b10bU,
  0xebbbb1f010c4602U, 0x2f02e6fec9012b00U, 0xdcfd2005f941ebbaU, 0xd7c5460b0b161b3eU,
  0x5f64428fca0f631U, 0x18fbbf03e0efd334U, 0xf703db0bc508c77dU, 0xc8190413cf0a0ee6U,
  0xe6295bee0f7f070aU, 0xf1d420f00632f9faU, 0x932493efd24dec3fU, 0xc5dae926f1f07fc9U,
  0xc54169073db81208U, 0xedb320f40e5b09eaU, 0xdaf30e3027f51b25U, 0xb1f620fe4117e6f2U,
  0xb51409fe20960f9cU, 0x2ca494e1f2d338fcU, 0xec48cdded22eaeffU, 0xf4dd0629d536fc08U,
  0xbb3d23242f03fd00U, 0xe0d415ed450a2027U, 0xfcdac2f150185af6U, 0x1a810a66fff5dcd4U,
  0xf10c991b30d171e8U, 0x5ff4f5f1e1d33af3U, 0xde4a2e264026dca2U, 0x9df13df2d329064bU,
  0x2813ed03de8a0125U, 0xd9fdcf20da9092dU, 0xf433dbede0fe0d7fU, 0xc00592016c0ffeddU,
  0x716f7f40210101dU, 0x30400ff0df3fee7U, 0x963b9b0e5feac123U, 0xe2e41138302a08d0U,
  0xddf2651e2d81f0e8U, 0x12f4fb0218e1a637U, 0x40de180bf97cc8f4U, 0x12b002dde930b206U,
  0xebf309552afa2e1dU, 0x68b915ff2a56e1f5U, 0xfe58df1881ead330U, 0xbac0f84a0ff9fdf6U,
  0xf0014f22dfbe0505U, 0x15f2d18fe4d3e736U, 0xc230ac153321eb18U, 0xf5e13519282417a7U,
  0x24030d25ef031809U, 0xaf019f0243dda18U, 0xfc3bd9071cf9c719U, 0x1003fbe51ef73d03U,
  0xf3f522101cf70f12U, 0x202ddefa2a20f31fU, 0x5f50602437f601eU, 0xdfc2e81df0f1f1c4U,
  0xc9f3de0e38f60bc5U, 0x43eddf1a3430cff9U, 0xc1718db09304613U, 0x15cb233f002c3e14U,
  0x1a2c90cbefb41d6eU, 0xd2f2d14b3a1224U, 0xd5bdb0200fcc033U, 0x4ed1a0781a725d7U,
  0xfe56cb0f19e73204U, 0x26e21ea7ebf4e007U, 0xe911f38c052bce49U, 0xe6ade4117f05c5c2U,
  0xd73339f90f930902U, 0xb60cbb0d4a2d1409U, 0x222f734e653012aU, 0x91f74132c3ceebedU,
  0x12b69b29204e54ffU, 0x6ce65552c30631faU, 0xd51b114e21f5ccd8U, 0xe7cef32e07d89d5bU,
  0xe804589dbfaaf62fU, 0xf41bda11e7c8f727U, 0xc7fbced500d90edfU, 0xddfbb01b2beed5abU,
  0xde1b8110077f0d02U, 0x279518d7333c1bffU, 0xde52310b1f31ccd7U, 0xf8f001eafd040c01U,
  0xc5faf1131acff90eU, 0x4ebd2f2082de84aU, 0xeb0fbc621c0b2627U, 0x17f1f451fede3bd9U,
  0xe2fc4b03ec055b15U, 0x20dedc1cdf0b15feU, 0xd4ff3afdc5091c53U, 0xcc2f0d9e6fc19c7U,
  0x476373df6781b6e1U, 0xfb16faf50736c9ecU, 0xebebc5282deffeebU, 0xf9f9fb09f41eefd6U,
  0xbd0f0745ea2747d2U, 0x3ba5c2e6e530fffbU, 0xa430fdf3efc516dfU, 0xdcc2fc320133dd17U,
  0xcffd4a48fad0f638U, 0xfeb2812c110b0ff3U, 0xc1f9b63d324123baU, 0x9f4dd19e3deb9ecU,
  0xe420dc254bed4cfcU, 0x7fedd410f9f80e16U, 0xf81006c3e25ddf04U, 0xd5f805220e0103efU,
  0xe617ce1e15351665U, 0x3139f9dcf41a130fU, 0xf5e5c0da18032ae6U, 0xd1260a40e8c801ddU,
  0xf645edfd11da0efdU, 0x1d15cad9e00428f3U, 0xe7e3b6ede00a5607U, 0xd0411adcd6c54be2U,
  0xd7f70707e2b92405U, 0xdf0a0be3e72ce731U, 0xbdd8e629d5dcdee5U, 0x81e1f0fbcbecb411U,
  0xad6c5e4f4503fdcU, 0x2e030302d7e60efaU, 0xe20e19051a46edafU, 0xe6f739ebed12472eU,
  0xebff5915cc95f81dU, 0xfa16e5f1f902b328U, 0x1eceebdbe2f3ed01U, 0xe211f11b37ff0bc7U,
  0xce10ede7e17febfaU, 0x4aabcf26af2ba203U, 0xf08e7f81315b113U, 0x91db08ee311ce808U,
  0xcd332105e7bd232bU, 0xc8e2ff060b5fe9a4U, 0xb90fb1ff172a08ebU, 0x1af074830cf05f1U,
  0xd1f51af8362f7fd3U, 0x34ce03eadf230cffU, 0xf31c0d06030af011U, 0xa5d8091cf8fed9e4U,
  0xa3056610cb1f91fU, 0xfaf5d5e007cef038U, 0xe61be7f5ed001914U, 0x26e32d2e1831b3d4U,
  0xdfe97f450a437fdfU, 0x46d703e30a27162bU, 0x8e53190b3b242126U, 0xc4aac5a8951347dfU,
  0xd1f0890a24a7f00cU, 0xf5d3fa10fe1f3c23U, 0xd11ab7dadd273970U, 0xf90be3391004f0cbU,
  0xf716e5f30bd61cf0U, 0x7216fcf40febd326U, 0xf6eb8101d1150ef5U, 0xc2f73e0fed246dc2U,
  0xd7fe4abe06ceb642U, 0x33d5c91cfa110b0aU, 0x17fde934eb72f5ecU, 0xfc01f7fcd1a61af8U,
  0xdb484cec0bf84808U, 0x2e10e04ea2dce15U, 0xbf18cbccda7f575dU, 0xdd14cb25f7393bb6U,
  0xce17f5d167cc29f2U, 0xfba340f18511a17U, 0xac39de40fe063caeU, 0x9007b0f71ce909a2U,
  0xa5ed183700b12afdU, 0x7fc7f9e1d82b07f1U, 0xc18e5f31fa6acd4U, 0xfbbfe2540c5aefe2U,
  0xcc2c431aeeb7f252U, 0xf9c6cdff1708fadfU, 0xf5fbdc5bcd540533U, 0xf5e1216bfec705e0U,
  0xff4f0ce7630370f8U, 0x2522ff1be7ee2305U, 0xc91ccde6b939f525U, 0xbf22f9ad07d481fbU,
  0xea61f0d41ec600f2U, 0xf6112f08252718d1U, 0xe408eaef001dd4eeU, 0x9e04f5e039f1c2daU,
  0xb1d10d452d0a31d7U, 0xcf5c200f7fd2205U, 0x8f05cdf2ff1e0618U, 0xd6a2f6f9045626eeU,
  0x532bdb7ee81fe33U, 0xee06160b2afbbf30U, 0x981b12031f35d4f0U, 0x40c73319e4b9e815U,
  0x906e9ce2a133d1fU, 0x1ff112f4f1171706U, 0xc82915fe0d1c1c30U, 0xec0a191405e4fff0U,
  0xf503092afb8103eeU, 0xc2e7e6d81bf708fdU, 0xd71ec31011e9e61dU, 0xdcfcd0ff0005f5d0U,
  0xfcde32580122fc05U, 0x2e102f05221ae20dU, 0xd43c1ce2ed2e3d17U, 0xeb19bfc9811b4bd0U,
  0x34ed651c01a713f4U, 0xf2dbfc074f1b32e0U, 0x103e3c72d37784cU, 0xe2f8f8351acec1b6U,
  0xaca9000702ec2c06U, 0x2dca81e35a2499fbU, 0xcc3fded3412703dcU, 0xfdbbf2f5fa1862c4U,
  0x6e35809e4bf093bU, 0xe686e0dffc43b4feU, 0xdfa99a30f03a267bU, 0xe3ed43f8bdbce3d3U,
  0xd033cf00eaf80fcdU, 0x5981f2e3ccf003f1U, 0x232e32b030db4cbU, 0xc3d427d7094fccdbU,
  0xbe2bcdea23bf1349U, 0xc5edb0da742f0facU, 0xb6db9c40192df80bU, 0x1697f6610037cec4U,
  0x8955f8ed6da66f27U, 0x71ecc3dbf70104f6U, 0x2c0f09c019384d07U, 0x118c442d21161406U,
  0xbc0307b3d61aec1bU, 0x198dc4a33d234181U, 0xa3d60632c74dc05eU, 0x3cd30f69f9c69412U,
  0xa10c3e92ef635ecU, 0x5aeedc084ae4b508U, 0xb7d8b11ca1d8182dU, 0x1a13250eb6da0eecU,
  0xe3162c60ffcb290bU, 0xd9e6fd9dea5dd937U, 0xdfd4b339f6ee2babU, 0xcf419265be016f5U,
  0xf811f8fc067fcbc8U, 0x17fb04e8b2195124U, 0x1d0df1d3f0060488U, 0xadf005b1150012d8U,
  0xd938f97fd6a937ffU, 0x24f6f5f90e2bd311U, 0xdeb1e014e00dd3fbU, 0xa5d642fd1301b4fbU,
  0xd7fe2c0c0c1f4509U, 0x1496ddeddf5feb02U, 0xf02bd7f7231cba0eU, 0x81c0303c12cbd0f9U,
  0xe446092804bb0408U, 0xb1c9eec53514e931U, 0xdf45b4fc1e17133fU, 0xf8e7de183043e3e4U,
  0xfc00f0101b3d32dfU, 0x7eeff80309f2230cU, 0xf403ca08e51ee9efU, 0xd2e00c17022006edU,
  0xe0032edcf6a00629U, 0x2d00f30c1008f62bU, 0xfa17152d2a39fdeeU, 0xadc03f7f081f82cU,
  0x13fa92f5fff134faU, 0xf8f31aa5fe061800U, 0xe921dae2f54ee8ffU, 0x39d15eaddf8e3dbU,
  0x943d5e7f01dc0003U, 0x7d2f2fb36c2cd3eU, 0xb0f3ddfb503057d9U, 0xcada32b2cdeb4d3U,
  0xf20df24d28da3ff8U, 0x7ff90cf1b6fd24deU, 0xea0a37ee4a0dccadU, 0xc5f03123da11014cU,
  0x80f383200c11c29U, 0xe005f1aafdd0d915U, 0xde0d0620ea09cf4aU, 0x29d4e61dbedcf4b8U,
  0xeff6f63110381b2cU, 0x4811bf2095bea01U, 0xd824f4fd00e9f916U, 0x14f52cfdfdfef502U,
  0x1fef8030cfeedf6U, 0xdfeffcb230e01b14U, 0x6ec0a21fa282cdbU, 0x1ab600ec15e7e9deU,
  0xd423f3f217df13d9U, 0x1da823440b46adf8U, 0x2d0fd5f5d32ec424U, 0xd1ed54250bd21ed6U,
  0xc1a4f203bdbf31bU, 0x2bc4ce02f031293bU, 0xd0fed80159633715U, 0xebffefd5237f08edU,
  0x2020fff503561df4U, 0x811ccfa231c1a0dU, 0xba1de1c8ce20f63dU, 0xecd417f3ecd509fdU,
  0x210155204d7f116U, 0xf6dfcade3f39e3e5U, 0xd4e6072510192164U, 0x8ef336f95903eae0U,
  0xbe56e50a153eb681U, 0x28b41c9dccea6c20U, 0x5f6e1d6d5cbbc38U, 0xe3940e1c0f17d115U,
  0xe5fd09daecaaee22U, 0x12d5d581114bcc2aU, 0xbce4ac77e1fb9e36U, 0xc3251bc18ab7e445U,
  0xc7f19f451b1d3ea8U, 0x27c2cda726ef02f9U, 0xcc0ff803ac42f110U, 0xb2d1253105c92d29U,
  0x4130231a1ab11de7U, 0xd2c5fbdee9bd122eU, 0x8105e1d938fc58c9U, 0x32c5f10e1a1fa9c3U,
  0xbc1edafb32ff2411U, 0x3efea010360bb704U, 0xaf10d8f91935e103U, 0xf705f3aff130309dU,
  0xe5217f0f03ab2028U, 0xf4c30ac3fe7ecc20U, 0xd3f1a4620b1a484cU, 0x24fd0f0a60e2dbc4U,
  0x1725f9010f2506ceU, 0x5fafed06271e2b00U, 0xf432d9ef3c0fc8fcU, 0xd5dd0e7ff0ec0cebU,
  0xe3e919530ebae914U, 0xe0d1d7f34d36cffaU, 0x91fc205435829edU, 0xe4aaf764e6f4cc09U,
  0xdaf6e1e25ff85f19U, 0x2800013dc2fd0515U, 0xc80a2ef71632d7a3U, 0xebec6fb50e337744U,
  0xf16d22bd8108fdU, 0xfe09bbfed7039060U, 0xeb0b1e1fcf2cf3fU, 0xaf2bf627551afabeU,
  0xe8f80e0e006e0bacU, 0xf2ecc9d0423f0b25U, 0xc0bfaddf10e02eeU, 0xf506f6171930140fU,
  0xc9f2eaea09e61503U, 0xc61ae8ed2817190eU, 0xce04001eda2da8daU, 0x810f0c0323d902cfU,
  0xcf11f338fcb75dbdU, 0x3bb7f30627181dfcU, 0x1a7dc257f818d6c3U, 0x27dceffa0039e5f6U,
  0x98e653fde801081eU, 0x4124e3d81df11007U, 0xcedcf7120cfa09eaU, 0xf6c2e72833b1f1caU,
  0xe0432203f6fb7f1fU, 0x3406e192b10a1027U, 0xfc0ded98c9211408U, 0xd919070b5cf0be95U,
  0xdb04fb0a11bc2719U, 0xadd25f10e4c2cf0U, 0xa103cf40b81304dbU, 0x81f518a6e5cd9bfdU,
  0xdd3dfe1727364decU, 0x2ad5aae4d7c0f71eU, 0xb21dd522c11f2365U, 0xd0d5401cf1eb0ef2U,
  0xeb5f7f10d4b3320bU, 0xe0f3a1d70528041bU, 0xed2bd0d1f002f02U, 0x1cfef70399a53df3U,
  0xe41a333c2afb2b37U, 0x24e4eab31922010bU, 0xec7dd0f6e6f0db86U, 0xf4c5535e1fddf304U,
  0x19f271eaa6d8201aU, 0x10d3ed8e7ff72a3aU, 0xcd06af181341cfe1U, 0x1e164b1c0bda1dfbU,
  0xfd14c3f829be2213U, 0xd4cf61241dfba403U, 0x93eca900ace5fa57U, 0x1e4017f42a448c4U,
  0x3e4e1c9218e00b25U, 0xcca11cd7f37cfa45U, 0xea011308aefae2bbU, 0xbef9ace706c3f4e2U,
  0xe52d17e7e4baf2e2U, 0xfeee10e0713e815U, 0xd01ad506fc221e28U, 0xfe08eafc1819f9c8U,
  0xf3117f1b29ddfc0dU, 0xf1fa0af41525def6U, 0xea0ce61b10001014U, 0x14fa0d0b0bfc02e5U,
  0xc0327ffa07e00becU, 0x1bf8c23bf73aecebU, 0x9810d000a7ed1f64U, 0xf2fcfd46d7b848b5U,
  0x4f53b2050e5f511U, 0x17b0e8cf1c37f8a7U, 0xce33ff14cf0d453aU, 0xd8e82bed2ffcd0bfU,
  0xdceef224fcb10ec9U, 0x1d9cf9dbeb1af8fcU, 0xdb6b224adf05fed2U, 0xf303082afa424410U,
  0xbf2b513cc7e80726U, 0x33a4fde232fbfc33U, 0xfae4cc733337e6d5U, 0xaf5da1a038102d9U,
  0xe160e8f909bd7508U, 0xaebf1f327e7fa16U, 0xde19f5fc2331032eU, 0xc91bf2c9280bedc7U,
  0xc547f2013bd7f6e9U, 0xf508ec011f24250aU, 0xe231ee22dc1a031eU, 0x81ffead00bf3f2b8U,
  0x37ea6560172e0de5U, 0x2981bbae6f4fc100U, 0x564f6128926a2e1U, 0xe4eee9610d69c3e8U,
  0x72f713390a94da10U, 0x2fd101f516df006fU, 0xf6508e526d13e92fU, 0x12c3e93813e3e190U,
  0xeac80b1d5a231af9U, 0x3daff2dc19f9fc04U, 0x15ae9e50a1392e2U, 0xdaa72e45007aedfcU,
  0xdb10f1370fe80f21U, 0x11bfb30152000a4aU, 0xeff481443f5b33f3U, 0x9f062ffecaededU,
  0xd723ebed57e93f1fU, 0x71016fdd40d3ffcU, 0xebe0bcf6e909e6f8U, 0xdccf1417f6e2f11dU,
  0xe61b7f2adec11b03U, 0xf6fef3fa061ec11dU, 0xf8c603f2d8d8daebU, 0xfa1c05e50118f0d1U,
  0x160de52005e00ad1U, 0x17c5f5a6d57fa917U, 0x242bf53e2a1dfebbU, 0xe8091903ebcadfe7U,
  0xec25e90dfae4f42aU, 0xe2091b004238e03cU, 0x1df25b2e23053aa0U, 0xdbeafb042022e1efU,
  0x10907f21aee31f4U, 0x2f03034af84ad70dU, 0x7bebf1c7f30f1406U, 0xbdbd1f7f02011323U,
  0xf8122ddd14c80305U, 0xcff2d0e30447f0f1U, 0xddc88c06ff44eff7U, 0x2df5fe2f05f1ec3bU,
  0xfffffeb306de0c0eU, 0xfffffecfffffffe0U, 0xffffff9dfffffee3U, 0x2affffffcbU,
  0xfffffe500000004cU, 0xffffffe1ffffffbbU, 0xfffffedefffffeabU, 0xffffff6fffffff8eU,
  0xfffffe3effffff9cU, 0xfffffe13ffffff9dU, 0x29fffffefcU, 0xfffffe4600000007U,
  0xffffffabfffffeedU, 0xffffff62ffffffdcU, 0xffffffccfffffd34U, 0xffffff6600000020U,
  0x25fffffedbU, 0xfffffd9efffffcfeU, 0x40000005eU, 0x45ffffffdaU,
  0xfffffffafffffe80U, 0xffffff16ffffffa8U, 0x8000000c2U, 0x84fffffeacU,
  0xffffffdefffffdd6U, 0xfffffe9bffffff52U, 0xffffffb6ffffff74U, 0x11fffffe6fU,
  0x34fffffff0U, 0x1afffffcf2U, 0xfffffd5bfffffd89U, 0xfffffd1000000021U,
  0xf305a78bffffff79U, 0x99b225e8891da5f2U, 0x982a2d43088aa6f1U, 0x5d320af13e46818fU,
  0xf8e4f4e09331f1f8U, 0xc9114983229bf509U, 0x951822ea469b1e21U, 0x2fded1db13862ac5U,
  0x1abff3dcd7d4c91aU, 0xd6d899c29ec2dfd5U, 0xaec6afd88113cc97U, 0x21c1abd4dcef8e9aU,
  0x899b2cdf1906c5b3U, 0xbab0200e22bbedc9U, 0x1bc7e9cbdae1fed3U, 0xf3b4f5a7ed9903d6U,
  0xc8050ac0a2d4a6eaU, 0x81a1a9cfabf417caU, 0xaf423d309d8cb084U, 0xfedbebacc5bca1f6U,
  0x1386fac1b605ada4U, 0x1304c3e346b82546U, 0x391a45f881ac2bdaU, 0xee83d2f7470a290eU,
  0x53f7b93492b9d41bU, 0x1321fc46f3f4df00U, 0x375ffa3802eef1b5U, 0xd08331c3eeaf5ddU,
  0x6ce05ff3819dbefU, 0xe8f2a800da3b7fe8U, 0xe22bd0fdfcfe0cd0U, 0xfdda1ef414f72101U,
  0xe792cd9be137e315U, 0xd681e41bb494e5baU, 0x9bcea9129022a6e9U, 0x17b69995ace3a7daU,
  0x89d623d8aeead3bfU, 0xbd9cd6d9aca816e0U, 0xebf3a7d200d9d018U, 0xdb0ff990aa9ec0e1U,
  0xe5d6e8f2bf02b4d6U, 0xa303f706f704f714U, 0xbf70f15f5fdf122U, 0xeefcf4f88fb9030bU,
  0xf106fdf80610fd10U, 0xfcb60313ff188103U, 0x94717000d150afcU, 0xcf19c5fa18f718f1U,
  0x99b1000a45d8e503U, 0xa2ae11ac48fd4685U, 0xd4194541a6d5b5d7U, 0x4e0eb5b817a8fb00U,
  0xe5290281361913a5U, 0x2ded8520e4be8fe7U, 0x21c2ce36ce47ed02U, 0xec8cbd2ee5e807b5U,
  0x103802d6d827dda4U, 0x81e50d1b1a09f61aU, 0xa73c0f240efc0526U, 0x509f213ace10b0aU,
  0x8a2140917dfdafeU, 0x4293009bc072a08U, 0xae1f811f91faaffU, 0xe130e120802d704U,
  0x379b6e97c1eb0521U, 0xabf80bee0c07de16U, 0xfb2a1a46fc0aff1fU, 0x2a160408c132120eU,
  0xffcfd6f112d9d3fcU, 0xf6daea27a61d7f02U, 0xf98fb0e1e07fdf4U, 0xd00c21f9220ab813U,
  0x3c2ca69c1f2df9cbU, 0xa91b1bf60907b4fdU, 0xd26fe0516eced81U, 0xd21aa15e0071506U,
  0x1a573a0824d4b606U, 0x10cead27eb9b1801U, 0xfae0ed00090d00e6U, 0xc3053f11210620dfU,
  0x3bf5db41c32af40eU, 0x39963c4698a21f35U, 0x818d1ab29510f710U, 0xe5e53db482b79d84U,
  0x3c8f0e3d44250effU, 0xe7c02a8cba29a838U, 0x873e84f682b319dfU, 0xdfb221b4b59d9190U,
  0xdbdfaacff4ef0e25U, 0xc4c5a3159ccfc4c5U, 0xb7cf8c228681acdaU, 0xf9c4a781eddad892U,
  0xa1ccab82cbacc0cbU, 0xdcb3d095db9bdeaeU, 0xa0f4a6e1d1bd2e8aU, 0x18a6ebdda18420d7U,
  0xfcf7b058b4dddd35U, 0xda431307f8dddf00U, 0xf27f0fae0bf9fdcdU, 0x2e0cef0c030ae1f6U,
  0xe207e207edebe8e8U, 0xcfbac929e942bbfaU, 0xd27f6002fff481cU, 0xf50b33ff18ec00dcU,
  0xd3b6d336b8cc05U, 0xeda284ecccc5b4e0U, 0xd60fb4ccdcb185f0U, 0x14b891b80ce7b39bU,
  0x84dc1e9985cf9388U, 0xb196b6ae2c92068aU, 0x86d18de021ced6e3U, 0xfedfe588a5abecbbU,
  0x45e3a9c7f3da811bU, 0xccc5c312c8b396c8U, 0xb518901398c0c092U, 0xe2ba9195c3149fa8U,
  0x9b9ff9b59ee7d9c4U, 0xa4d7d7a7cbcc2c97U, 0x9bc7818ef88aaddfU, 0xb6d6f3b5aa8fd6f5U,
  0x1390a1f0afbf95f3U, 0x1f4bcec338aecd6U, 0x24d3b2d0a88e1cbfU, 0x4640942c2d44f3c0U,
  0xd54132b6fc81522cU, 0x1cb7c99b45f7c516U, 0x14362f241cd2b7dfU, 0xc41f0e9e0e19f044U,
  0x22f16eea5d6e0bfU, 0x8ef11c262208dcf9U, 0xb37f1c1f22ede2d0U, 0xfd0aa91829f814ecU,
  0x86acc1110c4deffU, 0x60bfb30f2cde00dU, 0x2d8060e2a0dcc01U, 0xec10100f1e1cf21fU,
  0xcbbeb8d9a3da1010U, 0xa898a7239f8c8bd2U, 0x93e0a52bbd8589a4U, 0xd79dccd028188199U,
  0xcf81ebdcddcabd89U, 0xc610a495de8dddc7U, 0x9df0d3d4dbc0feb0U, 0x797ea92dbe1eca4U,
  0xe0e0d4f9c808c4e8U, 0xe5edc120989bdbbcU, 0xd1cbcced90c4d6d5U, 0xe481e0c114e7e2b1U,
  0xe2b12ac61bf5de89U, 0xcbf406af1dbcedc2U, 0xa520dbb813afdac9U, 0x1699e49db9d203e0U,
  0xaab9c2eef8df9ae7U, 0x9a82cd079bebcfcaU, 0xaef08c43a981d5c4U, 0x25dae0a6fc12cdc3U,
  0xe1dfd6eca3d4a3d0U, 0xe3da8893c7c9b09aU, 0x8a9fbbcee89b9dacU, 0xd49d918a97d4a493U,
  0xd0b95d07b18f88dfU, 0xd9adf3061918f309U, 0xf78d1a392cfe04c8U, 0x811de3020dbc2116U,
  0x2e2e13f9b5cbb321U, 0x3d891b0f24c80f2bU, 0x3cd62711ec29811aU, 0x262a7c10232bc8f2U,
  0x30a28a40eb38344cU, 0x46e10241c7b7b5cdU, 0xf69e88f2859703faU, 0xd2abfcd11a2f27d1U,
  0x901c90fa14bcaa8fU, 0xc49af0010b991982U, 0x1c17c6d84630e5bcU, 0x15e626a4c4293781U,
  0x42c832d9b40e892cU, 0xcdf41729100aef0cU, 0xe50115fa0df7e93fU, 0xef7fffedad312f3U,
  0xc81f7fd1adab9f6U, 0x1373121c31c40f3U, 0xf1ddf9140f0fe5f4U, 0xe609e81421fae9f9U,
  0xf640b8dae1190a12U, 0x81f911dd020ee714U, 0xa5fc031e0612f4bdU, 0xf522ce22d2e9090fU,
  0x3f8eefe2de2da01U, 0x42a1b1ebef6d807U, 0x19d0fa031b050decU, 0xf119f403080900fbU,
  0x2052e3afc7fd0221U, 0xe0d5ededc1f2b8fdU, 0xb2e8d5f2e8e7ebbbU, 0xaeb3dab10df1b5b0U,
  0xb8daf3fff615caddU, 0x10700cdd7d2ddaeU, 0xbf23e5e4810312dbU, 0x16d323d8ffd5e2b4U,
  0xfed8ddd9cae5e2e7U, 0xbe61c04f1f0efc8U, 0x81d4f8fed4d2e0f0U, 0x14e6e8ebfae2d304U,
  0xd521ef0a0eb3fbe5U, 0xded9c70111faf002U, 0xc206cbf00ff2d211U, 0x12f11ad40005f80cU,
  0xdeaad0b711bede10U, 0x5aeff5959b9695d0U, 0xa6f1eef4ded2baaeU, 0xe19ecfdf3922b0d3U,
  0x8db021d596bff3dbU, 0xd99c8dbdbbeebbc9U, 0x96d3dcf61ed7e2d4U, 0xe8a7eccaaa81fdb1U,
  0xe0d2fb0f26af92f8U, 0xc1d793c0a2bf91baU, 0xc508a9d0ba9ba1c1U, 0x1e82e3c2dae8cac5U,
  0xa5a5e981dabbc999U, 0xcdf214b911fc13cdU, 0xe022d7d9edb11a9cU, 0xeeb1cdd681cde5d4U,
  0x3cd1daade1c89bbfU, 0x3201deadfb10493aU, 0x882b272dc99b0c8fU, 0x5842f4feef3be881U,
  0xd7b150ebf325f6c4U, 0xb6e918ac28a2cdfdU, 0xcda72b358c13d7e6U, 0x9799afb71dc30406U,
  0xc69fdaf306f8983aU, 0xa2697f6f4a0d494U, 0xa717be2cac85f881U, 0xe691b5105328d7a0U,
  0xc30a24dc0697ebb2U, 0xa4b5e186dd1c2690U, 0x88e3e3aa22ca3ae8U, 0xe7ba10b2ffa7ecfeU,
  0xeac6fdeccaec9dcfU, 0xcbadb91082c6cdd2U, 0xdb23840181aad5ccU, 0x2be285add0ffd9c7U,
  0xa6d61bc3e5cfd79dU, 0xb6dad2bb1ec9d4baU, 0x82069bdff2ce0da5U, 0xd4920ec68b8f1fcaU,
  0x1db313ddd51f99e9U, 0xb898b3daa7a2e9d2U, 0xa80d81ca899cd0e1U, 0x686fceeebf7af9bU,
  0xaec6f2892fa7db99U, 0xa895d19615edb5b8U, 0xc0beb691e4b505b9U, 0xc028c390900b02U,
  0x92e2cddcced3cfd6U, 0xa488a5b5f3aa9c23U, 0xcc90dff73cce8e85U, 0xb9e181990b46ba1eU,
  0x890ca208d3fd57b3U, 0xddfd1bd62513ff3dU, 0x9a0011c69f070f55U, 0xf8bcec3e0acbcd90U,
  0xc8e798f2a9edce43U, 0xf5a03e17c281fb04U, 0xee133141841be9c2U, 0x37e5dbb9ce392293U,
  0xfef1a5e7b08293b7U, 0xbf21d2bc0efb413fU, 0xfe1d10d1ddb1234cU, 0xa79afc84df98bf3bU,
  0xfcbe56bcdfe301e0U, 0x81efffc6ee0cf111U, 0xe2df027307f52feaU, 0xc6291afaac73082fU,
  0x1136ae00f6bfe024U, 0x28af619e00ddc05U, 0xad42e0f0d0ebce4U, 0xb832ef010c0c0c04U,
  0x5dce4ce252f12d6U, 0x9996cfdca2c0c497U, 0x1dfe8b34b7dfa4baU, 0xf2de8be8050287abU,
  0xa5c5e9a4decfbaddU, 0xe49395973288cdbaU, 0x81cea4c7d3961bb2U, 0x169bf1cbe190fea5U,
  0xff45f9a8b0d198ecU, 0x81fc11fb1104ec01U, 0xe2530adb26e5f8f1U, 0xf111b50cdec00404U,
  0x1408e90a22c5dff6U, 0x936350fe3ddebecU, 0xe9f613fd10e5fdU, 0x9f80a0d12f5d0f7U,
  0xfa8e8167b65b06f8U, 0xcccafa1fc2e6d9c8U, 0x73e3982d92f191b5U, 0xeddf92a5f1f4cf91U,
  0xafd1cce0ccb19fd4U, 0xed8fe79a13d6e4cbU, 0xbceabc9d27d630a0U, 0xefd31bddf7acb7e6U,
  0x81f9e4f7add3b314U, 0x19e705fd1113f012U, 0x13d10a0819fcddf2U, 0xf03e2f023d31112U,
  0x17ea2500c8dad10fU, 0x24fa2722f2ea0504U, 0x1ad1140c251ca811U, 0xc304ef0c1615adccU,
  0xbc041aeae60a1cedU, 0xabce0ad91418f426U, 0xb0bcf5360d1ee310U, 0xe5070f03b8f61009U,
  0xafa240e3ad5da0eU, 0x26d50eff1df68108U, 0xefc210b0208c20eU, 0x728fdf50a0a3414U,
  0x3b21b3070bd4110dU, 0xeeee2723200be525U, 0x2bf52c0b3308cbc8U, 0xd321bd11f6c9110bU,
  0x265ddc1c25c2c106U, 0xf9dbff3de8b82719U, 0xfd00f913ec25baf4U, 0x81ec0a1c122102e2U,
  0xe11ffe9d87f20427U, 0xfe81a031cfde86c1U, 0xae88f9f4f62fcbe3U, 0xbc2d2fd3a33ae5e7U,
  0x44e9a7ef5dfbfddfU, 0x8c954cce491ca716U, 0xb1dc4fb301c52016U, 0x3e874b4dc4dbbca7U,
  0x289215d8c9f6d960U, 0x1ca5920fc6ce86f4U, 0xc2f488eb9988b0bfU, 0x249a9ea2cff4b08cU,
  0xc2c92481dce1c2b0U, 0x94e10694d2a820ddU, 0xb20cc198d4971aa9U, 0x1892ebb19f882ebfU,
  0xc5b287d3da14e0fbU, 0x3edb3f1e4b4ade1U, 0x530cd0f7b5d9ef9dU, 0xbb3063f81efabbeU,
  0xe7f5d6bcfbebaaceU, 0xcea1efc8caabdcb1U, 0xcb07a1e7e1c0a7f1U, 0x68a379a3d2b010d5U,
  0x1ffc30cfaec4d925U, 0x81ef0d251009e9feU, 0xe111104907f7ceedU, 0xd10de70f06fe1300U,
  0xfd8e20e04cecf0fU, 0x111c4a270b19d80bU, 0x1bef613db13f20fU, 0xdb03d20a2705f60aU,
  0xa8012ac9bae00f16U, 0x2781a1d7f5abcad2U, 0x96aaf48c9dbda7beU, 0xb02033f1c48fc242U,
  0x8ba2bcb743c64a31U, 0xd5bc0ab917a988c4U, 0x53f7873db24b42a3U, 0x151df7bc8137a0a8U,
  0x18e42dc2c1e23318U, 0x8bdb2f22100ef924U, 0xba2a1802190ede50U, 0xcf22f80da59d0cf6U,
  0x1881ebfa19b6a90dU, 0x183f373df3203905U, 0xfbadfd1be41da004U, 0xcf09df09230309fcU,
  0x35e92e9adbe10119U, 0x17daaf2a8302db20U, 0xa2b2f440de81c532U, 0xd63f9724e0012dcfU,
  0xe135262de83c16daU, 0xed1cdfc44390dd23U, 0xf406eb934234d358U, 0xbf3f330a1ac0ada6U,
  0xfb179b15c8c2a702U, 0xf44ce61bebebfcf2U, 0xfd2a052ee2e3e4fcU, 0xdde6fcfe7f28d9dcU,
  0xd1e300f0c20734d9U, 0xcf4efdf8f91f79f7U, 0xe124e9e8f6e2c501U, 0x1cd925d6e2da2cecU,
  0x2295b4b612cddcecU, 0x33918ccfdc9fa190U, 0xcae292cd948db2e1U, 0xd681ded5db0c92b2U,
  0xa2c0fac3caebc0c1U, 0xdd85dfd81b9820a2U, 0xd6d38ccfefad1c86U, 0xeebc2e9de7b02287U,
  0xad0b30eaabebdbfbU, 0x81d60bf61117e725U, 0xbe9ef720141cf6d1U, 0xe622ef0544e00f24U,
  0x1f3cfd0e0fdfd60dU, 0x23b81603fccdf115U, 0x27f2330dfb09cd18U, 0xcb249b0e0911183dU,
  0x1dcd3fceef9c0404U, 0xe4eb0aff111ef20cU, 0xd60c14031d01c136U, 0xf40d11fbe319efU,
  0xfd812f0c19cccd05U, 0xa062b1dd01a3f01U, 0xfde9f0070b15b705U, 0xe70d0b0723021601U,
  0xcbd719effb030bf2U, 0xd98e92d99ab5b905U, 0x9f099e11c0e4fccdU, 0xf4c2fbd501f8d8a4U,
  0xd3ade9b3d2adaaa5U, 0x91dba39e1cdbb9a7U, 0xbccb81dec7a707b0U, 0xfbd6138ecd8f0bcaU,
  0x1ce5c203ab93b601U, 0xdea2d21bacb7d081U, 0xd4e4a50aa4b4d0e2U, 0x15cf839b12ec81b2U,
  0xdc0708b1b5dcc6e2U, 0xa7db9cd001a9e996U, 0x85ec9ecbcdd804d1U, 0xcdc2dad284962ed4U,
  0xd1ce2e94e3bb9c2aU, 0xd692cfebb7bed881U, 0xbaf9a6d08bb9be06U, 0x99816d4bbe294d9U,
  0xd1ea0bc2bfb5d88bU, 0x81be8eb5099ed8cbU, 0xa7a8c2cad701e4deU, 0xc850aa0b2d3e6bfU,
  0xc201bcf292ddb6e6U, 0xd4a0df1acfd5dce0U, 0xc819c7dfa202d2a2U, 0x21ffa3caca09befbU,
  0xc6c9e2b799fcabfaU, 0x2c5aff11bbdaeb7U, 0xedd3d9cf0adac3bbU, 0xf0fee1b0e1b91ee0U,
  0x2c018129f581ebf5U, 0x13ff1025fe0dd501U, 0x4b3a1bdd1bfbe1d7U, 0xdc25f808c9c608f8U,
  0x11fe520150ebaa0bU, 0xfecfe520c6dc29ecU, 0x9d5f21c08260effU, 0xd7ec0211140bdbe7U,
  0xcf883cddcc57ec06U, 0x1503f5f00810eefcU, 0x3cb112c5020cdce3U, 0x1c0500ff950a1621U,
  0x2f5be0410f1e318U, 0xfea4e001ae0efd05U, 0xdfe2708c005c6f2U, 0x471b20fd1bf621e2U,
  0x32964aaa267ffcf2U, 0xbdfe11100509f610U, 0xe0dc152b1cfbdf27U, 0xee16ff03c82e1907U,
  0x15bfe10316dcca0eU, 0x20b0528a9187ff7U, 0x6dff5191c2001e5U, 0xbd0ab30234ee0bdeU,
  0x4124cd3009330b12U, 0x308842f531bfdb09U, 0x3431a9a11ffabce0U, 0x3be73549cddbc497U,
  0xb4e51713089f3d15U, 0xe78fc49f48ecf0e7U, 0x1a9e3082f881efbdU, 0x9f3c15a521efdb15U,
  0x18a3ae059f018d26U, 0xf985c6fad7aee79bU, 0xadb5b8f8d0e2adcbU, 0x299b87e0fb2cd6b5U,
  0xb1a4dfc1b5d3ada4U, 0x8adbdb81cdc61087U, 0x99d6a7e501c6fc84U, 0xe1d42bc98e8415cfU,
  0xba14c14ab9ce88f5U, 0xf5f0dcf5a29a9a27U, 0xf08ee2d38145c333U, 0x359cd3daafd5ff04U,
  0xa70cbf895bf7b79fU, 0xa0af18c0ddacea85U, 0xbc1b60e90b1a2b24U, 0xbb0baef1109701ccU,
  0xe0c020fc14dccf9cU, 0xee141a1e1ffd0dU, 0x3f10c220508c50aU, 0xc50afa05dae50a08U,
  0x9d54f0315c3d6ffU, 0x23de1d1de3eff514U, 0x90c1f1307118102U, 0x1c1be7091e04baffU,
  0xddae10c90b3322efU, 0xbcf89e588dab6e0U, 0x92d3dc0881f189beU, 0x101585961d1497e8U,
  0xaecdd499c7cbd5a4U, 0xa0d103e1f3ab0caeU, 0xd51c0ba0d90c20f5U, 0x200ff5bce9a7f6f1U,
  0xfffff718d2f7eef1U, 0xfffff73cffffe7e6U, 0xffffe72800000971U, 0xfffff72100000643U,
  0xe6f00000c5aU, 0xfffff73c000010e2U, 0x8caffffe758U, 0xffffe717ffffe79cU,
  0x1833fffff73cU, 0xfffff91bffffe737U, 0x1843ffffe75cU, 0xa9ffffff6c1U,
  0xffffe83900000e1cU, 0xffffeefefffff727U, 0xfffff72afffffa67U, 0xfffff88cfffff0daU,
  0xfffff73cffffe6a2U, 0x1416fffff73bU, 0x10eeffffe802U, 0x4f4ffffedc9U,
  0x171400000e97U, 0xffffe796fffff71eU, 0x13a0ffffefb8U, 0x1202fffff6caU,
  0x502fffff723U, 0xde4ffffe7aeU, 0xfffff51e00000eddU, 0xffffeec2ffffe83dU,
  0xd03ffffe409U, 0xa8600000a1cU, 0xffffe7befffff72cU, 0xd06fffff6f2U,
  0xd9faefeafffff92eU, 0x3c30d925daf76027U, 0x7f050acfdceaf147U, 0xf3ee4bbaeacbe040U,
  0x515bd9271d0163eeU, 0xcec311df3e0cb4d1U, 0xe831f5d5f8e42ecaU, 0x2ffd50e42df20ac8U,
  0xd138cfe92826380eU, 0x17eed841cf026a25U, 0x7e2aeac5e05ee945U, 0x999c41dcddd2404aU,
  0x216ffbd0e9ff64d4U, 0xddc313d5490981c2U, 0xf53b9ecbd6e823caU, 0xd21463df3a0118e2U,
  0xd630981cdf35473cU, 0x7c16e04cd30654ccU, 0x2f60e2cd17f7002eU, 0x923e7fd6d4ec1d43U,
  0x78622adfec203df6U, 0x22c924d63e06b1c6U, 0x733c5d030f4f0dbU, 0x2a285ae06e1233f4U,
  0xdb18ba04db34fdefU, 0x501ae44fdbfa3ddcU, 0xefcadd60f43e61aU, 0xc31f7fd5cd04da3aU,
  0x35522c18ded101edU, 0x46b828da3107e9cdU, 0x13291ad613002aebU, 0xe4344ce10ffa3dccU,
  0xd9f5c52432322200U, 0xff6df5ae11133d4U, 0x2efa10d710ebaa0dU, 0xf9085781c11bd63dU,
  0x134f38fb2a123a32U, 0x5aee1dd82f0ce0ceU, 0x222418d6fd0bfbf5U, 0xd2444bdd53e21d09U,
  0xdafcc1fc2739edf0U, 0x2dfbd75cedeb270eU, 0x2ebbdda3227f9ffU, 0xbeac78a0bc2f233bU,
  0x6b4505d919f51b19U, 0x7fcdd2d92c14bdd4U, 0x301d62d8e618dc01U, 0x314d46da1cd762eeU,
  0xd41900eecb3ce0b1U, 0x34dc667fcee21f5U, 0xf2df9cd60bd001f2U, 0x13f3618bb547d03fU,
  0x20422a4bc0135048U, 0x579204d5312198d7U, 0x431a16d4502cf30eU, 0xc85c48d205057fa7U,
  0xcfdf8fe9364913e4U, 0x3730b369141119bcU, 0xc9e59cd443f8eae6U, 0xd0cb3a86bc5dd941U,
  0x433a2d4826f92fd1U, 0x62dacad1372f97deU, 0x551652d01e42211dU, 0x466845cb14f37fd7U,
  0xd3d9b93b10553618U, 0x48fcb25129f30f17U, 0xebf2a2dd26459fe1U, 0xe5e60cdedb583336U,
  0x33261af71d033cf7U, 0x6cce5d83431a1ecU, 0x531174d73f47f726U, 0xca5b33ce7f2732b7U,
  0xd70ddaf0394ed7adU, 0x837b63b352e08caU, 0xd53ba9e9f65db6dfU, 0xb11a3bb1fb4ee22cU,
  0x4317dce736e1150dU, 0x8f1e5de322ff3f8U, 0x4e104cdd3b461729U, 0x414c21d27ff62122U,
  0xc561c0f4d145feceU, 0x59009d40580f063eU, 0xa023e7f4580db3ceU, 0xc7e72c7620660136U,
  0x1012d44fe0eb6befU, 0xfa81efd44b414402U, 0x6c1e34d2ca63d842U, 0xec5c1dbf38f267ffU,
  0xd937f5e2e7581618U, 0x9e1c9203bdc01d6U, 0xaefdf90725e1b4e0U, 0xd0bd0e7f2b3ce01fU,
  0x5c06f01d1de953fcU, 0xd0fbece83229ef09U, 0x411b1be42f3efb2fU, 0x303208d579f5defbU,
  0xca25c830f9310a07U, 0x9d5c9204b3cfe3eU, 0x305121cd78ca1d6U, 0xb515397f4e49df25U,
  0x2304fded46134845U, 0x9bd00de742331516U, 0x4f3029ddd64ffb42U, 0x2c36ffc812c4f0d3U,
  0xd115d20dc8373bcaU, 0x1eeee5133933fd29U, 0xbfeff627fb8124deU, 0xa5eb2847493a061dU,
  0x5302e4f90a0951e1U, 0xd3bffef33528151aU, 0x393161e4e43ff039U, 0x1f22f8d356f9f6d4U,
  0xcdfcfe352c25e804U, 0x62f1fb0d37dffbe3U, 0xc926bb3809ac34dfU, 0xc7e0257f4d38371fU,
  0x120315ea3a1d2017U, 0x960510fc34281b22U, 0x333a17e4163c003dU, 0xf11af2d530feadbfU,
  0xc50c0b3f0a1fe6f2U, 0x1bdc130739e0f9fbU, 0xf8f1df4b34b819ddU, 0xf0ee1f4f50381c26U,
  0x1804e43b36021deeU, 0x8115fe09342c142dU, 0x2e4448e12b3b0f45U, 0x2f13eed9fccd04aeU,
  0xc4e0e9f81e1bda07U, 0x4be7290237eaf8dbU, 0xc0feed5132bb0cdeU, 0xef0321604830de2aU,
  0x39050dde1f0828e2U, 0x810f22172c2ee431U, 0x234442e1e1333348U, 0xf50cede63e0ec6e2U,
  0xb818f1dee314f5e0U, 0xfed749fd41e8f5fcU, 0xdef0f767e49336d6U, 0xb4ce115f5033393aU,
  0x6507e01ce9281204U, 0x892b16302b407f41U, 0x1f521ed8f035f458U, 0x1b07ecf33edfb2ddU,
  0xc63ae8312e12101cU, 0x9f364df938e4f524U, 0xa917af5b1f8138d8U, 0xefe0347742240539U,
  0x3806f7daf0dcf130U, 0xca2f283d1d43493bU, 0x12451fdafc26084bU, 0xdc01f20bfafb02fcU,
  0xc3e58edaf40c12efU, 0xc1cd67f241d4f21eU, 0x82ccf76bccea7fc9U, 0x8eb7e31d4d20da4bU,
  0x5406e6f7eca2e8efU, 0x8f09385d1b602648U, 0xc4d60cd3b213e56U, 0x1cfbf62e01dffbc3U,
  0xd4dbcb101e0c48a2U, 0xa2f863ed3826f214U, 0x87fb1861038f7fc2U, 0xedacc9304912f649U,
  0x1f0329f523e00621U, 0xd703f367126a1840U, 0x24342ca32141a48U, 0xe9f4fe4d60cab1cbU,
  0xe512e648c50a47e3U, 0x95ee61e63244ef1eU, 0xd6a3f85e3c9b1bb1U, 0xb189c7214f04f74eU,
  0x30ffd44d1ebb0b12U, 0x5621f3750e7e7f3eU, 0xf84114c13309ed3bU, 0xd5ec057365e3b0caU,
  0xfbedbd09d00acd2cU, 0x9f324fe2232cedebU, 0xbec7f349e08423abU, 0x94e4a21d49f41245U,
  0x19fadee5cbb32647U, 0x781ef16b0a7b502fU, 0xf1363cc4ef001225U, 0x28e70a7f14f9c1d0U,
  0xc05b7dac60ade0cU, 0xf92f3ae31403eadbU, 0xdf000133ec810cafU, 0xa8b3c3f13bea0238U,
  0x61f522f0f0b50234U, 0x64572354086bf41eU, 0xed2b41cd19f92510U, 0xe6e60b773fd91f19U,
  0x3a81d090afde7U, 0x41d8c00047b03U, 0x3dd230003a82aU, 0x471cf0003dfa0U,
  0x468ad0004f2f3U, 0x532330003df95U, 0x4074f00032e9bU, 0x334ec000333a6U,
  0x3551400037073U, 0x3910500040b9bU, 0x435d500046377U, 0x406700004776dU,
  0x35036U,
};


ai_handle g_forecast_temp_ml_model_weights_table[1 + 2] = {
  AI_HANDLE_PTR(AI_MAGIC_MARKER),
  AI_HANDLE_PTR(s_forecast_temp_ml_model_weights_array_u64),
  AI_HANDLE_PTR(AI_MAGIC_MARKER),
};

