/**
  ******************************************************************************
  * @file    forecast_temp_ml_model_data_params.c
  * @author  AST Embedded Analytics Research Platform
  * @date    2025-12-13T17:21:04-0400
  * @brief   AI Tool Automatic Code Generator for Embedded NN computing
  ******************************************************************************
  * Copyright (c) 2025 STMicroelectronics.
  * All rights reserved.
  *
  * This software is licensed under terms that can be found in the LICENSE file
  * in the root directory of this software component.
  * If no LICENSE file comes with this software, it is provided AS-IS.
  ******************************************************************************
  */

#include "forecast_temp_ml_model_data_params.h"


/**  Activations Section  ****************************************************/
ai_handle g_forecast_temp_ml_model_activations_table[1 + 2] = {
  AI_HANDLE_PTR(AI_MAGIC_MARKER),
  AI_HANDLE_PTR(NULL),
  AI_HANDLE_PTR(AI_MAGIC_MARKER),
};




/**  Weights Section  ********************************************************/
AI_ALIGNED(32)
const ai_u64 s_forecast_temp_ml_model_weights_array_u64[2508] = {
  0x0U, 0x0U, 0x0U, 0x0U,
  0x0U, 0x0U, 0x0U, 0x0U,
  0x9a1005ee810cc7f7U, 0x21d94d70c052a13U, 0x26f623d8e344aff3U, 0xb6dfcc07464300efU,
  0xba17fbba02fa263fU, 0x1a90d17632c170eU, 0x19cb42b6fef625f1U, 0x51e828ca0ad62ef7U,
  0xfb06f437bcece6e3U, 0x2a49e1eb1cfdfc0cU, 0x2e1b23f7d71f35d3U, 0x11bcc0df2e01020U,
  0x2e14ef43273db4e9U, 0x3c2d8121feec4412U, 0xe8f60e0903dde20aU, 0xedf31d2500df1afcU,
  0xe605320012bd8ed2U, 0x75fe030aefe107edU, 0x2227bb2952eb4cdbU, 0xce0434ed04efe40cU,
  0xc701b4d12043fcbdU, 0x4f18127f1f1badd8U, 0x112fed1bcc17e4bbU, 0xf6e91e1be00f17efU,
  0x292ffff037c829f1U, 0x3600e6d8b7130ce9U, 0x904def9d615ff0fU, 0x1f428d8fa11c8e8U,
  0x2ebbd3c72510e32aU, 0xd7351401f1ef0723U, 0xeb81d034dc06eedfU, 0xc242ee4639ed3f20U,
  0x6a0b3d481cbdd381U, 0xc14f4daa4f0de9f2U, 0xed47fd325079f626U, 0xb1e7401aec3d2010U,
  0x1f17cf18f15d4b48U, 0x1a0a44dc73a92d21U, 0x4a07c8ec3bdf4361U, 0x403f1941d8bfe5daU,
  0x442318fd220bf2f1U, 0xefef641e9ed0ddbU, 0xd0ff44b18d1dd35U, 0xe6efdedf1407b908U,
  0xc9b024231b0f05e5U, 0xbdf1961714fec70fU, 0x8e9d4d3f342f418U, 0xc60323e57f07e316U,
  0x6e38f65af22344caU, 0xdefedc5612ee4909U, 0x6d8f6a0340015c3aU, 0x51e73593964fde4U,
  0xc901f8eb095d6dfeU, 0xa3f6f009ef0afbc8U, 0xeffdb80a3a4e81d8U, 0x583ee24b0150009U,
  0x12d42fdddafa2f29U, 0xe318ef07f03863a5U, 0x3263dffe06e7ff14U, 0xe7d632d3fd16b30cU,
  0xa3d632b4eb2a23ffU, 0x1466a1dc81cf371eU, 0x3231ed31c656f035U, 0xcf280a45537d28ebU,
  0xd7022157e1a70587U, 0x2308c104122f0641U, 0xae2a5a73b1d28e8U, 0x2efd411408cb0d18U,
  0x7e4223b0ac7df25U, 0xe8ad6499cb220d0dU, 0x1a5c2ef5540c1311U, 0xf71c812831013eU,
  0x37c62ddebce7fe16U, 0xdbea14010cfa21ccU, 0x398e04bcb3e70eeaU, 0xc4ce59f1bf348bbU,
  0xcd0c38d86ac8c7faU, 0x142e4145c20c2dbbU, 0x2355effefb8e3aceU, 0x153d11f92181811bU,
  0xed0ccae4ae618c0U, 0x3ac3aa08b563b3dfU, 0xe49f06e407ef1b64U, 0x1f05810a1dabe4f6U,
  0x9a1899070d064b48U, 0x252b9b2c27fd28f7U, 0x67f6e30683ea14efU, 0xd3eff91140f811dbU,
  0xd464ac13fe1d25d4U, 0x3bc0118e3b81d15U, 0x9ffef2de57fe4b5U, 0xe237d82bbe0ffd2fU,
  0x4d9aafe0800370bU, 0x2ef517f0cc25f2feU, 0x174dd2136f1411cU, 0x1b31e3070d08f721U,
  0x1b983ec5ddc2720eU, 0x43f5fa01aff036c8U, 0xd734742afe103f6eU, 0x29eef7cd16b63a0bU,
  0xfa42f1d82a001000U, 0x1b81ecf5b7d9b8adU, 0xc2dfe1d614b5cb1dU, 0xebfdeedd321b19feU,
  0x1f4a93be8c51d0eU, 0x11fcde05ef2eff27U, 0xc52449dc0518da2aU, 0x3ef7c650efe51302U,
  0xc81e6de3341810b6U, 0xdb0c2c17b659e7beU, 0xe4267fb0f9d34ccaU, 0x277a395408b418c3U,
  0x53072e593a79fcceU, 0x1e0c70cd4142f02U, 0x1d01da4a281a44aaU, 0xd9d02b24d2f9e9U,
  0x17df158e091ff0afU, 0xceddea1653934d0cU, 0x580df3fbea34ff18U, 0xed47b8f5bf7f0242U,
  0xd60c111d252b260cU, 0xf8e6250fcc4ef1eeU, 0x7f1bc202f5f0fd34U, 0x317e3e423053225U,
  0x21be5ee0637e30cU, 0x5f5fde7f10bf8U, 0xe6e9f6feea05f52bU, 0x190720fbf6de13ebU,
  0x330517c4ef1420c9U, 0xe7c9c22a1fff0809U, 0xbb464fd3ecd72edfU, 0xac57c6e7ee1c3601U,
  0xf5c9fbeac53bd7d0U, 0x7c9fad8c0a79e07U, 0xd10210af6efc5f4U, 0x7fd2174d38ef392aU,
  0xf90bd8f9ef00de0cU, 0x2381f7c61b240f00U, 0xcf09521c0e07f7eaU, 0x15d303d31f5bd02eU,
  0x19471518e93ddff7U, 0xfe1d160729f111ceU, 0xfe22e90005edfd15U, 0xfcd21bd7dffef738U,
  0x1c1108a7e7ff01e7U, 0xe7f5bf012c17fd34U, 0x28de1e1cc6a306eeU, 0x44c541410afd1f21U,
  0x1bdcc412d3de23f5U, 0x309f333e9d1f864U, 0xd80bc3dc7fd73507U, 0x6595b00dd5104e9U,
  0x2fea05f433171742U, 0xc90b99264c1bb80aU, 0x1d24a42572f50ad8U, 0xd5b50816ec22810cU,
  0x5a16a1d927d8e018U, 0xe1dae2f7f3b022e2U, 0xce3d151945380cf0U, 0x2dfff1304dfc9cfU,
  0x41fe21d11254ad0dU, 0xf5f5e9111e196cc0U, 0xdacfd67ff7f11b45U, 0x351ccf04adaa9df5U,
  0x410f625392cdd54U, 0x6153128c9132a31U, 0xe4fd11b6e720c721U, 0x37bd0118e92b3e1eU,
  0x3835f437d7fdb40cU, 0x1cf6f7f407b6dcc1U, 0xb422f0d2a5c70f29U, 0x31fcd916c31d58feU,
  0xed4e0081e8431027U, 0xdd7f4f6f8360cc4U, 0xf807f02f59511a2eU, 0x1a1551fc1102c422U,
  0x1e3f06ee06552881U, 0x25c62c56adf113ceU, 0xb31043c618dd152eU, 0xa08251db30ecd5ceU,
  0x931d7c6dbfdc824U, 0xfbe2bc10e6d1445eU, 0x921018d7cd242bf2U, 0xf7e1e40bf6f5dcedU,
  0x2c6ee2c0e0620c4U, 0xd1f012130c0cdfccU, 0x29e1b32cccf507c7U, 0x1cda1a28032daa03U,
  0x280815ed0dfdffefU, 0x7ff90afb4802e63eU, 0x2f1fed8f622c4d1U, 0xef01f2ff3af5ee07U,
  0x554913afdd5a46fdU, 0x6239ab7d15c5bc81U, 0x5e39ba05411bbd4aU, 0xbb4e5ddfffbfe31U,
  0x5a4f082e98313492U, 0x948715f4fd86b2fU, 0x4e16d9f3f32db903U, 0x13d4c61a240756e5U,
  0xf7dce620d222e5deU, 0xb6d2deed269e2a33U, 0x16f013f1360f4105U, 0xdecf2cadae87f28U,
  0x44e7e8eae841e32bU, 0x11323504f422daf8U, 0x12d135f9fded3ef6U, 0xea01f10d1ff5c3e3U,
  0x43b550004fbe35ffU, 0xd3a52af231f84eabU, 0x5b13cb91c92ec621U, 0xe9d3df061b8b9e43U,
  0x30c5b5ea00d1e2bbU, 0xb3e0b8fa6c2aff66U, 0xed0ca1ea2544f2dbU, 0xd6df3f7fd6243923U,
  0xf0d0c51a8127e9ebU, 0x1ffcdffcb1082303U, 0xd0f1f2cf21d5cce1U, 0x85a2e370a08d35fU,
  0xf11710dfe32801deU, 0xe8f924026902f2f7U, 0xdcf9c426e9be1465U, 0xd4d0fa0511b0dcc2U,
  0xe7e1ffe7cde60d0fU, 0xedddfc05250ae9d2U, 0xd823db102dcd03e3U, 0xf026e87f2d1a10fdU,
  0xef0df011110bfb13U, 0xeb19121522230912U, 0xe3fb080c16e5f0e0U, 0xfd1dcfb5f3e71229U,
  0x55be351051ebc45fU, 0x1912f2c8a1512231U, 0xd7d42194b1fb18e9U, 0xb0c1d74e51f107d9U,
  0x7fabec2f9d4955e1U, 0x39fa121bc32523e1U, 0x10f4dcd2554f532aU, 0xdb93a3cf45bd2410U,
  0x81ddf30dde4bb6ddU, 0xeebd21a11f0cac31U, 0xef32b054721c4b9U, 0x34190027ebdb67b8U,
  0xd41a1ddbd6ebf11aU, 0x18762eebe5420fa4U, 0x30d2f3c549ccc6eeU, 0xf90658262da1d12cU,
  0x2c238105e7e5d223U, 0xe4c42dad1736fe24U, 0xc2dd4a0221820b7U, 0xa00f2e2d800569dU,
  0xd62d250e0be5fa05U, 0xf3cc1637d038d922U, 0xfee3d2d1c8ace525U, 0xd80916cc1bf516bdU,
  0xccdaab00d6180ce4U, 0xe9fc4604eecf3877U, 0xd739c89eedd7d918U, 0x3b09d5c8f1270acaU,
  0xecfa212c7fcb2f2bU, 0x3e23e33afcf205b3U, 0x23fcefcb4dfd01ccU, 0xc270fe0eecc4010U,
  0x68e8a5f7f83ee3bfU, 0xfa27208716e5c40cU, 0x49b2fc65f5eb00d9U, 0x95df19d242e1e533U,
  0x226c1200383c76ddU, 0xc35de7cb1b00cd11U, 0xca3f293ebe590c1fU, 0x7f1457d418cc573dU,
  0xcee2ace70f3ace08U, 0x3511c1f723e1f898U, 0xeaf20300f62f0bfdU, 0xe2f03dd7faff34e7U,
  0xeb0df907147fb4e6U, 0xe70acfa515f9f1e3U, 0xff0a8ed937f527f4U, 0x38f9cc2305e127baU,
  0xf509bac1fef40cfeU, 0x18b978243fbe2c06U, 0x3430034dc1636afU, 0x4b5f54444cd81dceU,
  0xe7fa26f824c90dfeU, 0x1333ca09127458c2U, 0x79e46f2715a77f35U, 0x60bc38d441ad18c4U,
  0xf0ecb520081500fbU, 0x68d13b8135f428adU, 0x3adb39c31ee6b503U, 0x177de19d5fe20e1U,
  0xdbd18060dcf1326U, 0x1e0c0b35c2c0f705U, 0xfbf85b2335f406c6U, 0xce2d1cac23dbfcadU,
  0xc2cff151e63337ccU, 0xe24b1b1c7fc81950U, 0xbabcf5ea0336eddfU, 0xd538c71cf65d34d1U,
  0xb670c40ad3aec5d2U, 0xd4164d519530f5d5U, 0xfaeff706fe1c7c2eU, 0xbf0b57dd23131525U,
  0xf3f1cefbf5b701d2U, 0xcd20f2b0f5e6f335U, 0x2020f434ea22c2f1U, 0x4df93061cb3948c9U,
  0xd3a7c82bc7f9ba04U, 0xe949522e47ef30dfU, 0x9f7f06b7cb791e26U, 0x7cd3dcc3ffdddcfeU,
  0x31b7e5c8e71127feU, 0x262f36f8d8fd062eU, 0x23132c3e10f41864U, 0x1c0b6dbf7f9bc88U,
  0xdb3b0ddfc5db0d0U, 0x11cc25b60720f97fU, 0x1f29135476d6ae0fU, 0xd2d90f0f0a26e10dU,
  0x70dbf4925438fef8U, 0xf105be241e3f4c02U, 0x250bbe14fa2cbc0cU, 0xf1da2ed795e6e4f5U,
  0xbaae08f2b21d1ee6U, 0x64e3e8c1450728e5U, 0x99aa1b62f505dfcaU, 0x81ff32b2abcb2a45U,
  0xde171e407f252418U, 0xfd12a5af1ba6f0f1U, 0x72de723e7c61531U, 0xae3f00f3942dd39U,
  0xe9e31ac8ce08f21bU, 0x1be20ff8f1011043U, 0x1542afebc0ce13f2U, 0xdfb40febbed93dddU,
  0xa406b604dc4b07d1U, 0xe1f533aa61390023U, 0xe21944c105e55816U, 0xdaf01737b0063366U,
  0x1fcdd92b55e004b5U, 0xafb6924195746a4U, 0x15f4dcf9dcbe0fffU, 0x3430ea810ffeb6fbU,
  0xfbb82c37f533f067U, 0xda50427b1e8ca14U, 0x6f10715e1df4ff3U, 0xea3925faa6ffb3d2U,
  0xe05cb52de563e15U, 0xeae637d07fd5570aU, 0x171ff7cac70215b0U, 0xdc1c67df260951e7U,
  0xd717ee7f99d729faU, 0x8c50f16541ce40dU, 0xfbf73a34ced102d5U, 0xefe8c8b5caa110caU,
  0xb3ef2900fdd0ff15U, 0xd462322f917caeaU, 0x100ae911211b3d33U, 0x2809dbdcd0ad46d9U,
  0xf5b31315b219de34U, 0x2a0ccec34909469U, 0xcfe3d6bedb7f2b47U, 0xdde1477c4308d014U,
  0xccdd090e25ddfbe8U, 0xf62e1cf8ca0a39U, 0xeefe2619f71bad69U, 0xfc3ee99ed0c0f004U,
  0x1b45303f3e1beb22U, 0x19c310d519071711U, 0x23d8810bdaf2ea41U, 0xdc21070c2ff39fc6U,
  0xc1f1e83dfefb0cc4U, 0x655d20fe4503e5b8U, 0xadd95fb84bb12627U, 0xf523dee62b4700d4U,
  0x7223cd6d1391deeU, 0xc7ec2d94d4191940U, 0xfbf8d500af20d90eU, 0xe5021a3ff6cded04U,
  0xda455546d829a615U, 0xf113f846df30b5d0U, 0x4d1b013f2bdc0781U, 0xe63d13b928b9f6caU,
  0xee0312d3e4383b11U, 0x3ce901c6d231f7bbU, 0xfed610f4197f33U, 0x1ad3f8cebb323211U,
  0xd8e3121f171314ebU, 0xdaefe21d0dc6c03aU, 0xbd7380f1f2b5ee3U, 0xecb40552eefcdc38U,
  0xd849bcdcc7a29403U, 0xd0ff35f80e9ef62aU, 0x22ce51ea75f96268U, 0xd1fed45af319d21fU,
  0xdf093f07819bd0f4U, 0x16ad27b2dbd424deU, 0xdc0fc3031c28711bU, 0x3355d02808d05c56U,
  0x5dfb4711e72d3009U, 0x31f40533bde5378eU, 0x16f3b8f824eee3ceU, 0x1181b2311831d8f6U,
  0xfcc0ce500ad6010bU, 0xa3dccb5c4eed201U, 0x8d5d91092eefcecU, 0x34fe521ac524d3f1U,
  0x33e81d29c5cac80cU, 0xf8c632172a2af062U, 0xfdf1f534fd0a8137U, 0x120ffd3ada024f30U,
  0xeb0dffd841b0d8c6U, 0x26f7f8c2a8cf243cU, 0xfbd3d4270cfd5092U, 0x17b8dbe83844fae5U,
  0xde37c5c0dbebfaf0U, 0xf7f647f521fcf118U, 0xa0007d3c2eedbd0U, 0xdd1be24017d12607U,
  0xd3ff2306671fed33U, 0x163355d0f1d7d5c1U, 0x34002ecbfb0316faU, 0x81f11bfcf2f6f8e5U,
  0xfa01813f0dea0263U, 0xccf4f0f3c6022dedU, 0xd8021e0dfe0b04f4U, 0xd10e1d0429d86927U,
  0xbb13fb311da2c90fU, 0x2a204b22131700f6U, 0x34e9260f42f2e3e0U, 0x4fd57e92aedde23U,
  0x410320758fa9ad6U, 0xcaf0ae30a3fe18a0U, 0x36f14212d29cd03aU, 0xf9854410926cdfd7U,
  0x242f821b1ee9eb91U, 0xb1b1d2e3ffdae414U, 0x5f0a492efef9e37fU, 0xbeefbe3cede27c0fU,
  0x83fed54303288902U, 0xd2d2f4fa68114e16U, 0xe27055cce32733fcU, 0x7e17db1074c33bb5U,
  0xd35ee36f072f48faU, 0x10459f01cccddfaU, 0xd3110150ea0252c3U, 0xf91ef2ec5b819819U,
  0x40307fdc720bfa2cU, 0xf9293b2dc12446f7U, 0xa397f7035a1559d4U, 0x42aec6c70d65de7bU,
  0xdafbafa3e61707bfU, 0xdd3dd8b867c21f7dU, 0xd74105dc2e68a618U, 0xd09e0d501d86c9dU,
  0x107f2debc605691bU, 0xaf0cfbbada14c1aaU, 0xcbd909d9320cd11eU, 0x591f09b54ed1dac8U,
  0xeaac9eb230beb9cU, 0x2dbda3fad4f0f4d2U, 0xf7f90628c12a1707U, 0xcceb452309326500U,
  0xe8230a0af314645aU, 0x76db160d66467f2eU, 0xdcb9d6107cbe13bU, 0xffff3f27f9ea22e4U,
  0x6cecb6fbe5f80415U, 0x3dee91f136fde10eU, 0x584710af9129b603U, 0xd639163c15c70530U,
  0xc31c1e1629f3403bU, 0x10f10cd026cb093cU, 0x11c63aa334c4bfabU, 0xf6cb122dcbd1130aU,
  0x9c223b16517f101fU, 0x44f8213609031a15U, 0xf4e70639fbc51b3bU, 0x34f8131f48d6e142U,
  0x470e1205f132170eU, 0x5d131a072a15e1f7U, 0x4117d202cae716ccU, 0x1fbdf0c533120a40U,
  0xc7bfc0fde6f9013cU, 0xcbf1d0fa071420c0U, 0xea191511c8d2c8e5U, 0xd4eece7f474547faU,
  0xb20300e0edba20d9U, 0xf3bfe6c002eb4c13U, 0xeccfcb3cd2c112e2U, 0xcbfca9f70af06ab1U,
  0x164c4c2fe623e9U, 0x14db1ff9fa2157c8U, 0xedd810490425c7eeU, 0xdd19433d1ceee081U,
  0xb721ee2cf512d1eaU, 0xcee50f0d1629f212U, 0xd5f01eda155e2839U, 0xe3f6fc58d61058b5U,
  0x55d675e958b21d5bU, 0x264d223c4f2acae0U, 0xaa7fef6409812712U, 0xd3e2450058094fe7U,
  0x93da9efac8a40af0U, 0xc30e5d073ae20ad3U, 0xd5d2911fcd14e8ebU, 0x5bef742d6bfe916U,
  0xeb040ac3a30626c4U, 0xa813094dcb8121bfU, 0xec0216fd3481b3e0U, 0x72b30ed406fcda1bU,
  0x0U, 0x0U, 0x0U, 0x0U,
  0x0U, 0x0U, 0x0U, 0x0U,
  0x0U, 0x0U, 0x0U, 0x0U,
  0x0U, 0x0U, 0x0U, 0x0U,
  0x0U, 0x0U, 0x0U, 0x0U,
  0x0U, 0x0U, 0x0U, 0x0U,
  0x0U, 0x0U, 0x0U, 0x0U,
  0x0U, 0x0U, 0x0U, 0x0U,
  0x0U, 0x0U, 0x0U, 0x0U,
  0x0U, 0x0U, 0x0U, 0x0U,
  0x9e1f0a0f2b812a22U, 0x3504e9155358dfa1U, 0xfb0aea3322d3f7e3U, 0x230ed1aa12e0c8c8U,
  0xf8f2072f01d7f8feU, 0xdd244108f6f1ade2U, 0xf2dff9d6eff547bbU, 0xd7153a0e770ccddcU,
  0xd31eebc204c14507U, 0x3ab8d147f506c4c0U, 0xd6de88e61653ef20U, 0x566ee9fa99d009fdU,
  0x562caccd6fc7461cU, 0xe32c6bd6d8953344U, 0xf4e507f1493a0907U, 0x27eb72737af4811bU,
  0xf610fa46291e08fcU, 0xee24dbd0eb9ff746U, 0x2230d4b389b4c10cU, 0xdde7e742da2c392dU,
  0xff0a7f2d2622e79dU, 0xd205a0a807364398U, 0xe15b201a4abfe9f4U, 0xbb031815d2230402U,
  0xcfc8d9c443c8f60cU, 0x5f218113e928c2fbU, 0xeedf50422fe704caU, 0x4802a7100fa4ea01U,
  0x152befdf3f16471cU, 0xe82508e7ffc4ce02U, 0xd8053df6ddc90342U, 0x30e4ea1f2bd0dfe1U,
  0xe4f65917105c21b7U, 0xc3211d00d8811533U, 0x3c25ef07bacb8d1eU, 0x441aa30ff604f038U,
  0xbde1094ac8dcb4c2U, 0x5fd6af6b231a4a3eU, 0x200ed60bd6c71c43U, 0x2871c43505717829U,
  0xf933c451d5ec0f9U, 0x4b536204b2fce02bU, 0xf637e10ef6a91a45U, 0xb0302e4a05317b05U,
  0xdaa165e1b8ad6ad9U, 0x28e8d81b4f2c4a1fU, 0x7f70d7da56befb0aU, 0xeb3fd3f6083813d4U,
  0xf108e704fdd12326U, 0xf00bff2be814ec23U, 0xf8cbea2b2e3f17f5U, 0x2ed4fb04099db9c2U,
  0xbf0fcbdc2a19074cU, 0x5360012e4041b38U, 0x963513fdfe2e03b1U, 0xb8cff8177f0bf1b3U,
  0x31d9e9f5e66102f2U, 0xefdf2dfde203e822U, 0x3a5d18fdd5d4ca0aU, 0xcef9241af23b59daU,
  0xee081ef534e7ec18U, 0x4812d4072b6ea3b4U, 0xed25887704ffd50bU, 0xa7fbf3e08090e71U,
  0x112d08250a10c5f0U, 0x9fb40ab7de01de4bU, 0x51e117ff248109beU, 0x16cb432cc736021aU,
  0x47e234c3c2adeedcU, 0x16cbf2eb116b3817U, 0x250bccf1ecb6eb26U, 0x9fa093d03201018U,
  0xc1cd2afea9090d13U, 0xd5cb1b00fba5e81bU, 0xd57fdef8e2c91b1bU, 0xd1d11bd7c1e6d83bU,
  0x1ebf0e189bdfafbU, 0xdc26c2e7e51ac908U, 0x1404de1c2db4b216U, 0xbffac0ebffff7d8U,
  0x2303f6deed34261cU, 0x4bdb8e1b3d35b92bU, 0xe7c5f945ed30bed6U, 0x1436fcead2ecd8d3U,
  0x8ce743a681ffca03U, 0x24ee4f24f186a526U, 0xb8d51af33612e0c8U, 0xa2bd25c90c0e1101U,
  0xbc681b010f227e08U, 0x3c2abc191b0aff87U, 0x8406fa2c40c232c6U, 0x43f0142accdf4c0U,
  0xfdfae2c91cc71863U, 0x93f131dce6f9e70eU, 0xc8ff6228a87f4aa8U, 0x7ea0f0eb43d504bbU,
  0xd83de5f9fef9d63dU, 0xed20e5341a25baf3U, 0xfeb4ff25170f7f30U, 0x282fabd10cf811bfU,
  0x132faaaa0907ace3U, 0xbe7f2b051dd1d114U, 0xdf014ae137303defU, 0x21f221122ecd1de1U,
  0x20d2262cff09d98cU, 0xfdb77fc00bb7f258U, 0x3228d868f3e3e809U, 0xe0e1de1946366951U,
  0xe504001de7f1d3U, 0xeda1ddbb1ad523e1U, 0x2cacc5002dab9d1U, 0x81ae6faf6db47e8U,
  0xb1fd1f071cefc915U, 0x649f5c344302cfd9U, 0x70258da222230f7U, 0x4031e6c2994fe5f5U,
  0x5af627fb2c7f1e5aU, 0x972fdfc6eeb3fa25U, 0xd1495cdaac3de2faU, 0x75140a06153aedd9U,
  0xe74dbeebf0cb3432U, 0x141fde11cf15daadU, 0xd2a2e57ffe140c15U, 0x170911eadb3df6ddU,
  0xe24022021f36ef20U, 0x928ee0ec2d3e125U, 0x2bea09d7e3fbfaeeU, 0x2ef4fb0226eabbb7U,
  0x119d201aa304cef4U, 0xdbf024b8d0e23c06U, 0x25c6f3b99981df09U, 0x128050e1f2f5d0fU,
  0xf6cff728e21009fdU, 0xe6ea030925d52cU, 0xd29e45fe2bce10dU, 0xebd10b0dfe401614U,
  0xc818e099fae6fe3bU, 0x3c11f3f6343cfaecU, 0x292ff75dfb1a1503U, 0xfc4130c58a94d7e4U,
  0xf741cae8346048a7U, 0xc201133d720ed1eU, 0xbce812bcf4272be2U, 0x57b57fdd53d00eb6U,
  0xff6e0bfa7fbecf13U, 0x232af3333112f6b4U, 0xd10df3c2a37fb00U, 0x516305e1e6acf5ddU,
  0xf6e2e7a37b21ed7bU, 0xc7fded340e3e9e51U, 0xefbb57e924f1e802U, 0xcfb932fddaefa8f4U,
  0xd0591c0b1c041c4aU, 0x2de7b62a3132eafaU, 0x340fd50f380aad07U, 0x37fff8b550fb5bf3U,
  0x1a5407b8c7475848U, 0xca681269b4f008d9U, 0x5b25104d67f423bU, 0xe592073162dcce9fU,
  0xbfeccae74fec5431U, 0xa914232b19f854d8U, 0xb7e7f908542cf0ceU, 0x404a8cd3c138f0bfU,
  0x97053867d0757daU, 0x12543fc2d7fb814eU, 0xdcb0fe82e921331aU, 0xb98cd4ce58d33d0dU,
  0x7f21e10a207eeebU, 0xf3081dbcdde64e13U, 0x14c7f00bee3f2fcU, 0xdfd0a1660663761U,
  0x2ecf26d911a7d5beU, 0xfa3e257f21826e2U, 0xbb7599f75119d202U, 0x91cd805b23ef90aU,
  0x3c104e1c0e4f70eU, 0x222e3ac3dc11e6d7U, 0x5b0e08d210e9dd0fU, 0xece8ec4313f01856U,
  0xebd94405abf3dfeeU, 0xf10aa5d112074417U, 0x32e9ab091835dbc8U, 0xfbe0bf52bdee317fU,
  0x31cf2a4efb41928dU, 0x5ca0eb281193819U, 0xea2719e5f096f256U, 0x8aa1de11c5052c69U,
  0x121e224e13e9b2dbU, 0x1efe2326ec3913f4U, 0x4d716ee3327adfbU, 0xf411a501217cf039U,
  0xda0a0440c930f8c0U, 0xfce9eadcdee10b4fU, 0x5eefad713d1f013U, 0xba2254f4613ccb43U,
  0xcb6151a0a160dc7U, 0x1de781e85e1e03f8U, 0xefdeed143a04e407U, 0x171ed5fe13270d51U,
  0xd4e5390de0eef7ecU, 0xe1fc341597ec271aU, 0xcdf42df8cb1ef8e5U, 0xedfe650c39bd7f51U,
  0xdecf45f2c416a0faU, 0x37e3129b194208beU, 0xdbd5d5ff0ffc0349U, 0x249170edf5138feU,
  0x262327c61cf6d8aeU, 0xfeed1bd301245034U, 0xc40b01c8d9d70c1fU, 0x1af1052c03f50ffdU,
  0x3eb4911ddcaee06U, 0x22388104e2f50cdeU, 0x2d13c84935e5d814U, 0x36081007fa315bf7U,
  0x3ceef1d918d952e4U, 0xe82ec72714fab7e1U, 0x2ff7f8ea1512181aU, 0x13fff6dd7ff02e05U,
  0x75e5deef000813f6U, 0x23e3d0ecc8fdbb0eU, 0xcf4fccdec13eeb1U, 0xd0f6eeb62b2908e2U,
  0x26c5111ef82c9dcaU, 0x97d6f119ada30bfcU, 0x15b52db90a1fcf1U, 0x210c780d17fb3477U,
  0xf606142edac1b6edU, 0x7ff7a7fd51a72ce9U, 0x390acb46030f11d8U, 0x9b36e8a01a830458U,
  0x54df7fcfa448b0bdU, 0x5fdff3ca8e324cfU, 0x643201d9fe2e3d2U, 0xe7b7fa224c70ccdeU,
  0xe802e9e9da0611d9U, 0xfc6b8b1123f3ae6U, 0x23cff2113fe3ed01U, 0xc82a1a3af72d3820U,
  0xac1581a837b812fbU, 0x73550f4bffc903f4U, 0x6d1d7291d4bf2d4U, 0x8cefa8ee906b602U,
  0x443b09a6f9da073cU, 0xc53e5d331310d42cU, 0x16146c1fc02f07fcU, 0x2ab35dda59fafaf7U,
  0xb9a7183a3be00e4cU, 0xee3ec1193b0f00f1U, 0xc8efef7f5e1fedebU, 0x25171200dff0e79aU,
  0x68fc161921360108U, 0xbc51132196eaf268U, 0xfef81d24e948de24U, 0x190655fe17d6f2fbU,
  0xc2e9d5cd63f90e1cU, 0x2401d1392bf2da08U, 0xddf5befc11073fcdU, 0xfaef26e12bee1ba1U,
  0xf470c9e90314f260U, 0xce020e2dc2b3f627U, 0xb1d3f881e8f83caeU, 0x3ed6390bfb1cd42eU,
  0xb953a348492a16b3U, 0x2e5ac322eef9c7b5U, 0xd06f01ef3f7584aU, 0x4de2faae00d4d7c0U,
  0x65030e031b605702U, 0x22026efee4d4ce48U, 0xccf2813ce1140700U, 0xd7a4174dd1f02ecaU,
  0xf40af4111ebf1039U, 0x7ffae01e2b1cb3d4U, 0xcca0e11ef101f63cU, 0xc36eaabcfd4cca5U,
  0x412ce3b72df9e943U, 0xe7001005b02738f6U, 0xaee8f0d8bf142b3eU, 0xe9e6ec9e25af2c1aU,
  0xe7344ecf29c7f643U, 0xfc0dfdeadec4a3f0U, 0x7c7eaed1fdc00cdU, 0xe7d8e10a03f1d7feU,
  0x1410030b7f36302bU, 0x7ff3830fde2bb15U, 0x200c8fd40562637U, 0xe31222ae00fa27e1U,
  0x2bf128c6ca30c8e4U, 0xbed738f6a4b0ec24U, 0xd2250116fbdbb4dU, 0xfd49fde71ae327d1U,
  0x2832445eb2daebb2U, 0xf9c4ced44e1e3fb3U, 0x232abf6114dce9d6U, 0x2d2d8e1ab7fd923U,
  0xe5e43d0fff15f5d9U, 0xf6d017f0e6d226d9U, 0xcdf0be2f6341a1cU, 0xced4e623ffeb26e2U,
  0x26fb7f20d10ff2deU, 0xeb87b03e3015d7ecU, 0xb30e01333cf1006U, 0x43e3e5463fbaee0fU,
  0xdc28c8e801ee04f0U, 0x2ede97f4c35d2eaU, 0xfddf07fee91108ceU, 0xc626d12c11b8e5f4U,
  0x14251ece1e23eff4U, 0xd1172305dbfa0358U, 0x2e7ec06cd2828f2U, 0x90b0ada16ffc3c2U,
  0xea29e5261aeee83eU, 0xf6e2fb30cf2bfe0aU, 0xfd01e804d6290fbfU, 0x1d6dbe8fb21e0U,
  0x7f03ee37e7cd30e5U, 0xe0e10214070bf9U, 0xf3fdfc07f32eabb1U, 0xf4fcf9f1fa061712U,
  0x63a22df47150919U, 0x2ef2babcf62b1dd4U, 0x2de3897e0b4b41b4U, 0x394f18a3fdb5dc30U,
  0x4b5e0bfa0829421eU, 0x8a2629cdb0f5c259U, 0xc7f21fae80b64f6U, 0xe51aaaf3280f0a1aU,
  0x2f1926cbf57af148U, 0xd6cc70e1e714dc01U, 0xe82d27ddbbf8c327U, 0xcc9c2a224b152f4fU,
  0x6d952a4d45e9d7d5U, 0x3804f9062efc530cU, 0xe9ef233c1d8106f5U, 0x10e5b908f1222541U,
  0x31bc5108342aff11U, 0xd5eeefccf5210e06U, 0xb9fef6d0e7e1dc49U, 0x22810edcf424173bU,
  0xf5e605b1f913f198U, 0xf7cacdde75241305U, 0x233aad43cd16edfdU, 0x222a05ebe426cc12U,
  0x7ff9e71bc8abcbccU, 0xc3aff12ef0df35ecU, 0xc43be40300a29027U, 0xc5de10ed27044331U,
  0xfacd4327e8110ff2U, 0x11f1eb0270182817U, 0xf35ff8cb21f10ce8U, 0x301be356b5f37919U,
  0x8cf3eae3eabc441bU, 0x63f8b9fd2343040aU, 0xf5b6c416114615cdU, 0x5a02ff00afdf14aaU,
  0x7461d0ee3f051c21U, 0x1f3e1c485b10ed37U, 0xf69251f6fb326cacU, 0xd50ed103b2fef781U,
  0x8b13bea554ecec55U, 0x2ec18f6310081fc5U, 0xf7b4a23f6e183021U, 0xfb15b101f10cee1dU,
  0xccdfc1e20e081c04U, 0x3f0c271c8116d50cU, 0xd0032f21e32b4ce2U, 0xd3f12cf8e9eef3e6U,
  0xcb0ca42729dd3a37U, 0x15eeee17c65adb21U, 0xb518e1291637ecc3U, 0x840a0e6dcd6bce4U,
  0x40f39a9d1e7fe753U, 0xef071e2bd1e5dad0U, 0x530004e4f80f68d5U, 0x16b336f721f8f3eaU,
  0x1cb4cedf7f0661f7U, 0xcbd62fe114f30ec4U, 0xed6541ebfc913f5U, 0xc3291de30e0cee0eU,
  0xef02f506b30b0ffeU, 0x5c01f21126163af6U, 0x9f0fd386714e6e3U, 0x980bde3ef82518f1U,
  0x13f1404c44e8e4e4U, 0x1a040ef3fce3d7e8U, 0xffe01d25e543c003U, 0xcc0b1d3c202af92dU,
  0xff21a925eec410c9U, 0xf60cff80a1fad0bU, 0xec29b2fecb00287fU, 0xfb9d0ae3e027faedU,
  0xf465f31a1afc0d7bU, 0x5724a25145c45e16U, 0xed885d30322b24dfU, 0xebf2c89681a42004U,
  0x9e1b6cc3b1a6133U, 0x9f4f1522c7d8fa0fU, 0x219ebed5e4eb3ea6U, 0xf70c1d204607e2edU,
  0xd2f1f9f606c1f3f8U, 0xe408c06a2a35bda1U, 0xe5cfb901386432d7U, 0x44332009bfffd317U,
  0xf723ffbd2f4a3713U, 0x94495b7ff1eb0ca2U, 0xd3d3fbfee0c0d9c8U, 0x1ae7e6ce360823fcU,
  0xa2ec4912c650f481U, 0x8ee432e1df332c0eU, 0x47f93315b4d6b24fU, 0xcba322050ef53104U,
  0xd3cf24f01ec614fcU, 0xf9e8b7e332dd22d6U, 0x3a4ff7e918e7dc22U, 0xdd05fcd39b2d2863U,
  0xfde644141bf800fbU, 0xf294b6999ac72b2bU, 0x487f44cebd100b5eU, 0xc80b07313d4620f4U,
  0xd7cc3d19eceed4e0U, 0xeffd01e64848353bU, 0x4705d012dbcbb9e5U, 0x1503e0f6fd214710U,
  0xef3ce0cbeb0e04d4U, 0x2ae9e3e03ad312e8U, 0xe607ee1c21f9ebbfU, 0xf0daff2fcf0a4dceU,
  0xccfb113e441c9edU, 0xf03a26f73d0c1e05U, 0x10397fea0ff8cc0fU, 0x1100ddff2611fa28U,
  0x6081d75bcd63b6f5U, 0xdebe07bae4b62cb2U, 0x7140dbffdae806e8U, 0xfeadf7100f130f13U,
  0xf98e5c2814b4c7feU, 0x30039cca59fb2cc2U, 0xe08ae1e35062548U, 0x44f0edd6dc7a12e8U,
  0xf7dbdee4f11db11cU, 0xcae807e024d70151U, 0xee1c1d1da8eadf7fU, 0x22e12a6efc36033eU,
  0x13e3205be4dc081fU, 0xd19ee2d74230ead8U, 0x420abeef0a290332U, 0xdd0cca261e4c340aU,
  0x1ec72ff3da68d5c9U, 0xd1b828bae785ff16U, 0x9d70aea9ae9d401U, 0xf404150d6bcf02fcU,
  0x1c9d4123ffc9f6ceU, 0x4e1f0cf00b490c8eU, 0x5a2efebae82381c8U, 0x2121dc46c1e40718U,
  0xdd0ef4dac7fe2d4U, 0xf0c400a510eacddfU, 0xd11158b1210dcd01U, 0xf2d315f23b124a68U,
  0xc842214718bedd02U, 0x17beb5f11272161dU, 0x6539dd1f4ac8ce15U, 0xe0224508e6227c02U,
  0x17c87f3ee82522f3U, 0xebf1044234f83c53U, 0x4f130b1bd2ad1d16U, 0x4e2f1161630186fU,
  0xf11f2852e00cc828U, 0x6ae309c5506b37daU, 0x423bcc1353e5a8e4U, 0x45b8ddefdb0f0733U,
  0xf2180fcde985251bU, 0xf139aff2650fa509U, 0xbe05eb5a164d7fceU, 0xa32dd9aed0ec11ccU,
  0xed1e19d057101d31U, 0x2c0f1b2eebc01004U, 0xcf04d28a235452bU, 0xc5b122572328f122U,
  0xe204040d0f02cc2cU, 0xe62ef4d721f611cdU, 0xd07ebf0fcf8cc0bU, 0xd819fe05d2f0f700U,
  0xfd30efd7e6fff60aU, 0x2adcf9dc12d909fbU, 0x6073f0c01efc5dcU, 0x320edc7f101e0fe0U,
  0x53fd821f5de5e4eU, 0x31eb0411140900cbU, 0xe9e9e84b200f5019U, 0x1914c65012b2db04U,
  0x2e4defb6ef1b4529U, 0x7361a3a14dbccfeU, 0xccd43fe1ba08fd00U, 0xe51b7fd1111bf22dU,
  0x3ad239e7e95e1d06U, 0x4e4222ab112441fU, 0x3f1601c11faeee0eU, 0xb2f859231e220a39U,
  0x1ce810393acc81c6U, 0xf7d0cffa4fcc04b3U, 0x2b36bff6d6e1af2eU, 0xb50e0048e00f69e0U,
  0x905f82109e1fe1dU, 0x37db1e1819ed01fcU, 0xed01f9fef4e313f2U, 0x2fe8280900dff4e2U,
  0x811af9ee2110feafU, 0xfde70112deefe00fU, 0x3f0723100b15fc0fU, 0x6be0d23b0023081aU,
  0x1b03ed04e9e8435eU, 0x8d13eff7a4ef7fb7U, 0x548195e0173db032U, 0x529ff8ac0d9319ebU,
  0x575d7fe19c252117U, 0xf6aa90a5eac4441dU, 0xc9b17c81306bdfbfU, 0xc3e49fca551fe234U,
  0xb7d2bc7f416ba420U, 0xcbd10f3bfe500d55U, 0x3892017d55814b08U, 0x9fa603709aba9781U,
  0x9dce5939efad9df8U, 0x6f07f984feb0a25U, 0x1011ac1f12f813cU, 0x56bc124fcdadd844U,
  0x21dbb56798afe413U, 0xdd1d4106fc6c81cbU, 0xcca47f99981d2d6eU, 0x6fae150257c24a3U,
  0xe0def14f8b8132ccU, 0x7af0b8d1bae55137U, 0xea937fa06a92f017U, 0x88e6c68189df6fdcU,
  0x41c7e4767f293d78U, 0x6f812c955108f556U, 0xb5f7de9f63524cdcU, 0xe13e814077e213e3U,
  0x1e3d10fc1b4471a8U, 0x3d46e513f88142dcU, 0xeb7f30f334fa0851U, 0xb01425e5fb6afe2dU,
  0xbba281eef8e9cfc3U, 0xb44e2c90dc380e3dU, 0x520adaa920eacd7fU, 0x7f0ff50509cdea6eU,
  0xa2549c43204d131U, 0xf8620ec03ab428a2U, 0x22d5561d1d666f81U, 0xc856d781aabd45c8U,
  0xcdd7c533c54af1deU, 0xe0812218bfccbdU, 0xb081cbda535fea71U, 0x123e354f66a6f918U,
  0xe657b937ce2d182fU, 0xfb22ab81597ffcf8U, 0x13a6c70294582800U, 0xc7d8473df70bd652U,
  0x20deffda7fc05cb8U, 0x5836e297af5c0a5fU, 0xcedcc9e1d2589181U, 0x9a39f736b7b1a7aaU,
  0xcc32add812d581dU, 0xa8aea345f088087fU, 0x9f5d9cf5e2d96ceU, 0x939f59a1e47fd3b4U,
  0xe97e7011811fc4b0U, 0x34308d2847c153d6U, 0x9fd6b4683e584081U, 0xd75834214e5892cdU,
  0x33050a6f6055b728U, 0x8a6eac1ddf6de77fU, 0xea7f1625f0bd66d1U, 0x81a54737a6b2e3c2U,
  0x77de47abcf31af57U, 0x4090b4698d9f6d7fU, 0x7f3060290a705327U, 0xb5665047b490d045U,
  0x3817a8112010f62U, 0x9fc5ee8ea19b76efU, 0x74da2e3c13c40581U, 0x6ae52bc725bb919eU,
  0xda81f44d6f6c7189U, 0x7f8751d0388d59ecU, 0xd8cf56fea2db7bbfU, 0x99031ff909314f21U,
  0x8f6ef6657f9a30feU, 0xa0333ab3ae96b9baU, 0xacf841e27f5677eaU, 0x8143dbd3eb0dbf35U,
  0x5b1a134c2641b32dU, 0x8166a89fdf34ee53U, 0xedf2b73eee5f05e2U, 0xb829607fbdc53ad1U,
  0x14fd285f05b2fad2U, 0x32c0c8141029f42U, 0xc4a6907f8f2ebcccU, 0x76fdf34868feef84U,
  0x568fa262afb47f2eU, 0xe1ecfdf80ff2c59fU, 0xbd3600928132ecb6U, 0x1dda13ec3453228fU,
  0x3c9e8bd18102be5bU, 0x6476432c3f6acdb2U, 0x651d7fbc7fb0dcU, 0x36509b1ea061e005U,
  0xabbb5fe941ae7117U, 0xe00a8a9fdc7fb555U, 0xe4060d7fe30e8cc1U, 0xab6905e1f1176052U,
  0x7fce05ce6c4d03feU, 0x29048c05afbbc3c9U, 0x8e4fb08fab2ba4eU, 0x44f2dba235200081U,
  0x447f8ea3d55944ccU, 0xd31a1a51ca518132U, 0x30cb4f0112db2100U, 0xb5e6d7869c714438U,
  0xa4dbf0d4827f2ba2U, 0xb793f77f1952d816U, 0xaff1bfe13f7cefb4U, 0x5015ef3ab8818735U,
  0xfffffa4affffffbfU, 0xfffff83dffffeea1U, 0xfffffd9000000178U, 0xfffffd6c0000015bU,
  0xfffffa3900000afdU, 0x64efffff742U, 0x50a00000412U, 0xfffff5fefffffd16U,
  0x1c50000020dU, 0xffffffb400000226U, 0x60dfffff76cU, 0xfffff68a00000364U,
  0xffffff07fffffc8cU, 0xfffffa3000000242U, 0xffffff2800000f37U, 0x111ffffff27U,
  0xffffff17000004f6U, 0x2cffffff80bU, 0x9ef000000fcU, 0xfffffb8f00000adaU,
  0xfffffef2fffffca2U, 0xfffffc22ffffff3cU, 0x820000002beU, 0x2d0fffff908U,
  0xda4fffffdc9U, 0xc6ffffffff1U, 0xffffff17000002b4U, 0x2ce00000064U,
  0xfffffbfcffffffe9U, 0x22afffff91cU, 0x37fffff326U, 0x1ab00000382U,
  0xe79a8fea07312c91U, 0x8323307ff9ace975U, 0x1920f311d372d74bU, 0xd2a9bddae313456eU,
  0x4f37b6893d444dc4U, 0x90f557789fafd7c6U, 0xdbad194011361125U, 0x68f806bc35ccd6fdU,
  0x3a0d5d00e326fdc0U, 0xcaceddf87f98cb1dU, 0xb6b63e1b033b6233U, 0xfbf0bc0317fc46e4U,
  0xdd4f1a46a72e3a0aU, 0x9f3f32172d304f1bU, 0x1c143fc94ec3511cU, 0xbd33063cb4b21120U,
  0x662391bef8443cbaU, 0x7fe6606f1ffe4f07U, 0xf410da34d592e3e3U, 0xf71aa9066c585deaU,
  0x4e46d66ee9f63972U, 0xf25ce48f1ff95ec2U, 0x8ecf32dfed622c16U, 0x403ddf4d61c22526U,
  0x3248107e6573a628U, 0xe87577ea1d0081b8U, 0xe837db45766e4338U, 0x4c3bbb416d25c58fU,
  0xafce70775b55d51U, 0x458118ee9b5246bU, 0xc5984583f45ce38aU, 0x198da3082d585bc6U,
  0x2a1d691b107f7124U, 0x12a94d2acf3fd3e6U, 0x65c0634501b41f99U, 0x25849a5747b0dd7cU,
  0xc2e0d0c0e73119c5U, 0x5bef312b565099f6U, 0x3b1184dba5335119U, 0x46c65d740f2630b6U,
  0xd5fa81ce3849363aU, 0x4806c537ae463148U, 0xfd30a795ae353545U, 0x37f15e55e89e08eaU,
  0xbbb29efac0e0fbbbU, 0x2f5f4498e3f28305U, 0x1f27b55243322204U, 0xa45d42e9c225b8adU,
  0x311f1d703c9a0534U, 0x1192e5044f2c0e7fU, 0xce71c80f9ac3b629U, 0x1f43b5ccfb1c5f65U,
  0x4153cdc8a52b18a1U, 0x38c71a0b8faab15fU, 0x343f4434d34d535aU, 0x5762dbaccf86c567U,
  0x4aea0f16f20dd073U, 0x1ea2a80f4019ddd9U, 0xe4c4ae81ede41761U, 0x50193b4cef20dd4bU,
  0x35be5824e87449e4U, 0x3293f9ae050b4b23U, 0x3faaf33da5d4c134U, 0x60e2154e70422ce0U,
  0x22c20ba139e4ab66U, 0x203f4dc9c83d4811U, 0xf32bb009f854dae3U, 0x1b043dc723caf6f2U,
  0x51e255f225564519U, 0x2a203b8c91d2abbU, 0x32ebf201090818f9U, 0x4d081f7fdecdca2aU,
  0x23c97914816432aU, 0x183d21a5db30458bU, 0x140407f200e627fdU, 0x435e16d3d8d11a17U,
  0xfea0f1d1525d5cbU, 0x397feeaa7011ecbdU, 0xd5bbbb5efa0af540U, 0xbae2b73f4ae72426U,
  0x1f48e41ef32f81c7U, 0x1704f719d42fd61eU, 0xa32e630810206c4bU, 0x39e250cbe8fe0c52U,
  0xfcc011e2f87a5e02U, 0xdb18c1d231c63c2eU, 0x171126beafe7e106U, 0xc4f6e920112d0de2U,
  0x15ab2ae3305ae710U, 0xf71c236de6551f7bU, 0x4b5c0a6ad7f0b304U, 0x2b13f4593aac619U,
  0xae0ed80c87c9dbccU, 0xdd07beba953a64d4U, 0xaa422ea16bf41e28U, 0x53d33eec5081ba91U,
  0xee49c9c9c0aebfcaU, 0x1dff8604ab21f3ebU, 0xa10e337fae63203eU, 0x172446c2c0dbfa0cU,
  0xdc1c4053e5bbaba8U, 0xbe2c51be30e4dc4eU, 0xe76d43f0dc00f511U, 0xd69217e8c89f3deeU,
  0xc820d75d0e135d75U, 0xb1d35a4d02ab61d5U, 0xd211aea1d487ec4dU, 0xacf1449fbfa25ab8U,
  0xf9fe60702b2d95c8U, 0xa355a028dae6f69fU, 0x5dda579781ef9955U, 0x5d53fd905b32114U,
  0x25b7fb0c35c24627U, 0x84ef1b203ae6e22eU, 0xfc11991afa1482caU, 0x1a132241b72500fcU,
  0x2b2521ee171df912U, 0x18e40c20d103e4e2U, 0x18f6d7de7f1e4df5U, 0x3be311d6eaf72115U,
  0x28c0ecc17cd22e3U, 0x95cbb95b6042a9e7U, 0xef5fe3b290c8eaa5U, 0x8a9f966d81fe9c54U,
  0x2175b8b599f80637U, 0x55140f2ddff95e58U, 0xb6c19cee4ee35822U, 0xeb0f5e97c217aa53U,
  0xac0f2331ee4bfb47U, 0xd63ec1dcf61dd131U, 0xfea44c3b0c991f22U, 0x124556dc70407441U,
  0x33eb1647327d4111U, 0x3df9fe516a3d814cU, 0x9597c7ccdde76746U, 0x8445384ea11411deU,
  0xed0ef4e8b6133b7U, 0x3fd4a87fde825c6eU, 0x2814590ff60631ebU, 0xa5905ecdb5b118faU,
  0x70e8c6e23221631bU, 0xfecbe074a8b3222fU, 0xc60b359eece51f95U, 0x2981dc769f62af8U,
  0xb348232d600dbd04U, 0x96cfb02193971eaaU, 0xec3de07f6bfd06d9U, 0x676353558ec8a330U,
  0x3f320941f633c6e0U, 0x225833c74e52babcU, 0x9a190f0637020204U, 0xe8e8ca249c16223eU,
  0xc24e472d5738d7bfU, 0xb4e8e74110be944fU, 0x3173a433d22d33b5U, 0x382fb265fe462214U,
  0xadd06c6a20c65766U, 0x7f411fc7a31a4f76U, 0xc9388e37656b9c3cU, 0xaab7ba37ae539ff1U,
  0xc5570152dfae0421U, 0xbdc7a57ffeb8ed33U, 0xf5dc2bea4616ca2dU, 0xddde2c770d51a21eU,
  0xe62f1bce2bc4e5dcU, 0x5ebfcec9f4f00f3cU, 0xa731ec61d4d9d666U, 0x71201650900efdb3U,
  0xd15622d0acc35c8U, 0x2cf947be372f1eefU, 0x578e9cb6bad066f3U, 0xcc4532fc1233a8e7U,
  0xf7092549a3348a7bU, 0xfa323b935a40b28cU, 0x5819528db2d0c5cfU, 0x5c6be4051ccb6e7fU,
  0xc9a59fba7a14da62U, 0x31932889bb33172aU, 0xf50e5695c3180322U, 0xf93135330f1dc09bU,
  0xd5afbf0202309849U, 0xa02c5874251e6214U, 0x58d4a843b870960eU, 0xcd7fe130d1f74230U,
  0x4e03d9f313c15496U, 0xce142f4fdcf2095U, 0x52bb485baeb564beU, 0x22526ade2cd342c1U,
  0x755a179561a5ca84U, 0x2b34f0fe0eae0ddcU, 0x24ac5e87c6294306U, 0x97ea14fd7f0638e5U,
  0x94ff46a9e8dd2a4dU, 0xb0fb33a1d763e6c9U, 0x17453320cbe2f014U, 0x46565c987f1e456aU,
  0xaa282b1bf7255c01U, 0xe216f71adb322dd1U, 0x49d6c8152f1c34ebU, 0xb29a4fe3b15e10e6U,
  0x304881c44b1a6eceU, 0x6d42410f66492829U, 0xbea446f3bf10c211U, 0x15bb17dc68e84b2dU,
  0xfd2eab2dab47c85cU, 0x302747354843ef3dU, 0xcb421602dccb59a6U, 0xd45bea0414ebe317U,
  0xf2f3d225233f38b4U, 0x311830fca9e21c4cU, 0xfaff37b8110b0345U, 0xff8fa81412635e9U,
  0xef60f530fe1f2dd7U, 0x30fde212221aceeeU, 0xe218da3e2d11c8f0U, 0xde22d20bf1fc1b12U,
  0x39181517f66c692bU, 0x340beabee912f0f8U, 0x73ed9301edeac21cU, 0x1001e1d308fafc1cU,
  0xfddada1ee8a11cedU, 0x945c3f2fae90a0dU, 0x17dc0fea9c1d0114U, 0xefff214d017f1eedU,
  0xf042d2e5b60e4cd4U, 0xb911d91681364e05U, 0xf08fd0e3ded3d82aU, 0x129dcfd5ecf35deU,
  0xfa0c29f0d5659517U, 0xcf3fdac7fb1803c9U, 0xdf206f04140602bbU, 0x2731f95bd1300c21U,
  0x4713b6470d002e1cU, 0x6a9b2a9b81f127f0U, 0x1291681513114ef2U, 0xaaf9c8a8d9edfea5U,
  0xf0a530ce07fc0422U, 0x293ffc3a62ed3025U, 0x8b4d9030b23a750U, 0xe1f5c26847d80649U,
  0x4fc9fd03e7c7d9b8U, 0xd9dcba6d9a096460U, 0xf55495d1dc3e631dU, 0x93b46806847f8ceeU,
  0x20eae94351bbcd5U, 0x4156e5eb5aee32bU, 0xce9bfe1ac2fc37d1U, 0xaa593a1bfdf6d5c7U,
  0x172e0065ffa1424bU, 0xbfe0afb2235fc1eaU, 0x98f54f3fd5d2b807U, 0x7aaba857e5472d09U,
  0x13509ae4345ecd52U, 0xb49c48af171e48e4U, 0x648efc869e5c13cU, 0xb99c81c3b41be402U,
  0x19c05f4cff599c0fU, 0x49f7c5ef272a222cU, 0x442acaa9a617de1dU, 0x1074bfcfff20fa6bU,
  0xcf2bb95aa3d349eU, 0xbaa5361c330e08f6U, 0x4ac8de8a7f4a2f08U, 0x99b53a1137413fdeU,
  0x2d173d3d0345d757U, 0xfd7ff92adc34bd27U, 0x5653b5f247e1d7d5U, 0x233ccf0022fb3ddbU,
  0x50bce94aead8bb56U, 0x5f64910182e522eU, 0xb54f0aab852542aU, 0x1ae93eaeda4bb6d6U,
  0xff47f71e5009e8c9U, 0x9bb30007d8cb36eaU, 0x9c3fad9c4512231U, 0xa8112c1a810dfeeeU,
  0x653cbaae4dda32cbU, 0x269212bcd3ca761U, 0x54ff299fed424ce6U, 0x5b633129bef8f5d7U,
  0x27e32dc6b1a40c49U, 0x4524f672602cec1eU, 0x1dfdbc37f207fa18U, 0xcf15b05c5e04db35U,
  0x1796c4f0e996e7e4U, 0x144afcf0a2f3f92dU, 0xd8d40e281f1626d7U, 0x7ffd07050e32281aU,
  0x5f0cb432be9fa04U, 0x583d5cbd3636aae3U, 0xeb032943bb1d9d8U, 0xde00d13a11ebc8b9U,
  0x46f10ce136e3f634U, 0xcec91a197ff4fc36U, 0xaa8c8fe2c00ece8U, 0xe21cda383932b4c3U,
  0x91823fd9ec73778U, 0xff03e47f4732ece4U, 0x3321ce54062e830eU, 0x1ac79512373bb524U,
  0xdd1d33cb1f12f80eU, 0x2b082bfd96d4fabfU, 0xd1fa17e21d6461eeU, 0x682507e4fb2cfe3cU,
  0xb4c907e43381c51dU, 0xfd2599384882ee43U, 0x45682640aab83f36U, 0xa663c1c53a7f0ee2U,
  0xb6ebdc214101c7e9U, 0xcf2a01a7bffc2a98U, 0xe941c6cd63436bf6U, 0xeacb11f0d32bfcc9U,
  0xf0f903f5da1d29eeU, 0x1d010db70b000208U, 0x7ff1b7dc0b08f495U, 0xfdfaee4708eafd13U,
  0xcb2d0d070d9d0bfcU, 0xed79f6f628fdf7e0U, 0xf8f40901f716f3efU, 0x100200100a310208U,
  0x3dbf615a07f132e2U, 0xa9671937b5fe08c5U, 0xe2213dea201f4baaU, 0x36810c719fddacddU,
  0xa0ddccab436bca30U, 0xb50691155ee1412U, 0x4effcae0f1df3d3eU, 0xd10d4120c61f31c0U,
  0x191622b799f61bffU, 0xfe9fbeb72fbef119U, 0x3e18edc832a39714U, 0x252381ed021ec598U,
  0x69b73de2f2b9cddeU, 0xa74d4c141f55a965U, 0xf4232920edcdf3aeU, 0x64f06430303fcb46U,
  0x33ad92ece9351755U, 0xc6ae4ae9e3323621U, 0x116b2ee80bbaf5deU, 0xb7d1712c5e157f14U,
  0xdddc0d6e9deaeffU, 0x317da946c8383bb4U, 0xeabfa87453911210U, 0xf6f058db7cd654a7U,
  0xe3c62e37eae1dfe3U, 0xdd412a2f933e2012U, 0x39bd0659588981b9U, 0x17f5d838db10e32cU,
  0xfbe193a0b21d5f57U, 0xf0eec620a21313bbU, 0x22d8d4d9e92eed73U, 0x20921b1638530627U,
  0x7f1aa9f9b53db0c0U, 0x732ad08be325e55U, 0x882b1e629bb90852U, 0x4f01503426c45e1eU,
  0x375ae8f2effd55d0U, 0x70713cbaa9b54a60U, 0x1ce5eca85c56c456U, 0x14960baf3e1b65f9U,
  0xf36a5d071662b229U, 0xc60fac5c688d0b6aU, 0x9d00686893ffc04cU, 0x9b42d1058cfd41afU,
  0xe5e8d4e20b316efaU, 0xad21580723fbe91bU, 0x9e3e9d92c10103f2U, 0x816fa6100fd7c7ceU,
  0x5740133aeeeda6bbU, 0xf1f6d12817d228b4U, 0x2525f71c45b936acU, 0xc2e25a2a3393115eU,
  0xa51841aaaee80a26U, 0xa89ac1a191650da3U, 0x330fdbef4513ccc8U, 0xccd6e9810f8cb121U,
  0x12f00ef3f1210e03U, 0x3e090012de3311a9U, 0x407e015fdca12ebU, 0x7f3ea1c47ecc9f3U,
  0xeef1f605fe1ff703U, 0x2040d0e12e70ceeU, 0xe616f20881e7f8f7U, 0xe9f6f507f524040cU,
  0x12ef0df740d9ff03U, 0x28fa1230901ef2ddU, 0xc8f734010cfdea49U, 0xfdfaff9618f12b16U,
  0xcc712f913450ef6U, 0xfa819beda10b0c20U, 0xf012fdfced1afd0eU, 0xe513f32c06f61d0aU,
  0xd3acb475409813bU, 0x4607385e0c1c084eU, 0x40160041bee36abbU, 0xf34219a3430f3112U,
  0xd6afb739bf9b19dfU, 0xa3262bdb1bf89f1aU, 0xf8b64305042f2b1aU, 0x41b39e462d49d235U,
  0x57270612fdde484aU, 0xc9d98c47c16510b4U, 0x88a2d2302bceedbcU, 0xd46f67fc0f67533fU,
  0xe03f71c7cc33f0b9U, 0xf981225853a959e7U, 0xaf3140945af33dc3U, 0x7035bffcd3eceb28U,
  0x330bfbd7a09d007eU, 0x14bad1074c76d2d3U, 0x9c19e02a081ff2daU, 0x481fcc517f04e865U,
  0x8c043263121600beU, 0x1cb54ef062bc1f2eU, 0x5252c02be6502de6U, 0xdbf8ff0f4435b5d2U,
  0xbb023e6e8272e7bU, 0xe9759c10c7fa5d7eU, 0xbc5ad2c7fb93aadeU, 0xd66ddbc25641b305U,
  0xe1c8313f492c664eU, 0x7d3cd1561b7f1a37U, 0xdfcea176997005a7U, 0x2dda60f346d56c03U,
  0xf9140a26d01dbebeU, 0x93fb10a55bce1255U, 0x90ff442031c1fd1U, 0xf20327e1810628fcU,
  0xf416eb16ecbcf0e5U, 0xf90b6011e7d225e6U, 0xf210200d6d0d0525U, 0x231ef0baf8a9c109U,
  0xb7d1c5a3525a7f12U, 0xeb685809b03e97cbU, 0x5137ed9e24ad8d21U, 0x33c9d7a9576823f7U,
  0xb93b5dff24b35250U, 0x2e21682ad018ebd1U, 0xe3022370bf17310dU, 0x436be8ddc5becffbU,
  0x3db228bd42af3dd4U, 0xa5abc3472e9da7c1U, 0x5b598e951fa24e65U, 0x67c443f968ccc497U,
  0x9c544e071a6ceff7U, 0x74c10323ec460192U, 0x15cdd67f9ec8b6cfU, 0x1672a869d35d5c09U,
  0xf03d94b26649f113U, 0x9a915cc771fcf7f3U, 0xe08eb85ff0dceec7U, 0x65a4d00663f43be3U,
  0xe31f83ebd220b9c0U, 0x1bf1a23a3feb7139U, 0x4ad30b21e8277020U, 0xd610510e816dca5bU,
  0xeeaba05e161bc17fU, 0xf7d74bd03c57f54eU, 0xf8c1a8c3bb30c8d9U, 0x17add95629194ac2U,
  0x26cddb07a8a3c498U, 0xfeb5bb5cc65734d0U, 0xe306aefaebffabadU, 0x4006d6c1cb374e1cU,
  0x4ef452bfe513bf28U, 0xa7f9be1acedddfc2U, 0xd2d7c93698c0f1e6U, 0xfb2ad129e3f2be07U,
  0xc01440c72e3321d0U, 0xdd7fda190afb339eU, 0xa610fbdd33080fc8U, 0x556041d5ff215ae9U,
  0x6ef434b06d6e481U, 0xd85dfc14fc42a8faU, 0xa34759622c650100U, 0xf108a3f3bc3a2109U,
  0xcbd1c21a1fb3fd2cU, 0x305010dee33dbdb6U, 0xdccc09bc18430fd9U, 0xe892cdfa4b211948U,
  0xee1f080fcbf2acf7U, 0xfc0600e12ff6e71fU, 0xebec2005def96a07U, 0x2ef32732dff20219U,
  0xe535f41c0ef8171aU, 0x2eb5c1001f011f1U, 0x1c1502f81b0af1f8U, 0x24f4f0c13081ccdeU,
  0x6610da4413e13379U, 0x582dd91700a19e0bU, 0x46f51e4736cf5faeU, 0x383821fab12d4806U,
  0x7f4eefd1d7b2f11eU, 0xe2f69db119f02eefU, 0x3985d096a6a12968U, 0x899367f19683901bU,
  0x19a82955ff6ff3d5U, 0xdefd0d405617dd4fU, 0xe138c402d7da040aU, 0x137446a47f20430aU,
  0x42d5474c06463e31U, 0xffbc39c26c021836U, 0x6a3b413bdff9d3b0U, 0x9ec0443ce75c57b6U,
  0xf9f90b1108da81d6U, 0x970d061115f1060bU, 0xb6007f05fb3851faU, 0xf50d070eb6fa2107U,
  0x8eefb04f90905f7U, 0xf4d30df2e208eaf8U, 0x7f10e04600d030eU, 0xfd1307d7eea0f4fbU,
  0x360000002cU, 0x10b300000655U, 0x278ffffff3eU, 0x44d00000ac8U,
  0xffffc042ffffff0cU, 0xfffffcf2ffffeb41U, 0xfffffca8fffff40aU, 0xffffff3a00001499U,
  0xa00000c04U, 0x1698fffffeb6U, 0xfffff2b100000b62U, 0xae7fffff8d8U,
  0xffffed53ffffff68U, 0xffffcdb4ffffffdbU, 0xfffff44bfffff567U, 0x16b0fffffaceU,
  0x15c4fffffef1U, 0xfffff080fffffc91U, 0x1d09fffff741U, 0xfffffab20000024dU,
  0xffffddd5000015e0U, 0x993fffff702U, 0x31500000536U, 0xffffde5100000017U,
  0xffffff09ffffe342U, 0xfffffab2ffffffcfU, 0x129dffffede9U, 0xfffffba5fffff97eU,
  0xfffff2020000061bU, 0x31d000007b2U, 0x617000033c6U, 0x2b0dfffff78dU,
  0xe5ef96a365ba2403U, 0xeef82962ff30ecc5U, 0xa8daf138fb46f5cfU, 0xffee597a9e3bef2U,
  0xda2ad2d0020b61f8U, 0x1ee7070a9fc62048U, 0xeaed81e09318496cU, 0x2bb550dd42a6a5eaU,
  0x13d0efe1e4e8fd05U, 0xd2ed24c5b6bbdde3U, 0x7494bdfb4cac731U, 0xd9d5fb4cf920f2f8U,
  0x81effe33e2b7f9beU, 0x3bbad6ed4106e4e6U, 0x313d160005badfcfU, 0xe9e4d8f0c412091dU,
  0x129a074da1670281U, 0xd0bbf3c695abef40U, 0x746636b1ee968556U, 0xb38f0e625a371773U,
  0xda22b0fb08ff49dU, 0x5add03af07225e01U, 0x171a94666f1ab300U, 0x4f47e0af90000448U,
  0xf8100dfbf802e8efU, 0xff09e8160705ffffU, 0xe60b10fcfa12f20bU, 0xe80f1e0968f6f815U,
  0x4be7f107ef0c110bU, 0x35e916f8e6061202U, 0xf40b99f60419127fU, 0x881bf2b618f8fe0dU,
  0x8fef50807f5f801U, 0xff70309070dfffdU, 0xf1f4f6fffdf7f90eU, 0x20ef7102d0c0301U,
  0x7ffdf40cfa01fbeeU, 0x29fa060bf1f2f3fcU, 0x1fbb8000cf7fbafU, 0xd1fe0dedf109f70fU,
  0xf31c37fdfd3ed4c7U, 0xc020d18e8dfe347U, 0x1242201bbf1dd62fU, 0xd9bfed18db29e612U,
  0x8100e14316c61701U, 0x201ee9bc47f70ee0U, 0xea373a2ffacfee2dU, 0xea16c00108df4040U,
  0xb334e60b4e11030dU, 0x6e5eb0f56518bd16U, 0x9c07e36910436c21U, 0x6270d2a2f3b29eadU,
  0xddf6f1df48662e38U, 0xf5f52c3bb6efa13fU, 0x2ede4b3df3e2c7fU, 0xdba411ad4adbdcadU,
  0xcdf4d0e6ffd0f10dU, 0x3730cceb2700ce07U, 0x10afd342ef50bf2U, 0xf43dcef30b10e6c9U,
  0x8133cbdd0d030a0eU, 0xfbe71dfc0dd9cdf3U, 0xc8effa11d5391622U, 0xb5150cee3cdbd004U,
  0x3708174e03ece2eeU, 0xb5064d1cf6b1100fU, 0x58fc5809e9ddc431U, 0xedd257e70a221009U,
  0x810f23f8cbb4a810U, 0x63aac30c551536dbU, 0x1953c1ed4004ece3U, 0x330fc4d9d11b32f3U,
  0xcc30f7c007ea0349U, 0xe00ffa41320d0906U, 0xd6d418e8e0ec2dcbU, 0xec13cdffeff3071eU,
  0xf7e7e8da60ec373aU, 0x62d05f01714f444U, 0xd3edce0ad01edf7fU, 0xe0d63eae111fdd1aU,
  0xeb02ea0e03ebffeeU, 0x1cecfd050f26f6eaU, 0xf4f300e7f42121f0U, 0x1a28e5109c1f0908U,
  0x550c13fa08f8ef25U, 0xdf061e15da01dfeeU, 0xf20c4bfb1fe3f481U, 0x46f7f247f5e414d9U,
  0x341fefe9d9f2d9beU, 0xcba1fcdfffa12654U, 0x171f48c8bcbd34eU, 0xe2964f404e4c3e54U,
  0xc0eb580f81b1bffeU, 0x7317b7b652e85f8cU, 0x262fa81d45b9f0cdU, 0xff58a004a42b2c71U,
  0x52af47d2f7fb34a7U, 0x90816de411d5240cU, 0x2e3e20edae24b1fcU, 0x14814d1f47cfeb42U,
  0xb4ade9fba1efd59cU, 0x6eea8dd12d2f149aU, 0xec18b42751dde00cU, 0x8a61c9fae3391850U,
  0xf72e089712a84d4eU, 0x2561f86266fcb7ffU, 0xd9f29270261d39c9U, 0xfd7e939fc1f18923U,
  0xbb0495c6c56ae971U, 0xd2e16f24be0dff0fU, 0x2a029101574087fU, 0xe3aa573810cfd7caU,
  0xf3f20642cf0613e6U, 0xb90eef06d4c9ed2eU, 0x210341ecca08ba27U, 0xf2e80721bfee0727U,
  0x81dc094804eecadcU, 0x2dfdbdfd31eaf2f4U, 0x91f2f20f1d8d2c1U, 0x1210021ae61c1147U,
  0xe2f901f13cd4f104U, 0x313fd3dfd201008U, 0xddfe7f436f5e2d4U, 0xc07f2ee2113e1d3U,
  0xf0fd040833130337U, 0x839e826eff5f010U, 0xdbc6c5f3ce1ff939U, 0xceed0b812112c414U,
  0xf0ce2901eeeed5eeU, 0xcaf61cf3ebf00a16U, 0xf63403d9d2bed519U, 0xe915063a3c390a11U,
  0xdbe6fd3007e5ced5U, 0xc5e5dcc816f7faceU, 0xeef7ca05f3fef572U, 0x7ff1e2dbcf002a14U,
  0x1929bffe58d1570dU, 0xfbf8af1b1202b8edU, 0x6d7cd501340e605U, 0x1e50c4e926b7d1d5U,
  0xd420ceb035f5542fU, 0xb3273c16b2d9c9f4U, 0xfb13c7aeb62d5160U, 0x1ce62d8102eebab3U,
  0xf0c315f80c28d610U, 0x1cf09dcf411171bU, 0xff3cfe02d201121fU, 0xe00a1cf02b0ce92dU,
  0x2dd234edd2e7daf4U, 0x28d2d5fb2b38310cU, 0xe9f2fbfc3602187fU, 0xf030e80df2fdf818U,
  0x39ff3434ee38d8f7U, 0xd9f11dcc0deb2c2aU, 0x18eef210e0d6e623U, 0xdcfe07fa15292d01U,
  0xee1f714dbde0306U, 0x33e304040736f313U, 0x2d021509efc5fd7fU, 0x814f6170b35221dU,
  0x3fe94802dd2ff2c1U, 0xedf832d6e0cee918U, 0x4c332f00edb8f3f3U, 0xc1d23a0f2c1b4244U,
  0x9301083107f20917U, 0x37efe1fff509efffU, 0x733e8481acfd07fU, 0xe049fc420cf1ef19U,
  0x4efd5045e636b118U, 0xe7034cc3c2f6193eU, 0xff2ceff1bbe10cfdU, 0xf7110b23ff08ec13U,
  0x27eb1c4019c2d014U, 0xebdbdb00221dd4d8U, 0x1d23134d1ae4fa51U, 0x7f33ca28c13f1ce6U,
  0x9ae7d4d33bdc0c42U, 0x47f994144f2beec7U, 0xb9b2a74f4eeb31c6U, 0x1b18f60630ded5d3U,
  0xa863e121ee2b30eaU, 0xda0c15e097c0ff64U, 0xb3c4c41e0353275cU, 0xbd9453813903b2aeU,
  0xf0132460be51ffacU, 0xe9fce8aa96f22d0aU, 0xf4302c03b6d39865U, 0x1add1248e96c40e0U,
  0xefa0345181bfdaeaU, 0x19acfc02fb670fecU, 0x57fb312c4ed4ec4fU, 0xbf1fea6ba0e96030U,
  0x4effe82222ed14feU, 0x2032602b9fe2843U, 0x40e906b0cee81611U, 0xd2080fe70ff64b4dU,
  0xe007e644f6ec25b3U, 0xfc7ddb1ee402506U, 0x190eaef31007d47fU, 0x741bb4c4d24c1cf9U,
  0xac0a18993ab44ae8U, 0x255fb1f10a58dbe7U, 0xd0acb66e692332e3U, 0x3162b2f3098d200bU,
  0xeb6793a46244fb3aU, 0xd4e52718eefd114cU, 0xe8f8cd909c0e3b7fU, 0xc0ad2ea769ad939dU,
  0x75bd8c461b55d3aU, 0x2ef420192d5bce96U, 0x9adfbd60f3113916U, 0x69ecf8139fc2a7e6U,
  0x9be8ed12f305ea28U, 0xff554d6b04dd1e3dU, 0xd7946cb5db61237fU, 0x1cde054c4eaaa518U,
  0x4ae6501c951ab8a9U, 0xdecb1c8df20e35fdU, 0xf96576dcbfbac301U, 0xdb1367e0c41fe950U,
  0xc0d91930f725b3d8U, 0xf481b282db43599dU, 0x53c54ee38b8a308U, 0x23f95de86624c58U,
  0x361239e71648d6c3U, 0xd5c7431000c62a20U, 0x32431eceb6f1c800U, 0xed08380f06170a03U,
  0xf3ccf4e0c712fed4U, 0x7ff81a023ae526ceU, 0xffe5a5ff12d6dff2U, 0xf504e60fc2291d1aU,
  0xf8e9021cededf81bU, 0x10ae40ff71ff2feU, 0xff719eb0e050fe5U, 0x19f11df3da000114U,
  0x9921f4e9c7fdfaf1U, 0xe3f3140508ebfffeU, 0x20f0bf712f2f368U, 0x7fe2072916eaebe2U,
  0xee32f0ef450b05fdU, 0x474ab5fa0a27ced7U, 0xf1bec741374500f4U, 0x4b49b6ceed19c1ceU,
  0xe0f2f2f414213520U, 0xe3122be7cc04de3dU, 0xf6fd30c1c4242d7fU, 0x2fd4ee0404c4e7deU,
  0x13bd28e1be09ffcfU, 0x5b6f710c3f02935U, 0x1f302fd8f2edd532U, 0xb7122905463105feU,
  0xd9d60633dbc5f700U, 0x3aba080df6f007cbU, 0x3c11932240e0f57fU, 0x7624fabbc93bea0eU,
  0xe23701b06cb61d42U, 0x483cc7310a47fee9U, 0xf3c2013f0972331dU, 0x2046b4e5f2dcc5d2U,
  0x773128c201f015aU, 0x51918e28dd005e4U, 0x95f994d2ff49ec36U, 0x8dff358145cadf9eU,
  0xe5dff410c13405b8U, 0xfbda27dbc2cb0233U, 0x18ef0dcae2fe1230U, 0x2e2f4eafd431b2dU,
  0x81d94ddccbc509ffU, 0x5ddeff1ddfe20afbU, 0x2635d4e218fcdc13U, 0x81ee1938e205094bU,
  0xfb3ac2f9fbb6210aU, 0x4533cc245337bac4U, 0x8d0ad52042c4815U, 0x28351cad14d4e9f3U,
  0xdb51f7cbe9f4ee0cU, 0xf7402a4a0aa9b81eU, 0xa6c005c5d5fe167fU, 0xe10715b32bff00b6U,
  0x4de4154ee0010300U, 0x10d20dead4fefdf1U, 0xed3f03bdfad6d512U, 0xebe2a39034c292eU,
  0x81f03745f9f8fbaeU, 0x60313c6121d09e6U, 0x3e47fb3d4007f360U, 0x39f9cdb4ce2e281fU,
  0xb040f2af01bd2b3fU, 0x1f2ddd623442eb93U, 0xfdc10a251c3452f3U, 0xe37e09b81e1b193U,
  0xb94fd2a12c4e6068U, 0x1528fd240900b935U, 0xf8e9efecb0fc3646U, 0xe5010ce948b0bed9U,
  0x17160aece81eed1bU, 0x10ffedf7ef01fdf2U, 0x1f8180a09f3e4f9U, 0xecfcf91ab919f1f9U,
  0xa604f700c211f114U, 0xb8f6fa17fb11fa06U, 0xcea43090e15fe3eU, 0x7fea135609fd0019U,
  0x36094443fbecf3e2U, 0xce0956a6afae0a14U, 0x3f4a5bdcaaefe50eU, 0xafb159ec3eed41f6U,
  0xc6d2444debb0d3e1U, 0x7f01bcbc3b18f128U, 0x343f890c31b1ed40U, 0xff27e83bcf5d4324U,
  0x48ee26160d4927edU, 0xb1d1281dfdcef739U, 0x215465a0a6c31cfbU, 0xbeb6352241405209U,
  0x179609409dd426b0U, 0x18b8d5b858f92eafU, 0x6719a94f2deb9c7fU, 0x28129b10134cee66U,
  0x14300ec809da3bfdU, 0xf314c1f23350cfc7U, 0xadefacfc4becf1c6U, 0x3931a50528b1bdf9U,
  0xe82db6cc484d0e00U, 0xd92cf6479dabec0eU, 0xc31d140fe316047fU, 0xb2a72cad2eb6bfb9U,
  0xef3dba9a1fa9eeecU, 0xcffa850f2eeabadU, 0xedabb40f3c2a53f8U, 0x4946ddcabbb108eaU,
  0xc42ebf950a1ff851U, 0xc467204f9dce1d19U, 0xcfa9d0aabb6e0221U, 0x2824698101edf6f7U,
  0x97de7e9048b7b0fU, 0x181c9259e6311511U, 0x81c39ef931473fb7U, 0x1d2caac0d3ccea92U,
  0xd332b61737f62e41U, 0x3d12ec631aefc554U, 0x18a698daafe742edU, 0xda9f49e6681d19f0U,
  0x924baf12e490473bU, 0x68f21070f94eeedcU, 0xccc89d415d024cc7U, 0xfb0fc70481b99b15U,
  0x8dfcea00de39571fU, 0xbe127013ad09ca5eU, 0xddace3c4e00f0865U, 0xf89ffbec1db3c5acU,
  0xd61dec010901f1e4U, 0x1d1be53336edc904U, 0xfed50aea12e70dcdU, 0xa241cf33dceccf9U,
  0xa6391215eb2217e8U, 0xf6281d1611c91a24U, 0xe300f20c10370d7fU, 0xefcbe5ab2ce613cbU,
  0x30f1213ed0f04edU, 0xaedf30101eff8fdU, 0xfffcf80c0b060002U, 0xedf614fbd4fef109U,
  0x8102fdfe01f3f4ffU, 0x2cfdecf912fff5f9U, 0xf8f61917f6fbe88aU, 0xe0f60533f0181715U,
  0xd20d1781d8ca7a69U, 0x702bb640f1e99103U, 0x20b5ff1f69fc10afU, 0x23e3fb95b9042490U,
  0xb478ffcbb57fe76fU, 0xc4fb6769a4ba9b38U, 0x90a00db8e50b2ad1U, 0xbbcf17dc00ff04f9U,
  0xd25ee60eebb5215eU, 0xfaeeb82b5909a0d5U, 0xb2c8ae1b19580317U, 0x1d5be8f8c0c9f4f9U,
  0xdf2d24b115459U, 0xb141333aeca0c025U, 0xceb101e0d005ec7fU, 0x60d39e9efeed9c2U,
  0x31de1b3efa3b9eb9U, 0xa7b6ed9b06de5b24U, 0x443d0fbddbe91251U, 0xefa5eaf73a074448U,
  0x81f95c62f7baceddU, 0x4fd7d7c40c44eab1U, 0x3563c15021a8de01U, 0x5426e218dfeb5e04U,
  0x3c113a30c373a98eU, 0xa8dc430a99f46a6aU, 0x155941fac7b714f0U, 0xfd00235d090aea51U,
  0x98ae0b63d2a3ab89U, 0x72859c95775fcd1fU, 0x4938237b668ec144U, 0xc3088f7fba78546cU,
  0xbf63a9b96591f370U, 0xecd1c1133721b8deU, 0x1dc1853e6407319fU, 0x6289dafeab5a9f9U,
  0xf31ff885f703d764U, 0xc97f3a5988c3c1fdU, 0x9ca608a801217126U, 0x231139e837db8eb1U,
  0x8c6e0514068d7619U, 0x15708d61eaf88ac4U, 0x15c5a571db6118ecU, 0x3b2da9daedc02bc7U,
  0xe52ba8adf77fd700U, 0xe75c1c4b0cb3c619U, 0xbf9d26b706d91326U, 0xdcbc4bbbdfdc91bdU,
  0xebf4f30aecf90cf0U, 0xf2f3130810f50b0cU, 0xf20a08130deceb13U, 0x8eb03ea22eef016U,
  0x6bee0118edff0dedU, 0x3af0ebeeecfef2f4U, 0xafdf800e9fb1381U, 0xcbff031001f9fbfdU,
  0x4ddc63fb1d58ade7U, 0xe024def6d3e52b22U, 0x2ff36d10f2c2f018U, 0x98cf1c35f233385bU,
  0xaef64a4db895fbbaU, 0x4dbfa8f848fa4dafU, 0x324481de3dbe92c0U, 0x46da1018c828e705U,
  0x19d31c17df31ebdeU, 0xf2102b01080a250fU, 0x1d262ad4dfebcf2eU, 0xd111edff360207f4U,
  0x9ff0fd1002e20edaU, 0x2600f5faf52ced04U, 0x9f281ff1bfaede0U, 0x828eedf1411230aU,
  0x35cd17320236ffecU, 0xf4d61defdc141f1fU, 0x251c2db7e1c40cf0U, 0x12de0530ff20ed00U,
  0xaeda3c2426c80dc4U, 0xf5e5fdc2262b301bU, 0x341a19463fc01235U, 0x7f2eedf2cdfc2cf8U,
  0x9be2c31bee5df14U, 0xbeee0add0dc40a41U, 0x24f0de902f4cb37U, 0xcc11fa090b2d37f0U,
  0x9bbbfb241ab81616U, 0xb01ae6ef03010ec0U, 0x29f0070215e8057fU, 0x34f8cdb50b1d2339U,
  0x54bf5348b245d0faU, 0xaef52ae317ca1331U, 0x5323f9c61aa8ac2dU, 0xd8e3ebee25021dedU,
  0x81b3f750c7ddc208U, 0x5404fbb6304ce1e0U, 0x5945cb5a3604d66aU, 0x437dd1ed5e9284dU,
  0x420d3cd3cfe1022U, 0x1434c1fa3d38d016U, 0xf09d118f0201cc2U, 0x40090a11f5bdc0d1U,
  0xb6faf0080105eb34U, 0xd121341bc8c4ed12U, 0xdaf3d4ce13f7077fU, 0xcbf3f8e43cd3ebcdU,
  0xf22419ec28c00b39U, 0xd10cb1007e5ad12U, 0xdad1a9314a4953e4U, 0xf6cc4b2e3bec91dU,
  0xdc0320af13da5913U, 0xae51fa1cdffcb466U, 0xdbf4e4adc350f77fU, 0x1dc5db880bf5b4fcU,
  0x1de34c41e8e28108U, 0x2734fdc90ab56055U, 0x40d41f92e381f541U, 0x29e046d45d66d14dU,
  0xd4985f52b19be8e7U, 0x4d98ff0e5f4b333cU, 0x2550923b3618c233U, 0x32de94cec8e2fe02U,
  0x121b3a2fe0f0d7b5U, 0xc2eb4ce014f43032U, 0x473543b2e5c5ba32U, 0xd7e0484f2e312833U,
  0xdf090818c2edf8f3U, 0x5bf8c8b8494300ceU, 0xfbe381df2cc908d8U, 0x5f16e5d8b7234242U,
  0x1f40ba9fe6eb0613U, 0x2df2eb7c3a07be0eU, 0x1fa011d745e143b6U, 0x2cdeb9b4aa06a385U,
  0x94259388da56d9f3U, 0x98245a19d2e5fdf4U, 0x89a61b8daa4ff07fU, 0xb6c37e02e2d8bd1eU,
  0xb05ca7ba21bd4552U, 0xfe4fecf9ef420cbbU, 0xc81d072e374744c8U, 0x4bce897b4cae1U,
  0x814db5b0c2f8dd2dU, 0xd2035d15b8f7e346U, 0xd6b63cb5093603f2U, 0xfacc4a3b46090adcU,
  0xcb7000008cfU, 0x9f000016e0U, 0x6b0fffff845U, 0x4440000154bU,
  0x18800000f66U, 0x151c00000127U, 0x106e000015ecU, 0x11400000b84U,
  0x100800000bf6U, 0xb79000002d9U, 0xfc500000cd4U, 0x142c0000165eU,
  0x119000000e7cU, 0x17de0000168bU, 0x1be100000da8U, 0xcac00000e93U,
  0x532000012a6U, 0xd4900000da4U, 0x318e00001189U, 0x118e0000100eU,
  0x157800000bf7U, 0x164500000c73U, 0xa8d0000004fU, 0x10d20000184fU,
  0x14a10000134bU, 0x191f0000181bU, 0x1391000002ceU, 0xcfe0000052dU,
  0xfed000007adU, 0x12b30000071eU, 0xcf50000157cU, 0x12fd0000178bU,
  0x5f51e16e3150df1U, 0xe02322f5f340fb1bU, 0x90521f51cf3120aU, 0xff2d29221e270407U,
  0x1afc7f031d0d0efdU, 0x1b29edf92e052802U, 0x17fb0c330002251dU, 0x1f2117effefd04eeU,
  0xf403062aca2e2f25U, 0xf7fb31eefe21faefU, 0x30002d110829f3f1U, 0x28354f0f2624001cU,
  0xf1197f2b1318e5f0U, 0x310316f21e19f400U, 0x33eefe312a192700U, 0x3102fb1204100120U,
  0x142e0f2ca5160f2cU, 0xfa25051e200e0104U, 0xfbf731110d17102aU, 0xf9104b12332f14f8U,
  0x8057f0d19fc10f4U, 0xb09e50b17f91109U, 0x25f92220012cfc2cU, 0x3317f7f732ff0504U,
  0xed26051681fb2702U, 0xe323ec0ff0e30816U, 0xfd1b2300fb012d1dU, 0x3106562b322df331U,
  0x31f7722f0422f2ffU, 0x14f2e30532ff25f9U, 0x29edfd38342d2d15U, 0x162922182a2c200fU,
  0x1e13282f91ef32feU, 0x113202afebd05f3U, 0x234123f92aea3d1cU, 0x221b31ef3d15fcf8U,
  0xf12e7fea0e3df2eeU, 0x2533f8020f0c3b19U, 0x3013290001ef1905U, 0x2c1c32122e252d04U,
  0x47272ff0814506faU, 0x234f2e0f1c9f2740U, 0x70f2aeefcfc3f49U, 0xfb212f26f20b3030U,
  0x423d71090dff0c3cU, 0x18181a322cfbfcf8U, 0xe1422050830ff23U, 0x41030cf03917fb15U,
  0x134f05f286164640U, 0x4d1d01e43682024aU, 0xe41e8ff290a54fdU, 0x20164b0952fb05e6U,
  0xfd027f494ffe0051U, 0x623525bfeea4e42U, 0x53275ea74c201b22U, 0x234425550a075bf4U,
  0x2b1626a7a1432d12U, 0xf50cff042e81fe11U, 0xea530a1aedf4201eU, 0x1d021bf9353b473eU,
  0xe3ed32f009171d34U, 0x104c52154746f545U, 0xfd1847c2f91b1f42U, 0xfe004d4536522348U,
  0x4a460798c91f27edU, 0x413ef9132f9c1ff6U, 0x2659201032e00b27U, 0xf23d451702184a1eU,
  0xf22b110e2543552eU, 0xf1fc59fb25530e24U, 0x4859f0812f0e2420U, 0x24e062f0f165434U,
  0x11032dabfc1931f4U, 0x1123321fba2252cU, 0x1b080e320bee1afdU, 0x180bf9222637211cU,
  0x2d2107fc1729002eU, 0xf52e263c1b06f322U, 0xc1b04812c31181dU, 0xfe2c13f51f14fdffU,
  0xf9fafc8113ea0af0U, 0xfe03051d40971b37U, 0xf429f3480640321aU, 0xb190bee39f32e04U,
  0x2326f943440c1519U, 0xfc28414007122732U, 0x3f12f384173d2023U, 0x2d3df32428064129U,
  0x4443398868e42f18U, 0xff331137fbb3fcfaU, 0x1813282e32171a1cU, 0x343c04111531fe1aU,
  0xef34ef0212fe2932U, 0x28000a0212f71b15U, 0x14f61881122b3512U, 0x1cf507072947372cU,
  0x142417986a392f27U, 0x8fe030b11aa1420U, 0x39170f144dfe111dU, 0xe38e6030b39070cU,
  0xf53dedf224450d12U, 0x2a06e7022e081a0fU, 0x3c13f5810b2e1a01U, 0x1829f41f0a26423dU,
  0x2621249f7ffe1014U, 0xf515270629cdfc20U, 0x2f1d1839252e1e35U, 0x1332e309f33a212dU,
  0x3d1b0c13212c350fU, 0x33e6bc1437ea0f2dU, 0xe926b429fdf3f8U, 0xeafb1e2c34f5200fU,
  0xf1f8fbd97f41e53aU, 0x39fe0c04edd427f4U, 0x3206180146190d09U, 0x4144e61636fd2241U,
  0x2610fe10022bef13U, 0x1a08b2050d0d2932U, 0xf321119b27153a31U, 0x2c1e2a34f83d2338U,
  0xed2f141d7f34101aU, 0x3e90510f1f02ef9U, 0x170219001f322f22U, 0x1c1f11ff28062617U,
  0x381107271729f222U, 0x2a1fc717fefdf5f6U, 0x26200cb9280915fcU, 0x13f732291a0e20fcU,
  0xee34132d7f03ec1aU, 0x70a0f2530d81e28U, 0xf2f72421fcf21234U, 0x22fdfc270a072d22U,
  0x2209112cf8051127U, 0xd0bd8fc12261911U, 0x24f80cfbfb32f410U, 0xa142f090cf61f22U,
  0x800e97a7f2c12f1U, 0x32fe09ed220a1b21U, 0x29190f2b39162803U, 0x432314051feb4603U,
  0x1409e90e0602f20eU, 0x4823b02d3d183dfcU, 0x1e4232e13a032e2fU, 0x2d0941f60a0e08U,
  0x171ee57f4a261904U, 0x38e93b410dfc2523U, 0x60f08ee231c1d2aU, 0xef8e1370029fa3cU,
  0xa30f1151bf20b40U, 0x10050002190025f7U, 0x201f0b0b202a0621U, 0x61242ff382d0705U,
  0xfc1a007f341b142eU, 0x914fcf52ffe0901U, 0x1831f121e91d2401U, 0x122301270d00032aU,
  0x2b1deafc20023304U, 0xfc111c04f8293535U, 0xe8380c260838080eU, 0xa1b382b39fd18f8U,
  0xf231067f13f61831U, 0xc0bfc2737d3fa0fU, 0xea1ff729e6182224U, 0x3327c6390c0d09f1U,
  0x202bd5110118f6fdU, 0x162b1bf21b3c3e0dU, 0x201c2f5afcf72bf1U, 0x2a1e373339f734e8U,
  0x925337fee2e0517U, 0x625313604ef203bU, 0x2101041122f2fcf4U, 0xc28d71afa08feefU,
  0x3340a33eef293c0cU, 0xf6352bf63f14262cU, 0xf9fff85702fd0b2fU, 0x1803061a0a0a2a16U,
  0xf91c0b7fdf1d2531U, 0xdf14b1124e9fe16U, 0x392133372c2921ddU, 0xf8bf3b33310fe4U,
  0x2603891e12001704U, 0x424b612d22fa2df8U, 0xe42b3d61251b270dU, 0x23191228f10b2fe7U,
  0x3515f17fbb132d0dU, 0x1f43ff2c3526e80aU, 0x3e49083d421507ebU, 0xeceecb044942140fU,
  0xf0038a370b082b08U, 0xfa2b3e32f3330706U, 0x72123790147352bU, 0x3709190d302812e6U,
  0x19100000142U, 0x17200000181U, 0x228000001a9U, 0x2040000026cU,
  0xc20000025eU, 0x1ab000001eaU, 0x173000001faU, 0x143000001eeU,
  0x1a50000017aU, 0x180000001afU, 0x21c0000015aU, 0x2e600000275U,
};


ai_handle g_forecast_temp_ml_model_weights_table[1 + 2] = {
  AI_HANDLE_PTR(AI_MAGIC_MARKER),
  AI_HANDLE_PTR(s_forecast_temp_ml_model_weights_array_u64),
  AI_HANDLE_PTR(AI_MAGIC_MARKER),
};

