/**
  ******************************************************************************
  * @file    forecast_temp_ml_model_data_params.c
  * @author  AST Embedded Analytics Research Platform
  * @date    2026-03-28T16:06:24-0400
  * @brief   AI Tool Automatic Code Generator for Embedded NN computing
  ******************************************************************************
  * Copyright (c) 2026 STMicroelectronics.
  * All rights reserved.
  *
  * This software is licensed under terms that can be found in the LICENSE file
  * in the root directory of this software component.
  * If no LICENSE file comes with this software, it is provided AS-IS.
  ******************************************************************************
  */

#include "forecast_temp_ml_model_data_params.h"


/**  Activations Section  ****************************************************/
ai_handle g_forecast_temp_ml_model_activations_table[1 + 2] = {
  AI_HANDLE_PTR(AI_MAGIC_MARKER),
  AI_HANDLE_PTR(NULL),
  AI_HANDLE_PTR(AI_MAGIC_MARKER),
};




/**  Weights Section  ********************************************************/
AI_ALIGNED(32)
const ai_u64 s_forecast_temp_ml_model_weights_array_u64[368] = {
  0x0U, 0x0U, 0x0U, 0x7f22abeedfd123afU,
  0x374b8c2912796bfU, 0x92cb210819e0cc64U, 0xdde906810101d7ffU, 0xfd3d31327c12bbdU,
  0x1f08020224f10eddU, 0xd9476747ccda1181U, 0x44e8c3aed2f7e957U, 0xf3d93f2516f2cbe4U,
  0xd5e3ed2f13f7ef3aU, 0x1508dfe5a0f4df0bU, 0x260a2c3115e07f2bU, 0x7f2e4bfec907a521U,
  0xfe14001103e00bf8U, 0xc507ecf1d3340bcaU, 0xd55232f390bc7f1aU, 0xac2334124099c81cU,
  0x666fcd03432f228U, 0x51ecec7fc9b256d0U, 0x22ea17611bd765b3U, 0x35863cf7101719f7U,
  0x1ae7073239fc467eU, 0xd481a113ef0af4c2U, 0xee4bf0036b06e0bbU, 0xfbef04ee0edaecf7U,
  0xf4f42e44c5ccb61dU, 0xfffd552c81b5d603U, 0x22f67f1ec6fceef6U, 0x360cc240f30f415U,
  0xc1d827b717860334U, 0x1f2cd20724faabf1U, 0x35000a1cbaca165bU, 0x181203ce7f04072aU,
  0xeacbe4313f6426d6U, 0x97f3e3fd818240c2U, 0xfa54e2e3cc061fc0U, 0x12c2321c9bb81bcU,
  0xe7de63d2442ecab5U, 0xe30d06ff0ecf0429U, 0x564c9f9065af804U, 0xf7b4be674c154a00U,
  0xa3445133aca21d7fU, 0xd37f2f05f8f604e3U, 0xdbd9d7982301deU, 0x67c6dbafa41cfa6aU,
  0xd6f4150b0ef3d317U, 0x2e4515dff41f2abbU, 0xf6387fd1114dd509U, 0xbc44b0f8355f036dU,
  0x9d901fcd69abbc7U, 0x9d8126bc21ff36e7U, 0xc022b9e4d9f3cd20U, 0x8118e33ff2293918U,
  0x22cf09081215c3b8U, 0x4e23f5ffceadceb0U, 0xfcfa179f574cdc4cU, 0xf0055e81dee61e98U,
  0xb4a1ded642ccc3fcU, 0xc9bac97f0efefdebU, 0xdf34cfd9c46c69f5U, 0xf85e35f67f1155f6U,
  0xcf33290bd9310ff4U, 0x3fa234e231775c5U, 0xdb17d515348cde2eU, 0x31e0f901d229e5U,
  0xe51cf011a881223fU, 0x3029213614e5aac0U, 0xf37e5027f079a10U, 0x3cf51deae034dafaU,
  0xe040f01f940ed3ceU, 0x7f2523443839cbe7U, 0xac2ecbd320e3ec9eU, 0x0U,
  0x0U, 0x0U, 0x0U, 0x0U,
  0x0U, 0x0U, 0x0U, 0x0U,
  0x0U, 0x0U, 0x0U, 0x0U,
  0x0U, 0x3a587381e33de436U, 0xcacc30ef8f60476U, 0xb05c3a516498501fU,
  0xf6b9d1727fc3ac10U, 0x811aadac9ee1b63cU, 0xee163f223c421233U, 0x18d5c3fb31c65d93U,
  0x7fcf2451e6096660U, 0xd621052f06b081ceU, 0x5d0e3afeaef916f8U, 0xb7f1ef3970c26ccU,
  0x1b42d23811b227caU, 0x74681ab2d03e588U, 0x88a9ddec620f39f5U, 0xcdfb47cae6eb15d0U,
  0xa84817d3ff98ac7fU, 0x42323eae6081ef24U, 0xdb55140b4ef57ed8U, 0xeacff7d24741de14U,
  0x2ed97f64d8cd12a6U, 0xd4d04118d52511ccU, 0x7fb964cc635902c8U, 0x3dd80adf9b810313U,
  0xd7a7df0201b9d8dfU, 0xffeff8ab1ef20a9fU, 0x331ed215e53f81b9U, 0x983117013ffe21c1U,
  0xe1af4ade81404caaU, 0x5f69b810fffd3404U, 0xf7217fe300f6b911U, 0xa20983f745121c3eU,
  0x7fefefabafc615d5U, 0x0U, 0x0U, 0x0U,
  0x0U, 0x0U, 0x0U, 0x0U,
  0x0U, 0x996084aae2107fdcU, 0xc7fa7fd00bf017a1U, 0x5d7481d8eae83ee9U,
  0x4336f226f804f1c3U, 0xdee5ff159a017fe7U, 0x491770b99b257facU, 0x9f6a726d79c42481U,
  0x1aec4de28183e3d0U, 0x179481d7e01c3ff5U, 0x3e5e45e57cae390fU, 0x57e592185881dc7fU,
  0x177f1b75aa56e623U, 0x81b61d070f7fb10dU, 0x18e543d40efcfa0eU, 0x9d96122a7f4e5db5U,
  0x647c26fd52d67f0aU, 0x7f9ed3e9cf8126f9U, 0xd606642f30be7a38U, 0xba1cd5c4b181d813U,
  0x14b27fd8cc65832fU, 0xf3387f6423dbf60bU, 0x7f25e0f519946dbdU, 0x81ee1381fee7db07U,
  0xde1323ab3c9c4d18U, 0x64d650df508103abU, 0xf7c140d1f081ba45U, 0x2919dafc7fdf2ffeU,
  0xffffffbc00000086U, 0x1f00000084U, 0x23U, 0xffffffab00000002U,
  0x63ffffffe3U, 0xffffffc900000030U, 0xffffffc100000098U, 0x0U,
  0xffffffcbU, 0xffffff8f00000060U, 0xffffffbd00000000U, 0x2f0000008fU,
  0xe1bbe52281067e1fU, 0xe825ba9f03680e2cU, 0x5e371de593f3552U, 0x70cd6e2440bc3f3U,
  0x12193c0105e4e200U, 0x81e8fb04acd71cffU, 0xe815ecd2f6d95de1U, 0xfc0bd223b4353b36U,
  0x7f01cb3e4c3843d4U, 0x329145a29162199eU, 0xc7298b573b813656U, 0x5a9f6fd891c5b1d2U,
  0xbac332637f43a778U, 0xd8eb6a325edfb78U, 0xe2d2069190cd52c3U, 0x11ec606281413119U,
  0xf4eae9f9464be3eeU, 0xcfbc4cc3d4ad47ffU, 0x44e3d844ccc381dfU, 0x1d13bac55b3e290fU,
  0x810944ffa5280934U, 0x7fdb751fa8238a51U, 0x7436f19ed9b3b768U, 0xe0226e194833d861U,
  0x339e9c181e8ebccU, 0x2738ebd643f0d40dU, 0xe414bde0255a10d7U, 0x9aead8b51f3f9574U,
  0xb6b0d258a3b3d281U, 0xfd7bc828ae3d77f0U, 0x3f02ffef17fdb056U, 0xf6031d0b330247e4U,
  0x8a0a24cd81e3301eU, 0x544dd4d21c4f740aU, 0x2851e5973d74db1cU, 0x4f81d6ae502df7faU,
  0xc80e13eb03e6d9caU, 0xf6f3d8fd4108f60dU, 0xb62fd43481001216U, 0x88ae2a1b1dcb21f5U,
  0xffc0b420a7812129U, 0x7161565ee3de43f6U, 0xc20b26ea4f8f53c3U, 0xff170a3b81cc283dU,
  0x790c3f15af1c854U, 0x2b0f9410d453b947U, 0xeba917201d9b034aU, 0x1e468139351006a8U,
  0x5f10000022cU, 0xfffffa91fffffdb7U, 0x80afffffb2cU, 0x11b4000003c0U,
  0xfffff513fffffde5U, 0xc50fffff9acU, 0xfffff3c7fffff9f1U, 0xfffff183fffffc79U,
  0x1f617fa331cbe1b3U, 0x90b6b435c06c9e64U, 0xa8b1bee293d0a5c8U, 0xcdf0c07e818b6105U,
  0xb6374edf06e5019cU, 0x795c6fc581526df1U, 0xe3281e24a37f38U, 0xee4bc656ea73846eU,
  0x71ebca220cfc8132U, 0x4bac017d3dd552d2U, 0x4d04c241b6db4d0dU, 0xa681262bb3f5302dU,
  0x3743c8e02fcce43fU, 0x5a3e6a3232348148U, 0x3f83a9c6e0dd7f98U, 0xb460d6ec1cc4e8c8U,
  0xf00ec416f3ff8142U, 0xeb43c39bfda4941aU, 0xeacb1693dc79a74aU, 0xd8e7ab810a9eba51U,
  0x3f71edd59bad85d9U, 0x30819731c3f2dc6eU, 0xd29d8f5a6577eaaaU, 0x35276f3866704f81U,
  0xb6eaa505b0928beU, 0x1efe4035c24a7f62U, 0xcf8136b853eb139aU, 0x1ddf1483a14ec2e6U,
  0xddb08144c7ea3bd9U, 0xcd40fba0fe6e70c6U, 0x681d5e06394eb9b6U, 0xe181f9c3d63bbc19U,
  0x87e66cf742bdedc3U, 0x250e0ad661027f50U, 0x214c0636b087275cU, 0xdf413a7f4110bb02U,
  0x4b9a3f9eee388143U, 0xcd21479d52cdb2e0U, 0xa48103c531669734U, 0xa6fad4b82951f1cU,
  0x78e3454bb269d4efU, 0xcd1b61ccf281861fU, 0x5f89a27f3305ffdaU, 0xf05431550051eb24U,
  0x6381f60bcfc057f0U, 0x7cc02a262391aabaU, 0x3c6e0dcf15ea5448U, 0xb7edf17f2e33cee6U,
  0xfffffcb400000effU, 0xf8800000000U, 0x7c5fffffa73U, 0x770000061cU,
  0x14b00000952U, 0x9ddU, 0xfffffbe1fffff98aU, 0x1dffffffe66U,
  0x1e8fffff9b1U, 0xfffffce700000614U, 0xfffff8640000055aU, 0x10dbfffff8c5U,
  0x52cdd5ebf601eb89U, 0xf4f4c3240a9e5531U, 0x8118fd364a61ff1fU, 0x7fe2d3cf990108adU,
  0xb7d9e51014dd3b52U, 0xd92719153937da17U, 0x4e0b81cfb82b04a5U, 0xab2d293b40b56e38U,
  0xc0480c37f350a613U, 0x29e3c03ba33f25f3U, 0xcb0416d815a41c46U, 0xae221d19147fff30U,
  0xfcefc5d9ecfbcea0U, 0xb32ad7e9db006a01U, 0x81162875464afac4U, 0x45b3c6abb00520d6U,
  0xdecf360d4d04277fU, 0xc444b71f6f50a953U, 0x50ae143281ceefdcU, 0xf543b8214a093d0cU,
  0xbe9e4a22457c0011U, 0x260c200681f1c411U, 0xd7dbe316f4f53f3aU, 0xe01da4604d2bba0fU,
  0xf32923e2b94cff21U, 0x2ac7b34faac2f23eU, 0xbbdc097f4d6eb934U, 0xd0372200c4ed173dU,
  0xd40859de411d0c7aU, 0x8c2da6200b7f903bU, 0x25ca462e8126b143U, 0xccab13f107e2fb6cU,
  0xb6b9f53cfa4cf1c7U, 0xd44132acfd3fac97U, 0x50c4b324205f4e05U, 0x81a2a97ef922f638U,
  0x19d0c3ed980ecd35U, 0x127f63f5c16c5639U, 0x8ba23bf71f5dcc85U, 0xc2ae524481605babU,
  0x3b2b11f6ecf73f47U, 0x5db5544221a1e29U, 0xba33032ab993691cU, 0x7f40633e37c00f6fU,
  0xa027af336847fe2bU, 0xdfec4032adb90ee6U, 0x364b4132ccfade4eU, 0xab9f9e7f67ff2b1U,
  0x9ff67f24edbf35e7U, 0x1a8a76b3e207068U, 0xbad1b852eec4d641U, 0x810cec06d4efc445U,
  0x3615d1c7cc2b26edU, 0xa22527762528fec8U, 0x89d01fd5d723b64aU, 0x4f64261d34107ff3U,
  0x99fd5909d2111ec6U, 0xc4355a25d7c02d31U, 0xee2d1c0f9879dc23U, 0xe5aa2f6cd0538166U,
  0x86366b4abc2b9bfeU, 0x7ffa24675e066a24U, 0xc69ff40d0efb20e4U, 0xbead7e1e9435e069U,
  0xc43efe97b52ee57fU, 0xb29e60c571bb9d3U, 0x8111594bec15c2e1U, 0x14cdb7b8eff4d632U,
  0x251c3524c459d02dU, 0x81a7f013fce2ad30U, 0x131beb22373e48d1U, 0xccec02face4a0851U,
  0xfffffcf1fffffad1U, 0xfffffdab0000011dU, 0xfffffd12fffffa96U, 0xfffff870fffffd10U,
  0x1c9ffffffe5U, 0xf9ffffff5fU, 0x24efffffd42U, 0xfffffab0fffffd69U,
  0x6d7fffffb36U, 0xfffffdaa0000000eU, 0x2b9fffffea1U, 0xfffff940fffffed2U,
};


ai_handle g_forecast_temp_ml_model_weights_table[1 + 2] = {
  AI_HANDLE_PTR(AI_MAGIC_MARKER),
  AI_HANDLE_PTR(s_forecast_temp_ml_model_weights_array_u64),
  AI_HANDLE_PTR(AI_MAGIC_MARKER),
};

