/**
  ******************************************************************************
  * @file    forecast_temp_ml_model_data_params.c
  * @author  AST Embedded Analytics Research Platform
  * @date    2025-11-09T10:25:16-0400
  * @brief   AI Tool Automatic Code Generator for Embedded NN computing
  ******************************************************************************
  * Copyright (c) 2025 STMicroelectronics.
  * All rights reserved.
  *
  * This software is licensed under terms that can be found in the LICENSE file
  * in the root directory of this software component.
  * If no LICENSE file comes with this software, it is provided AS-IS.
  ******************************************************************************
  */

#include "forecast_temp_ml_model_data_params.h"


/**  Activations Section  ****************************************************/
ai_handle g_forecast_temp_ml_model_activations_table[1 + 2] = {
  AI_HANDLE_PTR(AI_MAGIC_MARKER),
  AI_HANDLE_PTR(NULL),
  AI_HANDLE_PTR(AI_MAGIC_MARKER),
};




/**  Weights Section  ********************************************************/
AI_ALIGNED(32)
const ai_u64 s_forecast_temp_ml_model_weights_array_u64[421] = {
  0xc38eda727c7b7f41U, 0xb64f8288c0282518U, 0xc005410dd0f49eeU, 0x7721a589c4ae6591U,
  0xbba360f9a817b330U, 0x22f47a421d284305U, 0x819e2592f4e65beaU, 0xd99ee83a885add41U,
  0xd59ba927dc9dc75dU, 0xf6bf91bbedc03ab4U, 0xc5ce7f7218bcbcd3U, 0xf0f6d2996a0678ecU,
  0xaf31d850057692f6U, 0xd7ea1fc74f1d41fdU, 0x7fe13e52f2df4f41U, 0xb5ad1a2e0ef81122U,
  0xe9dee5f8d7ee3cdaU, 0x3102a8b6fc44202eU, 0x282bb4e7273bcd31U, 0x160eb3f2bc24a81dU,
  0x52ff21e3f74ada7fU, 0x7bd8f5560351aa2aU, 0x1a9ba5a2c76252c6U, 0xf24415b2aad5fd81U,
  0x8e4a8c6e012815ceU, 0xa5cfc4afb25dfb6aU, 0xdecaaee927f98623U, 0x1f52b6f316e03622U,
  0x13d17d22ee9297fU, 0xb81032e3fef1cb41U, 0xf5bb352ef45041bcU, 0x3ad115c521c828bdU,
  0x2e3429ef7fa4a6e0U, 0xc954363114101ae7U, 0xf93f012e2d26aba7U, 0xe1a8533249ba54a3U,
  0x9489590e105057baU, 0x1c672e68dfd59ebaU, 0x4ecb7f5ac0153178U, 0xf04e60baa4c8adb8U,
  0x46d52fb6dab52fa7U, 0x815725fb45c1c6eaU, 0x2b68f8e8eab14a1fU, 0x87730b029f59d2f3U,
  0xd2204d40528ad2f1U, 0x478b1acc21c1d3e7U, 0x33964721637cebfeU, 0x62c472a95be705d7U,
  0x35b5d778774dc27fU, 0xc01ea5cedbf98dc4U, 0xa9297f28f2fbe281U, 0x3b23bf2ff6ec7a66U,
  0xbccd4f5a25f5963dU, 0xe1a4be6513adf9e3U, 0x8fa93d13205b8e14U, 0x318579c3c27be381U,
  0xcb2e22948283f59cU, 0x6b8b5f7f606636f1U, 0xaa259e5e9fcfdf5U, 0x5e626760fcd055a7U,
  0x926c9edfc0e2f21aU, 0x15d10000865bU, 0x181b00001609U, 0xc2a00001429U,
  0x1390fffff0c2U, 0xd00000147eU, 0x1bca000011baU, 0x178800000b6fU,
  0xd7e5f3d400001526U, 0xbd1f35b5b1710a9cU, 0xe57f3276736d72f5U, 0x6d7f027938ba5661U,
  0xada898e92d4c30b0U, 0x3d3047c4115d6fb3U, 0x2729f7def5f0abeaU, 0x9559e181a93a0bfaU,
  0xc614d733d9cae21bU, 0x2633e7bae3dc38f6U, 0xec3318102754ccccU, 0xad59fff7ae472c17U,
  0x65415e07acba0d42U, 0x7fc219eee9403b25U, 0x2c08bf343d316423U, 0xb4bbededadcf3bcfU,
  0x1fffb656b244a95dU, 0x18dd1ee7c4c03305U, 0x7fdef8290454f72cU, 0xb52ae9dd5ad16850U,
  0x1ce1dedc07ac5bcbU, 0xa8ecacef509efbU, 0x33d1c20eef4b230fU, 0x25da7fee0a3c1a41U,
  0x60500c075bb46a19U, 0x574b1fe7532625f7U, 0x425152bbe1153d05U, 0xec201f3c2b12041cU,
  0x7f582964ca07bffdU, 0x73afbfb0d5c2ec5U, 0xf650dbe50bb26d4fU, 0x3704f8e6d80415b8U,
  0xb7d84fe4b953c21aU, 0xe8604b0b1405df14U, 0x5a2f7f3a00f602fbU, 0xf638072c6f1633eaU,
  0x22cdc222f1e7c030U, 0xdec71df6bc5febfaU, 0xedd7a0d73bd29bb3U, 0x5c616ddac9ea8912U,
  0x17eaec2c0981d3ccU, 0x35d9293de4f71562U, 0xd2adee28c6229ca8U, 0x4f3ad4cdd3b1b1feU,
  0x300e7fec605ae8cbU, 0xdc5e1fef0c5b5f5bU, 0x104238c400cf41f0U, 0x17a81fc3a7260702U,
  0xb6d2dfe5eabc24fcU, 0x8100a6efba4beb4aU, 0xc2f31e292e85fb33U, 0xb84be611c95ab2c4U,
  0xb837d402cc5a4bf4U, 0x2af1f2b8bb382212U, 0x531cc222d303c1bbU, 0xdfdf3368451d7fffU,
  0xe6141e3e0157d51bU, 0xfa12c6bfcdce01bfU, 0x3eb71113d0f4d9d2U, 0xe36952cc289f545fU,
  0xee29e35361696b48U, 0x1d68f4fbed7f14e2U, 0xad01a3fd509abe60U, 0x52daf7394eaeU,
  0x4b4d00000711U, 0x425900004b27U, 0x3dad000042eeU, 0x48db000046a1U,
  0x3dbffffffe7eU, 0x7f1e81ec00004992U, 0x722f816acb013a9bU, 0x9481817f75811b81U,
  0x355e316b7f81ac6eU, 0x8e647781817a4d27U, 0x0U, 0x0U,
  0x0U, 0x0U, 0x0U, 0x0U,
  0x7fe618b0be57a0fdU, 0x2b7dea17c0d1d1aaU, 0xd0420f8e7f4bdfa5U, 0xe681cb195e933184U,
  0xfa143c330ec50242U, 0x28c4fd815cd27ad6U, 0x13f10bc707d68165U, 0x9552904f806438dU,
  0x12dffa9f787ff8bcU, 0xf30ae47f4e8cd9f5U, 0x1def4812a8cf52bU, 0x59dd4f40c9b1863dU,
  0x5f747ff38801923fU, 0x48d4c87fb02010bcU, 0x18662e4e5ce94386U, 0x677e21010bfb06fcU,
  0x7fdaefb0ebe23581U, 0x2bfe4b3eb8f09240U, 0xe7f4eacabd71c75U, 0xdf1cae6e0ee8c200U,
  0xd44da061e97f6da1U, 0xa893811b28fb05d3U, 0xe90ffc394d922d3dU, 0x29e2e4da17077981U,
  0x68cf5b012e3a812eU, 0x69971e83dedf2fa5U, 0xf881bc38ad8db875U, 0x1461ea9cea7feb19U,
  0x3c810586b01a508bU, 0x6a9730030195af57U, 0x81e5c268100b62a7U, 0xdb5e8ece43a93b18U,
  0x81e6d19a22302dd8U, 0x5e4b3a11dd7f004bU, 0x53d306fb3cf73ac6U, 0x7dc8e51085f28159U,
  0x15fb81274bd9e0a8U, 0x4de628e24d9619f4U, 0x381383de1c5e464U, 0x172f6def94438feU,
  0xf32638c5e47f1d87U, 0x2e6f06bd147f7d83U, 0xf0b14f322477fe0cU, 0x3324bd6bfef45981U,
  0x4e69f019c92ae081U, 0xe1ecda7f30c952f4U, 0x14662a5f26ed3c2eU, 0xc4dc29cd37f3e24U,
  0x8ea9bc1d689e0895U, 0x78b34ccdfd8145fcU, 0x1581150413f19234U, 0xab8183484d900c09U,
  0x31a105b07dc2b7f5U, 0x4aaedc7fe1d7a279U, 0x14705e2681521d33U, 0x95cb053f22c96509U,
  0xd0c63cc77ff256d7U, 0x12ceff06018169e8U, 0x7fcd2f8d738f3101U, 0x1efeec1af0e99d34U,
  0xc4a7f15266f50d9cU, 0xb20540276681da3bU, 0x245c5381ebf92081U, 0x5fa7fc7e0e0c3e2U,
  0x7fb840c0acf01b86U, 0x5dfccc76afa89c76U, 0x251c6d9ac6371715U, 0x318138d142f8d581U,
  0x38dffa49f7cfda38U, 0xdab1d52846ddf5fdU, 0x2bdb45896281220aU, 0x2181ee719cbcd655U,
  0x38724e81824c4cf7U, 0xa8125a993415b37U, 0x79cd762cef9b81aU, 0xe4f5e66603ab53e0U,
  0x3100d7e12a81d608U, 0x64af1f13b7b3812bU, 0x19aceb7a29e827c0U, 0x308140c270c0d37fU,
  0x4a83f459a8dade11U, 0xb381f8f740e94b98U, 0xf8288f7f719c3d72U, 0xee48d19bd5473214U,
  0x4ed01090b9731a7fU, 0x76af25fc114c6301U, 0x2d5c558ea81c942U, 0x397f641c5e59976dU,
  0x814290cc4722722dU, 0xa07eeecc3d3dd4f0U, 0xe70f1bba1c150701U, 0x4990ffd92f635d81U,
  0x2af22c7f8df4c928U, 0xe2ca06e18141abcaU, 0x37b74d9709732baeU, 0x7f8d177dc6e99e2fU,
  0xac03a47f38aa4abaU, 0xe820f1f800d9e151U, 0x857c15f536ed3881U, 0x261be5815752296eU,
  0x28810ac7d4eb2fe5U, 0x7b8e097892f1ec40U, 0xdd7f17d1d13fad0fU, 0x3bbe51e8d8707e3dU,
  0x7585261bb48ab77fU, 0xd37f382821f93719U, 0x740ad3a8d2f5c695U, 0xf381d379c4ef896eU,
  0xa7d3e27f24c5e2eaU, 0x7f0542aa08adb52cU, 0x38d9235e909b8473U, 0x3107de0b1b17db0eU,
  0x6cede48bf9625481U, 0x7fedb928cca6970bU, 0xf14624168e28ec4dU, 0xb6d93e6fc7fa7f2cU,
  0x2fc31b81385527fbU, 0x7ff8a6aa362604U, 0x1cffa0227eb3cabU, 0x4c811d5ead09a656U,
  0x91108a036c81e2b0U, 0xa005b65b438f184dU, 0x1ff5fb817b57bfcaU, 0xe9daeb31af3ad628U,
  0x40e215fdca3b1781U, 0x7e8103fcf5bd8719U, 0x59e9080c8a071f1fU, 0x42b4ffaf281a7481U,
  0x6b9fbc5e1289815eU, 0x7cd30f81ac3e1fbeU, 0x1e81e39da411658bU, 0x2b91233ef4edfd27U,
  0xc2b0fb427f9c00a3U, 0x50bd51d255dc4316U, 0x2ea3d979d9c78175U, 0x63c311e1e9dda07fU,
  0x267e8971f5016013U, 0x814fc8051243d2edU, 0xb081917070b1f2ebU, 0x1b0bccae50c5b56aU,
  0x4bb3ff6be98e813eU, 0x81a8af4b29b7faedU, 0x81eb20323e88c06aU, 0xd3eff8ed605223e7U,
  0xfef0d981af501b1fU, 0x76d8d9c2f0310815U, 0x14b90b13f481ab35U, 0x2250c8b9ef7f2569U,
  0x8fe6967f4523d93aU, 0x3329cafc2e1c6f14U, 0xcce9ccaa8145aff2U, 0x65a106e58979f2beU,
  0x9f2ce7ff200c102U, 0xc8ed89167c81c1b1U, 0x47812dfc0ff7f544U, 0x45deff3eb6b48c19U,
  0xc0fb1182ede0ca2dU, 0x37acded2dae4c881U, 0x12bbd27fd6b3db0aU, 0x1eaf9838029175b6U,
  0xd9cd4a1fdb48d7fU, 0x4388477183dcab7fU, 0x9d8b8140fc8d450eU, 0x35a554ab26a9d622U,
  0x44810918ae9891f7U, 0x5f5e7f29114c5c1bU, 0x68afd8eb04a47efU, 0x2a81ed33eea8f10dU,
  0xe1025db80eecdffaU, 0x560a079c147f49b8U, 0xf7a646faa7cf8120U, 0x6d8e22fc412dd0bU,
  0x81e1c0f2e57fde88U, 0xe771541f492773caU, 0xebf8d5425bedf7a6U, 0x569855987faefc65U,
  0xb813607e8c18715U, 0xc9bae64a768159f8U, 0x78609c4f2fab2863U, 0x2857bee1e27f5217U,
  0x5a2041e3b9ec0b7fU, 0x100be6e3f7fcc28aU, 0x113c3fd3f97fd4c5U, 0x605ce0f7cd04812fU,
  0xcc0fab3ccd4be434U, 0xf9cd6f8a04e17f8eU, 0x4c6ae7a221e200f2U, 0xc05d9c7e811a5aa5U,
  0x3b297fb96260dfc0U, 0xd781e84d1fca1391U, 0x3930aa459dfe514U, 0x33b412610a97811aU,
  0xfffff0b4fffff089U, 0xfffff06f00004b23U, 0xffffeccaffffee3cU, 0x6eef00004a2eU,
  0xffffed9affffe82cU, 0x5235ffffe99cU, 0xffffeff0U, 0xfffff18a0000549cU,
  0x5d84fffff123U, 0x5c27ffffeecbU, 0xfffff0f300005ca1U, 0x69d300000000U,
  0x54f900004ba2U, 0xfffff026ffffef68U, 0xffffee1d00000000U, 0xfffff05a00006019U,
  0x5b0e00007453U, 0x492000005728U, 0xffffeccbffffeb86U, 0x49bf000050cdU,
  0xffffeedd00004fb9U, 0x5471ffffeaf6U, 0x5045fffff0b1U, 0x602000005b80U,
  0x5bb2ffffea87U, 0x4f1600004f85U, 0x5fa100004f70U, 0xffffef870000533bU,
  0x4defffffee0cU, 0xffffec4400000000U, 0x4c38fffff0bdU, 0x5bb6fffff004U,
  0xfffff0c6000062a4U, 0x551dfffff06dU, 0x4b8cfffff15cU, 0x6124ffffee79U,
  0x51b4000066ffU, 0x6023ffffefa0U, 0xffffef25ffffe98eU, 0x48d9ffffec50U,
  0xffffecc200005b3cU, 0x5ad4ffffef87U, 0x4563ffffee97U, 0x50acffffed90U,
  0x614800005613U, 0xffffec15ffffee44U, 0x82dd00005a29U, 0xffffe5c60000514eU,
  0x5c8bffffed5eU, 0xffffecf7ffffe3f8U, 0x4880ffffec9eU, 0x5d9500005e34U,
  0x5c2dfffff134U, 0x4a4100009f7cU, 0x4c0000005532U, 0x5ee0ffffed28U,
  0x59a3ffffec39U, 0xffffecf2ffffef81U, 0x5c08000057c6U, 0x48b8U,
  0xffffed13fffff144U, 0xffffed25fffff121U, 0xfffff0f2ffffeb1bU, 0x4f3600006d7aU,
  0x6b77f3e2fa70fb03U, 0xdc643a066806f0efU, 0x5b210a796ee24deaU, 0xf17fd5fce6fd766dU,
  0x7773daeb61705758U, 0x616266d65bf20e70U, 0x1645571716660dcU, 0x5ffe67d7e40b750fU,
  0x72e862dd5adeea5dU, 0x6ef6fae65beb576eU, 0x63f862015709035dU, 0xe95c6062ffec505eU,
  0x5c5a6ef70ce363e4U, 0x60fd6a6869586feeU, 0xf86f5768fcfc7cffU, 0x6b73f4ff0b0c10dcU,
  0x7263U,
};


ai_handle g_forecast_temp_ml_model_weights_table[1 + 2] = {
  AI_HANDLE_PTR(AI_MAGIC_MARKER),
  AI_HANDLE_PTR(s_forecast_temp_ml_model_weights_array_u64),
  AI_HANDLE_PTR(AI_MAGIC_MARKER),
};

